#version: 0.2
h e
Ġ t
Ġ a
Ġ .
i n
Ġ s
Ġ w
Ġ ,
o u
e d
Ġ '
Ġ h
Ġt he
Ġ m
r e
Ġ b
Ġ i
n d
Ġ o
in g
Ġ he
Ġt o
e r
Ġ f
Ġ c
a t
Ġ d
Ġ n
Ġ l
i s
` `
Ġ' '
a s
Ġt h
e n
Ġa nd
l l
a n
o n
Ġ p
o r
i t
a r
Ġ g
Ġ y
e s
Ġ in
Ġo f
Ġhe r
Ġh a
Ġy ou
o m
o w
Ġb e
Ġw as
Ġ e
i d
o t
l d
l e
a c
g h
v e
Ġh is
i m
s t
Ġo n
e t
' t
l y
Ġs t
Ġi t
a y
Ġth at
Ġm e
u t
Ġs he
Ġm y
Ġ u
v er
Ġ ?
Ġ k
i c
ou t
Ġw h
Ġ r
s e
Ġ re
Ġa s
a d
ou ld
gh t
it h
o o
a l
Ġw e
Ġw ith
Ġf or
k e
Ġd o
Ġh im
i r
Ġl i
en t
Ġha d
t he
u r
Ġa t
Ġs h
Ġa n
a m
Ġ j
a ll
i on
e e
s he
k ed
i ght
Ġf r
an t
p p
Ġn e
c h
he r
Ġb ut
ac k
Ġs a
r o
Ġs o
t er
Ġk n
a in
Ġn ot
Ġ out
t h
o re
c e
Ġu p
a nd
u st
i l
i ll
Ġd id
Ġwh at
Ġha ve
r ou
k ing
om e
i e
Ġg o
on e
Ġa b
Ġi s
e c
Ġc ould
t o
Ġw he
Ġsa id
Ġb ack
ar d
u n
Ġth is
r i
Ġl e
Ġn o
Ġfr om
Ġw ould
a b
a u
Ġl oo
Ġc h
t ed
in d
ow n
Ġli ke
Ġw ant
Ġs u
Ġa ll
s s
Ġa l
a g
Ġa g
es s
e l
Ġ v
Ġc l
Ġwe re
Ġha nd
he d
a ke
Ġin to
Ġab out
Ġkn ow
oo d
Ġw or
ac e
Ġi f
Ġt r
Ġj ust
h ing
all y
Ġon e
id e
as t
Ġe x
i f
Ġo ver
Ġe y
u s
c k
q u
Ġc on
e ll
Ġyou r
Ġwhe n
Ġl o
w ay
Ġs p
Ġbe en
ar t
Ġan y
v en
Ġg et
ver y
Ġthe y
ou r
u l
Ġr o
at e
Ġag ain
Ġd own
on g
l f
er s
Ġs ee
Ġb l
Ġt im
Ġb r
Ġg r
u m
Ġey es
Ġs m
Ġto o
a re
a p
o p
Ġthe m
Ġs e
Ġof f
Ġu n
w e
Ġd e
es t
Ġthe re
Ġo r
Ġp l
rou nd
ic e
Ġm o
is t
ou s
am e
Ġc o
in k
Ġa re
Ġhe ad
Ġthe n
Ġb o
Ġtim e
s ed
ur n
e w
Ġ ``
Ġa r
t ing
i g
u ll
Ġwh o
Ġth ou
ot her
pp ed
in e
at ion
r y
i ve
Ġm ore
se lf
Ġc om
. .
Ġs ome
Ġs l
Ġ. ..
Ġf l
b ut
f ore
Ġm an
v ed
Ġh ow
Ġgo ing
ic k
Ġw ay
Ġa c
i le
Ġa round
e ar
l ed
g e
Ġth an
Ġ qu
v ing
a k
nd er
Ġn ow
Ġp o
r a
Ġbe fore
Ġne ed
Ġe ven
Ġc an
ou nd
Ġb y
Ġs c
the r
Ġs ay
re at
p s
f e
i re
u re
Ġp re
ad e
Ġe very
ee l
Ġ en
Ġbe c
e m
au se
Ġ !
Ġr ight
om et
Ġt w
er ed
th ing
d d
Ġth ink
Ġhe re
or t
a ve
Ġsh ould
Ġf eel
rou gh
Ġl et
Ġg l
Ġloo k
f t
Ġthou ght
Ġth rough
Ġt urn
Ġloo ked
Ġth ing
Ġf ace
Ġa way
Ġne ver
Ġa f
Ġu s
Ġo ther
Ġon ly
p t
ac t
Ġp ro
omet hing
d y
o se
ee p
Ġc he
Ġbe t
Ġp r
y ou
t le
en ed
ec t
Ġm u
w h
Ġg ood
Ġdo or
Ġex p
Ġw ill
a king
h is
Ġkn ew
Ġwant ed
Ġar m
it e
Ġm ade
t e
Ġst ill
Ġg ot
n t
Ġl ong
Ġthe ir
Ġs omething
i z
Ġbec ause
Ġg u
as s
b e
o l
w ard
c hed
is s
ab le
u e
an g
Ġas ked
ac h
at ed
Ġmu ch
f f
Ġt ell
Ġst ar
Ġm ake
Ġhand s
Ġw a
Ġw at
Ġi m
ou gh
i p
Ġro om
i ous
Ġp ull
Ġl it
el t
b le
ad y
it y
w he
Ġt ake
Ġo p
an ce
Ġha pp
re ss
w n
ag e
o s
at her
m y
n ing
i es
Ġf elt
Ġm om
Ġf ir
Ġc ar
k s
Ġaf ter
ri ed
Ġc all
Ġagain st
o ice
Ġn ight
c t
as e
a h
Ġlit tle
Ġu nder
Ġa m
m ed
Ġwh y
re e
Ġw o
Ġwhe re
y ing
m ent
Ġd ay
Ġc ome
s ide
s h
Ġre m
a ir
d e
ar k
r u
Ġf o
Ġw al
Ġd is
Ġt al
Ġbo dy
Ġt e
Ġtoo k
Ġlo ve
Ġst e
t y
Ġsu re
Ġh o
Ġc a
Ġtw o
at h
s o
o nd
Ġh ard
Ġb ed
n e
Ġw om
Ġre ally
Ġwe ll
g g
i ly
Ġv oice
Ġcon t
Ġs k
ot h
Ġ our
a z
Ġfir st
Ġturn ed
n o
u ck
ic h
g et
Ġb reat
Ġhe l
r ow
Ġto ld
Ġd es
p le
Ġli fe
th at
Ġs w
Ġe m
Ġp e
l ing
out h
Ġe l
Ġwor d
Ġl au
i ed
n ed
Ġre al
a v
Ġd r
Ġp ut
Ġany thing
b er
an c
Ġf ing
Ġha ir
i a
Ġl ast
oo k
Ġm outh
p l
* *
Ġs ec
Ġm ar
t il
Ġp art
the y
ear s
Ġs ur
p er
Ġbe ing
s p
Ġwa it
ou se
in ce
Ġc ame
Ġe ver
is e
Ġen ough
Ġbe l
Ġf in
Ġmom ent
Ġhel p
ie nd
Ġst r
Ġw r
Ġp h
i ld
f ul
Ġwh ile
en ce
Ġw ent
Ġw ar
Ġan other
x t
Ġbe h
Ġa pp
Ġa d
Ġo wn
Ġs ide
a il
en s
Ġc ou
Ġun til
on t
v es
Ġle ft
i gh
ch ing
ro ss
ay be
Ġarm s
Ġj o
way s
Ġli ps
Ġf ind
Ġc r
u c
Ġp er
Ġm ind
an s
Ġc are
Ġh as
Ġe ar
Ġk eep
Ġhe art
Ġdo es
f or
Ġ very
Ġwom an
Ġf ew
l es
whe n
Ġthing s
Ġm at
m o
Ġg ir
Ġnot hing
is h
Ġbeh ind
he s
Ġm ight
Ġh ouse
the re
Ġs ound
Ġsm ile
Ġc ur
Ġin side
u b
Ġf e
Ġne w
Ġs n
an e
n er
Ġy es
Ġpull ed
Ġat t
Ġal ways
ow ed
Ġd ec
op le
wh at
Ġh ome
ar ed
g an
Ġas s
we en
ion s
Ġc le
Ġre l
Ġop en
re n
Ġto ward
Ġto n
Ġk iss
Ġs et
am p
Ġe nd
Ġmy self
Ġt ou
Ġbet ween
Ġd ark
ow er
Ġsm il
n ot
i an
Ġsa w
the n
Ġg ive
k ay
o sed
Ġho ld
at ing
Ġgir l
e p
Ġbreat h
n ess
Ġb oth
Ġpe ople
Ġthou gh
Ġp le
Ġevery thing
oo l
dd ed
Ġne xt
in t
b ed
Ġfr ont
Ġfr iend
u d
Ġth ose
Ġ ent
Ġsh o
Ġm other
Ġk e
Ġtr ying
s w
u p
Ġs we
Ġd eep
Ġs it
Ġh ur
re am
Ġg ave
Ġwor k
Ġpl ace
Ġbet ter
Ġf am
pp ing
Ġb it
Ġre st
re ady
Ġg i
re w
Ġac t
Ġ -
get her
Ġs at
Ġloo king
i er
Ġd one
Ġwh ich
Ġli ght
u ally
Ġan sw
mo st
Ġal ready
Ġf ather
Ġhim self
Ġs ame
Ġdo ing
Ġword s
Ġwith out
Ġr un
p r
Ġm in
Ġher self
Ġs ince
Ġto gether
Ġh op
au ght
th is
Ġb u
as on
Ġst and
y s
Ġsome one
Ġo kay
Ġstar ted
Ġfing ers
re t
Ġs il
Ġst op
Ġme an
Ġs le
c ked
l ess
Ġche st
or d
u she
Ġwh is
Ġf ound
Ġel se
Ġ ;
Ġk ind
g s
Ġb re
h ow
ab ly
Ġhe ll
or y
Ġst ay
Ġmo st
c l
Ġneed ed
Ġso ft
Ġh u
a w
Ġhe ard
Ġfeel ing
Ġre ac
a x
Ġsec ond
ir t
is ed
Ġon ce
t en
Ġan g
an k
Ġcl ose
Ġbel ie
Ġst o
Ġim p
Ġd ri
Ġhe ar
Ġk ill
is sed
Ġp ain
re nt
Ġd ro
Ġt ried
Ġin st
Ġac ross
er t
c o
Ġc our
Ġwal ked
Ġg az
an ed
r ed
ur ed
iz ed
Ġhe ld
i b
an ge
ushe d
Ġe ach
Ġsp e
Ġfl o
l o
Ġ z
Ġs er
Ġf ar
Ġy ears
um p
ic ked
ic t
un g
Ġwo nder
at er
e ver
ar y
i x
as h
i v
Ġtal k
in king
Ġre t
Ġt ight
e k
e ah
Ġm or
Ġal most
Ġo h
Ġmin ut
Ġl ot
Ġo ld
Ġph one
d ay
a le
Ġqu ick
Ġno dded
on s
um b
Ġbl ood
Ġsee med
a ut
Ġsmil ed
Ġsh ook
Ġs or
i ble
Ġb ad
c ed
ter ed
Ġst art
Ġb ig
Ġmo ved
Ġpl ay
g n
Ġd am
Ġle ave
Ġrem em
Ġpre ss
Ġunder st
Ġse x
i pped
ak es
Ġmo ve
Ġbl ack
Ġsm all
ent ion
Ġfam ily
Ġst ood
Ġget ting
Ġt able
Ġsk in
ro om
i ke
Ġp ast
it her
i al
ull y
et h
Ġm aking
Ġm aybe
Ġde m
Ġi de
Ġhur t
Ġb ar
b y
Ġsl ow
us h
Ġse en
Ġh ot
Ġcl os
Ġg one
Ġne ck
Ġgaz e
ent ly
w ith
Ġqu est
er ing
Ġfe et
b ably
Ġe as
Ġm ine
Ġd if
ar ing
Ġs ig
ate ly
Ġflo or
Ġgr ab
gg ed
Ġy eah
d o
i et
ers on
Ġb ab
Ġh um
ow s
is hed
Ġcom p
Ġw ind
Ġm on
Ġbe aut
Ġc or
n ow
ec ted
Ġo b
Ġgo d
ac ed
Ġ ed
Ġsor ry
Ġw all
Ġa p
Ġs im
Ġbr other
Ġsu pp
Ġh our
Ġwor ld
Ġm et
a f
Ġin t
Ġb us
en se
Ġreac hed
f ect
Ġide a
Ġgr in
c he
Ġb est
Ġs qu
Ġsay s
ain ed
Ġf all
Ġa ir
Ġfo ll
Ġle ast
Ġany one
Ġas k
Ġsur pr
Ġpro bably
Ġme et
p e
Ġre sp
in ed
ver s
Ġbelie ve
Ġy et
Ġth ree
Ġhapp ened
Ġcom ing
Ġcall ed
Ġf act
Ġne ar
in ess
ious ly
t on
Ġn ame
i ps
Ġt aking
Ġcon s
Ġm en
Ġlau gh
ow ing
Ġe v
Ġcon f
Ġpo ss
Ġre ason
Ġop ened
Ġd ress
Ġwhis p
Ġshould er
Ġth ro
Ġm ust
Ġin v
a pp
Ġsle ep
or m
Ġcour se
Ġsto pped
Ġfin ally
Ġa w
Ġb ro
Ġke pt
Ġre s
Ġli f
Ġso on
g ed
Ġf ore
whe re
Ġac c
Ġl ater
g hed
us ed
en ing
Ġp erson
Ġt y
Ġr a
j ust
Ġmor ning
are nt
n a
Ġwr ong
e ad
Ġb en
Ġcl osed
Ġal so
Ġu sed
Ġh it
u ff
ver ed
is ter
u al
Ġha ving
Ġey e
Ġle gs
Ġro ll
Ġexp l
dd en
Ġd ad
Ġgu y
Ġha lf
Ġlau ghed
Ġd ist
Ġth inking
Ġco l
Ġch ild
id ed
Ġtou ch
Ġre ady
Ġcom ple
s it
Ġmat ter
g ue
Ġch ar
Ġunderst and
ce pt
Ġal one
Ġman y
b r
ie f
m s
Ġc ut
Ġal ong
Ġto p
Ġr an
Ġret urn
m it
id d
Ġv amp
Ġgl anc
Ġfor ward
Ġd el
Ġsl id
if ul
f ully
ak en
Ġwat ched
p h
Ġwat er
Ġf ine
Ġr ed
af ter
Ġg reat
Ġdif fe
iz e
Ġwhisp ered
Ġab le
or s
re st
Ġp ar
Ġpre t
Ġpl an
Ġpr om
Ġstar ed
Ġsu ch
ra w
b o
Ġtal king
Ġex act
one y
n y
d er
Ġpo int
Ġit s
Ġvamp ire
Ġh igh
g in
ct ion
Ġtr y
Ġon to
Ġswe et
Ġf ight
Ġbab y
Ġthro at
Ġpr ot
Ġremem ber
Ġ :
Ġc at
Ġple as
Ġwar m
Ġme ant
Ġhapp y
Ġbeaut iful
as p
Ġl ist
Ġin te
e ks
Ġper fect
ing s
Ġg re
Ġqu iet
f ort
Ġm us
Ġsh it
Ġpret ty
Ġt re
m aybe
Ġlo ved
Ġle aned
Ġcle ar
Ġbe gan
Ġd ou
Ġact ually
Ġansw er
Ġ es
he ad
ic ally
air s
ill ed
Ġcomple te
Ġn a
Ġm ag
Ġday s
Ġquest ion
Ġf ull
Ġcont in
Ġton ight
Ġk it
Ġt er
Ġc aught
Ġl ow
Ġc al
Ġj e
ut h
if e
Ġminut es
g er
Ġb are
Ġsu dden
a pped
ic al
Ġf ig
Ġreal ized
Ġwho le
Ġgu ess
g r
a ving
Ġp ower
Ġag o
Ġbre ak
Ġre f
Ġe ither
Ġbo y
Ġm iss
g o
m or
Ġgl ass
Ġexact ly
j o
Ġsh if
Ġst ra
Ġsh ow
e ven
f in
Ġb es
Ġin ter
ert ain
Ġex c
Ġf re
Ġin c
Ġthe se
Ġevery one
Ġf un
Ġj ack
Ġk issed
Ġs ister
Ġshould ers
Ġquick ly
Ġd ire
wh y
Ġf ire
Ġre g
ress ion
id es
a id
m ore
Ġwal k
Ġlo st
Ġk id
Ġtim es
Ġin s
le t
Ġde al
s on
u ed
Ġdiffe rent
Ġp ur
Ġha ll
Ġwh ite
Ġp at
Ġwait ing
k en
Ġslow ly
Ġste p
Ġh or
Ġp ass
Ġstra ight
Ġde ad
Ġst om
Ġstand ing
Ġglanc ed
Ġent ire
Ġco ld
Ġb ur
c er
Ġt aken
Ġre ad
Ġd et
Ġco ll
or ed
m m
Ġfriend s
Ġf ell
Ġn ice
Ġm ur
c le
an y
Ġhop e
Ġlif ted
Ġton gue
ve l
ou n
z y
Ġdam n
Ġim ag
i en
Ġth r
Ġd in
Ġf ree
che n
m ing
Ġstr ong
Ġjo b
Ġv is
Ġclos er
Ġb ot
Ġl ay
Ġgrab bed
Ġsp o
p ly
Ġre pl
Ġsh ut
Ġsh ru
nd ing
Ġhold ing
Ġse at
f r
Ġc ra
rou ght
Ġcont ro
ag ed
Ġkit chen
Ġcl ot
ur ing
ap ter
Ġm ess
Ġp ushed
Ġmon th
Ġwat ching
Ġbus iness
Ġu se
Ġsh irt
Ġbl ue
Ġsh ot
Ġsh ort
Ġbr ing
Ġf ur
ent y
ear ed
Ġap art
ir ed
Ġlook s
ou d
Ġb rought
Ġs ch
c ess
c ent
Ġtr ust
Ġch air
Ġste pped
Ġthan k
Ġp ant
Ġe le
o ck
Ġs ense
ap s
Ġple ase
Ġh ar
ang ed
Ġout side
l ike
re ad
Ġher s
Ġatt ention
Ġs ent
ch apter
Ġwat ch
Ġs un
Ġstom ach
Ġ er
Ġch ance
Ġwom en
Ġc ry
it ed
Ġdis app
e very
Ġg round
ac ked
Ġhour s
ul t
Ġd ream
l t
Ġw ra
b ing
as ed
Ġt ri
ang er
in ted
Ġr ub
Ġch ange
z e
Ġche ek
Ġm r
Ġli ving
Ġcons id
Ġw in
ure s
Ġs ens
Ġexp ression
Ġdro pped
ot ion
Ġsay ing
Ġsit ting
Ġoff ice
is ted
b ec
Ġm ut
Ġp arent
g ing
Ġwhat ever
Ġh ung
Ġlong er
Ġf our
i ver
Ġkn own
Ġfing er
Ġtr uth
ter s
Ġbes ide
Ġl uc
Ġtr ue
i o
Ġyou n
Ġm oney
Ġcou n
i ally
Ġg ro
Ġcomplete ly
et s
Ġl ess
Ġinte rest
Ġle aving
Ġcontro l
ation s
Ġgi ven
Ġm ad
Ġb ag
Ġsch ool
Ġgi ving
Ġb urn
in a
ent s
Ġto day
Ġcom m
Ġpress ed
Ġc ertain
Ġl u
is on
Ġfr own
c king
as sed
Ġi gn
ant ly
Ġst ro
Ġl ine
Ġsc ream
Ġg ri
Ġh un
Ġt ears
s ing
ap e
Ġmo ving
nd ed
Ġt en
ll y
id ing
Ġsm o
or n
Ġl and
o h
Ġsl ight
im e
ir d
i k
Ġpro ble
Ġl ar
Ġrun ning
Ġp al
Ġdec ided
Ġpre s
Ġdou b
sh ip
Ġparent s
Ġt em
Ġwor ry
Ġbu ild
Ġsa fe
Ġli ve
c om
Ġh on
Ġsudden ly
Ġwe ek
Ġr u
Ġben e
in s
Ġknow ing
th ough
Ġc ir
Ġfo ot
us hing
Ġen jo
Ġc ross
Ġclot hes
Ġhum an
Ġwind ow
Ġm ay
Ġbe gin
Ġa v
ic ed
Ġte eth
Ġhe av
k y
Ġco ff
Ġle ar
e es
Ġd a
Ġli ked
Ġob v
Ġdr ink
Ġwor king
Ġs on
r ist
ou ght
Ġst re
Ġinst ead
Ġf ast
Ġgr and
Ġgr ow
Ġcou ple
Ġde ath
Ġp ict
Ġroll ed
y ed
Ġf ear
Ġpo l
Ġrem ind
Ġsupp osed
Ġfoll owed
Ġn er
c hes
Ġf ive
am es
u se
b l
Ġp ie
m a
Ġj ump
ul ar
if f
act ion
Ġc ap
c y
as ter
Ġyour self
Ġp ay
Ġsig hed
Ġp ri
Ġad mit
ver al
Ġb ath
Ġbed room
au sed
Ġs y
m an
in y
Ġs ing
Ġpleas ure
Ġfor g
ou nt
as hed
le y
ac ing
Ġhapp en
Ġs am
Ġcoff ee
Ġsee ing
Ġro se
Ġwa ist
Ġy ear
Ġh ips
Ġtell ing
m e
Ġre c
c i
Ġto r
Ġsk y
Ġm akes
Ġa dd
Ġdin ner
Ġsoft ly
Ġ *
Ġdri ve
o ve
Ġsu b
Ġspe ak
Ġf illed
g th
e en
it ion
Ġp ap
Ġe ff
Ġm ist
il ity
el s
ra id
Ġli p
Ġab s
Ġto wn
un ch
it s
Ġcon vers
c ol
Ġw ife
Ġde v
Ġwra pped
em ent
Ġin d
an ie
Ġsig n
Ġshru gged
Ġwor ked
Ġprot ect
Ġapp ro
is ing
Ġd raw
Ġfo c
Ġed ge
o g
r or
Ġh ang
Ġl ate
up id
Ġb at
Ġbare ly
Ġst ru
Ġkn ees
j ect
Ġthought s
Ġcontin ued
Ġpull ing
Ġmonth s
Ġ ve
Ġdes k
Ġstar ing
Ġm ir
Ġes c
s ome
Ġj er
Ġp icked
Ġgu ys
Ġeas y
Ġc e
un t
Ġs ix
o ld
Ġw ide
Ġi r
Ġc ent
Ġqu ite
p ted
Ġany more
Ġaf raid
Ġre co
at es
w as
il t
Ġse veral
med i
c c
Ġc ase
for m
Ġyoun g
Ġsec ret
Ġwe aring
Ġtou ched
Ġsm ell
Ġany way
Ġme m
bec ause
Ġsqu ee
Ġto ne
Ġminut e
Ġbene ath
ut e
Ġthan ks
Ġdem and
Ġgu ard
Ġbo x
Ġsurpr ised
Ġnear ly
Ġansw ered
ite ly
Ġlar ge
ell e
Ġst uff
al s
Ġt u
Ġra ised
Ġsh ar
Ġle ad
on y
ot s
l a
Ġwait ed
d id
Ġre le
Ġcor ner
ie ld
Ġp ick
Ġs ort
ic king
Ġb all
Ġch anged
Ġgirl s
Ġhe y
l ight
Ġwal king
Ġst upid
c es
p ec
Ġtw enty
Ġre p
er y
Ġconvers ation
Ġsc r
Ġrepl ied
i ence
Ġfor m
Ġe at
o f
Ġl uck
Ġdis c
ac es
Ġsee m
ar a
ir ty
im es
Ġsp ec
Ġwe eks
Ġim medi
Ġz ane
Ġj aw
Ġpo sit
Ġn ar
Ġdr ag
Ġsil ence
Ġt rou
Ġc am
w ell
Ġs ad
Ġgrin ned
Ġr ather
d ing
v in
Ġdoub t
Ġg ently
Ġcl a
aught er
Ġg en
Ġex t
Ġexp er
le x
y es
Ġposs ible
Ġspo ke
Ġhe at
Ġth ick
Ġsp ent
Ġh us
Ġen g
Ġth igh
Ġsw all
Ġl oud
Ġreturn ed
Ġr ing
Ġrel ation
pec ially
Ġbr ight
Ġch in
ie w
Ġd anger
Ġsound ed
Ġcra zy
Ġj ul
Ġro ck
e x
Ġfig ure
Ġproble m
Ġw et
Ġmur m
Ġd ie
an ing
Ġgot ten
t om
Ġag re
Ġsurpr ise
Ġy ell
l an
Ġcon n
Ġp assed
il i
Ġg asp
Ġem pt
Ġf ood
at or
Ġch o
Ġc ool
idd le
id ent
Ġsh ad
it ch
b and
Ġth row
Ġbath room
r ie
al ed
u ss
Ġnar row
Ġw ed
Ġs ight
Ġc row
Ġother s
i pp
ain ing
Ġn orm
Ġse ar
am ed
Ġcon cer
Ġfor get
Ġmut tered
Ġwonder ed
Ġhe sit
ap ed
Ġn at
Ġfin ished
Ġno se
Ġo pp
umb led
if t
Ġsim ply
Ġsu sp
ig n
Ġgl ad
r ic
Ġd u
Ġrel ax
Ġbe at
Ġgre en
Ġdem on
g u
th an
s u
Ġd en
Ġm iddle
ail s
Ġcl im
fin itely
Ġ )
Ġt ast
Ġpo ck
Ġwant s
in st
Ġmar ried
Ġturn ing
Ġs igh
Ġknow s
Ġwor ried
Ġbec ome
Ġimp ort
c ome
Ġimmedi ately
Ġnot iced
Ġi d
Ġar ri
mor row
Ġcou nt
Ġto morrow
Ġprom ise
Ġslight ly
Ġf av
Ġlet ting
Ġsp ot
Ġs al
z ed
Ġs el
Ġang ry
at t
Ġst ud
Ġw ood
ou l
Ġd rew
l and
Ġser ious
ar r
Ġg un
Ġre ach
Ġab ove
Ġbro ke
omet imes
c les
Ġbuild ing
Ġang er
r ight
Ġkill ed
Ġli e
Ġm ention
on es
Ġheav y
Ġcom fort
Ġle g
Ġgo ld
Ġw ish
Ġhead ed
Ġexp ected
Ġst ri
ri f
Ġsn apped
Ġb other
w or
Ġcal m
is ion
Ġh ate
Ġpart y
h aps
Ġto ss
Ġd aughter
or ing
Ġwor se
Ġd ar
Ġset t
Ġche eks
Ġl ap
ist s
Ġst are
Ġco vered
ac he
ive ly
Ġkid s
Ġsh out
Ġfor ced
Ġsit u
um ber
Ġc reat
Ġg ar
Ġth reat
Ġdes ire
ain s
Ġapart ment
c ing
Ġp an
Ġth rew
Ġche ck
Ġmeet ing
Ġt iny
ct or
Ġf air
Ġje ans
Ġrelation ship
Ġste ps
Ġad v
Ġdes per
Ġsh ower
Ġpo inted
v ous
Ġear l
Ġf em
Ġ (
Ġcrow d
Ġu r
it ing
Ġno d
Ġempt y
Ġg ent
b ered
ad ed
un k
i pping
Ġch uck
ll e
in es
ain t
Ġpri v
Ġstre et
Ġgr ay
Ġd ied
Ġman aged
Ġw ild
Ġwant ing
ib ly
te en
Ġsing le
Ġp ack
Ġco ver
Ġar t
an n
Ġsel f
Ġa dded
Ġam az
st er
Ġh ated
uc ked
m b
anc es
Ġfrown ed
Ġsp read
Ġl ed
se l
Ġquiet ly
Ġde finitely
Ġimport ant
Ġto t
Ġb ook
Ġro ad
i am
h a
Ġfor ce
Ġfav or
Ġbot tom
Ġor der
on ce
Ġeye b
anie l
Ġcou ch
s y
Ġg ame
p ed
Ġhus band
Ġsc ent
Ġo cc
ly n
Ġk ing
st s
Ġchild ren
Ġwill ing
Ġcl ass
Ġor d
Ġf ut
Ġsound s
Ġresp ond
Ġsecond s
Ġdire ction
Ġst ret
Ġc as
Ġso l
i ent
ne y
Ġp un
Ġd uring
nd red
er g
Ġd est
o ss
Ġst airs
Ġhon est
Ġs ick
Ġl im
Ġlo se
ol og
Ġl ying
Ġp aused
ment s
Ġr id
er m
t w
Ġch rist
Ġgl ance
Ġdes er
Ġb le
Ġst ory
Ġt akes
Ġpr act
in ing
Ġi an
Ġreal ize
Ġex cept
it ies
z z
Ġremem bered
Ġn umber
s et
il ing
Ġs oul
Ġeyeb row
Ġas king
Ġmag ic
ar s
Ġc ell
Ġsitu ation
r ing
inst ead
Ġme ans
Ġsp ace
s omething
Ġch oice
Ġbro ken
Ġco ck
as m
be fore
Ġtrou ble
al ing
Ġcat ch
Ġm er
Ġstr ange
Ġde p
ail ed
Ġshar p
u dd
Ġsl am
Ġsil ent
Ġcoun ter
Ġhop ing
Ġm il
Ġsu it
Ġlaugh ing
in ked
Ġsl ipped
Ġre pe
Ġsh aking
Ġf it
Ġfir m
Ġgent le
Ġl ower
Ġhu ge
Ġw id
c a
Ġwhis per
Ġc oo
as ing
Ġwor th
Ġc ab
uc king
a ff
Ġna ked
Ġkeep ing
Ġm ark
Ġner vous
Ġd ate
Ġposit ion
Ġpant s
Ġu nd
Ġcom es
Ġh ide
f l
op e
Ġr is
Ġpap er
ec ting
Ġhu ndred
Ġm a
Ġwed ding
Ġwe ak
Ġin form
Ġm issed
Ġcom pl
ry ing
es h
Ġsu mm
ig g
Ġcl en
f er
Ġplay ing
Ġcle an
Ġc up
Ġfore head
Ġp en
Ġvampire s
Ġpie ce
Ġmurm ured
Ġem otion
Ġtast e
Ġexp ect
Ġclear ly
Ġreco gn
ag er
Ġt all
l s
it al
Ġforg ot
Ġgr ace
Ġsmil ing
Ġc ity
Ġto w
Ġm is
Ġb as
gg ing
Ġfut ure
Ġlo cked
Ġwith in
ic es
r it
Ġsu gg
l er
Ġl ady
Ġpre te
Ġcross ed
Ġp ush
Ġfo ld
Ġexpl ain
Ġp ound
Ġearl ier
Ġan n
Ġhand le
Ġagre ed
or ted
or ge
Ġkn o
Ġhop ed
ri an
Ġco nd
Ġpre p
Ġst ate
Ġp ill
c ious
Ġt ired
Ġe than
r act
bo dy
is hing
Ġstru gg
Ġpict ure
a ked
Ġbreat hing
Ġimag ine
Ġbec ame
Ġsc ared
Ġso f
Ġre ve
Ġdoor s
Ġas h
Ġth umb
Ġquest ions
Ġfore ver
Ġpl aced
Ġshif ted
Ġbl ank
Ġobv iously
in ation
Ġnew s
Ġpock et
Ġsex y
Ġal ive
Ġv ict
Ġv al
Ġfr o
wh o
Ġtal ked
Ġlo ck
ard s
Ġf uck
h ad
Ġbr own
Ġb ill
Ġtr uck
Ġsh ake
s c
Ġfl at
st airs
Ġear ly
Ġp et
Ġst ren
Ġapp re
Ġass um
Ġem b
Ġinv ol
Ġp in
Ġe ight
Ġspe nd
Ġli ved
Ġjump ed
Ġf ill
i or
ust r
is f
Ġwonder ing
Ġneed s
h o
Ġoff ered
b s
Ġsp l
Ġdire ct
ow ers
Ġeven ing
Ġm ax
ell a
Ġp air
ili ar
Ġapp eared
Ġwe ight
Ġlist en
Ġd anc
p ite
iz ing
Ġhard er
Ġnorm al
Ġlo gan
os p
Ġf ix
Ġm ed
Ġsett led
ac hed
Ġst one
m ar
Ġg on
ter n
Ġbr ief
y ond
Ġes pecially
Ġsome how
Ġcl ub
u de
Ġp u
Ġbl ond
Ġde f
Ġinform ation
Ġcol or
Ġsho ck
Ġcomp any
Ġon es
Ġbr ain
st r
Ġd om
ri ble
Ġsome where
ol ute
s ure
Ġb oo
t ic
Ġstay ed
ter ing
Ġdress ed
Ġkiss ing
e v
ress ed
oo f
Ġv i
Ġav o
Ġf if
Ġsa ve
Ġbl inked
Ġstren gth
es ted
he re
Ġw ore
Ġc ried
Ġbus y
Ġoff er
Ġf ly
Ġr y
Ġv iew
Ġfoc us
Ġfoll ow
Ġfig ured
Ġcap t
Ġw ip
ac y
Ġfeeling s
r ay
Ġpro f
ren ce
ache l
wh ich
im ed
Ġwe l
ul ous
Ġmus cles
re s
en e
Ġin cl
Ġrel ief
Ġput ting
Ġd ance
Ġall owed
Ġm ale
Ġn ick
Ġd ry
Ġdist ance
au lt
Ġr ound
Ġn one
Ġw ine
Ġcent er
Ġmem ory
Ġsa nd
Ġswall owed
Ġb ent
ri age
Ġqu een
Ġun c
Ġluck y
re en
u ct
Ġaw are
Ġb ull
Ġw ound
st ill
Ġthr ust
Ġsh owed
Ġj ake
Ġhand ed
Ġl ord
Ġc ast
Ġbre ast
no on
on se
b es
Ġas ks
Ġhelp ed
go d
Ġeas ily
in n
Ġas ide
in ct
l oo
Ġse nd
Ġbe yond
ot ions
qu e
Ġbe ll
av id
Ġg ather
Ġdet erm
Ġappre ci
Ġsee ms
d am
Ġtr u
Ġbegin ning
Ġst u
lo e
Ġp ul
Ġeff ort
Ġwall s
Ġcont act
Ġs ometimes
y n
Ġt reat
Ġcir c
Ġdro p
Ġare a
z ane
Ġunderst ood
Ġthigh s
Ġdel ic
Ġdemand ed
Ġsho ved
Ġmir ror
Ġa head
Ġgri p
Ġwe ar
ant s
sel ves
Ġg rou
Ġsat isf
if ic
on ly
Ġdisc uss
Ġwhe ther
id ence
Ġbot tle
Ġend ed
Ġafter noon
y our
Ġperson al
Ġr ide
Ġf il
ect ion
Ġph ot
Ġdo g
Ġp our
Ġ ver
Ġkiss es
Ġresp onse
Ġfall ing
Ġo dd
Ġfl esh
Ġp ink
Ġt a
Ġcon v
Ġlu ke
Ġsh are
Ġyour s
ab eth
sh irt
Ġus ing
Ġg rew
not hing
Ġmus ic
Ġpre gn
Ġhun ter
Ġswe at
Ġbel ong
Ġatt em
wh ile
le ep
ag es
Ġc ru
r ac
Ġsur round
Ġatt ack
Ġcall ing
us ion
Ġme mor
Ġl aw
is es
Ġspec ial
Ġg est
ess ion
Ġev ent
Ġemb arr
Ġpal m
Ġlo c
Ġre qu
Ġlear ned
Ġtw isted
Ġrub bed
Ġph ys
Ġamaz ing
Ġear s
Ġj en
t ime
Ġh osp
Ġsleep ing
Ġgasp ed
Ġof ten
Ġnot ice
Ġcare fully
Ġfight ing
Ġremind ed
Ġme l
Ġc u
Ġabs olute
Ġsmo oth
Ġbr ushed
k es
at ive
Ġv an
Ġenjo y
Ġb ow
Ġb al
Ġget s
y le
Ġp ath
i ot
Ġfam iliar
Ġarri ved
Ġgr im
Ġbit ch
Ġmo v
arent ly
sh it
Ġdark ness
Ġold er
Ġn or
Ġbo ys
fr iend
Ġb ite
Ġang el
Ġfr ustr
ous and
ast ic
Ġstart ing
Ġcon st
Ġtight ened
f ast
Ġdanger ous
Ġst ore
Ġli ves
Ġa lex
Ġreg ret
Ġdro ve
Ġi ce
Ġsil ver
Ġwe ird
f ic
Ġsho ot
ier ce
Ġtru ly
Ġb ir
Ġb and
Ġser v
Ġr ain
av es
Ġp ushing
Ġf le
ke nd
Ġhosp ital
Ġe ll
c ted
Ġpriv ate
Ġjer ked
Ġp ot
Ġt ip
Ġser iously
ar m
Ġper haps
Ġel b
Ġgro aned
Ġear th
Ġus ually
s es
ens ion
Ġm as
Ġfeel s
Ġsim ple
Ġnot e
Ġcomm and
Ġm id
Ġr ough
Ġbur st
Ġcur led
l uc
Ġtr ack
l ic
Ġst iff
Ġtou ching
Ġc re
Ġp ale
Ġfur ther
Ġsu cked
Ġl aid
Ġst uck
Ġtr ave
v al
Ġsquee zed
Ġlight s
Ġl a
Ġr om
d ie
Ġsur v
Ġfem ale
Ġcam er
Ġm ass
a ld
Ġexpl ained
Ġac cept
iz abeth
Ġnarrow ed
ust ed
Ġobv ious
Ġhe al
Ġle ather
Ġcertain ly
Ġd im
Ġc and
Ġinc red
l ine
b led
c on
Ġlau ght
Ġbo d
Ġth ousand
Ġw ake
Ġth in
Ġlaught er
Ġvis it
Ġhot el
Ġpart ic
tw o
Ġpol ice
Ġconsid ered
as ted
p ar
Ġle vel
Ġbreat he
Ġs ar
Ġc op
Ġf ool
Ġh oney
Ġt est
Ġw ished
Ġdis co
Ġsho es
m iss
Ġhang ing
Ġre action
ple ase
Ġtot ally
Ġtoss ed
Ġsa v
Ġhall way
Ġas leep
Ġso ph
Ġwe e
m er
Ġsw ord
Ġrem ained
ch o
ot e
im p
Ġinterest ed
Ġhapp ening
Ġen c
Ġtr ans
Ġap olog
em on
Ġt ear
Ġfre sh
il ed
ru pt
Ġany where
Ġsu ff
Ġsumm er
Ġsc ar
Ġgrow led
Ġfun ny
Ġm ill
r id
Ġbir th
Ġm ood
Ġrepe ated
Ġs en
ur al
o int
Ġstu dy
Ġgrou p
Ġprom ised
Ġclen ched
Ġke y
idd en
Ġmat t
orge ous
fr om
c an
Ġpower ful
Ġway s
k er
Ġd aniel
om ing
Ġfin ish
Ġsu ck
Ġan im
Ġopen ing
Ġjack et
Ġdif fic
Ġup on
Ġus ual
Ġimp oss
Ġdisapp eared
Ġm otion
Ġsu per
Ġwar ning
ian a
and on
ri es
Ġ 1
Ġlike ly
Ġign ored
Ġperfect ly
Ġmoment s
Ġl unch
b el
Ġbe er
Ġg orgeous
ump ed
o c
pp er
Ġexc use
Ġapp ear
an a
Ġlow ered
Ġdec ision
all en
Ġchar l
Ġcare ful
n ight
Ġb ast
t r
ur ity
Ġgo dd
Ġem otions
Ġbu y
Ġpull s
Ġi ll
Ġexper ience
Ġg ift
Ġcar ried
w ould
ant ed
Ġint im
Ġl en
Ġcomfort able
Ġcle ared
Ġag e
rou d
Ġtoward s
Ġturn s
Ġshout ed
Ġbelie ved
Ġbrother s
Ġup set
cl a
Ġer ic
Ġp ub
with out
Ġgen er
s ince
g l
Ġent ered
Ġfe at
Ġwar ri
ten se
a el
Ġin no
Ġmiss ing
Ġst ick
r on
Ġtr ail
Ġcr ack
ic s
Ġwe ap
Ġgo es
Ġmar ry
fin ally
Ġr ich
Ġdest ro
Ġtre mb
g es
Ġfavor ite
com fort
Ġle aning
Ġcry ing
Ġbr ow
Ġp issed
fort un
Ġ ut
c ar
Ġpro per
Ġbut ton
Ġlear n
loo king
Ġp ark
i us
Ġbeaut y
w ill
Ġmar riage
u ce
Ġdri ving
Ġhow ever
Ġwee kend
Ġag ree
Ġplay ed
Ġe qu
Ġfind ing
c her
v y
Ġd ig
Ġw ave
Ġf ault
Ġth irty
Ġg igg
ic o
Ġall ow
Ġen erg
Ġdeep er
Ġchuck led
Ġst un
k in
i ved
Ġconsid er
Ġg ut
Ġo l
Ġwind ows
led ge
Ġj ud
Ġbe lly
Ġt rent
Ġfl ash
Ġinst antly
i vered
Ġfoc used
as hing
a ur
Ġinvol ved
Ġhe a
Ġan no
h un
Ġr ush
Ġrele ased
Ġte am
d es
j ack
as y
un ity
Ġch allen
Ġli ft
Ġte xt
Ġg ab
Ġno ah
Ġbreat hed
anc y
al ous
Ġch ase
Ġslam med
Ġdo ctor
Ġconcer n
Ġf ought
Ġmemor ies
Ġle an
g ie
Ġref used
every thing
Ġco at
z en
Ġm ort
Ġg age
Ġsle pt
Ġdiffic ult
Ġplan ned
Ġresp ons
Ġconf used
u g
Ġfl ashed
Ġpass ion
Ġesc ape
o e
s er
o ll
Ġt ree
Ġd ru
Ġp op
Ġenerg y
Ġburn ed
Ġk at
Ġpres ent
Ġin ch
Ġlo sing
Ġdoor way
Ġsp ell
Ġtight ly
oun ced
iz z
Ġbr a
Ġsh ared
Ġpl ans
Ġd avid
st on
s l
Ġpro p
Ġal though
Ġp roud
Ġmr s
Ġpres ence
Ġspe aking
Ġin tense
Ġgr owing
bes ides
er ic
Ġoff ic
rac ted
Ġun cle
Ġt il
os h
Ġgi ves
Ġposs ess
Ġhe els
d ed
Ġmess age
Ġscream ed
Ġwr ist
Ġele v
Ġk icked
Ġsec urity
Ġu h
Ġswe ar
Ġp ool
Ġhu g
Ġconcer ned
Ġm ain
Ġf ully
Ġslid ing
ap h
Ġpartic ular
Ġabsolute ly
Ġbreak fast
Ġsh udd
o y
Ġsm art
Ġcol t
Ġexc ited
Ġy an
Ġpro v
Ġimposs ible
Ġad m
Ġvi ol
Ġsc reen
Ġkn ife
Ġch loe
Ġbod ies
u nder
Ġrest aur
us ing
Ġis ab
Ġboy friend
if ied
Ġbl ind
Ġwa ved
ib ility
Ġk ick
Ġme re
Ġf ant
Ġwor st
st e
t s
Ġwarm th
Ġf ist
Ġpregn ant
Ġsu c
Ġbat tle
Ġstay ing
Ġgu est
Ġf aster
Ġhum ans
an other
st and
Ġsh op
Ġpe ace
he n
Ġs ink
Ġkn ock
Ġm aster
Ġcoll e
Ġstud ied
Ġopp os
oo se
Ġext ra
b all
ro d
Ġs ides
ic ated
Ġris k
rif ied
ad ing
Ġdesper ate
b ast
Ġc ook
Ġun able
ub b
Ġm al
Ġne ither
Ġtre es
e y
Ġw it
ne ver
Ġsur f
he ll
ed ing
m other
o ff
Ġmist ake
Ġm ot
it ched
lf r
Ġac ce
Ġtri p
Ġcl ut
Ġbo ss
Ġst orm
Ġbl ake
ang ing
th y
r is
Ġbe g
Ġs ed
Ġsm ir
Ġhor se
Ġl ing
Ġpl aces
i ving
Ġp ort
se e
Ġh at
Ġar r
Ġwonder ful
th ank
Ġsub ject
Ġstret ched
Ġa h
Ġord ered
i ves
Ġrem o
Ġhands ome
Ġim m
Ġsk irt
Ġdo ll
Ġphot o
Ġm ate
to p
ing ing
Ġadmit ted
in i
Ġj ason
Ġpur p
Ġf a
Ġso c
Ġsn ow
Ġpur se
Ġlen gth
Ġinst inct
Ġcab in
m as
Ġcar ed
Ġrelax ed
lfr iend
Ġkn ee
Ġr ul
Ġdes pite
Ġste ady
re m
Ġloo se
Ġeff ect
Ġeas ier
ag ing
Ġje alous
Ġhung ry
Ġn ipp
Ġhead ing
Ġpr in
Ġfoll owing
Ġposs ibly
Ġp aid
Ġm ike
Ġhesit ated
Ġpl ate
Ġb ought
Ġvis ion
Ġmag n
Ġpress ing
re l
Ġbel ow
Ġcir cle
h ood
s am
Ġp or
Ġreac hing
Ġfall en
it ement
v ent
g ood
n ers
om ed
Ġbe ar
Ġst or
u es
dam n
Ġpar king
Ġty pe
Ġcontin ue
Ġdream s
Ġo w
Ġre ce
Ġde fe
Ġthem selves
Ġbut t
Ġl ou
bo ard
fortun ately
Ġsp ir
Ġdec ide
Ġe ager
Ġwel come
Ġf ucking
Ġe cho
Ġor g
Ġh i
Ġlist ening
Ġl ad
d a
Ġde ar
Ġc ass
Ġsc rew
Ġd on
Ġs ne
Ġfl ick
j ul
Ġc ash
Ġmov ie
Ġb ound
Ġclim bed
Ġm ent
Ġbre aking
id ge
Ġgl ared
Ġcl ay
Ġc ard
ant ic
Ġno ise
Ġfeat ures
Ġc aused
Ġforgot ten
ag ged
ath an
Ġbr ows
Ġun less
Ġbe ach
Ġn ur
ter day
Ġshad ow
Ġmo on
Ġd ust
l in
Ġad am
c ri
Ġbo ots
Ġim age
Ġexp lo
Ġel izabeth
am ing
Ġsim on
Ġdri ver
Ġf ab
Ġpant ies
and a
Ġpan ic
Ġoppos ite
d om
ord an
Ġsl ide
Ġtw ice
Ġsugg est
Ġc raw
Ġm ount
Ġdeterm ined
Ġburn ing
Ġh iding
Ġd iv
Ġbl ame
k ward
Ġsc ow
Ġmet al
ion a
Ġj on
Ġse ven
ret t
bast ian
y al
Ġv o
Ġd are
p ting
o kay
iet y
Ġgr asp
d en
Ġcor re
Ġacc ident
Ġincl ud
Ġbast ard
Ġne cess
Ġr ushed
Ġinv est
Ġt ab
Ġrestaur ant
Ġth ird
Ġtor t
Ġeyebrow s
ill y
o b
Ġrele ase
Ġsh owing
Ġhard ly
Ġp ee
Ġc amp
Ġbl ow
Ġm ia
Ġsho cked
Ġwo ke
Ġlove ly
al k
Ġhell o
Ġb uck
Ġpre fer
Ġsw ung
Ġt ension
Ġtu gged
Ġpro cess
Ġr ad
ens ive
Ġin de
Ġdr unk
Ġpub lic
Ġfor th
Ġgir lfriend
Ġcare ss
Ġa unt
Ġl un
Ġun comfort
Ġexc itement
is a
Ġan tic
en cy
Ġpr ince
Ġte nder
Ġr achel
Ġresp ect
g ar
at ic
Ġj ase
Ġhear ing
Ġle x
Ġbring ing
p ing
Ġbl ur
Ġcour t
Ġr ib
Ġtr ick
ot te
l u
Ġt ucked
Ġwid ened
at tered
Ġp sy
Ġvict or
Ġjo in
Ġcolle ge
Ġh int
ic ulous
Ġre ply
Ġar ched
Ġin f
Ġent r
Ġaw kward
Ġg e
Ġj ace
pl ay
Ġl at
w ise
Ġv ib
Ġbad ly
Ġcomp ut
Ġd irty
Ġwo lf
Ġex ha
Ġpict ures
Ġconsid ering
Ġce iling
Ġs ong
Ġg ard
as hes
ann ah
Ġc ream
Ġre n
Ġdirect ly
le c
Ġf ield
Ġhelp ing
Ġdeep ly
Ġt ick
Ġpurp ose
Ġj ax
Ġimag ined
Ġsh all
Ġgold en
Ġh idden
Ġpress ure
Ġl icked
ie ved
Ġdrag ged
Ġfin al
Ġread ing
Ġcla im
Ġyes terday
Ġw itch
Ġsp ark
Ġse nding
c ase
h n
Ġo pt
Ġtow el
Ġspe ed
Ġche cked
Ġhu h
cent r
Ġsupp ort
k a
Ġm ix
Ġlight ly
Ġte x
Ġboo ks
ur y
Ġur ge
Ġhapp ens
Ġign ore
Ġcall s
Ġexper ien
it ive
Ġr ap
Ġin j
Ġa ut
ke y
Ġcon vin
h ouse
Ġl ab
Ġcom ment
Ġd ick
b ack
Ġinter ru
Ġbl o
Ġbur ied
Ġse par
Ġh ip
ill s
Ġgre et
Ġte le
Ġentire ly
Ġir rit
Ġpleas ed
Ġpo or
for d
Ġsens ation
el ia
Ġgr ate
Ġopp ort
Ġpr ay
Ġyell ed
Ġprep ared
Ġvib r
z ing
Ġaf f
by e
wor k
f ather
Ġn i
Ġelev ator
Ġsear ching
Ġm ic
Ġshad ows
Ġsc ene
Ġis land
less ly
Ġattem pt
o ver
p ro
Ġj ew
ad es
Ġ- -
Ġfing ert
Ġmention ed
t ell
Ġc ous
Ġsp un
every one
Ġev il
Ġm ac
Ġcon centr
m en
Ġw ings
Ġfold ed
Ġsex ual
it ude
Ġpro ve
Ġantic ip
Ġf aint
Ġb orn
th ose
Ġde b
Ġpie ces
or k
Ġchrist mas
y eah
a it
in ting
Ġv ir
Ġh y
am a
ain e
Ġtem per
Ġit self
Ġavo id
Ġsusp ic
c all
Ġro b
Ġrest ed
Ġgri pped
Ġbo ard
nd ay
Ġr ang
Ġlo ving
Ġar g
idd ing
Ġpract ically
Ġh ig
Ġsp r
Ġexp ecting
Ġres ist
Ġsmil es
Ġkill ing
Ġprete nd
Ġc ow
Ġun f
Ġt ang
Ġex h
Ġt un
Ġlu is
re al
Ġcur rent
Ġacc om
a ly
Ġp ause
ag o
ac hing
Ġan x
Ġex am
Ġwhe el
Ġhea ven
Ġcur t
ve t
Ġthink s
re me
Ġsl ip
il s
Ġdem ons
io let
Ġrid iculous
Ġh ol
au l
Ġe ating
o ot
Ġkno cked
ich ael
et y
the ir
Ġte asing
Ġs in
Ġp ure
Ġst ab
re k
Ġhe n
Ġappro ached
p et
some one
Ġgl are
Ġfle w
c ould
al though
Ġr are
Ġch ick
Ġup stairs
Ġcl oud
au sing
as ion
Ġgr own
Ġbr and
ro ll
Ġl ines
Ġsp ine
Ġdis g
Ġc ree
Ġen em
oint ment
Ġam ong
Ġmo aned
Ġreg ard
Ġtil ted
Ġ est
Ġj am
y er
Ġpr ison
id s
Ġcomput er
id ay
Ġco st
Ġtr ist
Ġk ate
Ġwr it
Ġa ud
Ġex ist
Ġst aff
ap er
Ġappreci ate
Ġwar ned
Ġke ys
ag ue
Ġter rible
Ġfro ze
Ġfif teen
wh ate
Ġv ar
whate ver
Ġjo ined
Ġt ing
Ġth or
Ġfirm ly
Ġj ames
Ġclos et
Ġb ase
Ġswe pt
ir st
s m
Ġsh a
Ġj u
ile y
Ġsol id
Ġinst ant
Ġw and
Ġhis t
Ġdou ble
um e
Ġentr ance
f it
Ġg le
Ġinterest ing
Ġpo st
Ġmost ly
Ġreason s
Ġplan ning
Ġbl ock
Ġso ld
Ġbet ray
Ġreal ity
Ġapp arently
er n
st em
Ġr ising
Ġgu ilt
Ġphys ical
Ġf u
ag ain
igh b
Ġback ward
v iew
he art
Ġevent ually
ent ed
un ted
Ġs ip
Ġrecogn ized
b bing
Ġne ighb
Ġv ol
Ġsh ield
Ġdraw ing
Ġh oo
Ġf ang
Ġcr ap
Ġaw ake
Ġenjo yed
Ġav a
b ers
Ġso ot
ne ath
Ġa rou
g round
and ra
Ġcount ry
f uck
Ġf ierce
Ġpill ow
Ġr age
Ġem ma
Ġhar m
Ġglass es
hun ter
Ġr um
Ġp ad
Ġsy stem
Ġcla ire
Ġn umb
c il
Ġv iv
Ġfr ight
Ġma j
Ġd ra
Ġch at
Ġdet ails
Ġland ed
n at
Ġfor t
Ġn on
Ġst ir
Ġt att
Ġlist ened
Ġdri f
Ġcom b
Ġblank et
Ġid iot
r ap
y et
ot t
Ġdeser ve
ag ger
Ġwr ap
Ġf ren
Ġs ank
Ġli am
h y
Ġfrustr ation
ic a
Ġfly ing
Ġhu gged
Ġenjo ying
Ġcar ry
i ant
Ġopport unity
Ġbit ter
Ġinno cent
Ġs ize
Ġfl ipped
Ġansw ers
Ġbr ush
ber t
Ġthrow ing
ch ar
Ġd ying
Ġsil ently
Ġpl ane
Ġdel ight
Ġs ir
Ġclos ing
s al
Ġknow ledge
Ġcar rying
Ġe re
Ġdanc ing
Ġfur y
b by
Ġpour ed
Ġdam ned
id er
Ġl ust
Ġjul ian
Ġst ream
Ġcl it
Ġproble ms
whe l
Ġmean ing
oun ce
Ġli ed
Ġele ct
Ġrub bing
Ġuncomfort able
an ned
ur ies
t oo
el ess
Ġwip ed
Ġunder neath
Ġtatt oo
Ġmove ment
Ġbu ilt
Ġgod s
ill e
ir a
Ġse an
Ġnight s
per haps
es us
Ġsh iver
' s
Ġscream ing
on ed
es e
i que
for med
Ġf aded
Ġli br
Ġbel t
Ġroll ing
Ġin h
Ġmil es
Ġl ack
ac her
Ġjo y
Ġscr at
Ġte a
Ġda emon
Ġgrand mother
Ġwhen ever
Ġcoll ar
Ġex ch
Ġy ork
Ġat te
Ġconv ince
Ġmus cle
Ġshif t
es pecially
Ġdisapp ear
Ġball s
Ġ x
Ġstro ked
Ġset ting
ant e
Ġcl aw
Ġpr ide
Ġf er
ol a
Ġstru ck
Ġgrate ful
Ġu m
ar ily
Ġcom mit
Ġsupp ose
Ġrec ord
Ġsuc cess
h and
Ġsurf ace
f ive
Ġsugg ested
Ġbro ad
Ġn ine
Ġpl enty
Ġcur se
Ġhar sh
Ġr ipped
Ġfl ight
Ġs an
Ġk ee
Ġwa ves
f our
Ġhon or
Ġsle e
ay ne
a en
Ġv ill
Ġcut e
Ġyan ked
y l
Ġhead s
Ġorg asm
Ġnipp le
p ort
Ġp ace
aen elle
Ġut ter
Ġcur ious
Ġt ar
at s
Ġsil k
Ġover whel
Ġint rod
Ġt ie
Ġsquee ze
Ġn ate
b it
Ġfl owers
Ġembarr ass
Ġn ic
Ġdr inking
Ġtrist an
Ġrel ieved
Ġpsy ch
Ġtw ist
ap ing
Ġam ount
Ġsa ved
Ġte ased
Ġe ase
az ed
Ġc ause
Ġassum ed
Ġpal ms
Ġl ee
Ġp it
umb ling
ig ned
el ed
Ġpor ch
Ġf ists
ut ion
el ine
ro g
iv ar
m r
Ġac ting
Ġsp in
Ġpro d
m om
Ġst age
Ġt v
Ġt ense
Ġsn ar
Ġwarri or
Ġaf fect
Ġgather ed
Ġy a
Ġab rupt
Ġroom s
is y
Ġext reme
Ġdown stairs
su dden
Ġelb ow
Ġpound ing
iss a
Ġbec oming
Ġjo e
Ġf al
Ġab ility
Ġact ion
Ġbe ast
i os
Ġstrugg led
Ġem er
ver ing
Ġl ace
Ġob l
Ġstraight ened
Ġdel i
Ġgro an
Ġbe th
Ġbes ides
Ġf aces
Ġsmell ed
Ġins isted
Ġjo hn
Ġbirth day
sudden ly
Ġd ating
Ġch oose
Ġdes cri
Ġevery where
Ġblood y
Ġlo ss
Ġrem ain
il ar
Ġv ic
Ġsqu e
Ġp owers
Ġinterru pted
Ġrul es
ir led
m p
Ġan k
Ġyoun ger
ag g
Ġhur ried
Ġremo ved
Ġf aced
Ġb acked
um ent
Ġsear ch
Ġco le
Ġhig her
h ave
Ġlif ting
Ġconn ection
Ġfl ut
Ġho le
Ġstart s
k i
an na
t aking
Ġem pl
Ġcho col
Ġgl ow
Ġstrong er
Ġre ass
sh all
Ġre se
Ġfingert ips
Ġl ake
nd s
Ġsa f
Ġhist ory
Ġref le
s ue
Ġsurround ed
Ġpo pped
Ġass ist
un til
Ġbl ade
Ġf urn
em ma
t urn
Ġconf usion
Ġfab ric
Ġforg ive
Ġhor rible
Ġchallen ge
Ġluc ien
Ġsusp ected
c us
Ġprot est
Ġnecess ary
Ġprin cess
ad en
re y
Ġbe ating
Ġbig ger
Ġinte nded
Ġsw ift
Ġd amp
Ġcu pped
Ġpr ed
l en
Ġco vers
Ġgard en
b oth
Ġdiffe rence
Ġm ach
ex p
id y
Ġint ens
Ġhonest ly
Ġdeser ved
Ġsn orted
Ġsto pping
w ood
pp y
Ġdesper ately
m are
Ġj ess
Ġs ell
Ġem br
h u
** *
Ġrest ing
Ġs ac
Ġinc re
d el
Ġfr ank
Ġse bastian
Ġd ut
le br
Ġab andon
Ġm art
pl ess
Ġanim al
Ġi vy
uc ed
Ġdelic ious
d r
Ġr oof
Ġpain ful
as k
Ġchar ge
il ities
i vers
ic ing
Ġlo ves
Ġwho se
Ġspl it
Ġsh ape
vel op
Ġsof a
il ty
Ġle aves
Ġpar ked
Ġd irt
Ġint ent
Ġsn iff
Ġmill ion
Ġho st
b bed
r action
Ġstun ned
Ġtremb ling
Ġt our
er ial
ous ly
Ġv ul
Ġb ones
Ġwh it
Ġj osh
Ġc ust
Ġspo ken
Ġdu g
i as
Ġnow here
Ġst ation
Ġins ane
Ġce lebr
Ġconvin ced
Ġacce pted
i est
Ġr ise
eel ing
Ġhor ror
Ġar gue
miss ion
Ġgl o
Ġmat ch
Ġdec l
ash a
Ġnat ural
h ol
Ġnight mare
im ent
s ometimes
Ġf ailed
it ation
bo y
Ġst al
Ġst at
Ġid ent
Ġte en
Ġhis sed
Ġguard s
Ġd y
ud son
Ġw icked
Ġde rek
Ġj ordan
Ġdisco vered
Ġdom in
Ġe ve
Ġgu ilty
Ġweap on
Ġcous in
Ġocc ur
Ġw es
Ġpul se
Ġry an
ail ing
Ġmat erial
Ġset tle
al ton
Ġk idding
Ġconf ir
eth an
Ġwor ks
ast y
ant age
Ġlun gs
Ġmar y
Ġsw im
Ġbr u
Ġgr ave
ess a
Ġdra wn
Ġt ied
Ġpun ish
Ġli qu
s a
Ġa ck
Ġcl ock
Ġmur der
y x
ot ic
Ġto re
it ted
pl es
Ġlo ver
Ġinvest ig
Ġsen sed
Ġinst ru
Ġam use
b ling
Ġgr ass
i ven
lo gan
Ġt ent
Ġp ers
Ġho ll
Ġpar ted
Ġinc hes
s ion
ex cept
Ġn ik
Ġsn at
Ġexperien ced
Ġd an
Ġpap ers
Ġchocol ate
b ie
Ġjo ke
th ree
Ġthr own
Ġu pper
Ġocc asion
Ġsecret s
Ġfl ood
Ġad just
Ġg own
er on
Ġdis play
Ġra fe
Ġa i
Ġdad dy
Ġembarr assed
ill ing
bl ood
Ġche er
um ps
ur ch
Ġf acing
h old
w en
ation al
Ġcap able
Ġlibr ary
Ġat e
Ġbo at
Ġmo an
Ġcon c
Ġl ang
ushe s
Ġspe nding
Ġhen ry
g ot
Ġj et
Ġfre aking
we ar
c ul
Ġcl ary
Ġme al
Ġsweet heart
Ġnod s
Ġam used
Ġble w
Ġack now
Ġsa ke
Ġtell s
Ġsqu are
m on
Ġrespond ed
Ġman age
l ish
os ing
Ġrecogn ize
Ġfe ed
Ġto es
Ġsh akes
Ġo ri
Ġheav ily
Ġsmo ke
she d
Ġvul ner
Ġac he
Ġass ured
Ġshif ter
Ġg y
Ġshort s
Ġserv ice
Ġsurv ive
Ġbr ide
et te
ak y
Ġpart ner
se c
Ġs our
Ġoff ering
ect ive
et an
r ick
Ġo ce
Ġwas h
ubb orn
el ve
Ġempl oy
Ġte ch
p or
nd on
ll ed
Ġfor cing
Ġv ac
Ġn ails
Ġwhisp ers
Ġden y
Ġhur ry
Ġcreat ed
Ġch ic
Ġa lec
Ġsh ivered
c am
Ġeng ine
i um
m in
as ure
fe rence
Ġc ausing
Ġunderstand ing
Ġfill ing
Ġp icking
Ġch amp
Ġtr ailed
Ġwood en
Ġshru g
Ġrec all
Ġr ow
Ġdin ing
Ġin ner
Ġsurpr ising
ump ing
Ġwood s
Ġyell ow
ic le
ess ed
as c
amp ed
Ġg as
Ġent er
n ick
ic ation
Ġw ow
Ġr iver
Ġsh ade
Ġsens es
d aniel
Ġcont ract
Ġimp at
Ġg ho
Ġstr ang
Ġw on
Ġshe ets
Ġw est
be at
Ġbu dd
Ġhum or
Ġt it
Ġcur sed
Ġp ier
Ġre act
Ġacc ount
o inted
Ġro be
Ġwr ists
y ear
Ġtr ain
Ġcomm on
d own
Ġ 2
Ġr ace
Ġhapp iness
Ġcr ed
v or
Ġb ree
or a
Ġch ose
Ġaw ful
Ġbother ed
Ġnat ure
Ġgest ure
Ġexha usted
Ġinter n
Ġcas ual
Ġdisg ust
Ġamuse ment
Ġsaf ety
en z
Ġlo ndon
Ġhe ight
Ġbut ter
Ġbreast s
d ad
Ġmere ly
Ġl one
Ġhur ting
Ġr aw
Ġli kes
Ġwor n
Ġm ck
Ġdro pping
ip er
Ġpre c
Ġother wise
Ġir on
Ġoce an
Ġwit ness
Ġere ction
exp ected
Ġb an
Ġbag s
Ġrep ort
Ġbl ink
Ġsc hed
Ġter rified
Ġlad ies
Ġcall um
Ġst ubborn
m ist
bec ca
Ġfix ed
Ġlet ter
Ġlead ing
Ġm umbled
ire s
c ons
ash ion
Ġpar is
Ġpay ing
Ġinclud ing
Ġnear by
un e
Ġcover ing
Ġgi ant
ict ion
u ine
Ġst eel
Ġex te
Ġmake up
Ġsl apped
ig er
Ġn ap
Ġfr ame
Ġann ounced
Ġm s
Ġbab e
Ġner ves
Ġdec or
ro p
Ġcorre ct
Ġgodd am
Ġev idence
Ġblond e
Ġf at
Ġtot al
Ġgrand father
Ġcar s
Ġign oring
Ġsatisf action
a pping
au d
iv ia
Ġsh ip
Ġhold s
com ing
Ġg ate
Ġadv antage
ered ith
Ġstart led
Ġho lly
Ġgar age
Ġstr anger
Ġexpl an
cept ion
Ġru le
g age
ack s
Ġgodd ess
Ġpart s
Ġch ain
Ġluc y
Ġt ur
Ġt aught
is m
Ġse a
v ision
Ġcharl otte
Ġv iolet
Ġswall ow
Ġbrief ly
Ġun e
des pite
ck s
Ġdist racted
Ġb one
Ġli ly
Ġpass ing
g ress
os en
Ġshe l
p o
Ġr hy
Ġop in
Ġch airs
Ġeas ed
Ġsh ame
Ġm ichael
Ġstand s
Ġhel pless
Ġgrin ning
Ġjack son
s im
asp ed
Ġfre ed
Ġb ank
Ġch urch
Ġop er
Ġsister s
Ġdy lan
Ġc ord
ur a
Ġd i
Ġgab e
Ġsky la
ld er
iz ation
Ġtw elve
Ġjer k
Ġstate ment
ell ed
Ġcl ue
ver n
Ġle ans
Ġgrab bing
Ġtrust ed
Ġpot ent
Ġgen uine
Ġdrive way
Ġt asted
az e
Ġch osen
Ġsound ing
en ger
Ġan t
g est
Ġrel uct
Ġdam ien
Ġg ames
pl ace
Ġarr ange
Ġob ject
Ġthreat ened
Ġanticip ation
Ġdo zen
Ġda wn
Ġlang u
Ġz oe
Ġmem bers
if y
Ġcol in
Ġfl ushed
be ing
Ġadd ress
Ġsear ched
Ġb ay
Ġchic ago
Ġincred ible
Ġesc aped
ing er
b en
j en
Ġf ac
Ġw is
Ġwas hed
Ġs way
u le
Ġc rew
Ġab by
Ġmaj or
Ġun lo
m ax
Ġsof ia
Ġgaz ed
Ġbow l
Ġis sue
Ġqu it
Ġcut ting
l ord
es ome
Ġprof ession
Ġwill iam
Ġstro ke
Ġmo ves
Ġt ail
Ġmatt ress
t t
ro se
Ġqu ar
Ġposs ibility
Ġsoon er
Ġth read
st al
Ġwin ked
Ġdrif ted
Ġdam age
Ġst umbled
Ġ vel
Ġb ul
Ġcreat ure
Ġsat ur
Ġlex i
Ġstor ies
Ġcur ve
Ġwra pping
Ġcoo per
Ġapp e
Ġclot hing
Ġg all
Ġtr aining
Ġpat ted
Ġa my
Ġcharl ie
gr ace
Ġh art
im m
Ġc her
i ently
dd ing
Ġgr ad
Ġsh y
Ġsens itive
at ically
ce ed
Ġj our
Ġabrupt ly
Ġori gin
Ġbeh av
Ġansw ering
an or
Ġde pe
Ġacc ess
as per
Ġfang s
Ġtr ay
Ġguess ed
Ġb unch
Ġh ous
k n
Ġf asc
Ġdev il
l ook
Ġv in
Ġstar s
Ġm c
av in
Ġfl in
Ġun expected
Ġspir it
Ġtab les
Ġbelong ed
Ġpre v
Ġd ipped
Ġcamer a
Ġt ipped
Ġcat ching
Ġphoto gr
Ġvir gin
ad d
Ġam eric
r al
Ġcr acked
Ġtor n
Ġsu ite
Ġlo g
b eth
Ġf ake
g ly
Ġtr apped
Ġdrink s
Ġwal ks
Ġconf ident
Ġsp ring
Ġhit ting
Ġgrow l
Ġsoph ia
Ġmor gan
ul f
b et
is ab
Ġbr ill
Ġsar c
Ġstr and
Ġa ching
Ġpl astic
Ġra ise
Ġbr ushing
Ġhalf way
f irst
Ġhe ated
at ure
Ġch a
Ġrhy th
ab out
j ake
Ġcho ked
Ġr ip
Ġj aenelle
Ġli es
um ble
Ġecho ed
Ġstro king
Ġdestro y
Ġatt ract
cla imed
Ġneighb or
Ġwas te
Ġconn or
Ġal arm
Ġdis bel
Ġw ishing
um n
Ġfur ious
Ġr iding
un fortunately
Ġmus c
m ad
Ġpain ting
sl ow
r an
Ġpract ice
Ġvan ished
Ġsho pping
Ġguest s
ot ed
Ġglanc ing
Ġemotion al
Ġscr am
Ġwrit ten
ac le
Ġu gly
Ġbell a
Ġstri p
b re
Ġw ard
app arently
Ġtar get
Ġ vers
Ġche cking
Ġres c
Ġreg ular
Ġenem y
Ġw an
Ġn ames
Ġfor ty
ie ve
Ġtight er
iv al
Ġst air
Ġp age
Ġrhyth m
Ġy ard
Ġ ing
Ġisab ella
Ġm ason
Ġey el
u it
Ġst ated
Ġinv ited
Ġfre ak
Ġbe gging
ir l
Ġob s
Ġfore st
Ġfar m
al es
Ġloud ly
Ġb ird
Ġd read
Ġsy mp
Ġrespons ible
Ġh ors
pe ople
Ġbal ance
u gg
Ġs illy
Ġe tern
Ġr acing
Ġcoll ap
Ġsoc ial
Ġsw eep
Ġunder wear
Ġsmo ot
Ġche w
Ġch anging
Ġten sed
Ġconn ected
Ġam b
Ġf ate
en a
it ure
Ġis su
Ġpock ets
Ġr am
Ġment al
Ġaf ford
Ġconst ant
Ġp a
um ed
Ġl ick
all e
Ġcl ar
Ġre v
l or
Ġact ions
Ġnur se
Ġfren ch
Ġt ub
Ġr out
ios ity
Ġste al
Ġcont r
Ġenc our
Ġve ins
Ġun w
Ġmy st
air ed
Ġsn ap
Ġfar ther
Ġh ood
Ġpro ject
Ġsp ar
ad o
Ġshudd ered
Ġcla imed
Ġr aced
Ġcirc um
u ction
ad ia
Ġca le
Ġmount ain
Ġb ored
Ġqu inn
Ġdep art
Ġt an
Ġno body
Ġord ers
om as
Ġk im
Ġal co
Ġfurn iture
Ġa id
Ġno pe
Ġsatisf ied
i j
Ġj im
g ard
Ġp ile
Ġp unch
Ġa ri
Ġfif ty
Ġar ch
Ġmat tered
cl ock
Ġexplan ation
le e
Ġapolog ize
Ġembr ace
Ġshe et
Ġintim ate
i ance
Ġextreme ly
im in
Ġtrave l
Ġbull shit
Ġn amed
Ġres ult
Ġgest ured
Ġgar rett
Ġbu zz
Ġm all
en ces
Ġbe gged
Ġlaugh s
he tic
Ġstro de
Ġtech n
Ġfl ames
Ġexp ensive
Ġdisapp ointed
Ġsu cking
op h
w alk
Ġha l
h al
Ġcomp an
sp ect
Ġfl icked
Ġgl it
Ġinde ed
as es
Ġste pping
k now
p re
Ġk en
Ġreturn ing
Ġdru g
ur s
Ġadv ice
Ġrom antic
Ġwin ced
Ġcare er
m at
Ġkn uck
Ġbr oo
Ġatte nd
Ġr and
Ġvo ices
Ġh annah
er ie
Ġheart beat
Ġd umb
un ched
Ġcl o
Ġnorm ally
Ġd un
ir ing
ind ing
Ġz ach
Ġt ough
Ġdelic ate
Ġelb ows
Ġcomp et
Ġshoot ing
Ġro de
how ever
Ġrest r
Ġst all
Ġtr aced
Ġhung er
Ġlu x
c r
s il
Ġv en
Ġdist ur
Ġbehav ior
Ġkn ot
Ġcent uries
j e
ri b
ag r
i ents
Ġte ach
ink led
qu is
Ġcoun cil
Ġsatur day
Ġpo inting
Ġran ch
Ġc ro
Ġwh om
Ġpl ain
Ġlay ne
Ġweap ons
Ġcust om
b ook
Ġch ill
Ġloc al
Ġdeli ber
Ġfr iday
enz ie
Ġl in
ut s
Ġor gan
Ġimp ress
ag ement
Ġh ook
Ġproper ty
Ġcom for
e le
t ail
Ġp izz
il a
Ġneed ing
Ġopin ion
Ġint ention
Ġru in
Ġb ud
Ġter ms
Ġr on
Ġn u
Ġc ore
Ġchuck le
Ġtr ace
Ġrequ est
Ġf ed
ste ps
ances ca
Ġhapp ily
Ġatt acked
Ġmatter s
Ġin fl
Ġissu es
Ġwith d
Ġstiff ened
Ġj esus
Ġgr ief
Ġassum e
sh ine
Ġall owing
Ġcont em
Ġback ground
Ġintens ity
oo p
t rent
ay ed
Ġj ared
Ġsu gar
Ġprotect ion
Ġbreath s
Ġt apped
Ġsl ipping
Ġshif ters
Ġco cked
Ġaw esome
Ġremember ing
Ġshar ply
Ġdig ging
Ġins ist
Ġkee ps
Ġcur iosity
Ġdar ling
slow ly
Ġl ately
Ġdisapp ointment
l ace
Ġdr own
Ġvulner able
Ġtort ure
al ity
Ġlot s
Ġsqu ir
Ġf eared
Ġvict im
Ġrun s
Ġpre cious
Ġappro ach
Ġbr idge
d ar
ath y
Ġin it
Ġclim b
t ake
Ġwho ever
Ġcond om
or row
Ġr ig
Ġha ul
Ġo we
Ġj ane
Ġincred ibly
Ġconf idence
id ly
Ġpe ered
Ġgrim aced
Ġhors es
Ġh udson
lyn n
Ġstrugg ling
Ġcr ad
Ġdec k
Ġun like
Ġsh aring
Ġele g
Ġpr ice
Ġser ved
some how
a ire
Ġim pl
Ġtem ple
Ġfa ith
Ġmass ive
ce ll
Ġlo yal
Ġanno yed
Ġfor med
Ġm ack
ar ch
Ġval ent
Ġgood bye
Ġagre ement
pro bably
e nded
Ġlit er
Ġmar cus
Ġluc ivar
t ears
re ally
Ġmon ster
Ġtreat ed
h am
Ġdiv or
Ġwh ipped
Ġpr im
Ġexp osed
Ġsure ly
Ġcred it
w o
anc ed
Ġsoph ie
Ġgigg led
Ġf ail
Ġpur ple
iam ond
Ġliqu id
Ġbe lle
Ġun h
ien na
Ġjen ks
Ġrib s
Ġro cked
ist ic
Ġnor th
e nd
Ġsh own
Ġdr ank
Ġd ue
ch ase
Ġr iley
h us
ar on
Ġp acked
ke e
Ġgl imp
Ġdec lan
Ġcur ved
Ġda isy
Ġgho st
Ġdes p
Ġret reat
Ġc ig
Ġsc ru
Ġland ing
and er
Ġstudy ing
Ġcar pet
Ġdeal ing
Ġe gg
Ġcamer on
an ning
Ġstre ets
Ġp iss
Ġcircum st
Ġsc are
gr am
Ġdep th
Ġs ib
col t
Ġem ily
stand ing
Ġspot ted
k at
Ġbree ze
Ġsho ve
Ġmid night
Ġey ed
Ġho ly
Ġn ud
Ġfro zen
Ġhe ctor
Ġj ol
Ġfir ed
Ġy ep
p an
Ġc ave
oll en
Ġw ren
Ġd agger
Ġr ome
do es
Ġswe ater
ci ent
n el
Ġprete nding
Ġvin cent
Ġt am
Ġcur ls
Ġcir cles
Ġoccur red
Ġar rog
Ġsw ore
Ġve h
Ġscow led
Ġdis p
Ġjul ie
Ġh ill
Ġg wen
Ġc art
Ġeng lish
Ġgl owing
Ġob ser
Ġur g
Ġsh ining
ore s
Ġcont ent
Ġmem ber
Ġbeg un
Ġtr ained
Ġdisbel ief
Ġreal izing
ord ing
Ġd iamond
ol ves
Ġenc oun
Ġsac rif
in ary
on a
Ġbrill iant
h aired
o le
Ġwin ter
b ell
Ġf ish
Ġn athan
ag ne
Ġdoll ars
m et
Ġbig gest
ir ling
j am
Ġdraw er
Ġth under
Ġru ined
Ġdrag ging
in c
Ġwr ite
Ġk y
Ġl az
Ġaffect ion
Ġbar n
Ġfall s
Ġpoint s
l uck
ph one
oo ped
the se
Ġun t
Ġac ted
Ġc ake
Ġle ap
Ġsw ollen
m ag
Ġsl o
Ġdoub ted
g re
Ġcon cl
Ġb art
Ġdis m
Ġsim ilar
Ġjew el
Ġter rit
io d
t own
Ġu lt
Ġsee ming
Ġpr ick
Ġrepl aced
Ġde velop
Ġjam ie
Ġpl at
Ġin formed
Ġmist y
Ġrece ived
ap es
Ġend s
Ġkill er
ale x
Ġvictor ia
f all
Ġsu nday
Ġsp ee
Ġsl owed
Ġev ents
Ġmas k
Ġdu de
Ġad ult
Ġdes ce
Ġf ile
it or
Ġmag az
Ġmis er
Ġimm ort
c ass
ul ation
ap ers
Ġol ivia
Ġatt ached
lu ke
p y
v a
Ġm eredith
Ġnot es
Ġgo in
Ġreve aling
Ġpizz a
ing ed
Ġcour age
Ġdemand ing
Ġr ick
n one
Ġpin ned
Ġsh r
Ġrec ently
s ur
Ġc rou
Ġown ed
Ġfriend ly
Ġsmir k
ri er
Ġmel ted
Ġan cient
Ġf ol
Ġreac hes
Ġprofession al
l it
in ated
Ġac qu
Ġcor rid
ik a
Ġsusp ect
Ġcond ition
at ively
ar se
Ġmag gie
Ġimp ression
Ġchamp agne
Ġre ver
ide on
Ġchar ming
Ġelect ric
e ach
Ġarg ument
Ġb ike
an ne
Ġan na
Ġte nd
Ġvill age
ke ep
Ġsc ary
Ġexplo ded
Ġun b
Ġres er
t les
Ġchar m
Ġalco hol
om b
l iam
Ġand re
Ġty p
Ġk ane
no ah
Ġbudd y
Ġknuck les
p art
Ġappear ance
Ġen orm
g y
Ġc ards
Ġner ve
Ġbit ing
Ġr ot
h ard
Ġmu ff
Ġhu ff
Ġr ust
Ġsh rie
Ġpain t
et t
Ġdestro yed
Ġpossess ed
Ġacc ent
Ġor ange
Ġev an
Ġhesit ation
s ky
Ġha lt
Ġmar shall
Ġsnar led
Ġclose ly
Ġtremb led
Ġclut ched
ak er
k et
n ate
Ġpun ched
Ġa im
Ġfin n
Ġdanc ed
Ġf lex
Ġl ined
Ġwe ather
Ġben ch
Ġjul ia
Ġwarri ors
Ġsc en
Ġs id
Ġbo nd
zz led
Ġw ink
Ġopt ion
Ġt iger
Ġfoot steps
Ġsa ving
Ġv ague
Ġcon ner
Ġn in
see ing
' m
Ġr ushing
are t
Ġs outh
Ġhous es
Ġtr an
sh ould
Ġpound ed
u ous
Ġsens ual
s ie
h in
an ny
Ġc age
m ate
ant ing
az ing
Ġw il
Ġgr itted
Ġfoot ball
Ġdut y
Ġrem ote
Ġglanc es
Ġex it
Ġpo ison
ub ble
ung ed
Ġmiss ion
Ġexist ence
Ġnot ed
char l
Ġloo s
m el
Ġgy m
c ur
Ġfrustr ated
Ġed die
Ġair port
Ġimag es
Ġinv itation
Ġag ent
Ġtr aff
Ġcall ie
Ġsur re
Ġeight een
Ġd ang
Ġre ception
Ġcry stal
Ġd iss
em s
Ġca ut
Ġhoo ked
Ġattract ive
Ġble eding
g as
Ġt ips
ri ate
ang es
Ġsand w
o d
than ks
Ġvel vet
e yed
Ġsha ft
Ġac hed
Ġkind s
Ġcomm un
Ġshif ting
om es
Ġparticular ly
Ġsit s
Ġtele vision
Ġmck ay
Ġl ashes
Ġex claimed
Ġd ial
Ġdes ign
Ġst ress
Ġlo bby
Ġsto le
Ġt ank
ort s
Ġter ror
Ġst yle
Ġspee ch
Ġmove ments
ren na
Ġwhit ney
iz zy
Ġocc up
Ġo k
Ġmach ine
l aw
Ġcircumst ances
Ġan ton
Ġimp ressed
Ġhum ili
Ġp ity
Ġsw ing
ab ility
Ġbutt ons
ah am
Ġbab ies
ur ance
Ġact iv
l ong
pt ion
Ġstret ch
Ġn av
Ġscrew ed
ad er
Ġsp ect
Ġad or
Ġwr iting
Ġf ashion
ch rist
x y
Ġwe al
l ad
Ġd alton
Ġm aid
Ġsa b
ne ither
Ġcr is
Ġtu g
Ġassist ant
Ġol iver
Ġne at
asm ine
Ġsk ills
or ia
Ġjud ge
Ġdo gs
Ġinter view
f an
Ġst ack
Ġcons cious
Ġset h
Ġthr illed
se y
Ġpass enger
ac ter
Ġreve al
Ġl ur
Ġst ern
ier ney
j on
Ġv ide
Ġvar ious
ell y
Ġtang led
Ġrare ly
Ġa uth
v at
Ġside walk
Ġdet ail
p ack
Ġhand ful
Ġcor ners
g ab
Ġc el
Ġper iod
Ġpain ted
Ġmur d
Ġbegin s
Ġform er
Ġide as
n or
Ġn ina
Ġr ipp
Ġman ner
Ġru de
Ġdru gs
Ġch ris
Ġse vent
Ġlangu age
Ġb on
Ġgo ss
Ġwh ist
Ġam elia
Ġop ens
Ġstop s
am ber
Ġout fit
Ġele ven
j ected
Ġn asty
Ġdro ps
Ġself ish
Ġdar ted
Ġutter ly
Ġun us
Ġdo c
Ġexp ress
Ġcar ol
Ġz ack
Ġfright ened
im ate
Ġsh ay
l au
Ġro le
Ġcur l
Ġsar ah
Ġg ear
Ġarm y
Ġvers ion
is ions
Ġtw in
Ġgr aham
em ber
Ġthrough out
Ġunc ertain
Ġsun shine
Ġent ertain
Ġdu ke
Ġtraff ic
Ġc ot
Ġp aul
Ġme at
Ġfam il
Ġthreat ening
Ġspin ning
Ġt ask
Ġh id
l i
Ġfriend ship
Ġlou der
Ġsign s
Ġh ired
Ġpleas ant
Ġ ess
at ors
Ġgri pping
Ġkno cking
Ġcru el
et r
Ġr ory
m i
Ġatt itude
Ġauth or
f oot
Ġprefer red
de v
Ġkat ie
c al
Ġwait ress
Ġh ank
Ġup ward
ile t
Ġpr oof
Ġdr um
Ġsad ness
Ġcast le
m aking
Ġse ated
Ġexte nded
Ġe p
Ġh mm
Ġdark ened
Ġmar ble
Ġdist ant
rie l
Ġprev ious
ver t
Ġbo oth
Ġcl ient
Ġexpl os
Ġmort al
h ope
Ġser ve
Ġstri ke
da emon
Ġsne ak
Ġp ony
ct ions
che ll
Ġfreed om
Ġg ul
ur ally
Ġp ierce
Ġfl ared
Ġstar k
b on
Ġo be
Ġthor ough
Ġabandon ed
her on
Ġhun t
ven ge
Ġsl ick
Ġfair y
Ġpriv acy
cla ire
Ġswift ly
Ġsched ule
so on
Ġco ach
m ike
v ict
it ting
Ġpl acing
Ġk yle
Ġac heron
Ġsc anned
Ġmix ed
Ġre nt
Ġglimp se
Ġexch ange
Ġhun ters
g en
Ġbl ast
Ġbre ad
Ġref er
Ġn ib
ly ing
Ġunc ons
Ġl oun
Ġanx ious
Ġf an
b one
Ġha mm
Ġpol ite
Ġsp are
b ur
g ive
Ġb oun
Ġper man
ky rian
g al
turn ing
Ġsp illed
Ġint ell
it a
Ġcompl icated
Ġsmall er
Ġl y
Ġtr ash
Ġchick en
Ġcl ung
ch loe
Ġdream ed
Ġe c
Ġbull et
cell ent
Ġb oring
Ġsh aky
Ġarou sal
Ġd ull
Ġre ar
lu is
m ac
Ġper form
Ġsoot hing
Ġenorm ous
l ar
es day
Ġhe ather
Ġsw ell
g iving
Ġr at
Ġall ey
Ġte ase
Ġcale b
Ġso re
Ġexh aled
all as
Ġtre vor
gu ing
Ġshe er
j ace
Ġle o
Ġphys ically
Ġbr ut
b i
i ated
Ġetern ity
Ġneck lace
Ġfant asy
Ġbl ush
Ġje ff
Ġcas ually
Ġaccom pl
Ġk icking
Ġtor ment
Ġher o
Ġfor k
Ġw ry
Ġsmir ked
know ing
Ġcont ain
Ġcollap sed
Ġav ail
Ġsoft ened
Ġpat ience
Ġem erg
Ġling ering
Ġm aint
Ġsun light
Ġfl u
Ġm it
Ġpunish ment
f ire
the w
Ġpro gram
Ġge or
Ġex isted
app y
s ix
Ġdis h
Ġhurt s
Ġprotect ive
Ġisab elle
Ġgr an
Ġprec ise
Ġar rest
Ġwar n
Ġra ising
Ġcraw led
Ġal ice
Ġlead er
n ic
ico le
Ġmo nday
un ting
Ġed ges
Ġphot os
Ġfool ish
Ġfamil ies
Ġho arse
Ġcle aned
Ġsquee zing
Ġmov ies
hus i
Ġthro bbing
Ġmagn us
oll o
Ġcapt ain
Ġliter ally
ce l
Ġreve aled
st op
Ġst yx
Ġpre vent
av a
g ra
Ġsnat ched
Ġjon as
n al
are st
Ġlap top
Ġaut om
Ġpl anted
Ġclos est
sure ly
thing s
Ġhe el
Ġsn ugg
Ġw igg
Ġche ese
Ġs omet
Ġbr aced
Ġbr it
Ġse es
Ġco de
Ġlif et
rid an
Ġb ik
i ers
Ġrem ove
Ġank les
or ting
Ġfl ip
Ġstrugg le
Ġgrad u
s we
im med
Ġlet ters
Ġlear ning
Ġcorrid or
Ġsl ap
Ġlet s
Ġsix teen
Ġchrist ian
Ġgoddam n
Ġup right
Ġsurround ing
ru ction
Ġcle aring
Ġbr andon
Ġpant ing
Ġg ain
Ġha bit
j ax
Ġinv is
Ġve gas
Ġtu gging
wor ld
am ent
Ġun if
pl us
Ġsur ve
Ġpro pped
Ġpill ows
Ġr att
Ġsl ave
Ġprete nded
Ġsurre nder
Ġst ool
Ġf ancy
ic ate
Ġgr umbled
r achel
s oph
Ġcr ush
Ġpat tern
Ġsent ence
Ġbo lt
Ġmu g
Ġoverwhel ming
c at
Ġstuff ed
Ġb ust
Ġcol ors
Ġtoss ing
Ġclaw s
Ġce rem
Ġpet er
v iously
Ġcon ce
g ment
v ation
Ġcar son
Ġr agged
am ps
anc ing
Ġte acher
Ġheal thy
er c
Ġd art
Ġtal ent
Ġgener al
0 0
Ġgentle man
Ġnervous ly
Ġpol it
Ġloc ation
Ġcass idy
Ġme lt
Ġcar ing
Ġton y
Ġref use
w al
Ġour selves
light s
m ark
Ġf iona
Ġanim als
Ġsa etan
Ġafter ward
Ġlone ly
en ess
al ine
jul ian
Ġtre m
Ġn y
Ġex cellent
an o
Ġry der
Ġw re
Ġdeterm ination
e ither
Ġfo g
Ġent husi
l ast
Ġsm ug
lo ve
Ġmark et
Ġavo iding
Ġgoss ip
s or
Ġdri ven
Ġdisco ver
iven ess
Ġfe ather
Ġbother ing
Ġres ol
Ġtem por
Ġbas ket
t al
Ġch anges
Ġin sp
Ġpre ston
ob viously
nd a
ic ating
Ġm ult
Ġdr ained
Ġso le
Ġstill ed
Ġbox es
ie v
Ġs ke
Ġeat en
Ġterrit ory
Ġre becca
Ġcle aning
any thing
Ġcl an
Ġlong ing
Ġdel ivered
Ġring ing
Ġcre ate
Ġcop s
i xt
Ġr ings
Ġex ec
Ġme g
ass es
Ġdr aped
Ġcr ime
Ġstun ning
d ec
Ġp ec
Ġwh im
Ġbr ace
ip e
Ġm ail
re my
Ġsp ray
r age
Ġto m
Ġst raw
Ġeleg ant
ill a
Ġabs or
in o
Ġag ony
Ġro pe
Ġoffic er
Ġdress ing
Ġsmoot hed
Ġtri gg
Ġviol ent
er al
Ġno dding
Ġfl ower
Ġfl ashing
az z
Ġrequ ired
Ġinno c
Ġsc oot
Ġarr anged
Ġa is
to gether
Ġsoc iety
Ġto ast
Ġcl icked
Ġbar s
d avid
s ay
m ade
Ġsp an
ol en
Ġjen ny
Ġcommand ed
Ġbr ave
Ġjump ing
Ġow ed
sh ips
Ġmar ks
Ġweak ness
he a
Ġper mission
Ġbr ick
Ġear n
Ġt ed
Ġtw ins
cl ay
Ġcoo king
Ġwand ered
Ġcapt ured
Ġstal ked
Ġmo ist
Ġbo ot
y ce
Ġg inger
Ġend ing
Ġgrand ma
Ġposit ive
e ight
Ġtr ap
Ġclass es
Ġgreet ed
ar ted
Ġro ared
Ġexp ert
v ie
Ġp ent
Ġmer cy
Ġnumb ers
Ġrep ut
Ġveh icle
d ge
al most
Ġless on
h ar
Ġb owed
pr om
Ġbe ck
se qu
Ġsh attered
Ġgr unted
Ġvalent ine
ast e
Ġsc ars
c ont
re ll
Ġl icking
Ġput s
Ġsy n
ic ted
Ġwr ote
Ġprot ecting
Ġdecl ared
Ġis a
Ġad rian
Ġmot or
Ġr ay
Ġworry ing
Ġdel iver
Ġirrit ated
Ġsp ite
Ġke nd
Ġn adia
c ony
Ġtw itched
Ġwhis key
ag ging
Ġsome what
Ġpro ved
Ġsuff er
Ġholl ow
u ing
Ġst olen
Ġmiser able
Ġsho ving
Ġpour ing
Ġbl iss
Ġrefle ction
Ġlifet ime
Ġgro cer
Ġbal cony
Ġal ert
ul ate
ho ly
Ġcar a
Ġv ent
Ġse ason
Ġdis miss
Ġact ual
Ġown er
Ġthumb s
Ġembarrass ment
Ġsett ling
m ail
ess ing
Ġremind er
s ar
Ġste ad
Ġpotent ial
Ġvide o
Ġp out
Ġjo king
Ġlaw yer
Ġsour ce
Ġfr idge
Ġtrave led
Ġscram bled
Ġret rie
Ġs ienna
Ġem ph
vel ope
Ġrespons ibility
Ġinvis ible
Ġsh imm
Ġam ber
Ġrock s
z zy
Ġp ushes
Ġwe b
Ġen velope
Ġbreath less
Ġhun ting
Ġwhisper ing
Ġround ed
Ġsp ike
Ġman ip
Ġwip e
Ġw aking
Ġback s
Ġdec ent
ren aline
Ġlight ning
Ġcalm ly
Ġrese arch
vat ore
Ġconst antly
th ink
Ġmat ching
Ġpregn ancy
Ġjealous y
Ġconcentr ate
Ġslee ve
Ġdeliber ately
oo ked
Ġfr ancesca
we re
Ġdr ake
l ies
us es
Ġsm ack
Ġmo d
Ġest ate
ri ly
Ġfur row
Ġtwist ing
Ġj ail
Ġmir anda
Ġrock y
Ġd ucked
is to
Ġcr ash
sim on
Ġw ise
Ġb ubb
Ġs ally
Ġl ore
Ġreal m
Ġper cent
Ġstri pped
Ġsurv ived
Ġs ection
Ġhe aling
Ġmusc ular
Ġside ways
Ġcur ves
Ġsec ure
Ġatt racted
Ġacknow led
Ġfo nd
Ġhesit ate
Ġstir red
Ġcontem pl
ie lle
Ġsepar ate
ot ch
Ġsto ck
Ġarri ve
Ġrand om
al ie
Ġcirc led
at tering
Ġwa ving
Ġsw itch
Ġya wn
Ġc ub
Ġobl ig
ar med
b al
Ġjust ice
Ġdis hes
Ġseat s
Ġwound s
Ġbr yn
i ans
Ġf ence
Ġbuild ings
zz le
Ġda im
Ġe t
cl ary
Ġrig id
Ġavail able
st ep
Ġchild hood
Ġwh irled
ton ight
Ġdepart ment
rif ying
Ġl ump
Ġmy th
Ġfr ag
Ġrepe at
Ġa pr
Ġcr ashed
Ġtem pted
b ar
it ar
Ġha y
ll ing
an i
th rough
d is
m ia
Ġpain fully
Ġn est
Ġt ap
Ġsh uff
h aving
Ġslam ming
Ġp uff
Ġgl aring
Ġclim ax
Ġcrowd ed
Ġto e
Ġintell ig
Ġsur ge
Ġphotogr aph
Ġb rian
Ġpal ace
Ġinj ured
Ġlim bs
Ġp ear
or ter
ane y
el ing
Ġmoon light
Ġunus ual
re r
Ġf ears
Ġk a
Ġwar lord
i able
Ġt essa
Ġb un
Ġbl ushed
Ġsm ith
Ġprot ected
ola i
Ġth omas
Ġany time
Ġdist ract
Ġc ush
Ġun sure
p ut
Ġdec isions
Ġpsych ic
it able
Ġgather ing
Ġanx iety
al ways
or ne
ull ing
Ġstr ained
Ġment ally
Ġg ree
um ing
k ate
Ġwas hing
Ġinte nd
Ġluc as
Ġviv ian
Ġisa ac
Ġstr add
Ġdry ly
Ġank le
Ġsle nder
Ġchar acter
Ġg er
Ġsig ned
Ġg avin
Ġex asper
cle ar
Ġyell ing
Ġins ides
Ġdivor ce
Ġi cy
Ġp ow
Ġmad die
Ġlar ger
Ġremind ing
Ġst if
Ġfl ush
b les
ib ilities
iver se
Ġb ord
ass ie
Ġfem in
Ġstud ents
Ġcreat ures
t or
Ġrem aining
Ġcl oth
Ġty ler
Ġcot ton
j ess
j ase
y ard
if er
Ġmar a
p ower
Ġr oth
Ġman e
gr ay
Ġinter rupt
Ġec st
ic y
Ġunif orm
m es
Ġro cking
Ġbu ying
Ġg ideon
ak s
Ġshot s
Ġfl owed
Ġa ver
sh ot
Ġhigh ly
Ġspread ing
Ġcompan ion
Ġm ild
ad s
Ġp il
Ġintim id
el izabeth
Ġang le
Ġdri pping
Ġcho ices
Ġanno ying
Ġre venge
Ġconn ect
ing e
Ġso b
cl air
col ored
Ġcloud s
Ġappro p
Ġc y
Ġsw itched
Ġconfir med
Ġreput ation
r ina
Ġbe nd
Ġm ap
Ġcar ter
Ġtor so
Ġapolog y
et er
Ġcerem ony
Ġfr uit
Ġch ains
Ġlead s
Ġf el
Ġhard ened
ber ry
Ġsur real
Ġdiscuss ion
Ġfant astic
Ġdress er
Ġgigg le
Ġemerg ency
Ġa ston
Ġnew sp
ot ted
Ġpro gress
Ġrem ar
ipp er
Ġresc ue
m ake
Ġw ing
it ary
um an
Ġpl ates
em is
Ġdr am
Ġguess ing
if orn
Ġattem pted
Ġd ante
am y
Ġkn elt
Ġsp at
Ġfire place
Ġla wn
Ġroll s
Ġm ace
Ġd uc
Ġshe d
Ġfl ow
Ġdef ense
Ġstare s
Ġmotion ed
bl ake
Ġsh ows
Ġsed uct
Ġvac ation
v is
Ġme gan
ah n
Ġmil k
Ġtran sp
Ġst icking
Ġsk ull
st one
Ġcl ients
Ġph il
Ġer otic
Ġha w
Ġer r
nd y
Ġar a
ol o
Ġgl or
Ġform al
r un
Ġais le
Ġemer ged
Ġd er
se an
Ġuncons cious
Ġsuspic ious
Ġl ink
ve re
Ġbr an
Ġsc out
Ġwr ath
Ġins ult
l ife
Ġhand ing
Ġcal iforn
Ġclut ching
d le
n orm
ag on
Ġcur ling
Ġch ances
iss y
Ġdr ama
Ġmar ked
Ġexc iting
Ġsing ing
Ġmas cul
Ġhat red
Ġwh ore
Ġall y
Ġqu e
Ġfour th
Ġeng aged
Ġn et
er o
Ġtr unk
Ġshout ing
Ġplan et
on ing
ro l
Ġfant as
Ġopt ions
Ġcru shed
ir teen
Ġprov ide
at ory
v an
Ġs ara
Ġsuit case
re sh
Ġl amp
Ġtr ad
Ġa aron
Ġtem pt
Ġsepar ated
Ġso ap
us ive
Ġviol ence
w ait
Ġc ries
ul ated
Ġdist raction
kn own
Ġameric an
w at
Ġm mm
Ġgu ar
bl ue
Ġscow l
Ġpony tail
Ġha z
Ġun iverse
bl ack
Ġmo del
Ġstret ching
Ġanno y
Ġhe m
int s
Ġcomp ared
Ġmess ed
Ġkend all
ie ce
Ġsc off
Ġz e
Ġneighbor hood
Ġbo ld
Ġheal th
Ġprop os
Ġdefe nd
Ġa ch
Ġne g
Ġcaress ed
Ġlat est
Ġend less
ud ed
Ġmess ages
Ġcaliforn ia
Ġamaz ed
Ġb omb
Ġbr ings
ens es
Ġquestion ing
ve led
Ġle ah
Ġsl umped
Ġmy ster
Ġpin ched
ress ing
Ġset s
Ġtight ening
Ġc ain
Ġal ph
g reat
uss y
Ġinh aled
Ġs ant
Ġfa e
Ġv ig
ump h
Ġexha ust
Ġbetray ed
Ġfl owing
Ġshudd er
Ġkn ight
Ġreal ization
Ġhop es
he ss
Ġpat ient
n s
in ating
et ch
Ġr ate
ition al
Ġprov ided
Ġt uck
Ġfor d
Ġsh iny
Ġ ought
Ġsm acked
Ġeyel ids
Ġarrog ant
Ġcr own
Ġtear ing
Ġshe ll
if ting
Ġatt raction
h ot
Ġoffic ial
Ġwhere ver
Ġoverwhel med
Ġcl amped
Ġd ated
Ġdo ve
Ġdri ft
Ġash amed
Ġd umped
it es
he l
ne xt
Ġass ure
Ġmad ison
Ġre ward
Ġmagn ific
Ġst ing
au ses
Ġtou ches
omed ay
Ġro yal
Ġimp ro
j ason
ou ch
un less
Ġlay ing
Ġincre ased
Ġegg s
f eeling
Ġent ry
Ġre apers
ri but
Ġand rew
ac on
Ġfl ir
Ġinv ite
Ġpat hetic
Ġcraw l
r um
Ġthe rap
Ġad renaline
Ġkid na
Ġ 3
Ġno str
Ġflood ed
Ġwild ly
v i
Ġcl ick
Ġgrin s
Ġs inking
Ġnight stand
Ġacc ording
Ġfro st
Ġarg ued
u nd
it ching
Ġpark er
rem ember
s ized
Ġfor b
Ġfam ous
h h
Ġequ ally
Ġimp act
Ġfour teen
Ġru ss
be h
Ġsp it
tr ust
Ġmagaz ine
Ġappro val
Ġt ilt
Ġb ang
Ġv iper
i qu
re te
Ġd ared
Ġj asmine
Ġprom pted
Ġfin anc
ins ley
ic les
Ġpart ies
Ġser ies
Ġvis ible
Ġcook ies
w ater
Ġcon sequ
Ġsk ill
ij ah
id get
Ġa ly
Ġtri es
Ġalex andra
Ġc iv
Ġmo der
Ġne arest
ned y
Ġd ip
Ġadd ing
a way
Ġs ung
Ġjul es
Ġcand le
Ġsevent een
Ġr uth
Ġapp ointment
ys on
Ġmit chell
Ġd orm
mo ving
Ġbur y
Ġste fan
Ġmag ical
go ing
Ġimag ining
Ġdev ast
Ġduc hess
Ġcl asped
Ġbas ement
h on
Ġhope fully
t led
Ġto ilet
it ions
ur i
Ġflut tered
w r
Ġre aper
Ġwar med
Ġcontin ues
Ġflick ered
st ick
Ġro ar
Ġhor rified
Ġhus ky
Ġorigin al
all ed
Ġfl ame
Ġshort ly
Ġcross ing
Ġmis ery
Ġshru gs
Ġscream s
Ġwait er
Ġexch anged
beh ind
Ġwr inkled
Ġobl iv
ter y
so ci
Ġcha os
Ġpack age
Ġimmort al
Ġtop ic
Ġtrack s
sor ry
w es
Ġbo b
gl as
Ġarou sed
Ġstr ing
Ġpen etr
Ġge orge
id ra
Ġal tern
Ġimag ination
rib ly
Ġd ried
Ġb orrow
Ġex quis
av ier
head ed
Ġcu ps
Ġow en
Ġal oud
Ġnostr ils
Ġsu ll
os ie
Ġtun nel
Ġacknow ledge
Ġn uts
op s
Ġcar ved
Ġsw inging
Ġmen u
Ġclim bing
c ut
Ġp ages
Ġas soci
Ġro d
Ġcomm unity
Ġcol by
Ġcurrent ly
ant ically
Ġfl ung
Ġcand y
Ġenem ies
Ġth irteen
Ġint ri
Ġstep hen
gu er
Ġflin ched
Ġfair ly
Ġaff air
Ġglo ves
Ġmyst ery
Ġmo ck
Ġd ee
Ġpress es
Ġch ann
Ġsat in
Ġcon ference
Ġgre y
Ġp aced
Ġje an
Ġch ief
Ġthought ful
ather ine
Ġcre pt
Ġgr at
Ġbu ff
gu ard
Ġslight est
Ġrich ard
Ġlift s
guer ite
Ġst agg
Ġper f
Ġke vin
Ġfrown ing
Ġslo ane
Ġc uff
Ġreg ister
Ġcurt ain
Ġgre ed
ha el
Ġprep are
Ġto oth
Ġrad io
he tt
ul ations
ook ie
Ġsuff ered
Ġinclud ed
k no
id ently
al ice
Ġap ollo
Ġfun eral
Ġbart e
d on
u ary
Ġw y
Ġre gan
Ġat l
to day
Ġsc attered
Ġste ering
Ġref using
Ġs ought
Ġer in
mr s
Ġj un
Ġqu iver
Ġfloor s
Ġmount ains
Ġju ice
Ġme asure
ri ff
Ġsuck s
Ġli z
Ġdepth s
k im
Ġre cent
Ġsandw ich
Ġl or
or ate
Ġpri or
dom en
Ġs ou
Ġstr ap
Ġdesper ation
Ġmal es
Ġstair case
Ġt ierney
oth aire
Ġsil ky
Ġtrans fer
Ġs ipped
Ġapp l
Ġjob s
Ġre ject
Ġsuff ering
Ġwit ches
Ġin dy
Ġchar ged
Ġpan icked
Ġr ab
Ġcomple x
Ġwip ing
Ġcrou ched
Ġmar rying
Ġinfl u
Ġm ile
ar ms
Ġha unted
Ġk ar
but ton
Ġsigh s
Ġrough ly
Ġsp raw
Ġb ounced
ay ing
ra fe
Ġcr ashing
Ġpound s
aret te
ip ed
co vered
Ġthr one
r ont
Ġv lad
Ġcon ven
Ġexcept ion
Ġs ire
Ġsl iced
Ġmat thew
Ġinc ident
Ġmed ical
Ġe lle
Ġconc rete
b ones
Ġover head
Ġcal vin
w ord
Ġg al
Ġfo yer
Ġembarrass ing
is tered
ig e
Ġflo ating
Ġcons umed
Ġaut umn
Ġsacrif ice
Ġtrave ling
Ġaud ience
Ġmel anie
clear ly
j osh
ith a
ceed ed
or ies
Ġcreat ing
Ġblur ted
Ġcig arette
l asses
Ġas p
Ġli ar
Ġman sion
Ġad op
Ġgun s
will iam
Ġch oo
Ġhit s
m ary
Ġwh imp
Ġsee king
Ġj ac
Ġimp ul
Ġprof ess
Ġar guing
Ġconf ront
Ġell is
Ġev alle
Ġdie go
Ġcomfor ting
wo lf
Ġk ay
Ġbar ked
Ġgrasp ed
sil ence
Ġgo al
Ġcompl iment
Ġprep aring
Ġavo ided
olog y
Ġincl ined
Ġrom an
Ġsuccess ful
Ġfemin ine
in te
ri gg
Ġal ter
Ġjud gment
Ġexplo de
Ġrap idly
nat ural
Ġstr ate
Ġtrail er
Ġdefe at
Ġmall ory
Ġmat ched
ev ent
Ġimpat ient
Ġfe b
Ġd allas
Ġar row
Ġfal se
Ġp ussy
ain ted
Ġapp ears
Ġexpl ore
Ġappreci ated
Ġthousand s
Ġinstinct s
Ġm ama
ar i
os ure
Ġrem ark
Ġhar ley
Ġsub tle
Ġrout ine
Ġn icole
Ġre ck
Ġspo on
Ġn aught
ch ild
ol as
hun ters
Ġunlo cked
Ġa insley
Ġcra ved
h art
Ġmack enzie
Ġapprop riate
Ġpl us
ump led
Ġhundred s
Ġthor ne
Ġintrod uced
i ate
Ġk elly
Ġdes ert
Ġmascul ine
m ic
Ġa ura
Ġdo in
it ute
Ġgu ided
Ġt ax
ad a
Ġjour ney
Ġr ailing
ass ion
Ġmir acle
Ġapp le
igh ing
Ġt aut
ard on
Ġlo aded
Ġcoll ect
iv an
Ġsoul s
Ġt ack
Ġprot ested
Ġinstinct ively
l ow
Ġdev our
Ġstrand s
w ar
Ġre b
Ġsal t
j ordan
Ġcl iff
Ġgr unt
Ġbas ically
Ġscrat ch
ren a
Ġfre y
Ġgrab s
Ġrepl ace
Ġreluct antly
kee per
g ers
Ġcr it
Ġhor iz
Ġdust y
Ġlaz y
j esus
Ġst il
ri en
Ġsome body
Ġcut s
Ġspec ific
Ġt ro
Ġsl im
Ġgl oss
Ġdead ly
c ause
Ġcow boy
o ke
Ġgr ac
Ġgr ant
Ġpo ked
Ġwar y
al ian
Ġdist inct
Ġind ul
Ġfil es
ar ies
Ġcon gr
Ġhol iday
g ree
Ġling ered
Ġsymp athy
Ġleg al
Ġhe aled
Ġshe r
Ġde ce
Ġbot tles
Ġlim p
Ġill um
Ġswim ming
u h
Ġs ons
Ġappro aching
Ġmuff led
t re
Ġmurd ered
j ared
Ġheart s
Ġver ity
Ġcomb ination
Ġsweep ing
act ually
Ġv ast
Ġsn ake
gr and
Ġmoder n
at ter
Ġgood ness
Ġfind s
Ġbright ly
Ġgreet ing
Ġthr ill
Ġstro kes
Ġsafe ly
Ġbox ers
Ġscrat ched
Ġimpress ive
Ġfol ks
t in
se at
Ġin ev
Ġcoun ted
Ġserv ants
Ġdescri be
e ve
Ġsl ice
Ġsmell s
Ġho pped
vict oria
w om
Ġm ont
Ġchar ity
Ġdrag on
Ġsurprising ly
isab ella
Ġmagnific ent
ess ert
Ġto y
Ġc ott
Ġfr antic
Ġwid er
Ġro bert
Ġtri umph
Ġv ance
iz es
Ġr asp
av is
Ġd or
Ġn ix
Ġesc ort
Ġadjust ed
Ġto ler
Ġbl owing
Ġmar ia
Ġdet ective
Ġmouth s
Ġwall et
Ġp acing
ling s
aw are
Ġdirect ions
Ġsniff ed
Ġslid es
Ġdomin ic
s aid
Ġal right
Ġman ager
ct ure
Ġbar g
Ġadv ent
Ġsung lasses
Ġf i
Ġha m
do x
Ġsign ific
Ġaff ected
Ġfrag ile
Ġcl apped
Ġfem ales
Ġs omeday
Ġe ast
Ġir re
Ġbe e
Ġsu v
Ġstrange ly
Ġtort ured
Ġsmooth ly
Ġcr on
Ġear ned
Ġstab bed
x ie
ed s
Ġf ade
Ġch urn
Ġcr imin
Ġdark er
Ġann ounce
Ġreass uring
Ġw olves
sp e
charl otte
Ġo il
Ġp ave
jen ks
ar re
Ġit ems
un te
Ġbl ouse
Ġgr uff
Ġgl ory
p ulling
Ġben ny
Ġirrit ation
Ġwithd rew
Ġbarte nder
Ġa eron
Ġme as
Ġgu ide
Ġfore arm
ab by
oun ted
Ġuse less
Ġd essert
Ġin n
Ġemer ald
Ġc udd
Ġbr un
Ġcamp us
Ġwr aps
Ġproper ly
Ġover he
Ġlight ing
Ġf ulf
Ġbe am
Ġtr ade
Ġun button
Ġdire cted
old ed
Ġstud io
ale c
Ġsh ore
ul a
Ġvol unte
n ie
Ġl isa
Ġgift s
Ġjewel ry
Ġbl inking
Ġrelation ships
Ġwor ries
wh ite
Ġdam mit
h annah
z oe
Ġwh ip
lex i
Ġeng agement
Ġfold s
Ġador able
f ree
n ec
Ġha u
ac hes
Ġj ill
Ġqu ir
Ġtre y
s in
Ġqu al
Ġhu gging
Ġacc us
Ġautom atically
v iolet
w ow
Ġst ew
Ġre yes
Ġas sh
Ġflo ated
Ġplay er
Ġfor ming
Ġur ged
Ġjon athan
rou s
Ġcurt ains
Ġin k
et ri
Ġun known
Ġkno x
Ġprecise ly
Ġg room
Ġsa int
Ġback ing
Ġste aling
Ġdream ing
b ro
f ight
Ġh ire
og en
Ġl as
se veral
Ġse le
Ġinv iting
in side
Ġun fortunately
Ġfl irt
sh aking
se ven
ad am
Ġmess y
is c
ir ation
Ġfall on
bel iev
Ġch amber
o x
Ġsur ged
cam eron
Ġdesce nded
Ġj ay
Ġcontro lled
d eep
z anne
Ġdar ius
Ġsuspic ion
Ġinstru ctions
Ġmist ress
Ġstud ent
Ġclay ton
Ġple ading
Ġnat alie
Ġbreak s
Ġtall er
Ġcur b
Ġz ipper
Ġfierce ly
m ichael
ald ar
Ġcabin et
Ġbroo ke
Ġtr ait
Ġche ap
w ild
Ġp ix
Ġgray son
Ġpee ked
Ġshall ow
Ġt ara
Ġr ack
Ġso aked
top her
Ġback seat
Ġsweet ie
Ġcommit ted
' d
Ġsu its
Ġlau ren
Ġsince re
Ġcoo p
Ġrem ains
Ġsw irling
Ġbo l
j ames
Ġperfect ion
Ġjust in
are k
Ġrepl ies
Ġpol itely
Ġm um
ast ically
Ġslee ves
f un
Ġbene fit
l ayne
o es
Ġc elia
Ġr ipping
are n
Ġtw itch
Ġsw orn
Ġcal cul
Ġquar ter
c ara
Ġb ice
Ġst able
Ġr av
lo ck
Ġprom ises
Ġsal ad
d ark
Ġnik ki
Ġen v
Ġexp and
any way
Ġpri est
Ġmurm ur
Ġgener ous
Ġthorough ly
Ġb i
Ġfe eding
Ġda ily
h ip
Ġl aken
and re
Ġmu d
Ġrequ ire
Ġune asy
Ġloyal ty
Ġconsequ ences
Ġoffic ially
Ġthe ory
Ġst ake
Ġr asped
Ġdress es
Ġcongr at
Ġex cl
Ġgenuine ly
v ar
Ġequ al
ur t
Ġfort une
Ġconfir m
Ġmane u
Ġhead ache
Ġpu ppy
Ġnipp les
Ġannoy ance
Ġpol ished
Ġsal vatore
Ġdom ini
o lyn
Ġc ough
es se
Ġsp ill
Ġcarol ine
ant on
ro b
Ġch asing
Ġcar l
Ġint ently
b ry
Ġh ast
Ġgl owed
Ġintrod uce
s av
oo led
Ġeffort s
Ġsk ipped
Ġcorre cted
Ġstat us
le aning
Ġsa le
Ġguard ian
Ġpray ed
Ġmic ah
Ġje remy
Ġsy mb
Ġfr anc
Ġcont ained
v ille
et ic
Ġass ign
Ġrom ance
sa etan
luc ien
Ġhy p
Ġron in
Ġtempor ary
Ġa we
Ġson ia
Ġblank ets
Ġthrust ing
Ġfr antically
Ġsc or
Ġnap kin
Ġfinger n
Ġvic ious
bet ter
event ually
u ish
he lle
ind a
Ġho vering
Ġkee ly
Ġro ses
Ġdeep ened
Ġhigh way
Ġgo vern
Ġpart ners
Ġecst asy
Ġter m
Ġodd s
Ġblo cked
it ated
Ġshe ridan
Ġsp orts
ud ge
Ġland on
luc ivar
Ġgab riel
Ġshe ep
Ġbrut al
f ucking
Ġm ing
Ġexplos ion
Ġwhim per
d ged
Ġsw irled
Ġli king
if ully
Ġoff ers
Ġdar cy
Ġb ubble
out hed
Ġsc re
Ġl ect
Ġwas ted
Ġmind s
Ġbelie ving
Ġaware ness
Ġcron us
en ix
ri ger
Ġsp illing
Ġreac ted
Ġind icated
Ġreco ver
Ġprod uct
n ik
Ġd ave
Ġj ones
Ġsc ott
get ting
str om
ell ing
Ġco ast
Ġho vered
ish ly
Ġsky e
Ġsav age
Ġperman ent
Ġback pack
Ġhel ps
Ġcr inged
Ġperson ally
ry ker
Ġwound ed
Ġfinanc ial
n ifer
Ġin her
iv y
Ġref riger
Ġpick s
p a
Ġt ad
Ġim pr
Ġtight en
Ġcra ft
Ġcow ard
Ġregard ed
Ġmo lly
Ġdeal t
Ġrep res
Ġthrust s
sec ond
d alton
f ield
Ġli a
Ġany body
Ġsnugg led
Ġsymb ol
Ġsh red
Ġest ab
m ind
Ġsqu inted
Ġlay la
Ġhaul ed
a e
Ġp ig
ver ance
Ġgaz ing
Ġbetray al
x ed
Ġt ate
Ġm and
Ġb ased
Ġit alian
Ġintent ions
t rist
Ġt iss
Ġsho cking
Ġfun ction
aph ne
Ġclo ak
Ġs ang
Ġha ze
Ġj ab
Ġdis aster
Ġnat urally
Ġbran ch
Ġdanc er
Ġcand ace
Ġfurrow ed
Ġde fin
Ġregard less
Ġg aped
ver ity
Ġr it
ul ating
Ġen sure
Ġcar riage
per fect
Ġmin i
Ġexquis ite
Ġsn apping
Ġfore ign
ien ne
c ide
Ġgle aming
Ġp ed
Ġpre y
Ġmyster ious
t alk
Ġfe ver
rac ting
Ġlace y
Ġs om
Ġd ates
Ġed ward
Ġsleep y
Ġstom ped
Ġnud ged
Ġb ert
u el
Ġb ald
Ġl asted
Ġbit es
Ġtip to
thank fully
ir on
Ġper ched
Ġsho e
Ġval ky
Ġemph as
th irty
Ġcoun tered
ier ra
Ġcor n
Ġter rifying
Ġlock s
Ġm im
Ġtal on
Ġt act
Ġs ite
Ġl ush
Ġmo ans
Ġposs ession
Ġwin ning
Ġnightmare s
s um
Ġse vere
Ġblock s
Ġvague ly
Ġli l
ixt ure
Ġfl aw
Ġjo ining
Ġcu pping
Ġjon ah
Ġcott age
Ġac ade
Ġodd ly
Ġpier cing
Ġflir ting
th ur
ct ors
Ġinvol ve
gg y
Ġcree k
Ġcaut iously
Ġl aced
Ġpre nt
Ġcare s
Ġden ied
Ġcamer as
Ġprent ice
Ġg emma
Ġlo vers
Ġapp et
Ġdou glas
Ġsan ct
Ġnewsp aper
Ġs ookie
Ġb ark
Ġne got
Ġsp ed
Ġoff ended
Ġhy ster
Ġsold iers
hold ing
Ġoccup ied
Ġciv il
Ġl ic
se bastian
Ġbl unt
is k
Ġab ilities
Ġcl aud
Ġvis ited
Ġhea ved
Ġspark ling
Ġseduct ive
f its
Ġsh ane
Ġsort s
Ġbrace let
Ġart emis
Ġwis hes
Ġscoot ed
ag s
Ġfin ishing
Ġdelight ed
Ġsarc asm
st orm
Ġencoun ter
Ġg au
Ġar c
Ġtast ing
Ġbill s
Ġnot icing
Ġcl are
mo on
Ġcris p
u ch
he w
Ġsc ooped
Ġele anor
Ġmer c
Ġpent house
Ġcr im
Ġgasp ing
Ġt ape
Ġst ung
Ġch ip
Ġmil itary
Ġworth y
Ġtrem ble
Ġnaught y
b ella
Ġd ash
Ġk rist
Ġcar ly
Ġsens ations
Ġtex ted
Ġ 4
Ġm eth
re aching
Ġsk ip
Ġint ru
Ġmir r
Ġscar let
are l
Ġfl are
Ġcontin uing
Ġmist akes
Ġi lle
Ġst ates
Ġde gree
Ġco ven
Ġjo ked
Ġk il
Ġfl or
Ġpersonal ity
ang el
Ġam anda
Ġdist r
Ġdar lin
Ġassum ing
Ġd ump
Ġl id
Ġsy l
Ġchew ed
r ain
Ġra ven
Ġre in
Ġblo cking
ut her
ne ed
Ġacce pting
Ġinj uries
Ġintern et
Ġtan ner
Ġtrigg er
Ġ 5
Ġcl ipped
Ġrel ent
Ġmon st
hu h
z ar
Ġcont ents
Ġed uc
Ġfre qu
Ġdifferent ly
cons cious
Ġtyp ical
g or
if ying
mor gan
Ġscoff ed
t ling
Ġrefriger ator
Ġhapp ier
Ġt its
Ġmom my
Ġguar ant
Ġany a
Ġmo cking
Ġburn s
Ġf ier
Ġe lder
nd ry
am iliar
Ġarri val
Ġfright ening
he len
ro be
Ġclen ching
Ġvict ory
Ġtrail ing
Ġfr amed
Ġsweet ly
e nding
Ġc er
Ġent ering
Ġabs ence
Ġell ie
Ġmeet ings
ser iously
Ġr ange
col in
Ġhaz el
ound ed
Ġdiscuss ing
Ġp ra
Ġarrange ment
Ġbe aring
Ġco ax
ak able
Ġpop ular
Ġrecall ed
gra ham
Ġbe au
jack son
Ġadm ire
un like
Ġsib yl
d ou
z ens
Ġbe nding
Ġfl ed
bo x
Ġhand led
Ġdes igned
Ġtit le
Ġglor ious
Ġcl inging
Ġret orted
Ġreg istered
Ġ q
im il
Ġmed ic
Ġsp ots
Ġsle ek
g irl
l ist
Ġb rew
Ġy el
est ly
gu es
o dy
Ġni all
o cc
Ġlight er
Ġcat cher
Ġgar go
Ġb ump
ay lor
ent in
Ġsa un
Ġdes ired
Ġdec iding
Ġprof ile
Ġell a
gab e
he y
Ġme x
Ġsent in
Ġcrim son
a iting
anc hes
Ġsurround ings
Ġrum ors
Ġboun cing
Ġra ked
Ġjess ie
Ġweal th
Ġmotor cy
al i
Ġno vel
uc ing
ret ched
do or
Ġsweat y
Ġla unched
sit ting
oo ling
Ġpl ant
ink ling
no body
Ġrel ated
Ġmurm urs
cla im
Ġi v
Ġr if
Ġins ul
Ġhuff ed
co le
Ġoccasion ally
hal f
Ġj osie
dy lan
mo d
Ġbeat en
Ġwilling ly
Ġfre aked
g un
Ġbe ard
Ġstro lled
Ġport al
Ġexec ut
Ġm es
it er
Ġsc roll
Ġsen ior
Ġcass ie
Ġteen ager
Ġwhimp ered
Ġp umping
Ġbl ades
Ġvalky rie
Ġd aring
Ġout rage
Ġcat ches
Ġhonest y
Ġprofess or
o enix
Ġle aped
Ġkit ten
Ġdiscuss ed
trist an
f ace
Ġj ose
Ġer up
p at
es y
Ġshe lf
Ġj ade
Ġso cks
Ġgl ist
che res
Ġdisg usted
c rap
z es
ac les
Ġfil m
Ġgeor gie
ac c
ant ha
Ġgreat er
Ġcand les
Ġbase ball
l ah
Ġse v
Ġpict ured
Ġloc ated
Ġa imed
Ġconvers ations
Ġstri king
Ġel ab
Ġground s
Ġcoun ting
Ġcaress ing
a i
n ew
Ġsway ed
s ers
ch an
Ġso ber
Ġsupp lies
l ay
Ġshel ter
Ġb er
Ġan ch
ound s
Ġvis iting
Ġtu esday
Ġsol ution
Ġpers u
Ġstrang ers
Ġj an
Ġmer it
Ġgrocer y
Ġalph a
et ing
all ey
Ġdisappear ing
Ġg ang
Ġfree zing
Ġmart in
cl osing
Ġshut ting
Ġwre ck
Ġb ore
Ġste am
g il
en ne
th orne
Ġve get
sp o
Ġcle ver
Ġdisc on
Ġequ ip
Ġon line
Ġlo ad
Ġsto ve
Ġcol ton
e i
g ia
t a
Ġd azed
Ġinj ury
Ġhope ful
Ġpassion ate
Ġemploy ees
Ġdecor ated
Ġ ounce
Ġp itch
ut tered
Ġscr aped
Ġcapt ure
ific ation
p ier
Ġd iana
Ġn ause
Ġe go
she s
Ġplay ful
Ġinter ior
Ġtr acing
Ġsecret ary
bet ween
Ġandre a
Ġsor row
Ġnin et
Ġexpl aining
Ġpaper work
Ġpray ing
Ġgree k
f illed
m ont
Ġem ail
Ġtreat ment
Ġcelebr ate
Ġresult s
Ġleap t
Ġr ational
Ġsh one
Ġne ut
Ġbr on
Ġgr ade
Ġun ique
swe et
Ġb iz
Ġc aden
Ġcra ving
Ġbik ini
p ret
t rying
Ġaccident ally
Ġjew els
Ġle ague
Ġsl ipp
with in
Ġmed ia
Ġrefer ring
z zed
Ġro yce
Ġday light
Ġpossess ive
Ġwere wolf
Ġmar ched
Ġf ading
Ġwe ep
Ġsc al
pe nd
Ġacc used
Ġlim o
Ġsuggest ion
Ġsee k
Ġun believ
Ġem erson
Ġshow ered
Ġf ucked
Ġinvestig ation
ce lyn
Ġex erc
Ġbl own
Ġbar rier
Ġtick et
Ġbru ises
r ich
he arted
Ġres ent
Ġh omes
re ne
om i
um ents
Ġpro spect
ud ging
Ġ 9
Ġn ail
Ġstar ving
luck y
Ġb ared
om s
Ġwho a
Ġlau ndry
sm iling
Ġfrank ie
Ġequip ment
Ġg ig
Ġqu ality
g ued
en ch
Ġang rily
iff any
Ġimmedi ate
mist y
Ġjol t
Ġt ee
Ġpl unged
luck ily
Ġremar ked
Ġd izzy
Ġgr inding
Ġun ivers
Ġfu nd
Ġdrif ting
m n
Ġgu itar
ip her
Ġsoft ness
Ġind ust
p es
at hed
Ġshrie ked
Ġre vel
Ġch and
Ġel ijah
Ġsweet ness
y ton
Ġp aw
Ġbu zzed
su ch
Ġappe al
Ġfasc inated
ac ted
Ġhis s
Ġcomp re
Ġtrust ing
Ġpack ing
Ġrest less
Ġdisapp ro
Ġrelax ing
Ġrefle cted
Ġunh appy
s ab
Ġpain ed
g reen
Ġa while
Ġn ape
Ġbed side
Ġeye ing
ag ers
Ġmot el
Ġl othaire
ish ment
Ġres isted
m ay
th ias
Ġco inc
Ġdraw led
Ġdemand s
norm ally
a a
k ind
Ġbl azing
Ġval ue
f act
Ġthe o
ke ll
Ġhel met
Ġcount s
hu inn
Ġjour nal
Ġglit tering
f ar
ee z
Ġbu nd
Ġrub y
Ġcho ke
will ing
Ġbroo ks
Ġrele asing
in ic
Ġe ur
oo per
Ġsu s
ear ing
Ġreco vered
Ġneighb ors
Ġcrad led
Ġw rest
Ġo ak
Ġtattoo s
Ġcommit ment
Ġscen ar
Ġsomet ime
c ra
Ġc ult
Ġd uck
Ġattem pting
Ġstaff an
Ġen velop
Ġlet hal
Ġell iot
s ive
Ġg a
d ri
w in
Ġevery body
Ġland sc
Ġtow er
Ġcr ooked
Ġphotogr ap
Ġratt led
p ain
v iv
Ġs ession
Ġgle am
Ġmaint ain
Ġb umps
Ġg am
id a
Ġsign al
Ġour s
Ġcree py
Ġident ity
Ġg n
Ġfell ow
tw enty
Ġque ens
Ġp am
ado gan
whe ther
Ġcho king
ge or
m ates
Ġar cher
ie ving
Ġed en
Ġking dom
Ġemotion ally
Ġfocus ing
Ġserv ant
luc y
Ġincre asing
Ġinev itable
Ġr az
um s
Ġass ass
Ġgreat est
Ġstat ue
Ġmo b
Ġeager ly
sur pr
Ġw are
Ġse ized
Ġless ons
Ġguarant ee
h ab
s at
Ġflick er
Ġloun ge
r ad
ic ient
Ġdes ig
Ġseeming ly
t am
ent h
Ġton es
Ġgall ery
ac ular
Ġab domen
Ġneat ly
st ay
Ġback yard
Ġle ge
Ġmad ness
Ġtem pting
Ġdial ed
Ġscal p
Ġhe ir
us ually
Ġpat io
Ġtem ples
Ġposition ed
d ro
j im
Ġn ah
Ġp ump
th inking
Ġfl ipping
Ġquestion ed
Ġord inary
Ġassh ole
Ġh ating
Ġin ward
Ġex agger
Ġwid en
Ġconvin cing
Ġwitness ed
Ġse ed
Ġfl uff
Ġgaz es
Ġz ero
Ġfranc is
Ġt icked
re becca
Ġen s
Ġmu se
Ġart ist
Ġbas ic
Ġpier ced
Ġenthusi asm
Ġinnoc ence
Ġl unged
Ġno elle
jon as
Ġarrest ed
b b
Ġag gress
ip le
Ġn ak
Ġdec ades
Ġskin ny
Ġbiz arre
w are
as ant
ay na
Ġsl it
Ġreason able
Ġpat ch
Ġshad es
Ġthank ful
Ġeng land
isab elle
ab bing
Ġcur iously
Ġball room
Ġspar ks
qu ar
Ġdeser ves
Ġk in
Ġcl asp
Ġhel en
Ġbur den
y enne
Ġt umbled
Ġte aching
Ġsof ie
m ason
n ine
p oint
Ġgr y
Ġsl acks
br oo
Ġdoubt s
Ġden ying
Ġclen ch
Ġpot at
Ġintim acy
f ly
ch a
Ġstr aining
Ġpass age
Ġcam ille
Ġund o
Ġconcentr ated
l ater
n ice
Ġp auses
Ġlo cking
su it
Ġresol ve
Ġm otions
ch ief
Ġal i
Ġdis gu
Ġbit s
Ġlock er
mar shall
Ġta pping
Ġadm ired
Ġsold ier
Ġser ving
Ġcol ored
Ġmut ter
Ġdesp air
Ġjer king
Ġp up
Ġch ips
Ġdev yn
cass idy
Ġso bs
col m
Ġsentin el
id ual
ad ie
Ġmoment arily
Ġgry ph
Ġj ar
Ġsens ing
Ġsull ivan
n es
Ġne p
Ġbr anches
Ġco lo
Ġcirc ling
r om
Ġal t
Ġlay er
b reat
Ġg oose
Ġoff ense
Ġregret ted
Ġloos ened
Ġdin er
Ġwaist band
Ġind ication
Ġcent ury
Ġbrand t
j aenelle
Ġc ue
Ġdom en
Ġscar f
Ġgovern ment
be aut
Ġdis ag
Ġnew ly
Ġto ps
st yx
Ġdo zens
Ġgro in
Ġeve lyn
Ġdomen ico
b ow
m all
n ame
Ġc adogan
Ġst ones
Ġno ises
sh a
Ġclos es
Ġforget ting
Ġsched ul
Ġobliv ious
m uch
Ġl ame
Ġv ik
com ed
Ġabs ently
b ad
r oth
umb les
Ġdang ling
Ġperf ume
k ane
o ved
Ġple aded
rie lle
Ġspr ang
Ġst ained
Ġsc ul
olo get
f aced
Ġm ixture
Ġst ance
Ġr ash
Ġbr aden
Ġgrat itude
Ġpers p
if fe
Ġcas es
fl ies
Ġbert ie
Ġmeth od
ab elle
Ġacc ur
Ġincred ulous
Ġdistur bing
Ġtim ing
Ġvar iety
Ġt ant
Ġch apter
Ġsad ly
Ġca f
Ġph r
Ġkind a
Ġob sc
Ġpri ze
Ġstor med
Ġinflu ence
Ġp el
se x
ro ck
Ġun le
Ġmo ld
Ġart if
Ġcustom ers
c are
are r
Ġim per
Ġhal ted
Ġhe ck
Ġsa ff
Ġsc he
jo e
Ġmad eline
ci ence
Ġlower ing
Ġcop y
Ġh ates
Ġde le
Ġshif ts
Ġluc ian
Ġdev on
Ġgar b
Ġwand ering
Ġspect acular
Ġacknowled ged
Ġl ane
Ġp ic
con f
Ġauthor ity
Ġerup ted
it ches
ar ian
ri ley
Ġde an
Ġthan ked
xt on
Ġdun can
Ġflex ed
Ġsu cc
Ġcl ip
Ġbarg ain
Ġbe amed
Ġpeace ful
Ġcous ins
Ġs izz
Ġno ble
ist r
Ġin qu
un ks
qu inn
Ġapp arent
h arr
um es
Ġsn ick
Ġinit ial
cont rol
Ġt aylor
Ġli v
th ought
Ġke ira
Ġpur ch
Ġsanct uary
Ġt at
Ġchar les
car son
Ġshiver ing
Ġsymp at
Ġurg ent
o on
Ġun z
Ġem p
Ġmar guerite
Ġstr ict
Ġcomp assion
Ġcal med
Ġstagg ered
Ġch ased
ol ved
Ġhum ming
Ġmad dy
Ġclaim ing
Ġreluct ant
Ġm our
Ġme chan
Ġdo ctors
ab les
Ġflash light
Ġtemper ature
Ġting ling
Ġst am
Ġover come
Ġstream ing
Ġstr ay
Ġinde pend
Ġrestr aint
h or
Ġshe riff
Ġdown town
Ġobe y
Ġkidna pped
Ġhoriz on
Ġeur ope
Ġun re
Ġcom ments
Ġcel est
Ġess ence
resh old
Ġcrimin al
Ġfingern ails
Ġed gard
Ġev a
Ġseat tle
Ġsaff i
Ġr ue
Ġshit ty
Ġth reshold
Ġp udd
Ġstr ide
Ġposs ibilities
Ġrec on
Ġdescri bed
Ġmotorcy cle
Ġbut ler
Ġab b
au de
Ġal ien
our s
Ġrid ge
Ġnep hew
Ġl am
le en
Ġag es
Ġv om
Ġroom mate
Ġcr ushing
Ġfree ze
Ġjen nifer
Ġemploy ee
p her
en ced
Ġph oenix
Ġcoll ection
Ġnic ola
Ġelectric ity
w ind
em ily
Ġprison er
Ġsell ing
Ġb acon
Ġf lynn
Ġno on
other wise
Ġpul sing
call um
Ġbru ised
Ġnav y
Ġbas is
Ġaccom pan
Ġkim ber
at ives
Ġd ed
Ġan ne
dam mit
Ġbird s
i ago
m ir
Ġt el
Ġs ly
ard ed
Ġv alley
Ġca vern
Ġexam ple
Ġnu zzled
Ġconscious ness
Ġf uss
Ġass ault
Ġele ment
Ġremind s
Ġdisgust ing
Ġlog ic
d uring
s us
Ġf ount
Ġd ies
Ġdr ain
Ġadd s
Ġconcl usion
Ġr aging
Ġli la
Ġse rena
Ġsl ack
Ġz one
Ġhot ter
Ġguard ed
Ġmer ry
spo ken
f ear
im er
Ġsl ips
Ġold est
Ġter ribly
Ġfab ulous
Ġpee led
Ġg ates
Ġha iley
Ġbe ep
ust ered
row ing
Ġtri al
Ġru g
iona ire
Ġpee k
Ġtempt ation
b ill
ot ing
Ġover ly
Ġcompl ain
Ġann ie
Ġdesig ner
f ted
Ġa very
Ġlic ense
Ġse aled
Ġlong ed
Ġbuck et
Ġshel ves
Ġwry ly
Ġh orm
Ġmar ch
Ġdram atic
Ġspraw led
h mm
he m
in ity
Ġthe ater
ch al
Ġpr ow
Ġb achel
Ġj eep
Ġres ort
Ġshirt s
Ġwel comed
Ġgul ped
Ġinto x
Ġting le
Ġmusc led
Ġrout e
pier re
oo ping
Ġca fe
any one
Ġill usion
Ġcontr ast
Ġven ge
Ġwigg led
Ġs issy
Ġexp osing
Ġpart ially
Ġwar ren
ock s
Ġsecret ly
Ġtender ness
Ġsan ity
i ating
Ġa de
Ġs asha
Ġli on
Ġche ating
Ġtest ing
Ġdism issed
r ace
u let
Ġt ucking
Ġyou th
Ġpl as
ig hed
t ies
Ġf isted
Ġd ashed
im ents
Ġgr anted
Ġactiv ity
c ast
c ooper
f old
all ie
Ġend elle
ian o
Ġperform ance
Ġneut ral
Ġh ills
Ġbe in
Ġre gin
Ġex ited
ains ley
Ġecho ing
keep ing
un able
Ġun st
Ġbel oved
Ġcapt ive
Ġsed uce
Ġcher ry
Ġgargo yle
ar ation
il es
us ions
Ġend ure
Ġmist aken
Ġgrim ace
Ġamb ul
Ġrit ual
Ġartif act
l ined
r am
Ġbelong s
Ġmel ting
Ġsoot he
Ġbelie f
Ġtrou sers
dec lan
Ġl an
ced ed
Ġfit ting
Ġflut ter
Ġpropos al
re gard
is er
Ġsl ung
Ġameric a
wat ching
Ġexhaust ion
Ġr ail
urs day
Ġlux ury
Ġbl ows
Ġbr aid
Ġpr on
Ġunder ground
Ġpe ering
there fore
ur d
Ġb ri
Ġp umped
Ġv irt
so f
Ġlim it
Ġpu zzled
dar cy
Ġweal thy
Ġhast ily
k ar
ac i
if ically
Ġdown ward
br ide
mm a
Ġrap id
Ġinstru cted
Ġu she
Ġrap hael
Ġtechn ically
Ġfantas ies
Ġchoo sing
ink le
Ġst ella
ace y
Ġwat ches
Ġwo ken
Ġgro ans
me nd
Ġsou p
e yes
s eth
Ġbl amed
Ġam using
Ġwar ily
Ġhu dd
Ġsub st
Ġlex ie
Ġy e
Ġkind ness
Ġshout s
gar rett
Ġstir ring
oo ps
ev alle
he st
Ġg ross
Ġg ained
Ġplay fully
Ġfact s
b ias
ss a
Ġbr ad
ons ense
Ġvictim s
Ġninet een
Ġpur sed
Ġvis ions
Ġnot hin
Ġpo le
Ġmad dox
Ġlip stick
Ġsin clair
Ġgrave l
Ġp ine
Ġcon sp
ish op
Ġfold ing
Ġspell s
hand ed
m ort
Ġr ico
Ġan aly
Ġlim ited
Ġ1 9
Ġteen age
Ġille gal
Ġt ill
Ġr uff
Ġdef ensive
um my
Ġun aware
Ġdoor bell
Ġmat ing
Ġchallen ged
Ġplat form
Ġp anc
Ġbr isk
er ted
Ġd at
Ġd il
le i
Ġhead board
Ġneed le
col by
Ġviol ently
Ġbuck s
Ġbackward s
Ġsque aled
h ire
Ġsa fer
Ġpl ants
Ġdem etri
Ġash ley
Ġny kyrian
Ġpen ny
Ġsne aking
Ġl air
Ġr umbled
Ġthere fore
Ġexc uses
m ine
er k
Ġy ards
Ġfl av
Ġtre asure
gl ass
Ġgigg ling
Ġlou is
Ġflin ch
jam ie
Ġsa il
Ġadd ition
Ġsad ie
u ps
Ġar ching
Ġhop eless
Ġunf amiliar
r us
im ately
ul sion
Ġsw iped
Ġimpat iently
c iously
Ġto dd
ch air
Ġpun ished
Ġpill s
b urn
Ġstart ling
con ner
b ra
Ġn ed
qu et
Ġmar ian
Ġang els
Ġcompl ained
Ġash ton
b ig
Ġl ids
Ġat op
Ġsl aves
Ġcor a
Ġdemon str
Ġfer al
Ġt ies
Ġsu nd
Ġcraw ling
Ġdeb t
Ġfail ure
Ġapr il
un ken
Ġro xie
Ġpl o
Ġcons cience
Ġconf ession
Ġdan i
wal king
c or
m att
Ġr im
Ġgr ind
bre ak
hope fully
Ġin ex
Ġag ents
de ad
Ġuse ful
Ġpave ment
k ill
Ġal cide
Ġdist ress
fr ont
mag n
or ous
im mer
ic ide
Ġarm or
co ld
Ġcoll ected
Ġcheek bones
Ġintellig ent
Ġt ire
Ġsal es
Ġhoney moon
m al
Ġa x
om y
Ġat m
Ġso bbing
d em
Ġd ign
Ġl inked
Ġout s
Ġyan king
Ġmes mer
Ġs out
Ġsc an
Ġte nded
Ġhouse keeper
fr ank
Ġwet ness
Ġmart y
soph ia
y an
Ġan th
Ġpo ker
Ġjud ging
Ġpray er
inte rest
Ġth ud
id al
Ġcl am
ist ent
Ġcock y
Ġpin ning
b ag
Ġmo aning
ang le
Ġsw am
Ġmic helle
Ġult imate
Ġi ona
Ġv it
Ġdis comfort
f iona
g ne
p iece
Ġb ax
Ġun ple
ane ously
Ġdest ruction
st art
Ġdo ck
Ġart icle
r ome
Ġpl ucked
Ġsl ut
Ġacade my
f ine
j i
ign ation
Ġwand er
Ġdrown ing
Ġsib lings
prom ise
Ġsw elled
Ġstr aps
Ġpainting s
Ġt ile
Ġf idget
ak in
Ġhun ched
Ġunc ont
Ġbuzz ing
Ġelab orate
Ġy ank
Ġdid nt
Ġsn uck
Ġmon itor
Ġchar ges
Ġfur iously
unt less
Ġappreci ation
Ġconcern s
Ġcass andra
Ġward robe
soph ie
Ġk am
Ġal ayna
Ġv ow
Ġse am
Ġste ve
Ġry ker
Ġpartic ip
Ġcomb ined
nder ed
occ up
h igh
Ġst ee
Ġstr ings
ren ces
Ġstick y
el ope
Ġsp y
op ing
wh it
Ġserv ices
Ġcook ie
Ġhol es
Ġnon chal
Ġt anned
Ġn ut
da isy
Ġhumili ation
Ġgarb age
Ġto ys
Ġn ash
Ġso lo
Ġun mist
Ġed ged
olog ical
Ġnote book
Ġwithd raw
Ġb ind
Ġc ure
Ġsh ir
Ġste ven
Ġcou ghed
pr ot
Ġconf essed
Ġrece ive
Ġp iano
ac ity
Ġdis e
Ġmon a
Ġmess ing
con nor
Ġken nedy
Ġk ent
ab s
Ġse et
est y
Ġcont est
anc ee
Ġcol umn
Ġsad i
Ġgentle men
Ġfle e
Ġlou isa
Ġambul ance
Ġo ven
Ġfr ig
Ġso da
Ġv ince
Ġgrow ls
Ġve il
Ġpen is
Ġnik olai
Ġquar ters
w ant
Ġbody guard
Ġmin im
Ġaw ak
osp here
Ġbitter ly
Ġgas ps
Ġnib bled
Ġsh aken
irst y
im medi
al f
Ġsol ve
Ġexam ined
c ash
Ġb anged
Ġk u
Ġsa uce
Ġgr av
Ġcrack ing
jul ie
k iss
Ġb umped
Ġre un
Ġstr ain
iv ity
Ġinter rog
Ġind iv
Ġdeli very
Ġlo la
Ġang led
Ġwel coming
Ġsole mn
Ġfier y
Ġp iled
Ġsc anning
Ġx avier
Ġdaim ons
Ġbice ps
Ġun ner
ry an
Ġcond o
Ġretreat ed
Ġcush ion
Ġware house
Ġle mon
Ġdel ay
Ġna ive
Ġheaven s
Ġcaut ious
v amp
Ġkn ives
Ġup side
Ġwere s
Ġpl ot
tr ue
Ġgut s
Ġren na
Ġchris topher
l ou
Ġawkward ly
Ġconcentr ation
Ġdem e
Ġda untless
Ġsword s
Ġexasper ated
Ġruth less
b bled
Ġb ou
Ġpo se
Ġsweat shirt
as ked
Ġg aping
ple te
Ġap ologet
Ġtri pped
Ġjen na
Ġsong s
Ġinterru pting
Ġtherap y
g wen
Ġm used
an ah
Ġno v
ted ly
Ġwind ing
Ġpant ed
Ġgri ff
Ġpap a
Ġcompet ition
Ġintri gued
g a
Ġcon qu
Ġse al
sh aped
Ġalong side
Ġexper iment
Ġshudd ering
Ġar thur
Ġright s
old o
die go
Ġske pt
l aine
Ġst ubble
Ġshifter town
Ġdepe nd
immedi ately
Ġw ire
Ġhe ven
al so
Ġkn ots
Ġup d
Ġtele p
Ġaccom mod
Ġunb ear
b orn
t ra
Ġb anging
Ġhard ness
Ġmeant ime
Ġjose ph
Ġc ement
Ġp ausing
Ġfight er
Ġcru ise
ij in
Ġpu zzle
Ġlaw s
Ġexpress ions
Ġassign ment
jo hn
Ġdest iny
Ġkn eeling
Ġjo kes
Ġcr umpled
ish a
Ġfill s
j ay
n ett
r aged
Ġp ang
Ġr hett
and ora
Ġman ners
Ġel ise
Ġsix ty
Ġris es
Ġchat ting
Ġsus an
Ġh ilt
Ġbl oss
Ġlab or
Ġaid an
f ashion
Ġth ursday
Ġstru cture
Ġvibr ated
Ġarrange ments
Ġbord er
m ph
Ġsh ack
Ġsh orter
Ġdr unken
Ġbook er
Ġrequ ested
Ġhau k
Ġphotograp her
Ġre cl
Ġbr ink
Ġmo de
Ġarm ed
Ġsn ort
Ġt ale
Ġt asha
Ġfig ures
Ġthreat s
Ġdoll ar
Ġactiv ities
fin n
vin cent
re ed
as ms
Ġal together
Ġmass age
Ġrum ble
Ġreport s
m art
t essa
Ġ 6
Ġf ishing
Ġn ancy
Ġk atherine
Ġr ows
Ġse aring
Ġins urance
Ġremo ving
if ted
Ġstr ider
Ġconf ess
Ġsam antha
Ġlevel s
Ġtex as
Ġdepe nds
Ġreject ion
h im
Ġra ises
l iness
p se
Ġcou ples
len gth
Ġurg ency
s ighing
Ġso bbed
Ġv est
ne g
Ġreass ure
b or
Ġb renna
Ġc it
Ġpe er
ho lly
Ġrepeated ly
l ene
Ġsl apping
Ġpat iently
Ġsal on
ron in
Ġappl ied
p arent
v ia
re et
Ġton gues
Ġspeak s
ev an
Ġresist ance
Ġfac ility
Ġadult s
Ġstif led
l ie
Ġsun ny
Ġdesire s
he rent
an ked
Ġsa ge
Ġout er
Ġbl ushing
Ġunder world
cl oth
uff ed
Ġden ial
Ġconv ent
Ġbutter fly
isto l
ic it
Ġno lan
sh o
res a
Ġfren zy
Ġdut ies
lit tle
Ġwas ting
Ġche ated
Ġhum med
Ġspec ifically
w arm
Ġag on
Ġlet o
Ġche f
ger y
Ġtrou bled
Ġdep os
Ġmot iv
Ġshuff led
Ġplas tered
her n
ank y
Ġspec ies
Ġchuck les
Ġadm iring
Ġbol ted
Ġf iance
Ġr in
Ġtr au
Ġobe yed
tre vor
Ġi zzy
Ġd ive
is elle
ro ft
Ġover night
Ġpo pping
Ġpe nd
Ġsun set
Ġver on
Ġport ra
Ġunple asant
tom orrow
ign oring
Ġlur ched
i ope
Ġvol ume
Ġpad ded
Ġlege nd
Ġfrancis co
Ġsk immed
Ġbu g
Ġdri pped
Ġred head
Ġsmo king
Ġregard ing
Ġcheer ful
Ġbrun ette
n is
Ġsa gged
ich o
Ġmin or
Ġthrow s
Ġtender ly
Ġpow der
Ġs ack
Ġd well
Ġl ahn
Ġprom ising
Ġstra pped
Ġmate o
Ġshimm ering
Ġadvent ure
Ġuncont roll
er ius
Ġbe wild
Ġle vet
Ġthought fully
Ġfact ion
br and
Ġraz or
Ġg oo
Ġsu zanne
Ġse verance
Ġsupp ly
Ġfree ly
l ifting
Ġst ain
Ġun it
Ġfell ows
Ġconst ruction
Ġcorrect ly
Ġholly wood
magn us
l ily
he at
Ġare as
Ġcur sing
Ġport ion
Ġcollar bone
Ġv owed
Ġresp ected
Ġviv id
d or
in er
Ġl ind
Ġr h
th omas
aught ers
Ġthro bbed
Ġstro ll
m ond
Ġn ipped
Ġth ump
Ġreturn s
Ġrespond ing
Ġincl ude
Ġappe aling
Ġencour aging
Ġaid en
hon estly
Ġlect ure
d u
s en
Ġwe ary
Ġtal ks
Ġpen cil
Ġcongrat ulations
g own
m ight
n esday
Ġbeh ave
Ġpract ical
Ġpic nic
l ady
Ġb out
Ġsh am
app rop
Ġdraw ers
Ġcast ing
Ġtest s
Ġrev ol
Ġstead ily
g io
Ġj unk
Ġpro ven
Ġhor n
ho le
Ġtrack ing
Ġdim ples
Ġobs essed
Ġtiss ue
le ave
Ġdire ctor
Ġliqu or
Ġabsor bed
Ġfi ancee
b oo
Ġf oul
en n
st upid
Ġlo ft
Ġen cl
lo ad
Ġtow els
christ ian
Ġpear l
ad or
Ġfore arms
Ġabs urd
Ġbuck le
Ġfingert ip
acher on
Ġstrang led
Ġcompl aining
ac ious
Ġun willing
Ġgener ally
call ie
Ġess ent
Ġy og
ic op
ith ing
Ġrub i
Ġfount ain
b u
Ġgrim ly
Ġblind ing
Ġfaint ly
Ġscru bbed
whit ney
d strom
re nd
Ġl ana
Ġand y
al one
Ġwe ighed
Ġsp ur
Ġfl ashes
de rek
po or
Ġv ane
Ġsp ade
Ġro pes
Ġgl ided
ass ing
Ġdec ade
Ġsun k
Ġalex ei
Ġuncomfort ably
Ġtrick s
Ġlandsc ape
z ach
ou ched
Ġpass es
Ġatm osphere
fashion ed
Ġr ape
Ġj umps
Ġgl ued
sh an
Ġste ak
Ġstr ides
Ġser ge
Ġcor por
Ġpur red
Ġbat hing
Ġbull ets
Ġdescri ption
ch ris
Ġhel icop
Ġopen ly
Ġdam aged
idd ed
Ġeffect s
Ġsomet hin
ot a
Ġk ira
Ġag ency
Ġdaim on
Ġbed s
Ġhome work
Ġswe ating
Ġcontro lling
Ġretrie ve
Ġa st
Ġsm ashed
ick i
Ġres our
Ġsen ator
Ġtun e
Ġsp a
ian na
Ġcour ty
Ġpar ano
Ġappro ve
res ist
Ġgest uring
ele anor
or se
im ming
Ġre view
am ery
Ġpe yton
Ġsuper natural
dom ini
Ġunivers ity
s un
v as
Ġre pr
int on
Ġgre yson
Ġver ge
Ġsquir med
Ġchann el
Ġthanks giving
Ġgreed y
Ġjun ior
m ered
Ġsqu ad
Ġskirt s
Ġviv ienne
Ġaver age
Ġindiv idual
Ġoff ices
Ġsky lar
Ġmal colm
g avin
Ġst eep
Ġso aking
op en
ud ing
Ġang uish
Ġland s
Ġfif th
Ġprin c
Ġfasc ination
Ġreser ved
a ver
Ġa y
Ġa ug
Ġw rigg
Ġhe aving
Ġsh ine
Ġbl at
sy n
Ġcas ino
Ġthank fully
Ġt iffany
Ġam ulet
ict able
col o
Ġdest ination
u ated
Ġst an
sh ield
Ġdam on
Ġesc al
Ġsurv ival
Ġencoun tered
Ġlor i
n adia
Ġsh ivers
Ġfl att
Ġgle amed
Ġwren ched
Ġmedic ine
Ġvenge ance
Ġanth ony
z ader
Ġo min
Ġbr ood
Ġbr ains
Ġwr ithing
Ġstay s
br ina
Ġprom pt
Ġmax im
Ġproud ly
m aid
Ġst acy
pp ers
Ġsu p
Ġtr avis
Ġun spoken
Ġspo iled
Ġtrans l
Ġsurve yed
Ġw ool
Ġbr ushes
Ġpre occup
Ġpick up
Ġzach arel
Ġsout hern
Ġloo p
Ġsc ore
Ġca ution
Ġrub ber
Ġtreat ing
Ġtick led
ac ting
Ġr amp
se ll
Ġmis under
Ġstal king
Ġjol ted
Ġcolo gne
r ather
v ant
st ar
Ġre ed
Ġhand y
Ġco y
Ġsc ri
gr aph
Ġfasc inating
charl ie
parent s
m ara
n athan
Ġm age
an ity
Ġsh al
Ġbeing s
Ġhu gs
Ġwarm ing
wor ks
Ġvibr ating
w olves
Ġg ina
Ġme lo
Ġgl int
Ġam ery
Ġhesit ant
Ġconv ul
Ġtab itha
Ġsuspic iously
Ġdan ika
Ġforb idden
Ġcoinc idence
f if
ic ations
Ġnight gown
Ġnice ly
Ġgle e
Ġdart ing
k ins
p res
Ġin sec
Ġhel ena
Ġ1 0
Ġflu id
Ġjac ob
d ressed
Ġgl iding
Ġmen cheres
Ġbedroom s
Ġgen ius
Ġur ging
Ġre com
Ġbo bby
Ġwalk er
Ġthreat en
Ġattempt s
Ġfu zzy
o de
t ry
Ġf est
Ġme als
Ġlim its
Ġmic ro
g ir
ound ing
Ġident ical
Ġrif le
ad rian
Ġfar rell
Ġexpl oring
Ġfrown s
Ġsnar l
Ġdiamond s
z er
as ions
Ġmut tering
Ġgrace ful
Ġtun n
e z
m ber
ou b
Ġp ir
id ering
Ġbeh alf
Ġexpl ains
bo ards
Ġbur ying
Ġken ny
Ġunmist akable
Ġne al
Ġpart ing
ens ing
Ġcost ume
Ġsab in
Ġsympat hetic
Ġo bed
Ġle on
Ġro ot
Ġsc and
Ġtw itching
Ġad mission
Ġind icating
Ġsoot hed
b its
Ġthe ran
ar ound
le ans
Ġsav anna
Ġspir its
Ġcust ody
Ġbru ise
Ġquiver ing
Ġexerc ise
Ġcourty ard
Ġp ardon
ust omed
Ġcan cer
Ġpres ident
Ġpan el
Ġell ison
Ġannounce ment
Ġthan e
Ġcoo ked
Ġchallen ging
d ear
s ol
Ġhe d
Ġph ones
oun ting
Ġobser ved
Ġoverhe ard
Ġalt ar
Ġa j
Ġd aughters
Ġj agged
Ġgre aves
Ġcamp a
Ġoccasion al
Ġet ched
a ved
Ġor leans
Ġhelp ful
Ġjo celyn
Ġsurpr ises
tr uth
Ġstor age
Ġaccompl ish
Ġpr ime
Ġpul sed
Ġgoddam ned
Ġtax i
Ġextra ord
Ġanticip ated
Ġjess ica
s ided
Ġm ant
out side
Ġun ison
ear l
Ġsec ured
for get
Ġadm in
Ġstrate gy
Ġsh aped
Ġfl icking
nder ing
do ll
Ġcertain ty
ik es
Ġfold er
Ġann oun
Ġnest led
al ph
ro s
ren ched
Ġgard ens
Ġspeech less
n ix
s mo
Ġc ade
Ġhad ley
Ġswall owing
Ġcup c
Ġbill ionaire
Ġwhist led
Ġmoist ure
Ġyawn ed
acc ording
Ġsc ot
Ġfo ster
Ġdet ect
Ġsumm oned
Ġeyel ashes
Ġimpul se
Ġsa pp
qu ick
Ġgl ide
Ġown ers
Ġple a
Ġsof ter
Ġka ia
Ġmild ly
w ife
en c
Ġro ke
Ġtheir s
Ġob st
car ly
Ġin ched
de rer
Ġfe ast
Ġdawn ed
Ġlog ical
Ġth ong
st retched
Ġsm other
Ġca lder
Ġbar re
Ġesc orted
lau gh
c est
t ara
Ġw ist
en cer
and y
Ġhand ling
ap or
Ġqu entin
Ġbec omes
Ġinst itute
Ġspl ashed
Ġlad der
Ġsnat ch
a unt
t iger
or ney
ar ming
st yle
de finitely
Ġash lyn
roll ing
Ġsarc astic
Ġscenar io
Ġm ah
Ġf umbled
Ġcon j
Ġmar is
Ġelse where
Ġrub s
Ġdev ice
rif ic
who ever
Ġmel issa
Ġinde x
Ġb ishop
Ġf ans
Ġre jected
Ġj esse
ave l
Ġbuck led
Ġpl ed
Ġcomple ted
Ġfight s
Ġut tered
Ġdefe ated
Ġblur red
bert ie
Ġse mi
Ġsor ce
Ġsatisf ying
Ġtext s
Ġbutter flies
Ġbryn ne
Ġmonst ers
Ġl ass
Ġatt orney
Ġgran ite
r ory
Ġwh ipping
Ġbr ay
Ġwat ers
Ġsw at
Ġcase y
Ġdistur bed
Ġmult iple
Ġruss ian
Ġsignific ant
Ġa ven
Ġf et
Ġth us
Ġk ink
Ġre he
Ġown s
Ġdri ves
Ġcomp ar
Ġwed nesday
Ġamaz ement
Ġweak ly
Ġdevelop ed
Ġtro y
Ġrepres ent
oub tedly
Ġm itch
Ġqu en
so ft
Ġrep orter
Ġsoph ist
Ġscar red
Ġtang le
i ah
Ġf ailing
Ġscrew ing
Ġbitter ness
Ġspar ked
Ġaccompl ished
Ġcompre he
Ġdeme anor
Ġw ives
Ġin approp
Ġbab ys
Ġbeaut ifully
Ġjul iana
kend all
Ġb usted
Ġst umble
Ġmut ual
Ġden ver
Ġdangerous ly
sar ah
Ġappet ite
Ġex otic
way ne
ry der
Ġer ik
mar cus
Ġsatisf y
Ġsmoot hing
Ġven om
u pt
Ġs ipping
Ġab d
op ard
Ġsav oring
Ġspark le
turn ed
Ġmuse um
Ġaggress ive
i all
Ġsp ider
Ġben nett
Ġlay ers
Ġhar ry
Ġsway ing
Ġq huinn
r ings
Ġmon it
Ġcal ming
hen sion
i ation
Ġa ust
ur ious
Ġro am
Ġke en
Ġmut ters
un ching
Ġsc ient
Ġsarc astically
Ġbee f
Ġschedul ed
h ank
p ress
at i
Ġp y
Ġyoung est
Ġflat ly
Ġcourt esy
Ġexperien cing
Ġfort un
quar ters
iffe rent
ag an
Ġfil thy
Ġflick ering
Ġd izz
Ġbl essing
Ġfig uring
Ġcolor ful
Ġpresent ed
Ġtil ting
Ġting led
sat isf
x on
he ctor
Ġt ires
for ce
Ġdist racting
Ġfort ress
kee ly
c row
Ġc ul
Ġg ag
ap t
Ġsc ur
Ġad ored
andre a
Ġw ield
Ġg ap
Ġbl asted
Ġcr otch
rich ard
Ġb id
Ġb ait
Ġv amps
Ġend ured
Ġposit ions
Ġgrasp ing
Ġrib bon
g ent
Ġd aphne
Ġcomp ound
Ġfoll ows
Ġentertain ment
Ġt ag
Ġj ude
Ġcent ral
Ġdisc reet
Ġsab ine
Ġimpr ison
Ġdiscon n
f ig
Ġp uck
Ġas ce
Ġback side
ig an
Ġman ic
Ġche at
Ġam un
ung ing
Ġres igned
Ġsmo ld
Ġmay or
Ġadmit ting
Ġesc aping
Ġcock tail
Ġimpat ience
Ġky rian
Ġach ieve
Ġscre ec
Ġeduc ation
Ġcl ing
Ġpl uck
Ġgl am
Ġsil ken
Ġmur derer
Ġmess enger
Ġsad dle
Ġtam my
Ġgriff in
Ġflatt ened
c ross
ut ed
ic ia
Ġbl essed
Ġcar rie
Ġbar rel
zz ie
Ġdise ase
Ġlove making
Ġear lo
Ġla unch
Ġrecord s
Ġcampa ign
Ġsu ited
Ġgl ove
Ġsand als
Ġintern al
Ġpo king
Ġcat s
gr abbing
Ġtri pp
mb led
Ġcas c
Ġscar ce
g iven
Ġtoo l
Ġpl un
Ġdis d
ud ged
Ġbat tered
s ara
Ġa ce
Ġsp i
so ever
Ġpe ak
Ġbreath taking
any a
fr ancesca
Ġmagaz ines
Ġintellig ence
d ream
Ġd uff
Ġal ike
Ġdr ed
Ġhair s
go ld
Ġspeak er
Ġpun ching
Ġtrans form
Ġc yn
Ġvis ibly
Ġpal ed
Ġsuc ceeded
Ġripp led
Ġuncertain ty
Ġimpro ve
Ġt ut
Ġc idra
Ġout stretched
Ġtoo ls
ps y
Ġsn aps
Ġhuman ity
Ġw ince
Ġo xy
Ġf are
Ġli zzie
Ġnot ing
Ġab use
Ġsl ur
Ġpre m
dd y
Ġmar ie
Ġforg iveness
Ġden ise
Ġbrief s
Ġol ive
Ġsed uction
Ġnecess arily
Ġjew ell
Ġharsh ly
Ġpanc akes
Ġc aine
at hing
Ġhit ched
br own
Ġclaud ia
mir anda
al ready
Ġco zy
Ġbelie ves
Ġflo pped
Ġplay s
Ġcreat ive
Ġble ak
f ri
on ent
Ġwhat soever
Ġsend s
Ġaccept ance
aul ted
cons idering
nec ess
Ġhelicop ter
Ġb ian
Ġgr ady
Ġsk it
Ġmat thias
Ġbright er
Ġocc asions
Ġcree ping
Ġneg ative
Ġtunn els
Ġn onsense
ot es
Ġwe ndy
Ġgo lf
Ġcon cept
Ġpro ceed
Ġim ogen
Ġhesit antly
Ġgigg les
Ġflut tering
Ġunbutton ed
m bl
in ate
Ġd anie
Ġre app
Ġreg ain
Ġluc ah
some where
Ġkno b
Ġbubb les
Ġaccus ation
Ġhe ap
Ġat h
Ġfl ag
Ġz arek
Ġnarrow ing
Ġtast es
Ġund ead
Ġunc on
Ġsuggest ing
c ertain
Ġb is
Ġd ont
Ġch ained
Ġstand ard
Ġwind shield
Ġjul iet
Ġhol t
Ġpred ator
c ting
l ished
Ġ 7
Ġm outhed
Ġl ining
id ents
Ġun in
Ġde af
Ġco ke
Ġsk etch
for ming
Ġbeat s
Ġbell s
Ġcollap se
Ġcl aude
Ġmo l
ah ara
Ġcur ly
Ġsho ots
Ġgre g
Ġstrong ly
geor gie
b ab
Ġse qu
Ġpro ving
Ġwal ter
Ġmight y
Ġleg it
Ġlord s
Ġsuper ior
Ġappear ing
Ġling er
Ġpend ant
Ġall e
Ġsoft en
Ġsex ually
com plete
Ġmid st
fortun ate
Ġacqu aint
r ated
Ġd ipping
Ġit em
Ġsu icide
Ġrel atively
Ġeas ing
arr ing
Ġund oubtedly
Ġsar iana
Ġwhist le
Ġaug ust
u able
Ġj asper
Ġsu m
Ġgr it
Ġde uce
amp oo
Ġacc ustomed
Ġstu art
Ġconc ert
wom en
Ġa uction
Ġf en
Ġli ber
Ġsc ree
Ġcomp osure
Ġgloss y
Ġmex ico
he ather
Ġall ie
ast on
Ġco ated
ple asure
Ġkit ty
Ġele c
com p
Ġdeath s
Ġbrand y
Ġreck less
Ġsaun tered
Ġdisd ain
Ġe erie
ri pp
Ġun cl
Ġz ayne
gl ancing
Ġasp ect
h ur
Ġl ec
st ra
Ġbr ist
ath om
me gan
Ġdistur b
i ac
re ille
Ġre en
el ie
ale b
Ġind ia
str ong
Ġdestro ying
Ġpil ot
Ġtrad ition
Ġdomini que
Ġbachel or
h as
Ġj ung
Ġback up
Ġsu lt
Ġconf ron
Ġstore s
Ġm ath
Ġl ave
Ġwhe els
che ck
Ġspl in
hen ry
z ack
Ġr ag
Ġch am
Ġv ote
Ġscr ut
Ġspark led
Ġexam ine
agg ers
mag gie
Ġgrac ie
g om
an es
Ġg ay
Ġhard est
Ġjo int
Ġass igned
br ush
Ġpriv ile
Ġfit ted
Ġwid ening
Ġvo d
an ks
al b
Ġch ad
ind e
ower ing
Ġgro aning
Ġcount less
Ġshop s
ie vous
Ġbl uff
ous ed
Ġpay ment
Ġsub d
Ġcool er
Ġstick s
ve ling
Ġsh ampoo
Ġmar co
Ġmut ed
Ġpract iced
Ġage nda
Ġcheer le
Ġbund le
Ġplo pped
s n
ic hes
iz a
Ġcold ly
Ġlay lah
Ġtick ets
Ġcomment ed
Ġaccompan ied
Ġm ounted
Ġc ant
id dy
Ġst inging
Ġfor ces
Ġout line
Ġle af
Ġpr int
Ġfire s
Ġpat rick
ind y
Ġsur gery
Ġund one
jam as
Ġvod ka
Ġto bias
is hes
Ġg ary
Ġv ine
Ġus es
Ġche yenne
Ġste ph
ph il
lec ting
Ġpost ure
Ġgho sts
tal on
b ird
g one
en ough
Ġp istol
Ġman aging
Ġrem orse
Ġrad iated
Ġvir gil
Ġprim al
m any
h att
s qu
s ued
ie l
Ġhand c
Ġgr ows
Ġoper ation
Ġchew ing
Ġg p
ad ise
.. .
so le
Ġjo gged
Ġcomp are
Ġperman ently
Ġdisgu ise
m eredith
Ġla ura
Ġintens ified
Ġfeather s
Ġexasper ation
h um
Ġb um
Ġun fortunate
Ġpl ump
Ġbu shes
Ġfound ation
Ġacc using
Ġlead ers
Ġar isto
Ġplay ers
Ġprof ound
Ġapolog ized
Ġdun ge
Ġgul p
Ġcush ions
Ġt as
Ġs ust
Ġd azz
Ġnot ion
Ġch illed
Ġqu ivered
Ġhouse hold
Ġsim ult
Ġadd ict
Ġhost ess
Ġident ify
Ġunlike ly
t ight
Ġne ared
Ġv oc
Ġwere wolves
Ġpart ly
most ly
Ġrep orted
Ġfresh ly
Ġorgan ization
Ġsh h
asp ar
Ġrep air
Ġsitu ations
Ġimm ense
Ġlin en
d s
w ren
Ġstre ak
Ġpointed ly
Ġpolit ical
dro pping
c aleb
i ar
Ġc ad
Ġk h
Ġv ale
ol ivia
Ġap o
Ġsim i
wor thy
Ġtrad itional
Ġtoler ate
Ġk er
Ġgr azed
Ġmen acing
Ġign or
Ġroad s
Ġdeb bie
Ġnav ig
Ġentertain ing
ve y
Ġst acked
Ġan cest
ct av
Ġsn agged
Ġcompl aint
Ġstiff ly
Ġrece iving
Ġunf air
Ġbrian na
Ġatl ant
Ġpurch ased
r ot
am elia
ated ly
Ġpar aly
Ġgrow ling
ci ating
Ġdeser ted
Ġbast ards
Ġoffic ers
Ġsom ber
Ġphr ase
Ġhorm ones
Ġcar olyn
Ġem an
Ġran on
Ġrece iver
Ġep is
Ġapr on
Ġin fer
ess en
Ġhead y
Ġhead lights
Ġabs ent
alb ret
Ġche mist
Ġsto cking
Ġinc ap
Ġgrand parents
Ġadm iration
Ġquir ked
d ani
Ġb aff
us al
est yle
Ġgu iding
Ġrear view
fun ny
mind ed
w ra
Ġs ierra
Ġk ade
Ġac ute
Ġconf using
loo ked
rel ief
Ġphotograph s
Ġconven ient
Ġhudd led
h at
he t
Ġn ich
to s
Ġle ash
ell iot
Ġtal ented
Ġter race
Ġhar low
Ġune ase
Ġstradd ling
Ġoxy gen
Ġe h
Ġsav or
Ġcelebr ation
ele er
kat ie
Ġpup ils
h udson
an se
Ġre ese
Ġcr ook
Ġhor ny
Ġta unting
isa ac
Ġshield s
Ġgradu ated
t ion
Ġf au
im ag
Ġli lly
iss ion
ial s
Ġfre ck
amed es
Ġchrist ina
Ġconnect ions
Ġearlo be
Ġha ck
Ġbl azed
Ġun set
Ġapp ly
Ġtre mor
Ġexpect ations
Ġfal tered
Ġdrown ed
mbl ance
Ġfr ed
Ġpar adise
Ġsumm on
Ġsne ered
Ġfrank ly
Ġencour aged
m ack
Ġshe ath
Ġfr iction
Ġun read
Ġgood night
Ġcar n
Ġint act
ony m
Ġstab les
Ġsha ved
Ġswell ing
Ġwor ship
Ġsw ive
Ġdisc arded
jul ia
Ġze us
Ġfulf ill
Ġpersp ective
Ġpreoccup ied
Ġkn ead
Ġch ir
op ening
Ġz ip
br andon
im ir
Ġst ressed
Ġj ut
Ġdoor step
Ġworld s
Ġsqu ared
Ġconf l
i antly
j ew
Ġt ested
le aving
st ru
Ġfr ance
ew ed
Ġlif estyle
Ġpur chase
ann ie
Ġpin ch
Ġimm une
Ġpa jamas
b rian
t is
Ġf idd
Ġl es
Ġp ry
ot hea
Ġun necess
Ġslow ing
Ġev ident
Ġstri pping
oe be
Ġhamm er
sin clair
c orn
Ġb ounce
Ġit aly
ip es
Ġcur ving
Ġtalk in
Ġhot t
Ġinte nding
Ġarri ving
Ġrepe ating
Ġling erie
Ġvulner ability
Ġglist ening
Ġscreec hed
n in
Ġb ould
Ġl acy
Ġang us
Ġbar ry
ton y
ph y
Ġir resist
Ġsquir m
laugh ing
Ġinapprop riate
d ging
t ale
Ġf let
Ġpun ct
Ġrum m
d ened
d ante
h appy
Ġsa brina
own ing
yn n
nat urally
Ġka eleer
Ġdign ity
Ġd ict
Ġk aren
Ġfor ms
Ġexp anse
anc a
Ġwork out
br ook
Ġer ase
Ġtent atively
Ġis ol
Ġro ots
Ġflo at
Ġcuff s
mall ory
Ġa z
Ġro sie
Ġass ess
Ġbreath lessly
Ġintense ly
Ġf ee
Ġal b
Ġal armed
Ġbl aze
Ġfl ing
Ġneed y
Ġca it
ky le
Ġdef ined
d an
o id
r ons
y ep
Ġst umbling
Ġsh attering
Ġfr action
Ġle ver
um bed
ge mma
Ġbat hed
Ġscr aping
Ġconcentr ating
Ġclaw ed
Ġjet t
lau ren
Ġm ush
ut es
Ġmar sh
Ġinterest s
Ġclut ch
Ġcomfor ter
sky la
Ġdevast ating
c ases
k aldar
v ations
Ġv ows
um er
Ġel i
Ġsign ature
Ġfix ing
Ġweekend s
ste ady
Ġcree p
Ġatte nded
Ġthread ed
broo ke
d aughter
s kin
Ġwe ars
Ġbad ass
Ġron an
Ġtrait or
Ġcompar ison
g aret
Ġc rest
Ġr alph
Ġper se
Ġact ress
Ġref lex
Ġsmell ing
Ġobs ession
Ġexcl usive
Ġjung le
Ġr iot
Ġbr az
Ġden im
d iana
Ġg ust
te x
Ġpret t
Ġsy d
Ġlim ous
Ġchamp ion
Ġsant iago
Ġ 8
re yes
Ġha id
Ġr aped
Ġcont acted
Ġret ire
Ġcons er
Ġble ed
Ġpee king
Ġenv iron
in ch
Ġp eep
Ġg iddy
Ġkill s
Ġint ric
Ġres idence
Ġdou g
Ġsch ol
bes ide
Ġdisplay ed
Ġrust y
Ġintimid ating
l ines
m aker
Ġt art
Ġl ys
Ġth orn
Ġch imed
Ġins anity
Ġstep father
Ġvis ual
Ġspl ayed
Ġvibr ant
Ġdiss ip
s lee
Ġha v
Ġpo ised
cer ity
Ġarrog ance
Ġloos en
Ġt umbling
Ġb inding
Ġwh irl
Ġre eling
au gh
Ġag itated
el come
Ġro aring
Ġcan vas
Ġen vy
Ġlong est
sh ay
Ġear rings
Ġfil a
pan ic
rell a
r ant
Ġpres ents
Ġfast ened
Ġfr agr
Ġco ve
Ġsl ither
Ġac id
Ġlave nder
Ġchemist ry
s ally
t rey
nd ers
Ġto by
Ġr ane
ust er
un ning
Ġcon ver
Ġsc otch
Ġgri ps
Ġru ining
Ġce ased
god s
Ġlat ched
sum mer
o gue
Ġh ilar
Ġover t
Ġwell ed
ord on
Ġcustom er
Ġfluff y
d et
t im
Ġt ess
in ent
Ġh ushed
Ġst ench
Ġk ell
Ġr ou
Ġj agr
Ġdid n
Ġover sized
ol es
Ġnick name
Ġirrit ating
Ġcontem pt
Ġstraw berry
Ġlore lei
Ġrab id
Ġpotat oes
Ġintox icating
Ġch ina
Ġsp ort
Ġgl azed
Ġcall iope
Ġext ent
Ġvisit ors
n an
Ġo o
Ġhe ating
Ġc imil
Ġin spect
Ġre ins
Ġro gan
Ġhead quarters
Ġclass ic
Ġdim ension
Ġreception ist
s ad
Ġd aggers
Ġin fect
Ġlo an
Ġatt ic
cl ass
Ġres umed
Ġcomm erc
Ġfle eting
i ara
Ġco co
Ġsc ience
Ġpat ting
Ġhun ted
Ġrecogn ition
Ġnur ses
bre aking
n iall
Ġl ure
Ġpl ush
Ġpe pper
Ġsn ug
Ġinv ent
Ġve in
Ġmer l
bel ieve
jen ny
Ġscen es
t ab
is ure
Ġtw inge
Ġwal t
Ġawak ened
p en
he le
anc roft
Ġshad owed
Ġcirc ular
Ġeffect ive
Ġjax on
Ġcomb at
Ġcondom s
grand ma
Ġa ward
ack ing
Ġquick ened
Ġpen elope
Ġassist ance
Ġadop ted
Ġshir leen
Ġd ub
Ġg aw
Ġsqu at
Ġvig go
Ġunread able
j er
o ked
he aring
ab bed
Ġbo ston
Ġtu be
lan a
Ġdu val
ste pping
doll ar
r ise
Ġn ational
Ġch ap
Ġtele phone
Ġglit tered
viv ian
Ġe ld
ang eline
Ġfin est
Ġvo id
f ell
Ġs ect
Ġc unt
ul ty
Ġper mit
Ġexam ining
Ġcale nd
ader in
j ane
Ġd iver
Ġand erson
Ġman or
Ġattack ing
Ġstair well
Ġdoc ument
Ġgeor gia
Ġenviron ment
b are
Ġf ul
Ġc ate
om a
ic ity
Ġbut ch
Ġkn eel
Ġch unk
Ġsome place
Ġcell s
Ġrul ed
Ġincre ase
wom an
Ġlil ith
Ġconsp ir
er in
Ġbr ielle
Ġdeep est
ex c
inst antly
Ġgrocer ies
Ġstrate g
Ġelder ly
Ġunbear able
p ushing
Ġt ink
ch ievous
Ġtr uman
os es
amp ing
Ġhig hest
Ġsque aked
Ġearn est
Ġapologet ic
Ġyog a
Ġh om
Ġy up
ter m
Ġen ch
sp ike
Ġadd ressed
Ġbat tles
Ġpet ite
Ġapolog ies
Ġpop s
Ġscrat ching
sur real
Ġlimous ine
d rew
Ġp eel
Ġj ael
ru p
Ġsent iment
Ġdef enses
Ġopt im
Ġsin cerity
Ġinsist ent
Ġhamm ering
Ġsant a
Ġrelent less
re lyn
Ġle isure
Ġcl erk
Ġpro st
Ġthro b
Ġforg iven
Ġval uable
Ġburst ing
Ġlur king
Ġcub s
Ġmirr ors
Ġp ins
ur g
Ġpl um
gu ess
Ġver bal
Ġcrack s
Ġmort imer
asty an
Ġf its
Ġk aldar
Ġbl ay
Ġtw irled
Ġter min
Ġcomm ission
Ġdoub led
Ġtyp es
Ġstradd led
kno x
Ġsophist icated
Ġa ub
in ning
Ġw oo
Ġd us
Ġne il
Ġtr aged
Ġfair ies
Ġtow ering
Ġmis chievous
Ġsand y
Ġcream y
Ġstream ed
Ġsimult aneously
p oss
Ġte resa
Ġheal er
tab itha
s ize
Ġt we
Ġt ina
Ġy uri
ge orge
pr ed
Ġacc ord
wor se
Ġund id
Ġund ers
Ġresour ces
Ġsapp hire
g ression
ke lly
Ġcur ses
na ked
Ġsweet est
Ġter reille
Ġstraight en
Ġfil ed
Ġcommand ing
car ter
Ġretrie ved
Ġg in
Ġr ut
Ġout come
Ġtr acked
Ġbr yan
Ġad rien
Ġser gio
ny kyrian
Ġsher ry
Ġconfl ict
u ished
Ġha unt
Ġre ct
she r
mo b
aid en
Ġangel ica
Ġsuspic ions
pet er
Ġchat ter
l ots
the less
Ġgrou ps
Ġregret s
Ġspr ings
Ġiron ic
Ġune as
Ġorigin ally
Ġvirgin ity
Ġcrad ling
Ġspi ked
Ġb ure
Ġg ail
ow en
Ġrel ig
Ġdou che
Ġbur ger
Ġir ish
Ġbudd ies
Ġconcl uded
k ers
r in
t ierney
on os
Ġv ital
ctav ia
y a
Ġd itch
Ġcon rad
Ġlo ki
Ġsee ped
Ġun ited
Ġeight y
Ġboo bs
Ġmass aging
Ġtrans formed
Ġant ique
Ġlux urious
Ġrent al
Ġaltern ative
Ġinward ly
Ġpel vis
Ġlys ander
p rest
ed die
Ġo ath
Ġpro ceeded
gg age
Ġharm less
Ġconstant ijin
hel p
Ġsev enty
Ġpudd le
Ġirresist ible
im eter
sh ow
Ġris ked
Ġdanc ers
Ġclub s
Ġbod ice
Ġtransp ort
Ġa le
Ġk aly
ab el
Ġch is
Ġmat es
Ġbottom s
Ġjim my
Ġerr and
Ġcit iz
Ġportra it
Ġkaly na
Ġp andora
ur b
Ġbr acing
ra wn
Ġfir ing
ru ct
az ire
ken nedy
Ġluc a
par is
Ġtent ative
p ark
Ġn iece
Ġk oldo
Ġlo s
Ġbl ah
Ġmon ty
Ġlu ggage
Ġdev oted
Ġscr ap
Ġconv iction
Ġlab el
Ġprod uced
Ġst im
Ġcl inic
Ġdown right
Ġmouth ful
Ġsuff oc
Ġscow ling
mad ison
Ġprior ity
Ġvom it
Ġc ory
st age
Ġr i
Ġch assie
em pt
Ġshot gun
Ġry dstrom
sal ind
prest on
Ġd iet
or ient
Ġbit ten
Ġcomp elled
Ġglad ly
Ġpet e
Ġtend r
Ġscri pt
Ġcomprehe nd
c ee
Ġout right
Ġsm ar
Ġcan e
Ġsk i
Ġstr iding
Ġbene fits
Ġcap ital
Ġlim b
zz ling
Ġaccept able
Ġdivor ced
Ġinsul ted
pret ty
s ienna
Ġa str
Ġv ase
Ġtw ent
Ġste aming
Ġhor ns
Ġund e
Ġaccount s
Ġspan ish
Ġinher it
Ġdat a
hatt an
Ġb unk
Ġg h
Ġwh oo
Ġsp art
Ġad vert
Ġinter fe
Ġkid n
Ġpurpose ly
Ġhy per
Ġexh ib
Ġtattoo ed
r ison
Ġb ucked
Ġd ur
Ġl av
ri k
Ġbl and
ink les
ru ly
ru ciating
Ġnew est
Ġrest room
Ġbrief case
Ġmain ly
Ġresc ued
Ġcontr ad
Ġted dy
Ġmeas ured
m ust
n ina
Ġh ust
Ġf bi
Ġbe ars
Ġfr ies
Ġle vi
Ġlo oming
Ġfl ustered
Ġcal ves
Ġind icate
Ġeng ulf
Ġchuck ling
Ġaud ible
Ġslipp ery
Ġunbeliev able
g on
Ġbe aming
ch ool
Ġab ack
Ġfl our
Ġsw ig
Ġpar agon
Ġadd itional
Ġrever se
Ġbrit ish
Ġinnoc ently
f inger
j a
Ġk or
am anda
ab lo
Ġdel aney
Ġround s
Ġridiculous ly
Ġremote ly
d ist
Ġd ent
Ġun ion
ced es
let ting
Ġvi be
Ġconfront ation
u gged
Ġin quis
Ġbr ass
Ġsupp ressed
Ġadv ance
Ġpet als
Ġagree ing
Ġbound aries
Ġrode o
Ġborrow ed
Ġassass in
Ġomin ous
h our
r ice
it ri
Ġst ink
Ġby ron
Ġexp ose
Ġcor pse
Ġann abelle
Ġexcited ly
Ġreact ions
Ġwis dom
Ġunexpected ly
Ġanton io
Ġv icki
Ġman hattan
Ġneed les
Ġtw ists
co ver
Ġsupp er
Ġtri ps
Ġloc ate
Ġangel es
Ġmal ik
Ġvill a
Ġknot ted
Ġrevel ation
st ory
ic ian
whe never
Ġheav ier
Ġstre aked
Ġscr ape
Ġorg asms
Ġflood ing
Ġcommun ication
cal vin
Ġestab lish
le o
Ġr umbling
Ġsu e
ist a
Ġexc ruciating
ik h
Ġce zar
Ġtrou bles
Ġpu pp
Ġacce ler
Ġeffect ively
Ġhelpless ly
Ġdisag ree
o v
ir able
Ġbl aire
Ġpoint less
Ġthr onos
Ġwid ow
Ġblind ly
Ġfield s
Ġrever ber
Ġwink s
Ġabb ess
ro c
Ġlo omed
Ġmo cked
ang led
aid an
Ġhall ow
Ġtick ling
Ġclaim s
Ġaud rey
dev yn
Ġexagger ated
Ġunz ipped
Ġcalend ar
d est
x es
Ġl us
Ġch illy
Ġsim pl
Ġcup board
Ġexpect antly
Ġdeterm ine
Ġdim ple
Ġrad iating
Ġfat ig
Ġbud ge
p ent
s leep
in cl
id ian
Ġk yl
Ġcon sole
Ġsc rib
Ġfire works
bl ond
Ġclar ity
run ning
regard less
f ound
f air
l inn
Ġst em
Ġst yl
Ġun s
sh if
Ġhide ous
Ġmotion less
Ġkick s
Ġlat ter
Ġjam med
Ġatte nding
t ot
Ġnot ch
Ġdoor kno
Ġcont ribut
Ġlow ers
Ġcontact s
Ġpath s
Ġvibr ator
c u
c oop
j ac
Ġme lan
Ġre bell
Ġal ana
Ġel imin
Ġkind ly
do ch
Ġled ge
Ġblank ly
Ġinvol unt
Ġshrie k
Ġplun ge
m c
w aiting
Ġt ide
Ġch anning
Ġpe an
Ġcr imes
Ġdark ly
Ġact s
pr oof
bo d
olute ly
hu ndred
Ġchurn ing
ae lyn
slee ved
Ġm cc
ll ie
Ġre ference
Ġhigh light
Ġadv ised
Ġworth less
Ġcro aked
Ġaim ee
Ġgradu ation
Ġprompt ly
b ons
Ġb ush
Ġsl ower
ip ing
jo y
Ġgab rielle
Ġflor ida
z a
ter ior
Ġgr ill
Ġempt iness
Ġintim ately
Ġcommun icate
Ġrash id
Ġextraord inary
g ideon
m atic
Ġth umped
Ġha yes
Ġcl icking
qu ila
de f
Ġten nis
Ġrec ru
loo ks
Ġren ted
Ġgy psy
min ute
gre es
Ġtant al
ly mp
Ġsh atter
ig ning
Ġsn aked
Ġcross es
Ġcolor ado
Ġanx iously
Ġinterfe re
ing es
ll a
Ġg ee
Ġz ipped
Ġdisapp oint
mar ia
Ġta unted
Ġimposs ibly
Ġreass urance
Ġresent ment
Ġst y
Ġpl unging
Ġqu ilt
Ġcr amped
Ġstupid ity
Ġbright ened
Ġimport antly
Ġcount y
Ġfer oc
Ġbrit t
Ġsche me
Ġb ancroft
Ġi z
Ġc em
Ġn anny
ant h
Ġno va
Ġde grees
Ġcou p
ub bled
Ġang ie
Ġmix ing
Ġblink s
Ġdisappro val
Ġindepend ent
Ġreun ion
o dd
Ġh ind
ro e
Ġbl a
Ġsl ashed
de ath
fr owning
Ġaston ishment
Ġcelest ra
satisf ied
Ġbure au
f elt
in ous
Ġro c
Ġsc aring
no dding
Ġchick s
Ġstall ion
Ġnin ety
Ġtraged y
o yed
Ġp airs
Ġu mm
Ġas se
Ġtr ails
Ġbr at
Ġpast a
Ġres on
Ġcra ve
Ġadjust ing
Ġtherap ist
iqu es
Ġreen ie
v iper
Ġm ound
Ġmor on
Ġadd ison
Ġsuc ceed
Ġdeliber ate
Ġdoc uments
Ġushe red
c ord
w is
Ġn avel
Ġth ief
Ġen vision
Ġaw oke
Ġres ur
Ġtem p
Ġyear ning
Ġsav ored
Ġteen agers
Ġmc kell
je ff
Ġvolunte ered
Ġnov ak
Ġdoorkno b
s lo
t all
Ġhe ath
Ġout ward
Ġsmall est
Ġcons uming
Ġpur r
Ġlo ser
Ġsub mit
Ġsal ty
Ġshadow hunters
Ġcrad le
Ġm am
Ġdru gged
Ġrum or
Ġere ct
Ġjohn ny
ki ara
Ġbou quet
complete ly
e re
i i
j asmine
Ġo lymp
Ġth ri
Ġbo bbed
Ġam id
Ġrel ative
Ġcoun sel
Ġconn ecting
Ġadv anced
Ġcrowd s
Ġisab el
Ġdiv ine
Ġpsy cho
Ġhoo king
Ġdesce nd
a ited
f fe
s asha
y ers
Ġb ail
Ġp iv
Ġk ir
Ġsu mi
Ġdr aining
Ġmar king
Ġsick ening
Ġnur s
Ġchis eled
d un
Ġbe ers
Ġit ch
Ġsquee zes
Ġdep ressed
Ġamong st
Ġpattern s
put ting
Ġflav or
Ġnurs ery
d in
v o
Ġh ush
Ġn ude
Ġbr ax
Ġste vie
Ġspl ash
Ġtrick led
Ġfac ade
Ġtam ara
Ġhoarse ly
h uman
l ers
ant er
Ġso ck
Ġal tered
ans om
Ġatt ent
Ġang les
Ġev apor
Ġund en
Ġcond em
Ġcontain er
Ġaccur ate
Ġdunge on
c our
ic he
Ġtr aces
Ġpe ach
av i
Ġper formed
ane ous
Ġstud ies
Ġforce fully
Ġclass room
Ġcand id
Ġgruff ly
Ġenvelop ed
Ġparano id
p itched
Ġe cl
Ġcr inge
Ġvis its
Ġtex ting
Ġexh ilar
Ġdisp os
Ġpix y
gom ery
Ġlus cious
b ound
t ure
Ġm ouse
Ġn az
Ġco b
Ġsl anted
Ġqu inton
Ġapp lic
Ġband age
Ġsav anah
Ġorgan ized
Ġstern ly
Ġabsor b
bry n
Ġinher ited
list en
Ġveget ables
Ġf etch
st ate
be yond
Ġte quila
ens ively
Ġear ning
Ġtable t
Ġres ignation
Ġdest ined
Ġris ks
Ġbelong ings
Ġmass aged
Ġelev ators
Ġwrit hed
Ġglit ter
m us
st o
Ġas her
Ġwe bs
ol ine
os ity
Ġtal ents
Ġinv aded
Ġexpl ored
Ġir r
Ġagre es
Ġble nd
n on
se en
Ġbl ed
Ġcas per
Ġrain ier
Ġtour ists
Ġvalent ina
Ġdevast ated
Ġtransfer red
Ġbeam s
Ġhyp not
b est
u ation
ad ow
Ġby e
ol iver
Ġide al
p aul
Ġgo at
Ġmother s
Ġcap acity
Ġhang s
Ġord ering
Ġexh ale
Ġlick s
Ġcompan ies
Ġget tin
Ġen h
Ġsupposed ly
Ġpop corn
Ġsyl via
l ust
w anted
Ġm ich
Ġd renched
Ġan onym
wor king
Ġinvestig ator
Ġlan the
o van
v ic
Ġth umping
ic an
Ġj al
ort ion
Ġev angeline
Ġbat tling
Ġver laine
Ġdan ny
Ġgn aw
slo ane
h au
x im
Ġsh ak
Ġsl icing
Ġent icing
Ġinc on
Ġsick ness
sc ar
Ġrob bie
Ġinh ale
Ġtail ored
Ġly ric
Ġpolit ics
Ġkay la
Ġnause a
u ge
Ġs ane
Ġf athom
en na
Ġgr ated
co ll
Ġhit ch
Ġstraight ening
Ġapolog izing
cil ess
Ġshr ink
g ate
j ad
p erson
r at
Ġi ced
Ġl ashed
Ġpur sue
Ġpat rons
Ġbox er
Ġdelic iously
Ġweep ing
Ġchand ler
Ġsmold ering
Ġkyl ie
n ut
Ġco ord
Ġcan cel
Ġste ered
br other
Ġspo il
Ġgrand child
Ġind ec
Ġpun ishing
Ġmill ions
Ġtechn ology
Ġgal en
Ġschol ar
f ur
p ierce
Ġw ither
Ġse mes
Ġco iled
gr own
Ġvisit or
Ġcontempl ated
Ġjill ian
p ad
we ight
Ġbo om
Ġsque ak
c ond
r ical
v ol
re gan
as ka
en ance
ra ising
de al
Ġsw ings
Ġhur rying
Ġmet is
Ġt zader
Ġl acked
Ġout ta
Ġtr a
sh ane
Ġsim one
Ġbro dy
Ġhar py
Ġsharp ened
str ange
oc used
Ġsink s
f ind
m outh
Ġf ooled
Ġd ot
or ters
al ia
ro y
Ġun fast
Ġcra ig
Ġir ony
Ġbal anced
Ġtempor arily
Ġc ert
Ġd na
Ġch art
Ġro ss
Ġstrong est
Ġsens ible
Ġhus k
Ġcabin ets
Ġsandw iches
Ġnich olas
d rop
f ury
x ious
Ġbo iling
Ġprov iding
Ġrestaur ants
Ġmirr ored
sof ia
g ro
Ġfr ied
ant ern
ud ite
Ġsac red
Ġoper a
Ġanch or
brand t
Ġto pp
Ġover looking
Ġbr im
Ġwa vered
ced e
sy l
Ġeric a
Ġpear ls
a aron
b elle
p it
Ġn ike
Ġwh ined
Ġel ves
Ġcra zed
Ġmas cara
Ġembr aced
f lo
her s
ro ke
Ġv ag
ell is
op ed
Ġco in
Ġwa x
Ġreal ised
cl are
Ġmon key
Ġyell s
Ġbill y
shirt s
Ġrespons ibilities
ste fan
Ġfu el
Ġvent ure
Ġiv ory
b id
le gged
est ic
Ġpl ac
Ġrel atives
Ġsque al
Ġrefle ct
Ġlone liness
Ġgrad ually
Ġdepart ure
Ġrefer red
Ġcrit ical
Ġfrequ ently
Ġhandc uff
m ur
re spect
Ġmy ka
Ġman agement
Ġthink in
Ġcare less
Ġmust er
Ġfore finger
Ġball ed
jul es
Ġunf olded
Ġari k
Ġsire n
Ġreb u
Ġscarce ly
p ants
Ġdim ly
Ġinf o
Ġpad dle
Ġencour agement
Ġaim ing
Ġmesmer ized
1 1
m ill
Ġd ough
it ect
et ery
all owing
Ġtr unks
Ġde ed
te ch
iz ira
Ġcle ment
Ġrest s
Ġsupp orted
Ġwarm ly
Ġreve rend
Ġ1 8
Ġwes tern
Ġinvestig ate
Ġhood ed
Ġlaz ily
Ġreward ed
Ġholiday s
vamp ires
f eel
f ang
as beth
out s
Ġsu sie
Ġheart ache
Ġwarm er
Ġcra z
Ġcommand s
Ġgener ation
Ġgirlfriend s
Ġting les
Ġbul ge
Ġtom my
Ġcem etery
Ġto mat
ir m
Ġv ile
Ġgr udging
Ġpl ag
Ġmin ister
gu ilt
Ġboss y
Ġdesp ised
Ġstam mered
m ering
Ġ $
Ġt ying
Ġt icking
Ġsp ont
Ġun steady
Ġcar ries
Ġhar ness
Ġunlo ck
Ġdepe nded
gab riel
Ġger ard
eter ia
Ġcorn ered
Ġfrig id
Ġsult ry
l aken
s ame
ut ter
Ġk adie
Ġse ared
Ġpr inted
iz er
Ġsk illed
Ġstand ards
Ġty ped
Ġpar isa
Ġtort uring
Ġwes ley
Ġetern al
vict or
Ġkidna pping
Ġagon izing
t ly
ick en
mo il
Ġact ive
Ġblack mail
Ġbar king
Ġpat ron
ging er
Ġreco very
Ġart s
Ġmer ciless
sc rew
Ġta unt
Ġsnick ered
i ber
Ġt ane
Ġr aces
Ġre e
ell ison
ul iar
Ġde fl
ps es
af raid
Ġcheck s
Ġdiffic ulty
Ġd ud
as ive
ar azz
Ġe z
ur ous
am on
ul ent
Ġbr ides
Ġspe eding
Ġplan es
Ġer udite
Ġdecl aration
Ġcheer fully
Ġheight s
Ġtur moil
u a
v ane
Ġi rene
as ide
Ġch ast
ig ail
Ġsc ents
Ġtre acher
fr ustr
Ġexplo ding
Ġlibr arian
hand s
Ġrestr ained
swe at
Ġshimm ered
Ġintimid ated
spe aking
Ġcaf eteria
Ġhall uc
Ġswall ows
Ġsusp ended
Ġweak ened
helen a
Ġadmin istr
enc ies
ri ers
Ġcl ave
Ġfl own
Ġpur su
Ġwin cing
Ġtu gs
tt es
Ġhamm ered
bur st
Ġvale t
Ġshe en
Ġr ive
Ġdo se
Ġhad es
Ġtr im
Ġdark est
do ors
Ġpar lor
Ġhall ie
Ġcry st
Ġgrace fully
Ġblind ed
Ġtipto es
quick ly
ar cher
Ġv ice
Ġmom ma
Ġhear th
Ġdist aste
Ġunderstand s
Ġstupid ly
Ġrespond s
Ġcond itions
Ġconsider ation
Ġhost age
Ġre hab
Ġdis lo
Ġins ight
Ġsepar ating
Ġdevelop ment
Ġcris is
Ġpec uliar
Ġfel ix
Ġchurn ed
Ġkin ich
Ġcommerc ial
Ġd ense
Ġd iving
Ġg us
se em
ir c
Ġag gra
Ġsc ale
Ġste re
Ġfirst hand
Ġass es
Ġgrand son
Ġmort ain
Ġnur sing
Ġaff airs
Ġarch itect
Ġze ke
Ġillum inated
Ġmob ile
rom an
Ġbewild ered
Ġha zy
Ġha unting
Ġst acks
ic ious
to ld
el a
Ġdis like
Ġtight ens
Ġcomp art
me g
Ġrain bow
Ġlat ch
Ġobject s
bro ken
Ġsemes ter
arazz i
b in
Ġc unning
Ġdark ening
Ġact or
Ġill ness
len ess
Ġfinn ie
Ġny mph
Ġestab lished
Ġaust in
g ently
Ġo g
Ġg oof
Ġsp ear
Ġco dy
Ġexp ense
Ġsn ack
Ġbare foot
Ġopp onent
Ġfav ors
Ġsett les
Ġcell ar
dam ien
Ġobs idian
Ġbasket ball
Ġwy oming
rigg s
g the
j y
Ġr ac
Ġr ides
Ġv es
Ġwa vy
ct ic
Ġmorning s
Ġpol icy
Ġprod uce
cam ille
Ġhyster ical
Ġbron ze
c ame
m em
Ġbo omed
Ġmeet s
Ġclot hed
Ġsigh ing
Ġdomin ant
Ġult imately
Ġprinc ip
Ġunnecess ary
k rist
Ġt ah
Ġr hea
ors che
Ġlay s
Ġaver ted
Ġpra ise
Ġt ure
Ġr ival
cl ose
Ġimp ending
by es
Ġempt ied
Ġfut ile
Ġunw anted
Ġari z
Ġtorment ed
Ġb in
Ġeven ly
Ġel in
Ġjer ry
Ġmort als
Ġsmir ks
Ġdism ay
beaut y
Ġdisconn ected
augh n
t an
v ik
Ġcare free
Ġband s
park er
xim ity
h r
Ġle veled
Ġlau relyn
** **
Ġz o
Ġbow ls
Ġcommand er
Ġsne er
Ġunf old
Ġveh icles
Ġky rie
incl uding
m ble
m outhed
Ġt idy
Ġb ened
Ġg aining
et he
Ġr ank
qu iet
Ġsee ping
Ġbo il
rent ice
Ġwra ith
Ġnervous ness
Ġhist or
Ġunde rest
he ld
all ic
Ġsa iling
Ġtw inkling
Ġsw irl
Ġret ired
Ġcat al
Ġpan ther
inn ie
inn amon
Ġpop ulation
Ġrib bons
Ġflaw less
Ġaven ue
Ġepis ode
Ġbaff led
h ome
Ġbr ant
Ġsoft ening
Ġob t
Ġinc om
Ġguard ing
Ġstat ues
alex andra
Ġnib bling
Ġmanip ulate
jess ie
Ġhilar ious
b ot
b elt
r ine
al ong
Ġch or
Ġsp le
inst inct
Ġimport ance
Ġlaw yers
fell ows
o graph
Ġm au
st ri
st ood
Ġne on
and j
ak kar
Ġmer cedes
Ġglare s
Ġmach ines
Ġvirgin ia
Ġrot ten
Ġming led
v lad
Ġre ly
Ġdo dge
our ed
Ġun p
Ġsam son
Ġloose ly
Ġep ic
Ġentry way
n icole
Ġg ordon
Ġbl aine
Ġdec ad
Ġtre ad
Ġamazing ly
Ġdisco very
Ġstab bing
Ġdram atically
Ġariz ona
l im
m and
Ġa k
Ġl amps
Ġand ar
Ġco sts
Ġsc oop
ment ed
Ġtal es
Ġper pet
Ġev idently
Ġpict uring
Ġsweat s
Ġripp ling
ethe less
Ġt es
Ġst ryker
ap an
sh ar
Ġdelic ately
Ġprop he
Ġboard ing
rap hael
Ġgrav ity
w ide
Ġb ak
er ved
Ġpro ximity
Ġel iza
Ġper ipher
Ġsor ted
Ġchar ms
Ġbur row
aud rey
Ġtelep ath
Ġsup reme
Ġflet cher
Ġecl ip
Ġl ash
Ġle aping
Ġir ises
fall on
Ġrat tle
Ġcontempl ating
Ġscand al
h allie
Ġa ur
Ġp iper
Ġr umpled
Ġsp ied
after ward
Ġign ition
Ġpap arazzi
Ġboo ked
Ġwashing ton
wr iting
Ġdor othea
Ġconfron ted
Ġst er
Ġsp encer
Ġdown ed
Ġun ra
ous es
Ġsk idded
Ġmon roe
Ġexc used
Ġcontr ary
Ġmod est
Ġphil os
Ġpropos ition
Ġtilt s
s k
Ġl antern
Ġp esh
ut tering
ic ism
Ġro shan
Ġfl aring
Ġjer icho
Ġid ly
Ġclaw ing
Ġattend ant
Ġaston ished
Ġchand el
Ġscul pted
l aci
Ġm ated
Ġc eline
Ġcl u
Ġbr akes
Ġmar garet
Ġair pl
Ġmad ly
Ġjer ks
Ġcla pping
Ġsal iv
Ġshadow hunter
Ġbabys it
hau k
f le
Ġn umer
Ġj apan
Ġmu nd
Ġrad ar
Ġlack ing
Ġdepe nding
Ġsmar ter
Ġh ic
Ġha ven
Ġwe ighing
Ġsh ards
Ġey rien
ul var
Ġde br
Ġsl ay
Ġdis orient
Ġres ume
Ġcra ppy
Ġpresent ation
Ġjax xon
Ġreass ured
Ġshy ly
Ġath let
Ġsyd ney
Ġspart an
Ġez rina
Ġth u
Ġre x
Ġco pper
Ġcan ce
ans w
Ġsil very
Ġmed all
Ġdim in
Ġmeaning ful
Ġreluct ance
je remy
Ġscare s
Ġrasp y
Ġs ated
Ġd ana
ac ross
im ated
Ġcon ceded
Ġarm chair
Ġste er
Ġsex iest
Ġcomp osed
Ġdiffe rences
Ġsix th
Ġeng age
Ġtrans ition
Ġheaven ly
Ġhumili ating
Ġbeck y
sar iana
Ġruff led
l as
l ied
Ġbe ver
Ġk aspar
Ġtr ag
Ġun natural
Ġman if
Ġlook in
Ġwat ered
Ġph oebe
Ġblack ness
Ġign ited
Ġma ia
ev a
Ġren ewed
Ġhaw k
Ġconfirm ation
Ġlind sey
dun can
Ġw iz
Ġy ield
Ġin se
se ction
Ġre id
Ġro l
Ġro amed
Ġpo ke
sp ade
Ġcat tle
Ġbul k
Ġcontent ment
Ġdefin ition
Ġkh ak
Ġves sel
Ġsple nd
Ġ >
Ġ ~
Ġe bon
Ġst ilet
oo oo
Ġam elie
Ġel ite
Ġkeep er
Ġsupp orting
Ġclear s
Ġappro ved
Ġposit ively
Ġtrick le
Ġdisappear ance
Ġdiss olved
har ley
w all
ed gard
al ana
Ġj ayne
cl ad
cer n
Ġgrand pa
Ġind ign
iam i
Ġdim med
Ġunner ving
Ġduff el
Ġhallow een
n ope
Ġp itched
Ġout fits
qu o
ul ting
Ġde er
ous y
Ġsw ipe
Ġmat ches
Ġemp ire
Ġrecom mend
Ġincap able
Ġirr ational
j ama
Ġt ipping
Ġc innamon
Ġp umps
Ġk ier
qu in
Ġhall s
cer ise
Ġprop osed
Ġbul ging
Ġhott est
Ġperse phone
Ġto ry
Ġn an
Ġg iselle
am ic
Ġover power
Ġsm eared
Ġpo nd
Ġfe y
Ġadd iction
Ġind ifferent
Ġslam s
Ġcoo lly
Ġval id
Ġprop ose
blood ed
Ġhumili ated
Ġdip l
Ġexecut ive
j ill
Ġd ips
Ġp eeling
us sell
Ġro gue
Ġgood s
Ġsw anny
Ġreg ion
ric ted
Ġboo ze
Ġtrent on
des per
Ġblind fold
Ġencour age
Ġmaint ained
Ġrab bit
Ġmaneu ver
Ġsev astyan
Ġb unched
Ġin fin
Ġre ared
Ġre arr
Ġle f
Ġsp aces
Ġhow led
sh y
mit chell
Ġpat rol
Ġbur sts
Ġsel ena
Ġelect ron
Ġmand i
Ġemphas is
Ġwist ful
n ol
Ġro aming
Ġthan king
Ġatt ire
Ġinst ance
Ġcour sing
Ġbeat rice
Ġund ress
Ġnick amedes
Ġvan ity
Ġkey board
Ġprin ces
Ġintern ational
Ġratt ling
Ġsheep ish
c ain
ing ly
Ġsh aw
Ġhand ker
Ġro y
fore ver
Ġnew t
Ġcomp elling
der ick
Ġtre as
Ġdraw s
Ġvan illa
Ġprison ers
jon ah
Ġyel ped
Ġunbeliev ably
Ġchap el
Ġhandker chief
Ġb ubbled
Ġwe pt
Ġsp ared
Ġsp ins
ate ment
Ġbr ook
Ġgr azing
Ġday dream
Ġbat tled
Ġstret ches
erg us
sm ith
mat thew
Ġlux en
g her
Ġr aining
Ġcall er
Ġda is
val ent
Ġprov oc
Ġmajor ity
Ġthread s
sky e
Ġsmack ing
Ġblat ant
f oll
Ġt in
in qu
in able
Ġm iami
Ġk assie
Ġj andj
pt ic
Ġche m
Ġstar ved
Ġtight ness
Ġneck line
Ġwind s
Ġlif eless
Ġhigh ness
Ġjack ass
Ġrep orters
Ġcough ing
f rey
w est
er ally
Ġc ope
Ġin e
Ġe up
ke vin
Ġsh ayne
Ġpl aid
Ġdar n
Ġdep ri
Ġdefe nding
Ġeager ness
Ġspr inted
Ġrehe ars
shar p
Ġl isted
it ating
st u
Ġk al
ic eless
Ġsa uc
Ġjo ey
pr ints
lo st
Ġpar ade
Ġcal f
Ġpower less
Ġreco vering
Ġnic colo
Ġacqu ired
Ġscul pt
Ġm aze
st en
Ġun even
Ġbec ca
Ġwill ed
Ġob no
Ġcoll ided
Ġdon ovan
call ed
Ġstee ly
z arek
Ġe lf
Ġne v
Ġso bered
Ġpro dded
Ġbet ting
Ġmus ical
go dd
Ġchin ese
Ġsight s
Ġbook she
Ġcelebr ating
Ġvac ant
Ġneg le
mic ah
it ution
Ġg um
Ġne fri
ist ine
Ġhow l
Ġmind less
Ġer upt
Ġlar gest
Ġdev otion
Ġwide ly
Ġray s
Ġbubb ling
word s
Ġdistr ict
Ġbax ter
d aphne
Ġd aze
Ġpro bing
Ġsupp ress
Ġblur ry
Ġward en
Ġplat ter
Ġcarol ina
Ġstocking s
Ġlef to
re ve
Ġu mb
ss ed
Ġv ain
Ġro ast
Ġdisc ip
Ġleg ion
Ġfresh man
fuck er
Ġwicked ly
Ġunt ouched
Ġay e
a eron
c et
d red
j ael
Ġt umble
Ġp ac
Ġe aves
Ġun pred
ne al
Ġdr apes
ber ries
Ġent w
Ġint r
fin ished
Ġscr unched
Ġcru elt
hol t
Ġpout ed
Ġcorpor ate
w anting
om bie
the o
Ġhold en
Ġdrag ons
Ġrock et
Ġsuit able
sc out
Ġcre aked
Ġaccom p
Ġimpl ied
Ġfreck les
Ġst uttered
Ġcom promise
Ġim mob
az er
Ġmar vel
Ġunderst atement
Ġmet allic
erm illa
Ġflat tered
Ġfrustr ating
Ġsed uced
Ġcloud ed
sal vatore
Ġdang led
Ġscot land
Ġpean ut
Ġch ills
Ġsu l
ell ie
Ġro bes
Ġbl ess
Ġke ith
Ġmurm uring
Ġden i
Ġval erius
Ġstif le
Ġcudd led
Ġrue ful
lou isa
ikh ail
Ġaccomp any
c ount
t asha
Ġm m
Ġd rying
is se
id ers
Ġno ir
Ġwater fall
Ġjaw s
Ġtoss es
Ġris king
Ġspir al
Ġstrang le
Ġshuff ling
Ġslipp ers
Ġd ane
as her
Ġas hes
un ned
Ġtr otted
Ġcon te
Ġbreath y
Ġmor p
Ġbar riers
Ġru gged
Ġchat ted
Ġnic er
Ġstal ker
th a
Ġse w
uc ted
Ġref usal
Ġhor rific
Ġangel o
Ġing red
Ġconce aled
Ġmim i
Ġcompart ment
p aper
Ġw rought
st even
ty ler
Ġdec ides
Ġdec ipher
Ġchar ging
Ġred uced
Ġbusiness man
Ġstuff ing
tern at
Ġ1 1
jul iana
Ġdelight ful
Ġscram bling
dri ve
Ġt et
se nd
Ġhard wood
ary l
Ġquick er
Ġapartment s
Ġattack s
Ġadm on
Ġrese mbled
Ġclar ified
Ġsid el
Ġga ius
o st
on ic
or is
st aff
Ġup coming
Ġal arming
act ly
Ġad a
Ġreg ained
Ġce o
Ġund ressed
Ġwitness es
Ġprev iously
Ġrip e
Ġproject s
Ġretreat ing
Ġrome o
Ġripp le
beaut iful
d allas
m il
r ust
Ġd otted
Ġd avis
Ġlo dged
Ġse rene
Ġter se
Ġdisapp ears
den ise
cat cher
Ġmedall ion
d one
f y
ad ian
Ġqu ad
Ġton s
Ġconf lic
Ġhor ribly
Ġeff ic
Ġpet ty
ev idently
Ġinf ant
Ġfac ial
Ġclar issa
Ġdesign s
Ġginger ly
Ġskept ical
e at
Ġt roll
Ġnot or
Ġmind ed
Ġsho vel
Ġcoll aps
Ġsun rise
Ġta vern
luc as
Ġflex ing
cel ain
Ġconce al
Ġsele cted
Ġnumer ous
b ble
e ur
e enth
le vet
Ġk iara
Ġbr ina
Ġgl en
Ġsal v
Ġstri pper
Ġdeb ate
bur g
Ġinvolve ment
Ġpaw s
Ġcruelt y
d ia
o be
in um
Ġn ailed
Ġl aney
Ġha bits
il ia
ul ted
Ġcom in
os is
ich i
Ġmoment um
ail a
Ġhung rily
mar guerite
uct ions
Ġbow ling
Ġsuck er
Ġwheel ed
Ġpost ed
Ġheight ened
Ġregular ly
Ġpa jama
Ġbon us
Ġinsul ting
Ġunle ashed
s is
Ġst itches
Ġwh irling
Ġen raged
Ġarg uments
Ġprim itive
l isa
s aw
v able
v ative
Ġb idding
Ġf ib
Ġst ored
qu ite
Ġpre ternat
Ġcons ume
fr ame
cass andra
Ġshr ill
d ee
j ecting
n umb
Ġl uther
Ġle y
for cing
gr ate
Ġcheek bone
ex actly
tw ice
Ġpract icing
Ġbell owed
Ġdisco vering
Ġcontract s
Ġunb uck
Ġindul ge
Ġtwent ies
h ou
Ġc auses
Ġtr ance
Ġcan op
ach lan
Ġcont ented
Ġsig ning
Ġcons ult
cer ned
Ġdet er
Ġadd icted
Ġspread s
Ġblind s
mad die
Ġafterward s
Ġstrict ly
stra ight
phil im
Ġferoc ity
u its
Ġd yn
om bs
am el
Ġch ores
Ġbl aming
Ġfl ies
Ġreac ting
Ġinter ven
Ġmed ication
Ġpurpose fully
Ġpenetr ated
Ġartifact s
Ġaccommod ate
t able
Ġf azire
st ained
Ġshe ree
Ġro sy
Ġsk imming
Ġeff icient
Ġopp osed
Ġexperien ces
Ġopport un
Ġmaneu vered
Ġdele ct
s ounds
Ġcl ark
Ġpl anting
ig ible
Ġsay in
Ġser aph
Ġdet ached
Ġce real
Ġemb ro
str ider
Ġpor celain
Ġemploy er
Ġdevil ish
need ed
boo ks
c aden
u gh
Ġe con
Ġst unt
ur able
un cle
Ġsp orting
Ġbr av
Ġpr iceless
Ġte et
mo lly
ub by
Ġpal p
Ġcirc us
Ġrob in
Ġju ices
je an
Ġteacher s
Ġalter ants
Ġtransform ation
d ling
p id
he ard
Ġl l
Ġp ipe
Ġp orsche
ut y
Ġdo dged
to e
Ġun com
Ġpro long
aw son
co at
Ġbusiness es
Ġpin ching
Ġgest ures
Ġsire ns
Ġsincere ly
m pt
y on
z o
Ġt ous
Ġre jo
ore t
are ttes
Ġmat ure
Ġseat belt
dom inic
Ġtur key
Ġcrou ch
Ġexplos ive
Ġbrood ing
bab y
n ear
y ah
nd an
Ġo llie
Ġcl ad
Ġor ph
sp ec
Ġbre h
cept ive
Ġtre k
Ġexc ess
Ġnon etheless
Ġinh aling
Ġscrat ches
Ġtour ist
Ġdevour ed
Ġcoax ed
Ġdazz ling
Ġintric ate
Ġleisure ly
in ations
Ġb riggs
Ġha vin
Ġkn it
Ġv innie
Ġthem e
Ġclos eness
let s
Ġfree ing
Ġsense less
ey e
Ġmorgan a
Ġpiss ing
Ġo c
Ġj em
Ġrel ish
ert ained
bo b
Ġsmo ky
Ġpol ish
Ġthick er
Ġden ny
Ġcomfort ably
off ic
Ġvibr ation
Ġindust ry
neg ation
c idra
in is
om p
Ġso ak
Ġent it
Ġdri p
Ġbad ge
Ġhot els
Ġbag gage
lex ie
su zanne
Ġvic inity
Ġpred ic
Ġauthor ities
Ġresol ved
Ġnet work
Ġmol ten
Ġchor us
Ġc ack
Ġd ots
il ogue
gg er
Ġpen n
sc reen
Ġenter pr
Ġmck enzie
gre g
tal king
Ġintru der
Ġpron ounced
Ġinterrog ation
h ara
Ġo me
Ġc ape
st aring
ap ollo
Ġun pre
Ġsaw yer
Ġser um
Ġdoubt ful
Ġmac ie
Ġsneak ers
Ġerr atic
Ġobliv ion
Ġserge i
m ah
Ġm ig
ay a
Ġrem n
gu ards
Ġrow dy
kat ah
Ġger ald
Ġvig or
Ġincredulous ly
Ġcham bers
Ġtendr ils
Ġhe ed
Ġqu er
pt ions
Ġmon ica
Ġchild ish
Ġstraight er
Ġjaw line
Ġdep ressing
Ġval erie
Ġobs ess
h all
u ously
Ġhe s
Ġdo l
Ġsu lly
Ġsp ank
Ġsp uttered
ist ing
Ġgl inted
Ġpr istine
Ġaw fully
Ġinvest ment
dr ake
Ġing rid
Ġpoison ed
Ġmyth os
Ġtuck er
quo ise
h i
Ġm aker
Ġsh ark
Ġne hele
Ġturn er
Ġwater y
Ġcir ce
Ġthick ly
fit ting
Ġrow an
Ġcig arettes
Ġscor ching
Ġunpred ictable
m ace
Ġb umping
Ġn ico
Ġl ull
on ar
Ġre y
Ġle igh
Ġor che
sp ring
Ġnew found
Ġmot ives
Ġmagn et
Ġhood ie
Ġenthusi astic
kiss ing
Ġbian ka
c ade
he av
en g
en gers
on ies
Ġv ines
Ġbo ats
Ġsl aps
Ġsn akes
Ġap oll
Ġcons ort
Ġadd ie
Ġgen etic
Ġscent ed
Ġcapt iv
Ġappl ause
o col
s chool
ll ian
Ġj ag
Ġag itation
Ġgr aze
Ġbo nded
cl ub
ix ed
Ġarri ves
Ġsubject s
Ġdeb ated
Ġbuff et
f ull
Ġm umble
Ġc ities
Ġp all
Ġg ifted
Ġbe ads
Ġsh apes
Ġne philim
Ġex claim
te enth
Ġsil hou
Ġdeal er
Ġpres um
me an
Ġdev ina
Ġgent leness
Ġblo om
Ġju ly
Ġshield ed
Ġhurried ly
Ġhost ile
Ġbud get
Ġconven ience
Ġbrew ing
Ġbrisk ly
din ner
b uck
he eled
as ps
Ġbe aded
ac ulous
ir ls
Ġli vie
Ġpl ague
Ġpr icked
Ġgu id
ress es
ze b
Ġtruth fully
gu y
Ġrain a
ante ed
Ġsquir ming
Ġmont gomery
Ġcult ure
Ġw ad
Ġi re
im ogen
Ġk ilt
Ġover fl
Ġro sa
Ġwait s
Ġtry in
Ġsign aled
Ġpred atory
Ġtrigg ered
Ġfatig ue
Ġdelect able
h ift
k ade
Ġb ern
Ġd ing
Ġtr acy
Ġro ver
Ġwa iled
Ġcr ut
Ġty ping
Ġhon ored
Ġloving ly
Ġsniff ing
Ġpil es
Ġtrau ma
Ġhandcuff s
s ib
Ġt ainted
is ma
Ġst up
ic able
il ight
Ġcour sed
lo ving
Ġje opard
Ġless er
again st
Ġurg ently
Ġdus k
h op
Ġc ater
Ġp ried
Ġass essing
Ġmor al
Ġbreak up
Ġmakes hift
Ġspeak ers
Ġappre hension
Ġeffort lessly
Ġdi ary
interest ing
s uck
t ory
Ġk rit
Ġsh ave
Ġhome coming
Ġwork er
bo ys
Ġspot light
Ġpurp oses
Ġcelebr ity
Ġtur quoise
Ġpuff y
f am
f ol
Ġt id
Ġc um
Ġe th
Ġu gh
Ġr ained
Ġj elly
Ġop ted
Ġwo nders
Ġwork ers
Ġtu xed
Ġboyfriend s
Ġinf uri
pro f
Ġpred icted
Ġkrist ine
Ġlever age
Ġto pped
Ġd usted
Ġwh ine
Ġab negation
Ġsp icy
est e
Ġper imeter
Ġdev lin
Ġann ivers
Ġadam ant
Ġsha wn
Ġpred ict
Ġtran qu
Ġwigg le
Ġcer ise
e ous
t iny
v ance
Ġa ustr
Ġs ass
Ġj ed
Ġfr at
and rew
Ġab used
Ġover re
ep ilogue
Ġpant ry
Ġsub mission
ex pl
Ġstri kes
Ġsol ved
Ġtil es
Ġsurrender ed
Ġtack le
Ġmelo dy
Ġtantal izing
p ow
Ġf ates
ar us
Ġover looked
Ġpo et
sh ock
Ġcr am
Ġass aulted
Ġrel ieve
Ġang rier
Ġimp ass
Ġcons ent
Ġdel ir
Ġpleas antly
Ġrec ons
Ġwren ch
Ġmiser ably
Ġded icated
i ots
r ising
r ument
Ġd harr
Ġe b
Ġk acey
Ġr ice
Ġwe aving
Ġsh ap
Ġsw ooped
Ġmust ang
Ġcoat s
Ġcomput ers
Ġgown s
Ġcher ished
mel anie
fif teen
Ġbened ict
f ing
Ġl ance
Ġy o
Ġst alk
Ġme adow
Ġr iv
Ġre no
Ġsl umber
Ġinter v
Ġpat s
Ġmur doch
Ġshru gging
Ġpack et
Ġmort ified
Ġknock s
Ġcaress es
boy friend
Ġassoci ated
Ġgrunt s
Ġtact ics
u ate
and ium
Ġle v
Ġpl aster
Ġlau rel
Ġpain s
Ġdeb ating
Ġexec ution
Ġatlant a
andium l
o bs
r ained
Ġw akes
Ġb aked
ing ale
Ġtr apping
Ġgl inting
Ġstr ung
Ġwr inkles
Ġgrand daughter
Ġblo omed
Ġsin ister
Ġsuccess fully
Ġmart ini
Ġscru ff
Ġjab bed
Ġsubd ued
Ġsteph anie
Ġpalp able
' re
r ane
Ġd v
Ġl um
Ġbe ans
au s
Ġcoll ective
Ġsub miss
Ġind ian
Ġassum ption
Ġexpand ed
sum i
Ġpuck ered
Ġshak ily
b arr
p rentice
Ġo t
Ġth irsty
Ġout burst
Ġsp itting
Ġde ity
Ġpro ced
sw allowing
Ġref lecting
Ġcold er
Ġhar med
Ġid le
Ġcounter top
Ġma ax
mar is
Ġmic row
Ġcurt ly
hus band
Ġveron ica
Ġuncontroll ably
g ry
p am
Ġal ight
Ġag gression
Ġdis he
Ġcur s
Ġinst rument
Ġbar b
Ġalex ander
Ġopin ions
Ġcait lin
c ool
d im
o gan
Ġt ame
in ter
Ġth irst
ill ance
un ches
el ijah
Ġbr uce
ily n
Ġbre ed
Ġprot ocol
Ġquiet ed
Ġins erted
Ġhun k
Ġrele ases
Ġdemon ic
Ġmention ing
Ġforce ful
Ġpit cher
Ġconcl usions
gry ph
ogan y
Ġt akin
Ġor nate
Ġlight en
Ġeas iest
Ġint ake
Ġpar an
Ġfree zer
Ġrec ip
Ġtor ch
rid ge
sl iding
oy a
Ġloun ging
Ġhau ght
Ġbark er
Ġlouis iana
Ġmah ogany
Ġ #
Ġin ability
Ġj aelyn
Ġsk ipping
Ġdeep ening
Ġcoll ins
Ġtri pping
Ġgar ment
Ġpun ches
Ġthin ned
sm all
Ġcompet e
Ġvolunte er
domini que
Ġralph ie
Ġpiv oted
Ġobno xious
a j
t em
Ġthe at
Ġhe dge
st ore
Ġr aged
Ġsl iver
Ġche ering
Ġlit tered
Ġdr akkar
Ġbeh aved
Ġev ie
Ġna omi
Ġden a
mon th
cass ie
Ġvik tor
fur ther
Ġprophe cy
Ġwiz ard
a im
p icking
Ġf ain
or ation
Ġso il
Ġall ison
Ġgr ump
Ġsl icked
anc er
Ġfing ered
Ġcr umbling
Ġplay boy
Ġthroat y
Ġsitu ated
Ġcrack ling
Ġsmir king
Ġglo ved
Ġbun ny
Ġexhaust ing
Ġrue fully
certain ly
f ish
w ed
Ġo ctavia
ag ues
Ġtw irling
Ġtw inkle
Ġgir ly
orm al
Ġmay sie
Ġjer sey
Ġstrugg les
Ġell en
Ġprod uction
Ġexte nding
Ġmurd ers
Ġsurve illance
Ġdefin ite
Ġped est
Ġimprison ed
Ġclement ine
Ġeclip se
Ġp ooled
Ġwe igh
Ġj udd
Ġgo als
art emis
Ġco sm
ond a
Ġapp alled
Ġcou ches
Ġmor ris
Ġbar ing
ph ones
Ġpat ients
Ġread ily
Ġthr um
Ġhar b
bl inking
Ġsing er
Ġtruck s
luc ian
Ġting ed
Ġdra ft
Ġclu eless
Ġtrag ic
nol an
f inding
Ġp um
Ġex terior
ol ation
Ġcre ased
hell o
Ġdread ed
Ġincreasing ly
Ġincon ven
b un
r ate
t ie
Ġr ussell
ro bert
Ġv aughn
Ġbo ards
Ġsl its
Ġgot h
Ġap h
gr ac
Ġform id
Ġmed b
Ġarou sing
Ġobser vation
Ġremark able
Ġbrides maid
j ade
u ber
Ġs ins
Ġh ut
Ġc ath
Ġfl aming
Ġaf ric
Ġnight ingale
Ġca ves
Ġent ertained
Ġdream y
Ġmark er
Ġrul er
Ġspr ung
roll ed
Ġstubborn ly
Ġthunder ed
Ġseet hing
Ġswive led
jew eled
zeb ub
d ust
Ġb aking
Ġb rett
le ar
Ġst amped
Ġk aderin
Ġun rel
Ġun char
ak ob
Ġsc old
amp ered
bed ded
br inging
Ġdeal s
Ġesc apes
Ġdiss ol
Ġforb id
kim ber
Ġessent ially
Ġwrigg led
Ġkink y
Ġdecad ent
Ġannivers ary
Ġaph rod
s i
s ight
u ating
x avier
and shy
Ġch op
Ġch illing
Ġsc iss
Ġstill ness
Ġreal izes
Ġcomm otion
Ġresist ing
mate o
jon athan
anton ia
Ġa then
Ġr ic
ad ors
Ġsh oo
ch assie
Ġv ial
Ġhand bag
Ġco herent
Ġsl ope
Ġapp les
Ġhar v
Ġhar rison
Ġsam ple
Ġcount enance
Ġ1 2
about s
Ġdish was
Ġpec k
sib yl
l ia
t ens
Ġb ass
Ġf ished
Ġbo nds
Ġche ss
Ġday ton
Ġinst alled
Ġmor rie
Ġsim mering
gr anted
Ġinc ome
Ġrepl acing
ha iley
Ġris en
Ġtang ling
gray son
Ġkay lee
Ġnovel s
Ġalb um
a very
f lynn
Ġw its
Ġh ike
Ġan a
Ġbo bbing
Ġint u
Ġboy ish
Ġcoll ecting
Ġglow ered
dis app
Ġrecon c
abs olutely
Ġrehears al
t ub
st ream
Ġre nd
Ġal ison
Ġcom prom
ak ota
Ġvoice mail
Ġph ill
Ġhum id
Ġcoff in
bl owing
Ġce ase
Ġtu x
ron an
Ġrese mblance
Ġpenetr ating
Ġmonit ors
b ene
Ġh aste
Ġsh rew
Ġpo d
Ġevery day
ne il
gg ie
Ġprot ru
Ġhall ways
Ġdet ailed
ann el
Ġsuit cases
Ġstiff en
Ġclit oris
Ġreser vations
Ġalter ant
Ġnix on
Ġaccus ations
Ġcoax ing
Ġformid able
a vering
g ill
Ġn ip
Ġst ash
Ġcl ap
Ġcl uster
Ġcom a
Ġfl ips
Ġcar amel
Ġhar bor
Ġell asbeth
Ġsuggest ions
Ġprec ision
Ġscen ery
Ġcel ina
Ġdeaf ening
Ġacquaint ance
Ġaub urn
Ġbak ery
Ġmund ane
s ively
Ġto d
Ġto ned
Ġl ac
Ġfr ail
Ġwhe e
Ġse er
Ġbo iled
Ġpr one
my st
Ġsk et
Ġz ombie
Ġdef ensively
Ġwip es
Ġgut t
Ġflick s
Ġfu nds
Ġgradu ate
surpr ising
Ġclip board
Ġpled ge
Ġalle g
Ġuneas ily
Ġl ung
ul ative
Ġthere sa
Ġtw ilight
iss ance
ru bi
Ġwalk way
Ġmir th
res hing
Ġbutton ed
tell ing
Ġtrist ran
Ġsole ly
Ġbang s
Ġfi ber
Ġundo ing
Ġlegit imate
Ġbould er
be it
Ġshirt less
Ġwed ged
Ġcompl iments
Ġdef iance
Ġtreat s
Ġ2 0
Ġcha ise
Ġbeck oned
Ġmicro phone
hum ans
Ġplum met
z ied
Ġy ach
Ġe er
ur dy
Ġde ft
Ġeven ings
Ġcan s
Ġche ered
Ġmut e
Ġbliss ful
wat ch
Ġisol ated
Ġparan ormal
c up
d ening
Ġt aps
Ġto yed
Ġg urg
Ġcan yon
Ġper ver
lo cks
do g
Ġtem ps
Ġve nd
Ġash li
dam on
Ġmas ters
Ġmotion ing
Ġpool s
Ġsupport ive
Ġslo ppy
Ġimmort ality
Ġkar issa
nec k
Ġ ouch
Ġs is
Ġto x
il ton
Ġqu in
Ġmu ddy
ross ed
Ġrel inqu
Ġmother fucker
Ġbit ches
Ġben jy
Ġmad ame
Ġburn t
Ġda xton
rel uct
ival ent
Ġintri guing
Ġshred ded
Ġprivile ge
empt y
d anger
Ġf anned
ly s
Ġk essen
Ġfor ged
ur iated
Ġfr y
Ġout door
Ġpro sec
Ġhard en
br ing
Ġtre mend
Ġdet on
Ġhesit ating
Ġver a
Ġcrack led
Ġtang ible
Ġinh ab
Ġhaul ing
Ġdrum s
Ġstagg ering
Ġreplace ment
Ġblunt ly
chris topher
Ġevapor ated
Ġpreternat ural
c ap
f oc
ab as
Ġsp ying
Ġsm al
Ġun moving
Ġde wayne
ra v
Ġapp lying
Ġser ial
Ġreason ing
Ġfoot ing
Ġstre aks
bl own
Ġtor in
aff ected
Ġrom ain
tt i
Ġvent ured
Ġwy att
Ġt rop
st ers
Ġbr idget
Ġac hes
Ġsc olded
iz able
Ġcol oring
Ġinter pret
Ġpur suit
Ġtow ers
tot ally
Ġtous led
d ig
Ġw ires
on er
Ġg il
Ġch au
Ġche ers
ass o
ru ary
Ġlau rent
Ġsec l
mo ve
Ġple ad
Ġret ort
do ing
Ġter ry
Ġmist aking
Ġprep aration
Ġview ed
Ġju icy
Ġstream s
Ġsnar ling
Ġmod els
Ġsaint crow
Ġoutrage ous
Ġgig antic
Ġanonym ous
j udging
k ira
m aster
Ġl ousy
Ġin ject
ir y
Ġv int
Ġmoment ary
Ġsteady ing
Ġbetray ing
Ġscru b
Ġemph atically
lay la
Ġbeep ed
Ġparaly zed
b an
s ant
Ġt inted
Ġf iling
ly the
she ridan
Ġcon vert
Ġlo dge
ame y
Ġcr anky
Ġaw aiting
Ġref reshing
Ġdev oid
Ġsal ute
mad eline
Ġintention ally
Ġinsist ing
Ġsmith ie
Ġhaw ai
Ġopportun ities
Ġmicrow ave
Ġro oted
Ġbl ues
Ġoff ensive
ath on
Ġem ails
Ġbab bling
br idge
Ġthr illing
Ġid iots
Ġ1 5
ano v
Ġinsp ection
Ġpuff ed
Ġguar anteed
anth ony
Ġdishe veled
Ġb anter
Ġn ipping
Ġex ert
qu ate
Ġun for
ick s
Ġpo sed
Ġfo x
br ielle
gr inning
Ġread s
Ġmir aculous
Ġdim itri
Ġassoci ate
Ġbi anca
Ġtipto e
sus an
Ġcanop y
Ġl ain
Ġp elt
Ġp ans
Ġdo omed
Ġis sued
Ġfl annel
Ġz ander
br ight
Ġquiet er
Ġpres ley
Ġrep ay
Ġdep ression
Ġtrans f
Ġbay a
Ġaffection ate
Ġnib ble
Ġoblig ed
Ġtiss ues
Ġsorce ress
inde ed
Ġaristo cr
Ġunden iable
Ġ ou
Ġb owing
nd o
er ia
Ġp ots
gh ast
Ġsh hh
Ġv oy
Ġcl ues
Ġsp ons
Ġpassion ately
Ġelect rical
Ġari yal
Ġrust ling
dev on
Ġdeliver ing
domen ico
Ġadop t
Ġpir ate
Ġmanic ured
reve port
grac ie
Ġb or
Ġg ret
Ġwh iff
Ġfr act
Ġtr immed
Ġse vered
Ġwom b
Ġass ail
Ġcor set
Ġsweet er
Ġru ins
Ġgun shot
Ġprotest s
Ġhart e
trent on
lit erally
Ġinex pl
Ġdipl om
r as
Ġso ared
Ġall erg
ag ar
Ġby p
Ġrun way
Ġdef ine
Ġshield ing
Ġrev ulsion
Ġsale m
Ġmex ican
d raw
m ain
Ġs ardon
Ġc ripp
id ered
out ed
sh ort
Ġtri angle
Ġwin ner
Ġschool s
Ġwild er
Ġmill er
car olyn
Ġnewsp apers
ribut ion
Ġplag ued
g ary
m ers
p ri
Ġtr icked
Ġtw ined
sh ahara
Ġheart break
Ġend ear
Ġbre nt
Ġben ji
Ġmag ically
Ġecho es
Ġgrate fully
Ġhoo ks
Ġmurder ous
Ġram med
Ġdart s
Ġming ling
Ġwrest ling
Ġathlet ic
is ive
le igh
Ġag ed
wn y
sp ons
Ġwar lock
Ġcomp ulsion
na issance
Ġhun ch
Ġvi king
Ġsweat pants
Ġsepar ation
Ġpure ly
Ġfright en
Ġscram ble
fight ing
Ġcalcul ating
Ġupd ate
Ġcupc akes
Ġrive ted
Ġdebr is
o pp
ed e
Ġb a
Ġsh reveport
ee ps
Ġhand writing
ber y
Ġfact or
Ġprotect or
Ġrep ul
Ġreve rent
Ġextra v
Ġglimp sed
Ġairpl ane
Ġgutt ural
b at
b ath
Ġd ome
Ġsa iled
Ġsl ash
ol ic
Ġass ets
Ġris ky
Ġteam s
nat alie
Ġfat al
Ġfaith ful
Ġdevour ing
Ġpriest ess
Ġsevere ly
Ġdanie la
Ġandar ion
Ġh iring
Ġr ielle
Ġsl aughter
Ġcol our
Ġfre aky
Ġer ased
Ġprotect ively
Ġcond es
des ire
ini est
Ġtab lo
Ġmaterial ized
dad dy
Ġcomfor ted
world ers
Ġbice p
Ġade pt
Ġhusk ily
Ġingred ients
ed en
Ġf ergus
Ġwe ed
Ġbl ister
ick er
Ġcar nal
Ġbed ding
col n
Ġcent ered
Ġexpect ation
Ġfil tered
Ġban ished
jess ica
sab in
Ġengulf ed
Ġjal al
Ġaggra v
b a
l iving
y d
ri x
Ġch alk
Ġpo ster
Ġdr ill
Ġhair y
Ġcur vy
Ġsho ves
Ġdro ple
Ġunderstand able
bo at
Ġrid er
ring ton
Ġmed s
Ġlaw son
Ġinf ected
Ġbeast s
Ġmc bride
Ġpa wn
Ġhmm m
Ġinterrupt ion
pat rick
Ġeer ily
c key
n ation
t ails
Ġthe r
Ġg ps
Ġtr udged
Ġgr ape
Ġse ating
Ġman iac
Ġpo ppy
Ġper ple
Ġev al
gr ade
Ġbreak down
Ġbat tery
Ġrepe ats
Ġcru c
Ġpit iful
Ġreser ve
Ġrot ting
Ġmour n
Ġentw ined
Ġwas nt
Ġr idden
Ġsh roud
Ġwor sh
Ġsl ate
Ġpro b
sh ut
cl ot
Ġres ident
Ġchar med
Ġgre gor
Ġhor de
Ġsens it
lly mi
Ġpay s
Ġsy ll
Ġjud son
Ġdiv ided
nat ured
Ġhal ting
Ġrestr aining
Ġinit ially
Ġpotat o
Ġcaf fe
Ġkidn ap
Ġgrudging ly
Ġentit led
b iting
i ors
l ore
n ah
s ort
he en
Ġt ummy
Ġs ings
Ġf ooling
Ġc c
Ġn un
Ġl ud
le ton
Ġr aking
Ġr ansom
ess ions
Ġare na
ress ive
Ġwhere abouts
Ġcont aining
ber g
Ġatt ach
Ġcle arer
Ġsil enced
mor ning
me re
Ġsub sided
Ġstead ied
Ġscrut iny
Ġpredic ament
s id
t ad
Ġc ec
Ġst urdy
Ġsp as
Ġsc ales
ct s
Ġdis pleasure
anc he
Ġgreat ly
Ġins ists
Ġnorm a
Ġcoo ling
Ġweak er
Ġmis chief
sa fe
Ġdisp at
cal m
Ġinsp ired
Ġspraw ling
Ġcolumn s
Ġcupc ake
Ġscree ch
Ġsubmiss ive
aim ee
f ting
Ġo x
it ate
ar ching
ve mber
Ġas ph
al t
all ing
Ġtr amp
Ġlo af
Ġgr am
um sy
Ġco ating
Ġfl ur
Ġen er
ble m
Ġhard ening
Ġmar red
Ġhur led
ord er
irt ies
Ġwonder fully
Ġve t
Ġluck ily
Ġpair ed
Ġmot ive
cons ciously
Ġexte nd
Ġprim ary
Ġrever sed
Ġaston ishing
Ġcandle light
Ġinqu ired
Ġminim um
Ġd ianna
ll i
it i
Ġj une
Ġpl ug
Ġsc ald
nt on
Ġhome made
Ġmen ace
Ġinv asion
Ġpass engers
Ġform ula
mb ling
Ġgener ations
Ġchat tering
lace y
Ġsacrif iced
Ġsmug ly
Ġscur ried
r ors
ed ward
ill on
Ġsk ies
Ġsw amp
Ġjo st
co y
Ġinte gr
Ġpay back
Ġbath tub
Ġble nded
Ġsurv iving
Ġrespect able
Ġunw elcome
Ġmyst ics
Ġspect acle
Ġlink s
Ġtriumph ant
Ġsmother ed
Ġumb rella
bene ath
w w
Ġt iniest
Ġs ce
Ġc aged
Ġwa fted
Ġele ments
Ġmaj esty
Ġsplit ting
Ġcy cle
Ġsele ction
Ġplot ting
Ġencl osed
Ġhav oc
Ġdishwas her
o cious
Ġb ile
Ġd ow
Ġhis sing
st ant
all s
Ġv ault
Ġtr is
Ġex ting
Ġbr id
op ath
other s
Ġinter jected
Ġenjoy ment
jul iet
Ġlun atic
Ġanticip ating
Ġemer ge
Ġglo om
Ġnu zzling
Ġnud ge
gy pt
Ġcontempl ate
Ġgrac ious
Ġvoc al
Ġremn ants
Ġtuxed o
e asy
w ee
Ġt ensing
or ie
Ġe ag
Ġre cess
Ġv ika
Ġam bit
for ced
Ġgre asy
Ġtri be
Ġmil it
Ġpul s
Ġtick le
Ġwash cloth
Ġcord o
Ġgam bling
Ġmerl otte
Ġwebs ite
godd am
Ġvint age
l iv
w y
Ġw agon
Ġbe ige
el issa
Ġdoor frame
Ġel astic
for ward
Ġdrag s
Ġprevent ed
clay ton
Ġmanip ulated
Ġbryn na
eve lyn
breat hing
Ġf iction
ee m
Ġro ber
Ġun affected
pl aced
Ġwar rant
not iced
Ġboo st
Ġdon na
Ġwheel chair
agg y
Ġdisbel ieving
Ġmour ning
Ġgin ny
Ġh ul
Ġf ret
as ia
Ġp rying
Ġy ar
Ġyour selves
Ġcr umb
Ġser ver
Ġaw aited
Ġinter com
Ġmil o
rem iah
Ġtrem ors
Ġhay den
Ġtransp arent
Ġimpul sive
Ġrepres ented
bb ly
Ġnonchal ant
Ġrepr ieve
Ġeman ating
wra pping
Ġconser vative
Ġcate g
Ġvag ina
Ġprincip al
c ard
f re
h ang
k adie
v ial
re g
Ġb our
Ġha lo
Ġbe m
Ġst ating
Ġre es
Ġv ia
Ġsc ored
de uce
Ġca ld
no elle
Ġsur ging
Ġsupp le
Ġshut s
Ġpack s
fl ops
Ġrain e
Ġdecl ined
Ġhous ed
second s
Ġgau ge
Ġdepos ited
Ġsham eless
Ġw inking
Ġh inted
Ġb ake
Ġf umbling
ist ics
Ġar lene
Ġman ly
be ats
Ġdis inte
Ġsqu inting
Ġadd y
Ġsign als
Ġsha un
li ked
Ġbik er
Ġpave l
broo ks
dem etri
Ġcade on
i at
Ġh asty
Ġm akin
Ġk izira
am ous
ri um
Ġtr aded
Ġor n
Ġsw itching
Ġbel atedly
Ġstr icken
Ġph ant
Ġbre ach
Ġed gy
Ġstre wn
Ġnat ive
never theless
Ġkrist en
Ġpersu ade
Ġresur re
in al
Ġs essions
es cri
Ġcl umsy
ers ed
Ġbo nding
Ġsl ing
ther n
Ġwar iness
cl ar
ph ine
land s
Ġsol itude
Ġrob bed
Ġfer ocious
Ġspan king
Ġpenetr ate
Ġflor al
Ġtodd ler
Ġdizz iness
Ġguid ance
s aff
Ġe gypt
ad vert
il ah
ill es
ie ces
ri ages
Ġar oma
Ġwa il
ves ted
Ġpres er
Ġsy ring
Ġram bling
Ġimpro ved
Ġarrow s
sof ie
Ġscholar ship
c as
Ġa rian
Ġc rib
Ġher it
Ġab und
Ġch ore
if ference
Ġcon co
Ġoff end
Ġco al
Ġgl immer
ens ions
ens itive
Ġact ors
Ġsto ic
Ġglass y
ken ny
read ing
Ġclen ches
Ġdi andra
Ġtyp ically
Ġrav yn
Ġscroll ed
tam ara
sho cked
c ab
d ress
l othaire
Ġw retched
er ting
Ġl ynn
Ġher d
Ġr ake
Ġr ushes
Ġal aska
qu est
Ġpo ndered
ass uming
Ġmar ching
Ġapp oint
Ġroll er
Ġground ed
Ġexper iments
Ġdef le
00 0
Ġslither ed
g row
i pt
t ate
ar ations
Ġcl attered
Ġdes irable
Ġmar tha
Ġwatch ful
Ġhusband s
Ġenc irc
Ġspir aling
Ġtrick y
Ġinf uriated
real izing
Ġfren zied
Ġpers isted
Ġfeb ruary
r s
Ġt ers
Ġb ully
Ġf eline
Ġn ub
ce eding
Ġover d
fe rences
Ġpre tense
em otion
Ġbreat hes
Ġem bedded
Ġcr unch
Ġper forming
Ġrest lessly
Ġinter act
Ġconsider able
Ġvibr ate
Ġanch ored
Ġdiscon cer
s ierra
Ġb ows
as is
Ġp es
Ġst ale
Ġloo ped
Ġall iance
Ġhow ling
Ġjo g
Ġheart less
Ġent hr
Ġcoll ars
Ġtri ple
Ġdecided ly
Ġkat y
Ġtun ed
Ġacknowled ging
step hen
Ġmini ature
surpr ised
Ġfidd led
Ġsalv age
surprising ly
Ġtrop ical
g ri
Ġb am
Ġan sel
ri al
Ġac res
Ġsw eeps
Ġbel adors
Ġad ore
Ġcur ran
Ġfe igned
Ġbar ren
Ġdou gal
Ġcru de
Ġsed an
Ġthor nton
Ġhonor able
Ġdomin ance
Ġdecor ating
Ġanton ia
Ġgreed ily
Ġsheep ishly
Ġproduct s
Ġvik tis
gthe ned
staff an
o ch
Ġt ir
Ġm int
th ouse
Ġno ses
ind ia
Ġall i
Ġal oof
Ġcl ive
Ġsp ice
Ġro ger
Ġexp ressed
Ġcar go
ien cy
Ġnor a
Ġdon ny
Ġhost ility
Ġunt ied
Ġsensual ity
Ġherit age
c and
e av
ot ting
st ered
Ġit ching
Ġk ermilla
Ġr anc
Ġsh ips
Ġun covered
Ġsl ices
Ġdes cent
Ġsex ier
Ġpar all
asp ing
gr ad
Ġhar ris
Ġer ror
Ġsal ary
Ġequ ivalent
Ġwrit er
Ġglo be
Ġtant rum
Ġsizz ling
g ust
r aine
Ġh ass
an im
th in
Ġse pt
Ġar ches
Ġcar lo
Ġhair line
irt s
Ġclos ure
Ġluc ia
Ġsub conscious
Ġshar per
olog ist
Ġreve led
Ġalex a
Ġrad iant
Ġprod uc
Ġfrank lin
po st
Ġexecut ed
Ġfidget ed
Ġrin sed
Ġstain less
Ġmisunder standing
Ġconj ured
cross ing
brian na
e lec
h ung
Ġw ulf
Ġre ign
Ġgr ieving
Ġde ception
Ġwill power
Ġnight club
Ġcr umble
Ġfoot man
Ġsub tly
Ġtru ce
Ġsurv iv
Ġkat rina
Ġexplan ations
Ġrestr ain
Ġmaid en
nik ki
Ġglist ened
f ew
Ġs ash
Ġl aci
Ġp iped
ch and
th ane
est ing
Ġqu izz
Ġdis respect
Ġrest ored
co al
Ġdel usion
Ġpar amed
Ġinter f
Ġball et
Ġcas imir
Ġnor thern
Ġinterview s
Ġtreacher ous
Ġo dor
Ġd ances
Ġbe nds
le ah
Ġst oop
se rena
Ġcould nt
Ġpro s
Ġte ens
Ġho pping
Ġjo gging
Ġend eav
Ġrun es
Ġacc use
uss ion
Ġregret ting
Ġbound ed
Ġnud ging
Ġbolt s
het ically
Ġunders ide
shif ters
Ġextrav ag
a ith
b ud
t ruly
y ss
se verance
Ġcl atter
Ġsp acious
Ġfl a
Ġpre car
sh ifting
cl aud
Ġev ans
Ġins in
Ġstro lling
Ġpal med
Ġcoo led
Ġangel a
end elle
Ġtooth brush
Ġdece mber
Ġfrequ ent
Ġgoo g
Ġpursu ing
b out
Ġo oh
en sed
Ġin advert
le ine
Ġdo om
Ġno isy
own ed
Ġun int
Ġmo ss
ig el
Ġper t
for ms
Ġconf ided
Ġimag inary
Ġclass y
Ġchallen ges
Ġshadow y
Ġfu eled
Ġdi ag
Ġimmort als
wr ath
Ġunle ash
Ġdies el
Ġbritt any
Ġchandel ier
Ġtet her
reluct antly
b ased
Ġj igg
Ġal beit
Ġover grown
Ġbr yce
ist air
Ġtw ig
Ġmu gs
Ġass urance
lo ved
Ġinc ar
Ġstom p
Ġart icles
Ġsav annah
sl aught
sm art
Ġbrit tle
Ġdismiss ive
Ġemphas ized
Ġsolemn ly
Ġrh ys
Ġl up
Ġk ings
Ġun noticed
Ġsor cer
Ġinv ading
Ġins ign
Ġattack er
Ġelb owed
Ġsuccess ion
Ġflight s
Ġwre cked
Ġstew ard
sab rina
sto pping
Ġlyric s
Ġmorp hed
g us
t ee
Ġt ys
Ġb ible
Ġit ched
se ems
Ġj c
ch anning
Ġsp ikes
Ġbl an
Ġgr udge
Ġun pack
est one
Ġgu shed
gg ling
Ġph ase
ield ing
set ting
friend s
Ġdesp ise
Ġbrun o
sav anna
Ġslur red
Ġreapp eared
Ġunset tling
Ġinherit ance
ela ide
Ġdisorient ed
Ġflur ry
m un
n um
v ir
Ġto ll
Ġf ift
Ġd awson
as ar
Ġbe el
st ool
Ġsh immer
Ġab yss
Ġcom bed
Ġam jad
Ġcr inkled
Ġrun e
Ġconf ines
Ġfav our
Ġconst ru
Ġfa erie
Ġpotent ially
Ġunus ually
Ġyach t
b us
d ave
h ake
in to
Ġs no
Ġh inges
th rowing
Ġsu ave
Ġsl aught
em erson
Ġexp elled
Ġind ifference
under stand
Ġsurf aced
Ġmeaning less
Ġwren ching
Ġcorrid ors
Ġremark ably
Ġjay linn
Ġbi ological
Ġuncon cerned
Ġoverpower ing
Ġinfuri ating
d led
h oping
m ale
o k
p ink
Ġm umbling
Ġf ame
at he
Ġst ad
Ġst el
Ġk urt
the st
Ġout raged
Ġcon vey
Ġor deal
Ġar se
Ġman hood
Ġtw inkled
Ġwo bbly
Ġsn ee
Ġsto cked
Ġcons isted
Ġaw ed
Ġinter action
Ġhon ed
Ġcoo ed
Ġflat tering
Ġcourt ney
Ġintrod uction
Ġtit an
mat thias
Ġult ra
Ġwil son
Ġwise ly
Ġqual ified
Ġunre ason
Ġacute ly
Ġconspir acy
Ġsuffoc ating
saff i
h ill
i ations
k olas
s ub
Ġn agging
Ġth ia
ad ers
ur ities
Ġle aked
Ġar ab
Ġfl itted
Ġway ne
Ġwo ven
Ġfo il
Ġsk ir
Ġkit tens
Ġinvol ving
Ġfurn ishing
Ġcig ar
Ġuncons ciously
Ġecst atic
Ġmold ed
Ġignor ant
Ġters a
y ears
Ġt ig
Ġm ick
Ġas a
Ġfl ora
Ġsc raw
os ition
Ġpleas ing
wor th
Ġgar lic
Ġautom atic
Ġtact ic
def ense
Ġphilos op
d ings
k an
m w
r r
Ġh ose
Ġm ounting
Ġi xt
at ile
le vel
st ella
Ġon slaught
Ġgo ble
Ġsp ong
Ġwa vering
Ġdis obe
Ġmar gie
ater n
Ġed ging
Ġchar coal
Ġref uge
Ġserious ness
Ġtrave ls
Ġthunder ing
Ġwigg ling
Ġmarket ing
Ġhaid ar
Ġstad ium
e nds
o inting
Ġd umping
Ġr ith
Ġjust ify
Ġman uel
Ġmar athon
per t
Ġper ce
Ġbu gs
Ġz ar
Ġref uses
Ġhar p
Ġreco iled
Ġcamp ing
ask ab
Ġspar king
Ġcompan ions
Ġinsult s
Ġsele ct
Ġscor ched
frank ie
Ġcaffe ine
Ġixt ab
ut en
Ġshe athed
Ġan ew
Ġout lined
Ġwell ing
Ġmat ern
ren nan
Ġend ings
Ġdri vers
co gn
Ġele ph
Ġdisc our
Ġconst ricted
fic ial
Ġprop ri
blood y
Ġknight s
Ġmeas ures
Ġcalcul ated
he ment
Ġs izes
gh an
Ġre naissance
am azing
Ġoff spring
Ġpro pping
br id
Ġthr ashing
Ġind iana
Ġguard ians
Ġvan ish
Ġinvestig ating
Ġprec aut
mag ic
Ġaly ssa
Ġillum inating
k ids
l ind
im and
Ġu gl
Ġne aring
Ġro salind
Ġpl ucking
Ġbed ch
Ġhair cut
Ġz anes
Ġres ented
Ġprom otion
Ġbur ke
Ġsy rup
Ġbas k
Ġfool s
Ġequ ation
Ġdiv ision
Ġlab ored
Ġvac u
Ġunw ra
Ġbrick s
Ġscre ens
Ġqueens land
gir ls
gir lfriend
Ġmant el
Ġd aryl
Ġl is
Ġth ad
le on
Ġj ing
Ġbl aring
Ġbo oming
Ġright ed
Ġexp ans
uck y
Ġview s
Ġcirc uit
Ġfamiliar ity
Ġhol ster
Ġrecord ing
mom ents
Ġident ified
Ġspray ed
Ġsull en
Ġdistr ust
Ġassess ment
det erm
Ġm ikhail
Ġo oo
Ġc rop
Ġand ulvar
Ġst akes
she ll
Ġex ists
Ġsupp lied
Ġpriv ately
car l
Ġawkward ness
Ġcord s
Ġpix ie
Ġmerc en
Ġsucc umb
Ġrepr imand
Ġgrandchild ren
instinct ively
Ġasph alt
f el
f ounded
s ucking
z ayne
he ck
Ġb il
Ġp aces
Ġp ounce
im ented
ab ove
Ġgl ides
Ġgl enn
Ġmar c
Ġchest s
Ġeas tern
Ġstom ping
Ġbat he
ca ly
Ġcre ation
Ġbrand ed
Ġgree ce
fun ction
Ġbeau mont
Ġpump kin
Ġgoof y
b renna
e ating
Ġw ager
ot y
Ġwor m
Ġbr idal
Ġgr illed
Ġcom fy
Ġhapp iest
Ġdr ool
per ing
Ġhome less
Ġimp ec
Ġcomp ens
Ġsleep ily
Ġrequ ires
Ġsuff icient
Ġtext ure
Ġach ieved
Ġeurope an
Ġserge ant
Ġglam our
Ġchem ical
Ġshap esh
h ours
t ues
Ġb mw
Ġg ash
Ġbut to
Ġro xy
Ġbr yson
Ġun seen
Ġfl irty
Ġexp enses
Ġel ias
Ġdr ac
Ġmag s
gr an
Ġreg al
Ġtown s
Ġve hement
lle y
Ġfavor ites
Ġma askab
Ġappear ances
Ġsuggest s
Ġsystem s
Ġrecall ing
sim one
Ġpa ige
Ġtechn ique
Ġoblig ation
cra ft
Ġali ens
Ġsorce rer
tues day
l ived
n ancy
Ġg aston
Ġwh ips
Ġr ats
ch i
ill en
Ġhur ric
Ġimp lying
Ġhear s
Ġbrother hood
Ġspl ashing
Ġpu ke
Ġsed ucing
Ġlength s
Ġnecess ity
Ġban ks
Ġquar rel
Ġcooper ate
Ġbuff y
Ġmand y
Ġrestraint s
Ġmotiv ation
Ġimmense ly
Ġreverber ated
Ġrebu ild
tan ner
mean while
Ġimpec c
m ath
p ol
Ġl aila
Ġg ears
le g
st ryker
se xy
Ġle aking
el ise
if ies
Ġlo ses
Ġde ke
Ġar ray
Ġcar ving
Ġwhis kers
Ġprom inent
Ġleg acy
Ġfit z
Ġreve ling
Ġbod ily
men cheres
sm ile
acher s
wood s
Ġabsor bing
Ġfortun ate
Ġburrow ed
f o
j osie
k ier
Ġw ig
Ġc res
Ġg ape
Ġbe thy
le to
Ġj ug
ch ance
ro ph
Ġatt ribut
Ġswe aring
Ġkind red
cept ible
Ġpleas urable
Ġyear ned
uss ed
Ġmemor ized
Ġvan essa
Ġhint s
Ġmic key
Ġpers istent
Ġdisplay ing
Ġjeff erson
ali ades
Ġbraz il
Ġperple xed
k atherine
p ressing
ent ial
th ousand
Ġbo oted
Ġwat ering
sh ad
Ġbody guards
ple ased
Ġfather s
pr int
Ġfur ry
Ġball oon
Ġstri ps
Ġbother s
Ġdry er
Ġver t
Ġmel inda
Ġsuck led
Ġcard board
Ġlas er
Ġunst able
Ġfragr ance
Ġbour bon
er ies
Ġdis gr
Ġtal tos
Ġran ks
Ġdin ners
pec ting
Ġnaked ness
Ġcompl ied
Ġproper ties
norm al
Ġmont ana
Ġqual ities
Ġindepend ence
Ġmaxim us
Ġinvolunt arily
Ġappoint ments
c ott
h urt
Ġb isc
Ġd ivers
to ber
Ġno vember
Ġch ided
up on
Ġpres cri
Ġur ges
Ġrecogn izing
Ġdef iant
Ġcre ak
cho ly
Ġinstru ctor
Ġwis er
Ġattend ance
gre gor
Ġtend ency
lar ge
Ġbold ly
Ġroyal ty
Ġenvision ed
Ġsaliv a
fam ily
st unned
Ġst ashed
Ġout doors
Ġle wis
Ġover se
Ġgr ades
Ġun imp
ath aniel
Ġcont orted
pl acing
Ġcons um
Ġfoot age
gu ndy
Ġclim bs
Ġwear ily
Ġmid air
Ġdig s
play ing
Ġabb ot
Ġdil ated
start led
Ġcert ific
Ġm are
Ġin vested
Ġbe ad
ot tle
ic orn
Ġbut cher
qu entin
Ġsc orn
Ġen force
Ġcr ust
Ġheart broken
che yenne
Ġthr ottle
Ġhang over
ha ven
Ġval ued
sc ow
sc ott
Ġstor my
Ġdefe nded
Ġinf at
Ġfal onar
Ġempl oyed
kn ew
Ġtarget s
Ġmaint aining
Ġexpert ise
Ġshred s
Ġfurnishing s
f olded
w yn
Ġt s
Ġl anc
Ġp ipes
Ġfr aud
Ġtr isha
Ġsee in
ap a
Ġmore tti
Ġdis ney
Ġcor rine
just in
son ia
mad dox
Ġinsist ence
Ġdismiss al
Ġchann els
conf used
Ġcitiz ens
Ġjapan ese
p ot
at ious
Ġab igail
Ġun real
Ġper me
Ġconf idently
just ice
Ġcent re
Ġspell ed
Ġah old
Ġnic olai
Ġvic iously
Ġpred ictable
Ġinsane ly
Ġsuspect s
Ġtack led
Ġdistr aught
Ġvirt ually
Ġminim al
Ġannoun cing
Ġfare well
Ġknead ing
bare ly
mem ories
Ġmilit ia
d ies
f red
m iles
er ik
Ġlo ps
be en
be nding
sh ots
Ġpe ers
Ġwhis ked
aut umn
Ġsmo ked
Ġbitch y
con n
Ġarr anging
Ġstair way
Ġunw avering
Ġlin coln
Ġobser ve
cur ran
Ġphil ip
hon or
Ġfulf illed
Ġdisappro ving
Ġsund ress
Ġignor ance
Ġimpass ive
Ġsciss ors
Ġbeel zebub
c ake
is ons
Ġp unk
Ġr ho
Ġwith stand
Ġan al
Ġch anting
Ġtim id
Ġpl owed
Ġcar to
Ġsec re
Ġwork in
ten ance
Ġdist ing
Ġstep mother
Ġwin ters
Ġsol ar
Ġappreci ative
Ġbelong ing
Ġcru z
Ġspeed s
Ġalco ve
Ġintimid ate
Ġvig il
mic helle
Ġparticip ate
Ġscrut in
Ġlops ided
l ier
n g
Ġt iled
Ġd ime
Ġg agged
Ġy as
ac ters
Ġst ony
Ġup s
ec k
Ġfl ushing
Ġunder cover
Ġnew born
ash ley
Ġfore play
Ġchar acters
Ġeat s
Ġprof it
Ġcolle agues
wo nder
Ġnegot iate
fact ly
Ġkent on
Ġseet hed
imag ine
Ġinquis itor
Ġtomat o
Ġkhak i
b ru
p ared
Ġw agg
Ġd ucking
is her
Ġle ase
Ġpo lo
Ġdis regard
Ġheart beats
Ġjack ie
Ġrec ipe
Ġwed dings
Ġcop ies
Ġrece ipt
Ġdesce nding
Ġdismiss ively
Ġdanie lle
Ġmelan choly
Ġcounsel or
Ġelectron ic
pid ation
draw ing
j ud
m und
r h
Ġm ish
Ġb ucking
Ġp ew
om en
Ġme ld
Ġbr aw
Ġun att
Ġde x
Ġmar issa
Ġass ert
Ġblood ied
Ġdel ayed
Ġsecret ive
udd y
ca lder
Ġenjoy able
Ġclut ches
back s
Ġrecord ed
Ġbul b
dar ius
Ġwhist ling
Ġtooth p
Ġscree ching
Ġbrist led
Ġcateg ory
Ġinadvert ently
m akes
u fact
et ics
Ġli llian
ro yce
Ġsp ook
Ġro x
we aring
Ġgood byes
Ġwill ow
Ġmade leine
ang ry
Ġel aine
Ġbeh aving
Ġsit es
Ġbu gged
Ġcat aliades
Ġinc or
Ġknowing ly
Ġfear ful
Ġforg iving
Ġcapt uring
Ġrespons es
Ġport land
Ġrul ing
Ġdread ful
Ġcave man
breat h
Ġtas ks
on ia
Ġp hen
Ġg ou
ay n
Ġr acked
Ġsh ahara
to ster
Ġall ies
ag hett
ra iser
Ġdoor man
no ld
Ġwr ung
Ġmor g
Ġext ensive
ron a
Ġpoor ly
Ġdomin ated
Ġdi aper
pre te
Ġplat inum
Ġshr ank
Ġstraw berries
Ġsubst ance
Ġfau x
Ġcryst als
Ġsce lt
c imil
q huinn
ac cept
Ġan asso
Ġpo pp
em barr
Ġpr ints
ather ing
Ġwo bbled
Ġcr umbled
Ġimp erson
Ġcor bin
Ġmiss es
Ġcoun ters
Ġpack ages
Ġmas ked
Ġrhythm ic
Ġinit i
Ġtorment ing
ament al
Ġexpert ly
Ġseduct ively
Ġhaw thorne
Ġflir ted
rum ents
wr ong
Ġwhimper ing
Ġstere o
Ġenterpr ises
Ġshapesh if
toster one
a que
l iz
Ġh ides
ic idal
Ġwh ining
Ġso aring
Ġch ord
Ġarm rest
Ġpe pp
Ġinst ruments
Ġlot ion
Ġcat ast
Ġbat ted
Ġcond uct
Ġjud ged
Ġgab by
off rey
den i
Ġvictor ian
Ġripp les
Ġdismiss ing
geor gia
Ġbrad ley
Ġsplin tered
Ġcomplaint s
Ġbrav ado
Ġeb ony
Ġbedch amber
j eez
Ġi po
Ġin ching
Ġwas n
le vant
Ġst atic
ur bed
el i
ak ers
ang ular
Ġstr ut
Ġhold er
cl osed
Ġang ered
Ġdist ressed
Ġstri ped
Ġhi king
Ġemer ging
Ġprick led
Ġreser vation
Ġrust le
Ġsevent h
Ġdrum med
Ġatl ante
Ġdash board
hearted ly
Ġsizz led
Ġmechan ism
Ġinfer no
Ġgrump y
Ġunchar acter
Ġsecl uded
Ġphant om
in ar
Ġc akes
st ring
ay s
Ġne omi
Ġgo ver
to ps
Ġch i
Ġgr ain
Ġcr anked
Ġsor ting
ced ing
Ġsens uous
Ġshower ing
asm in
Ġloc als
imp y
Ġmuff in
sky lar
Ġbrut ally
Ġdistinct ly
Ġham ilton
Ġens uring
Ġblat antly
Ġbever ly
aghett i
b ian
f are
h app
v ince
Ġa pt
Ġk ip
Ġun icorn
ig o
Ġman ufact
Ġroom mates
Ġmar gar
Ġkill ers
Ġinter l
Ġbur gundy
Ġsent ences
ann ett
Ġdep arted
Ġcup boards
Ġ1 4
Ġpsych otic
Ġbored om
nic colo
Ġscott ish
Ġnonchal antly
Ġtes tosterone
Ġt aped
Ġh ou
Ġto mb
Ġd re
Ġn ood
Ġk iev
th ick
Ġun l
Ġrun ner
Ġed na
Ġgre ase
Ġtri bun
Ġmay a
Ġjer ky
Ġdu nd
Ġdar ice
Ġvibr ations
Ġban ana
Ġdistracted ly
Ġdread ing
Ġloos ening
Ġenthusi astically
Ġweakness es
Ġunner ved
jer icho
Ġsyring e
s ister
Ġp i
ear th
Ġsec uring
Ġpart ying
Ġrel ented
Ġben ches
Ġchar red
jo celyn
Ġdire cting
Ġcold ness
Ġfour s
yes terday
Ġfil ming
Ġantic s
Ġstrang est
cra zy
Ġcoy ote
Ġbarre led
Ġcyn ical
Ġlec ie
Ġscrib bled
u ity
re f
Ġhe katah
Ġf aked
Ġth irties
Ġsh aving
our ing
Ġafter math
Ġcor mel
Ġbot tled
mar abeth
Ġvir us
Ġsquare ly
arch y
tam my
Ġuncontroll able
Ġretire ment
Ġdissip ated
flo or
Ġbem used
c ong
Ġt ails
re gin
Ġg em
le ft
Ġme ek
Ġr ak
Ġre ndered
Ġsee p
Ġsm ash
Ġtell in
Ġheart breaking
Ġrel ations
Ġhot shot
Ġmet aph
Ġtre pidation
gr ant
Ġinter tw
Ġweek ly
Ġvol atile
Ġintrod uctions
Ġscru bbing
Ġanton y
Ġtut or
Ġmarsh mall
Ġnegle cted
Ġpoet ry
Ġparall el
o qu
Ġd av
Ġp ets
Ġr ips
Ġen light
Ġche esy
Ġfew er
Ġcur ry
Ġmin us
Ġremem bers
Ġfun ctions
Ġhar per
Ġsy mpt
Ġsam uel
Ġangel ic
tr acy
Ġinstinct ive
Ġbon fire
Ġbearing s
Ġleon ora
Ġcarn ival
Ġcollaps ing
grate ful
Ġtribun al
k irts
t ook
Ġt attered
Ġs ips
Ġd ab
ver laine
ce iling
Ġwant on
Ġover drive
Ġcon cess
Ġsl ot
Ġpo nder
Ġen ig
Ġgu ides
Ġafter sh
Ġear shot
Ġang ling
Ġmad dening
Ġmemor ize
Ġfeat ure
Ġprocess ing
Ġcivil ized
angel o
Ġlam b
ruct ive
Ġadvert ising
1 0
b bling
m oney
Ġm ast
Ġl apped
Ġbe ale
im ony
il ized
Ġch aste
Ġbl og
we ndy
Ġde arest
Ġwho lly
sh ade
Ġfin ishes
Ġgirl ie
ention al
Ġcat ac
Ġinter ference
Ġdev ious
Ġgen es
Ġleg ally
Ġdoll s
Ġhoo ves
del aney
jen na
Ġstall ing
Ġuncertain ly
jax on
Ġought a
Ġgreg ory
Ġrumm aged
Ġwhoo sh
Ġrebell ion
seem ed
Ġhurric ane
c ru
p op
r ush
en cing
Ġsa us
Ġnot ep
Ġlo go
Ġsp aghetti
ig od
az a
Ġsn ark
Ġwin s
Ġcontrol s
Ġrespect ful
Ġboard ed
Ġsniff led
Ġnap kins
Ġspirit ual
Ġdumb founded
Ġdevelop ing
Ġremar ks
Ġpartners hip
Ġkent ucky
Ġdizz ying
Ġhaid ee
sant iago
Ġcordo va
3 0
p ity
t u
Ġg ild
et tle
ke ys
Ġan at
am ine
Ġle ak
hed den
Ġde but
Ġfl anked
Ġen comp
Ġaf ghan
Ġrem inis
Ġpat ches
Ġthr ong
Ġlim ped
Ġshare s
Ġanim ated
Ġbra ided
Ġexplo des
ka ia
Ġobl iter
Ġdecl are
mad dy
Ġghost ly
Ġmaid s
cel ia
Ġsnugg le
remember ing
Ġunbutton ing
Ġpix ies
Ġclaud ine
Ġnotor ious
Ġstup or
r hea
Ġhe ft
Ġsp eared
Ġbl azer
Ġsc ab
Ġsc uff
em ents
Ġho isted
Ġcont racted
oth y
Ġper ked
br aden
Ġwin ston
Ġdraw l
Ġreco ll
Ġview ing
Ġenc ased
Ġinvest ments
Ġmaterial s
Ġwilliam s
Ġky rin
Ġacknowled gment
Ġpow ell
Ġstif ling
Ġcomplex ion
Ġouts kirts
Ġinsec urities
Ġeld ers
Ġrelig ious
Ġdud ley
w ulf
Ġw ired
Ġd akota
Ġup tight
Ġlo b
Ġgr unting
Ġun naturally
ation ally
Ġpo sts
Ġbet ty
Ġhum ble
Ġdeal ers
Ġbat ter
Ġbathroom s
Ġla pping
Ġmill enn
Ġconsider ably
Ġinf ilt
Ġfarm house
Ġador ation
Ġboun cer
Ġexpand ing
uther land
zach arel
Ġprost itute
uten ant
i ably
ou ching
Ġm umbles
Ġth w
Ġwas hes
Ġfeel in
Ġche es
Ġcr ist
Ġsound ly
iv able
Ġbar ks
Ġappro aches
Ġband ages
Ġwarning s
Ġtun ic
Ġfol k
Ġirre levant
Ġarc adian
Ġyel p
Ġindust rial
Ġbraid s
Ġsubst ant
sun shine
pres er
k am
w an
Ġt ash
Ġthe ra
nd own
er xes
at iable
Ġg el
Ġher bs
Ġme nd
ce nding
Ġgl oria
ang ling
Ġcr iss
Ġcr aned
Ġrel ished
Ġrel ishing
Ġwhis ky
ater i
jo ining
Ġdust ing
Ġsin ful
Ġacqu ainted
Ġlor rie
Ġcrimin als
Ġcer i
Ġtat iana
Ġabd ucted
Ġjut ted
Ġhust led
cour se
Ġdrople ts
b ul
Ġm oo
Ġd itched
ic ting
Ġfr ames
ie ves
Ġho ckey
Ġel ena
Ġmar veled
Ġrel iable
Ġz oo
Ġret ribution
Ġsim ulation
Ġnear ness
Ġtre sp
su pp
luc ah
Ġ1 3
Ġbast ian
Ġbattle field
Ġpad s
Ġholl and
ben ny
Ġcher ish
Ġeleg ance
nik olai
Ġshocking ly
Ġscenar ios
vamp ire
Ġdiscreet ly
Ġproced ure
c re
i eth
Ġ ***
Ġto ying
Ġha ley
st ed
Ġre eled
am ation
Ġtr act
Ġlo gs
ist en
ra ved
ah an
Ġbed time
Ġbeh old
Ġfire fight
Ġdisapp ointing
Ġgrow th
Ġind ignation
Ġext ension
Ġthick ened
Ġlock et
mar ian
Ġjohn son
Ġdecor ations
Ġprevent ing
Ġpout ing
Ġsignific ance
Ġveron ique
Ġswat ted
Ġcheerle ader
Ġfau cet
Ġzo omed
Ġdiscip line
Ġipo d
g rowing
Ġc in
et ers
Ġch unks
Ġcom ed
Ġsl ink
Ġpo in
ra h
Ġmin ions
Ġchar ade
Ġread er
Ġexpression less
ca it
Ġbill ie
Ġsar oya
Ġsav ior
Ġdeb ts
Ġmach o
Ġsaving s
Ġstradd le
Ġsymbol s
Ġmethod s
du val
n et
Ġm ashed
Ġc able
Ġl aps
Ġst ains
Ġj akob
Ġso ren
Ġgr oo
Ġmu ssed
my ka
Ġpart ial
Ġper ky
Ġend earing
Ġfact ory
Ġred dened
Ġtor ches
Ġfood s
Ġpan the
Ġappre hen
Ġmed ium
Ġdom estic
luc a
val erius
Ġgrave lly
book er
Ġsecure ly
Ġgam ble
Ġbrink er
Ġinfect ion
Ġorph an
Ġhaught y
g ail
Ġb room
en er
Ġmy les
Ġj amey
ri a
we ird
Ġqu ote
ther an
Ġper ks
Ġsqu ire
Ġacc ented
Ġpur sued
ze ke
Ġdev ices
Ġpour s
Ġbal ancing
Ġshudd ers
Ġpublic ity
Ġmac on
Ġsnat ching
Ġtub es
Ġconqu er
Ġasce nded
Ġdefl ated
Ġlanc aster
Ġdund ee
c ron
j orn
Ġt ac
Ġm op
Ġb lythe
ain ty
ist ically
ps on
em pl
Ġsk im
lo gue
Ġav al
Ġpossess iveness
Ġamb rose
Ġsid este
Ġloun ged
Ġbubb a
Ġinev it
Ġinvent ory
Ġoptim istic
Ġdispos al
Ġspont aneous
h ib
s issy
t ow
Ġb ash
Ġl ashing
Ġth re
Ġg ull
ill ian
Ġno sy
Ġall en
Ġde mo
Ġfl ap
Ġfl ipp
Ġcall ous
Ġdr ooling
Ġrel iving
ret ion
Ġes press
Ġlay ered
Ġgro ve
Ġprotect orate
Ġform ally
Ġdu h
Ġdon ned
Ġlat te
Ġfinal ity
Ġaud ition
Ġvol umes
Ġtorn ado
Ġacqu ire
Ġreassuring ly
Ġtransl ated
Ġscient ist
Ġlav ish
cond ition
oret te
Ġvigor ously
Ġrecons ider
c ension
h anging
p in
r immed
Ġd ile
Ġp ooling
ad el
Ġle opard
Ġall uring
Ġsp arring
Ġexp osure
wn ing
Ġrel ive
Ġblood line
Ġthr ashed
Ġfil ter
imp oss
Ġsoc cer
Ġnumb ness
Ġbru ising
Ġsteal th
Ġinfl icted
Ġclasp ing
Ġapplic ation
Ġmich igan
Ġsept ember
k u
n ier
Ġa qu
Ġd illon
Ġan ita
ack er
Ġover all
ry stal
Ġpro bed
sh oot
Ġdis cern
Ġph arm
Ġsn ot
Ġdark en
Ġz ak
Ġblood lust
Ġcor rupt
Ġconf ined
Ġinv ented
Ġlow est
Ġins atiable
Ġhor rifying
Ġsoph om
Ġrap t
Ġlab eled
Ġblo oming
call ing
Ġant i
Ġlin us
cur sing
Ġsurve y
Ġshuff le
bro dy
Ġacquaint ances
Ġerrand s
Ġbrook lyn
Ġnev ada
Ġcald well
Ġfift ies
Ġsecre cy
cron us
f ila
Ġb aw
Ġd ax
Ġme ll
Ġk aiden
Ġr idd
ent ing
Ġkn itted
Ġall ows
Ġsp asm
Ġbl aster
Ġun mar
Ġun finished
est s
Ġor ch
Ġwo ve
Ġho bby
Ġsub urb
Ġwed ge
wor lder
Ġdep uty
Ġpublic ly
Ġ2 4
Ġappe aled
Ġupward s
Ġspan ked
Ġassoci ation
Ġfunction ing
care fully
Ġjut ting
Ġpupp ies
Ġpresum ably
Ġconvert ible
Ġb ount
ad mit
Ġal icia
Ġbr us
Ġfl im
pt on
Ġmar ine
Ġmar abeth
Ġser ves
Ġcomp ly
cent ric
Ġtow ered
Ġstate ments
con stant
Ġmood s
Ġtrick ling
Ġfort num
Ġintrod ucing
Ġbul ky
Ġtray s
Ġprior ities
Ġraven ous
Ġinex per
tech n
Ġtremend ous
Ġphen omen
l aney
p ical
u x
Ġm ull
Ġd ainty
out ing
Ġli ver
Ġlit he
Ġlist s
Ġappro ving
fl owers
Ġjosh ua
ele ct
Ġphotographer s
Ġrh onda
Ġcandid ate
Ġexhilar ating
s om
t ane
Ġf ades
ar thur
st re
Ġj ets
ro ach
Ġcon str
Ġwar ring
Ġper ch
Ġsn ag
Ġimp osing
Ġgen e
Ġcock s
Ġinvol ves
Ġ1 7
Ġhi ked
Ġconc ussion
isab el
cur ious
mes on
Ġobsc ene
Ġsadi ablo
Ġlemon ade
Ġfragr ant
Ġgh oul
frustr ated
Ġada lynn
Ġinsign ific
c aine
re le
Ġst amp
Ġr au
Ġli bby
ain a
th ia
Ġbr ute
Ġgr aph
Ġgl imm
Ġnight ie
Ġpe aks
Ġel ic
bo ding
Ġje ndan
Ġpan icking
Ġpill ar
Ġcree ps
Ġpost p
Ġcountry side
Ġunh ooked
Ġweather ed
Ġly dia
nic ola
Ġcudd le
sav anah
Ġarc ane
buck s
b ull
Ġw inged
Ġn igel
Ġgo sh
ard o
Ġover r
Ġright eous
ale a
Ġcol ony
br ay
Ġfight ers
fort y
Ġgro ggy
Ġcam ar
Ġmis car
Ġmill ing
Ġstorm s
Ġimm ac
Ġslee ps
Ġhyster ically
gold en
Ġprett ier
Ġintr usion
foc us
c ers
m ons
p ur
y pher
Ġs ifted
Ġd j
Ġd war
Ġn andiuml
Ġk enzie
Ġre per
al icia
Ġsh in
one l
ind er
Ġsp ew
Ġse ize
Ġdis char
Ġjo ins
Ġpleas ures
Ġje remiah
Ġinter state
col ton
Ġupset ting
Ġamount s
Ġknuck le
alex ei
Ġindust ries
interest ed
Ġobed ience
Ġhypnot ic
Ġcram med
Ġslaught ered
r ash
en joy
ld om
Ġmy ri
Ġr oused
Ġwe eds
Ġsh ady
th ren
ec is
Ġch ant
ss ing
Ġlo ading
Ġmu zzle
Ġsn oring
Ġreason ably
head s
every body
Ġprep arations
rel ax
Ġinclud es
Ġinf amous
Ġvers us
Ġprick ling
Ġkar la
Ġunset tled
Ġcontrad ict
Ġtah oe
Ġshrew d
Ġendear ment
Ġflim sy
b ally
f ood
o is
at ures
it t
Ġg our
Ġin finitely
Ġha mb
Ġgr app
op ened
Ġsc attering
az es
Ġcour ts
Ġbar stool
ma e
Ġir is
Ġspec ulation
Ġart ists
Ġdef iantly
mon ty
Ġhelpless ness
Ġeleg antly
Ġblast ing
Ġsect or
Ġhawai i
Ġunreason able
Ġgild ed
l osing
Ġt agged
Ġh ans
Ġo mort
Ġd ashing
Ġl yn
ay den
Ġre neg
Ġsh aggy
ro ad
th reat
Ġlo be
Ġar ie
Ġam ple
Ġmar qu
Ġbre thren
Ġhell h
Ġmor gue
Ġsign aling
Ġhang ar
Ġtast y
Ġsol itary
Ġpalm er
Ġphys ique
Ġill usions
Ġhat s
Ġsne aky
Ġcommit tee
Ġnic est
turn s
tt a
Ġimpl ications
Ġbust ling
Ġdee med
Ġjan ice
Ġvine yard
pow ered
Ġchau ffe
preser vation
j u
p ure
y ielding
Ġs i
it ations
Ġhis ses
Ġfr aming
Ġcl own
Ġwa ver
Ġam ended
de an
az ard
Ġmor nin
Ġfore boding
Ġra is
Ġfull ness
Ġrelax es
Ġrid ges
Ġanim osity
Ġdear ly
dar ling
Ġtipto ed
Ġrelent lessly
Ġassass ins
Ġprow led
Ġax e
sho ving
Ġwalt z
Ġbla ed
Ġbla ize
Ġthu dded
h an
t ina
t iffany
v ian
he ven
Ġto mas
Ġg or
Ġha g
Ġbe et
ot to
Ġwh acked
Ġre bo
al cide
Ġne arer
ast rous
Ġco ins
Ġfl ailing
de us
ru pted
Ġsw amped
Ġel usive
Ġad oring
Ġcons olation
Ġwra pper
who a
ific ations
Ġcrack ers
Ġmain tenance
Ġcomb ust
Ġsaf est
Ġcompanion ship
sab ine
Ġmisunder stood
stru ck
Ġmush room
Ġcitiz en
Ġri h
Ġestablish ment
b as
e gan
Ġt ul
Ġa ghast
re x
id el
ly de
Ġdo dging
Ġis mae
ind ar
ap art
Ġpe p
Ġneck s
Ġposition ing
sl ipping
Ġorg ans
Ġwhit es
Ġmichael a
Ġcha otic
ixt ab
Ġwhimp ers
Ġsavage ly
lay lah
Ġvirt ue
Ġfest ival
earl ier
Ġwhirl wind
Ġenh anced
Ġunfast ened
Ġbabysit ter
l aid
o ard
w et
Ġh ound
Ġl est
Ġu l
Ġsh ira
il ings
Ġall ev
Ġtr oops
Ġun cles
Ġsc ooping
Ġnight shade
Ġdis astrous
Ġper vert
ret urn
Ġpres cott
Ġcalm er
Ġclean er
Ġblur t
Ġirrit ably
vet te
Ġsoothing ly
Ġdish on
Ġdump ster
fig ured
Ġbraz en
Ġelimin ate
Ġaustr alia
c uss
s ent
w ah
Ġf udge
Ġre claim
Ġloo ps
Ġpro g
ather ed
Ġdr astic
Ġret ain
Ġbar ric
Ġfact ions
Ġmay fair
bl ay
Ġsick ly
Ġble achers
Ġfuck in
sc ream
ball s
Ġsurf ing
Ġobser ving
Ġsurge on
Ġger man
Ġbloss om
Ġapo caly
poss ibly
Ġcance led
Ġhamb ur
s ir
at is
Ġd row
Ġher b
Ġj acked
Ġhands hake
Ġel issa
Ġcr unching
Ġchest er
iv ities
Ġpur ring
Ġcap it
unt led
Ġcount ries
Ġbell ige
par able
Ġconsider ate
Ġstall s
Ġrequest s
Ġgain es
Ġsurve ying
breat he
Ġpron ounce
Ġlegend ary
Ġunbuck led
Ġcaptiv ated
Ġoverfl owing
Ġt ents
Ġa al
re ken
Ġf aking
as er
Ġshe pher
ic rous
ee ee
Ġkn ack
Ġam pl
sp ond
Ġdoes nt
Ġbar bec
Ġdel ilah
gin es
Ġbur gers
com mit
Ġce ilings
Ġbas ics
car oline
Ġx ypher
Ġprick le
Ġjan uary
Ġrin se
Ġannoun ces
Ġolymp us
Ġtir ade
Ġespress o
n ered
s ick
v ig
Ġl ub
Ġe ly
Ġwe aken
Ġj eez
ri ately
Ġch im
Ġsm ashing
Ġen gines
Ġfe ist
Ġdec line
Ġblood shot
Ġmet iculous
che ted
Ġbare st
Ġemotion less
Ġpeace fully
Ġpray ers
Ġting e
Ġpost ers
Ġinh ib
Ġtent h
Ġsnat ches
Ġador ned
Ġhero ine
Ġske let
Ġadop tion
Ġtro phy
Ġenv ied
anton io
dou glas
ll is
Ġp act
Ġr af
Ġwe ave
Ġch al
Ġgl ac
Ġgl im
Ġface book
Ġstr at
Ġreason ed
Ġpres ume
Ġnone x
Ġcre ase
Ġmike y
Ġnon stop
Ġoper ating
lor i
Ġaccur ately
vol ent
Ġkier sten
clot hes
j ude
Ġt ags
Ġn athaniel
is p
ir rit
am un
Ġal ab
Ġcl in
Ġpl ugged
Ġsn ide
Ġres id
Ġadv is
ev ie
Ġtrans luc
Ġcurrent s
Ġintell ect
dec iding
Ġmock ery
prot ected
prot ective
Ġfortun ately
Ġoc tober
Ġatlante an
j an
l orn
t one
Ġa kin
Ġd erm
Ġl ime
Ġl urch
Ġth om
Ġp otion
it o
it he
Ġe there
Ġst osh
Ġgr id
Ġsm it
Ġfe nd
Ġass et
Ġint el
Ġperson a
Ġtouch y
Ġrepl ayed
Ġtor rent
Ġnat asha
Ġpul ses
Ġcand or
Ġsuper v
Ġlat in
Ġisland s
Ġori ent
ben ji
ores cent
Ġpec s
Ġtuck s
Ġatl as
Ġsignific antly
du ke
bu ild
rot hed
Ġinterv ention
Ġcondes cending
Ġlud icrous
Ġdisconcer ting
Ġdile mma
imposs ible
Ġ /
Ġt amp
Ġthe ories
Ġd abbed
Ġth umbed
Ġp ounced
et rick
Ġre my
Ġre med
am an
Ġcl amp
Ġar son
Ġdr illed
Ġset up
Ġhop s
aw ed
by n
che l
Ġmur ky
Ġfear ing
Ġcho pping
ipp y
Ġadv ances
Ġbound ary
sec ret
Ġwest on
Ġmack enna
christ ina
Ġmult i
Ġdrift s
Ġliv id
Ġinsec ure
Ġcoco on
Ġstyl ish
bryn ne
Ġsilhou ette
Ġdisinte gr
d ish
o ons
u u
Ġc ee
at on
an ita
Ġp ines
Ġbe acon
am b
Ġfl inging
Ġfl apping
Ġpo ll
Ġsc am
ire ct
Ġpre ference
Ġhel m
Ġph oned
Ġown ing
Ġdec ency
Ġpen al
Ġweight s
par isa
Ġban ner
Ġram sey
Ġdesign ated
Ġmurd ering
Ġuniform s
don ald
Ġmatthew s
Ġfever ish
dou b
Ġbeep ing
Ġmesmer izing
Ġbray don
Ġkor bie
valent ine
Ġnotep ad
Ġinsignific ant
k k
w il
w elcome
in ction
Ġm i
Ġf anning
Ġp ouch
Ġj it
Ġro les
Ġco con
Ġmu dd
Ġam ends
Ġel igible
Ġhor rors
Ġmir a
Ġpriv y
ev ynn
tr ack
Ġboun ces
Ġreck on
Ġmeas uring
rob bie
Ġhyp oc
Ġhopeless ly
Ġbloss omed
Ġowners hip
Ġwist fully
wren ching
Ġapo llymi
Ġperipher al
Ġsplend id
near ly
Ġrecip roc
Ġeleph ant
Ġdisgr untled
Ġhou ston
. -
d ers
ed ge
Ġthe ft
Ġc aps
ch ad
th us
Ġback stage
Ġde cept
Ġman ual
so aked
Ġrest ore
Ġshow ers
Ġhar ass
Ġid ris
Ġpan els
Ġpin point
mar ie
Ġdiv ul
Ġoverwhel m
Ġfurn ished
Ġabandon ing
imm ie
Ġclar isse
Ġhal ter
Ġbud s
Ġshrie king
cur rent
Ġboot y
Ġbout ique
Ġobed iently
Ġsass y
Ġtox ic
Ġcertific ate
b is
f resh
r imin
Ġt aint
Ġi c
Ġf anc
Ġk r
Ġab bi
Ġpro claimed
Ġbet rothed
ru bbing
Ġapp ra
Ġcle ans
Ġent ice
jo b
Ġimag inable
Ġluc ius
Ġsal mon
Ġpet ting
Ġpossess ively
Ġsnow y
Ġspr int
Ġexch anging
Ġfaced own
Ġemploy ment
Ġaccount ant
Ġshel tered
Ġshr imp
Ġalph as
Ġclick s
Ġfidget ing
Ġdepos it
Ġquer ied
Ġblan ched
j ose
l ake
p ast
Ġn ull
Ġyou re
im en
Ġwh ack
Ġfr ayed
un ard
we et
Ġlast ing
pe yton
Ġthro es
Ġmus ky
Ġfire light
Ġblue blood
cent ed
Ġmad man
Ġind ie
Ġlie utenant
Ġunc aring
Ġcast ald
Ġequ ipped
Ġdig ital
Ġprop elled
Ġyan na
Ġtab s
Ġaff irm
Ġsexual ity
Ġstation ed
Ġvel ve
Ġoccup y
mac ie
Ġaltern ate
Ġaj ar
Ġsust ain
heav y
Ġsardon ic
1 2
c apt
j agr
oo q
ch anging
ry n
Ġsc um
Ġpro ves
Ġsw oop
Ġmar gin
sp read
ud es
Ġmon ot
Ġref resh
Ġcas ket
Ġnotice able
Ġpath way
Ġfeat ured
Ġdon uts
Ġbroad ly
Ġtit les
Ġmanip ulating
war ren
Ġcudd ling
Ġsund ance
Ġdub ious
Ġtermin al
Ġtopp led
d emon
Ġh omet
Ġh ue
Ġp iling
Ġp iqu
Ġst itch
Ġkn ick
th al
Ġcl ans
Ġcl ara
Ġun yielding
Ġam en
Ġste le
ne eding
uc cess
Ġang uished
umb ered
Ġacc um
Ġhor rid
Ġdead line
Ġcoun se
Ġbat ch
Ġamaz on
Ġ1 6
Ġmort ification
Ġknee led
Ġlun ge
Ġremain der
Ġmart ine
Ġtrain er
Ġbord ered
surpr ise
Ġclam my
Ġglam orous
skin ned
Ġconflic ted
techn ically
Ġhomet own
t roy
Ġs ized
Ġf ern
ro salind
and ro
ab rupt
Ġch anted
Ġqu aint
Ġpo lly
Ġbet s
ass ar
Ġstar bucks
Ġwa ff
Ġcar r
Ġreal ms
Ġpar as
Ġpass port
Ġcry ptic
Ġsam il
Ġbat ting
Ġspl attered
rett a
Ġstubborn ness
Ġmelt s
Ġbeck oning
Ġstrap less
warm th
Ġimprove ment
Ġfred rik
Ġgh ast
Ġcob bl
Ġstilet tos
desper ate
Ġjag u
Ġtranqu il
Ġgoble t
b lock
d ana
k it
m ails
t ripp
on ial
Ġjust ified
Ġcon cede
Ġse ldom
Ġun sc
Ġde mented
Ġpro be
Ġstr ayed
Ġwar s
Ġsn aking
Ġpleas es
Ġpossess ions
Ġyan ks
Ġviol ated
Ġport ia
Ġmagn etic
Ġaut o
Ġwest more
Ġconfident ial
Ġscratch y
Ġmechan ical
fif ty
Ġbarre ling
Ġaur ora
Ġphilosop hy
Ġnonex istent
abrupt ly
h orn
at a
Ġmy kolas
ver on
Ġk athy
Ġne gl
Ġover look
Ġse ren
Ġse mblance
Ġpl oy
Ġsc ut
ens en
Ġper il
Ġrel ate
Ġplay ground
Ġed itor
Ġland lord
Ġsol ic
Ġund ressing
Ġdef ied
Ġunc anny
Ġgut ter
Ġkat ana
Ġmal ice
Ġstorm ing
Ġaddress ing
Ġarch way
Ġclo aked
Ġprick ly
grand father
Ġcoven ant
Ġbund led
thought s
Ġanaly ze
tra vis
Ġnavig ate
Ġastr id
Ġattent ive
Ġlefto ver
Ġembro idered
atern ity
g ame
h aid
j esse
Ġw agged
Ġde fect
Ġsl ugg
Ġtell tale
Ġhard ware
Ġlight ened
Ġdem ise
Ġwall ace
Ġinc ess
Ġfear less
Ġbox ing
ric o
att ie
zz les
Ġmemor izing
Ġunf ur
Ġteasing ly
Ġcro oned
Ġcrou ching
Ġjun cture
Ġexception ally
Ġdor ian
rock y
Ġflee ing
wra pped
Ġpupp et
Ġorche str
k essen
m ina
n n
er ment
en ching
Ġha cked
Ġj ur
Ġj arring
Ġsa g
ro shan
Ġag ing
Ġv reken
sh ir
Ġheart felt
Ġblack stone
Ġperson nel
Ġthroat s
Ġquestion able
Ġref ined
ien ced
ma ax
Ġve ered
Ġart ific
Ġwilling ness
sc ale
Ġver d
Ġdig ger
Ġunf ocused
ider ius
Ġfreak in
Ġrand y
Ġstead fast
Ġgroom s
Ġspa wn
nix on
Ġindign ant
Ġterse ly
Ġintu ition
Ġdeft ly
Ġtransluc ent
h aw
l aughter
in arily
Ġs utherland
it ors
Ġch ow
Ġfo am
Ġmiss y
Ġsol in
Ġassum ptions
bast ard
Ġimm inent
Ġinvestig ations
Ġbul ged
bal ance
Ġassoci ates
Ġfingern ail
Ġnegot iations
start ing
Ġskit tered
Ġancest ors
Ġunwra pped
Ġglim pses
Ġethere al
h ist
l ink
l ves
Ġm ister
Ġc elt
Ġg ad
Ġal istair
Ġgr itting
pt it
Ġel ong
Ġcle ft
mit ch
oh ay
Ġeng aging
Ġeng rossed
lan the
Ġcrow e
Ġsumm ers
Ġflat ten
Ġsand ra
Ġmood y
Ġresc uing
Ġsymp ath
Ġdumb ass
Ġscru bs
Ġlass iter
Ġster ile
Ġpac ific
rash id
b able
k oldo
l owering
Ġt ula
in ates
it tle
Ġy asmin
Ġha il
Ġab r
own ess
Ġsu ction
Ġwill s
Ġsw irls
Ġel ation
Ġmar i
Ġblack ened
ph ys
Ġhigh lights
Ġpal er
Ġann ual
Ġconv ict
Ġaut op
Ġsib ling
Ġsab ot
Ġstyx x
Ġrecl iner
Ġcatal og
Ġdv d
Ġexert ion
determ ined
Ġfeist y
Ġcee cee
h ouses
Ġl ani
on ents
Ġr acks
Ġre ceded
Ġj ury
ro it
Ġhand les
qu er
Ġgr ues
Ġgr umbling
ous ing
Ġmar ilyn
Ġad joining
Ġcr ab
kay la
Ġshut ters
every where
Ġsub way
Ġsel ene
Ġexpect s
Ġgrim acing
Ġsilver ware
Ġdim ensions
Ġscow ls
Ġprocess ed
Ġinh uman
Ġvill agers
ran on
mel issa
law s
Ġconce ived
Ġshell s
Ġsyl ver
Ġdemonstr ate
vik tis
Ġathen a
Ġyas lana
Ġbount y
Ġprog ressed
h ap
p esh
Ġm af
Ġb ony
Ġg av
st an
Ġst ations
Ġfr ying
Ġnot ices
ort ant
Ġdis order
Ġad elaide
Ġsn acks
Ġhot ly
gr im
Ġtri o
Ġrose mary
Ġadv ise
ior i
ev ieve
Ġwine glass
Ġvan ishing
Ġlangu ages
Ġmckay s
Ġfeather ed
Ġresol ution
Ġasp ir
Ġvit o
Ġcasc aded
Ġkir k
' ll
Ġhe fted
Ġp oo
or ity
it an
au x
Ġbr ed
Ġbo som
Ġman ages
ear y
Ġcan non
be ast
Ġdr aping
Ġbel ador
Ġmat his
lo cked
Ġfar mer
Ġcor pses
Ġdist orted
Ġbur ies
Ġve ter
Ġconcer ning
Ġmer rick
Ġinstru ction
Ġoper ations
Ġspect ators
Ġflaw s
Ġmerc s
Ġmonst rous
Ġ9 11
Ġessent ial
Ġsty led
Ġgnaw ing
Ġpod ium
Ġallerg ic
f ed
j udson
Ġh attie
is ms
or al
or ated
se mble
Ġdis liked
Ġsk impy
ner vous
ren ch
app er
Ġacc ounting
Ġdraw ings
Ġve iled
Ġwild cat
Ġment or
Ġaff ecting
Ġharm ony
Ġcommit ting
Ġwitness ing
Ġspar se
sil ver
Ġsnugg ling
Ġgau ze
Ġbould ers
Ġinvolunt ary
Ġwraith s
foll owing
Ġbarb ara
Ġcrumb s
Ġarian a
cand ace
Ġspong e
Ġo re
Ġd hem
is ively
Ġp asted
Ġk ettle
Ġsh ri
ab led
Ġbo one
Ġcom ic
Ġfl op
Ġqu aking
Ġem ilia
Ġbel ts
co vering
Ġmen us
Ġinv itations
Ġcontin ent
uth vian
Ġinter pre
Ġdet ected
Ġadmit s
Ġcam ps
Ġwit ty
Ġanticip ate
Ġcher ie
wal ks
wal ker
Ġfantas ized
Ġduck s
Ġbewild erment
Ġmich a
Ġgrues ome
s ave
Ġw ade
im ages
Ġre bel
Ġfr inge
Ġsu bl
Ġar sen
Ġman g
Ġwar ped
Ġdri ly
Ġz ohay
Ġpar am
Ġplan ner
Ġinc ent
Ġpat ter
Ġsad istic
Ġcrow ding
Ġloc ations
Ġow es
Ġcompet ing
Ġimpl ication
hea ven
Ġfinanc ially
Ġpersp iration
Ġobst acle
Ġunin v
Ġimmob ile
rav yn
Ġvehement ly
Ġsubstant ial
he al
Ġa rose
Ġl ured
Ġl acing
Ġj inn
Ġso ci
Ġex uber
lf ax
Ġqu ipped
ru cc
Ġlast s
gin a
og y
Ġir ate
Ġwild e
tr ace
Ġprov oke
vent il
Ġtour n
Ġconfir ming
Ġdece it
Ġunst opp
exc itement
idel ity
rucc io
p d
Ġo val
Ġand rus
Ġal erted
Ġv ip
Ġgr apes
Ġway de
Ġpre l
de b
Ġcr unched
Ġbar on
gl ad
Ġlean ne
Ġlad en
Ġclay more
Ġcorre spond
Ġge offrey
Ġgall u
Ġtransp orted
Ġsizz le
Ġextravag ant
Ġsophom ore
constant ijin
i ator
k aren
Ġc d
Ġl inking
Ġp si
Ġbe es
Ġwe ir
Ġj ars
and ers
Ġch imes
Ġtr ump
art en
Ġsl ump
be an
Ġjack ets
Ġdev in
Ġhate ful
Ġphys ician
Ġtrack er
Ġblo ke
enz o
Ġunh app
Ġcart on
Ġep it
Ġrav aged
Ġpy ram
Ġaspect s
person ally
Ġbor ys
goddam n
cong rat
Ġsaus age
Ġcrist ina
h it
s uff
in v
Ġw ards
Ġk inc
Ġar ielle
Ġtw irl
ort ions
Ġcall ahan
Ġcomp act
vers ion
Ġexpl oration
Ġfine ly
Ġstraight forward
Ġforg ave
Ġcompl ications
Ġsumm ons
Ġflat s
Ġswim suit
jen nifer
Ġimpl ant
Ġshrie ks
Ġratt les
Ġcuff ed
Ġillum ination
Ġsucc umbed
Ġescal ated
Ġles lie
Ġcoup led
lim its
Ġdecept ively
Ġdhem lan
r ation
Ġn ation
Ġli bid
Ġdown fall
Ġun fl
Ġac quis
Ġlit ter
Ġke v
Ġbar bie
Ġluc id
Ġsam my
Ġgray haven
Ġbill ion
Ġdom ain
case y
Ġdan ia
Ġexpress ive
odd ly
Ġscald ing
Ġvacu um
Ġwestmore land
Ġgad get
Ġkinc aid
h ate
r hett
t zader
y i
Ġb io
Ġi am
er man
Ġd wind
Ġg arr
Ġy ummy
Ġha cking
Ġr ud
she ree
ch uck
Ġab usive
Ġback drop
qu en
Ġse aling
Ġnever theless
Ġunder water
Ġapp ointed
Ġad oles
Ġper ry
Ġcour ses
cle aring
Ġmed ichi
Ġdef y
Ġcapt or
Ġgener osity
jam in
Ġdang ers
Ġstress ful
Ġtap est
Ġfrost ing
Ġadvent ures
mack enzie
Ġkor wah
Ġbookshe lf
Ġconte xt
Ġalleg iance
Ġenthr alled
Ġderm ot
Ġunstopp able
c aught
d read
p ull
v oc
it als
Ġab oard
Ġcl inked
Ġor acles
Ġstill water
Ġho ver
Ġwr inkle
Ġmon ique
Ġsqu int
Ġinv inc
Ġmonth ly
Ġdar ic
Ġma ura
Ġexpect ant
sam antha
Ġbound s
Ġfal con
Ġgoddam mit
Ġsacrif ices
Ġmuff ins
say ing
prom pt
Ġinn ue
Ġassign ments
Ġbracelet s
Ġrein force
Ġagon ized
Ġfidd ling
sad ly
Ġench anted
Ġgoog le
Ġlob ster
b ang
h air
l ive
t ri
Ġin ky
Ġu ri
Ġne ur
Ġunder lying
Ġmor bid
Ġdem ure
Ġlive ly
Ġcam is
Ġsol ace
Ġhat ch
Ġsuggest ive
Ġmc donald
Ġrev ved
Ġhay ll
conf usion
Ġhyper ventil
Ġacceler ated
Ġmelan the
Ġarchitect ure
Ġconstru cted
Ġinevit ably
Ġchauffe ur
r ament
t ouch
Ġl anie
it as
Ġha ph
Ġre el
ce zar
Ġwhere as
Ġgi bb
Ġimp en
Ġter rific
Ġnarrow s
Ġfield ing
Ġjulian na
min utes
Ġobject ive
Ġtechn ical
Ġrick y
Ġacqu ies
Ġoblig ations
Ġproduct ive
fle ur
Ġtreas ured
Ġunpre pared
Ġworsh ipped
Ġencirc led
Ġsympt oms
Ġjagu ar
Ġhaph azard
Ġs ifting
Ġhe nd
Ġn uc
ro xie
Ġout let
Ġco des
ru by
Ġpe gged
Ġad vers
Ġcr ick
Ġhur l
Ġmor als
gr ap
Ġspecial ty
Ġalex ion
Ġprop osing
Ġvol unt
Ġembr acing
Ġpiss es
Ġprogram med
Ġmail box
Ġhaz ard
Ġmodel ing
Ġovert ook
Ġba iley
Ġintertw ined
Ġkorwah k
b ee
d are
m ama
Ġr iled
ke ira
Ġle nd
Ġover st
Ġhead phones
Ġsl ashing
Ġbet roth
Ġnight ly
Ġcare lessly
Ġsn orts
Ġret ro
che cked
Ġcons ulting
Ġpol ar
Ġpay check
Ġself less
Ġeight h
inn ia
Ġcurt sy
Ġsha heen
Ġfort ies
Ġroof top
Ġstall ed
Ġplain ly
Ġwithd rawn
Ġinsp ecting
Ġspray ing
Ġoblig ated
Ġkar l
Ġcliff s
Ġcrit ic
var ian
Ġille g
Ġdepend ent
Ġobsess ive
Ġcomprom ised
c ro
g he
l uther
Ġm ase
Ġc ider
Ġk ara
ch ant
Ġbr unch
Ġun ruly
Ġco lfax
Ġman ny
Ġcan al
Ġgl aze
sh am
Ġfo ggy
Ġca ved
cl im
Ġtable cloth
Ġfree way
Ġdoub ting
Ġru gs
ma ia
zz ly
udd ing
Ġpet ul
Ġcop ing
Ġexist ing
Ġoccur s
Ġmary se
Ġcher yl
Ġcommun icating
Ġstack house
Ġclimax ed
Ġgal a
Ġreck oned
frank ly
hur st
Ġatlant is
Ġchir ped
bod ied
vig go
l ila
o ft
Ġf es
Ġth umps
Ġbe re
Ġr ant
ad die
th ird
Ġco arse
Ġtw itches
Ġpro ver
iz ers
Ġent ers
br ad
Ġinter section
Ġlay ton
Ġgen ie
gu ys
Ġspend s
Ġsuper her
Ġcass er
Ġrum y
rap nel
Ġgryph on
Ġsequ ence
Ġliber ty
dan ika
bod ies
Ġsidel ines
lys ander
Ġdow ager
Ġharp ies
Ġpiqu ed
Ġnegl ig
c enzo
g ence
r ating
s aken
Ġb ailed
Ġo m
Ġc ages
Ġc indy
Ġd ag
Ġg eez
Ġe ug
st acy
Ġr ivers
Ġup hol
Ġass ures
co herent
Ġfar thest
Ġtable top
Ġdem ol
Ġap ex
Ġres idents
Ġvamp ir
Ġshut tle
bl aire
Ġmal icious
Ġant iqu
Ġmembers hip
Ġapologet ically
Ġsust ained
Ġadmon ished
Ġafric a
congrat ulations
prompt u
b aya
k ick
l est
s aint
t len
w rit
Ġth ieves
st ones
Ġst ap
Ġme ls
Ġwh ir
se v
Ġab st
un ed
ell o
Ġway ward
omet ry
Ġca val
Ġsw arm
Ġreal istic
Ġfre she
Ġgro ped
Ġmad am
Ġappro x
Ġdisc ard
Ġdu ct
Ġart work
Ġspl at
Ġver bally
friend ly
hen s
Ġcass ia
Ġaud itor
Ġvill ain
Ġencoun ters
Ġterrit ories
Ġsurre ptit
Ġnav arre
Ġbord ers
Ġirre spons
viv ienne
sha wn
Ġdemonstr ation
Ġstee led
Ġay den
Ġknead ed
Ġtransport ation
Ġnymph s
Ġzar ah
Ġenforce ment
Ġts ked
Ġgibb ons
p iper
Ġd yed
art s
Ġse ers
we bs
Ġsur ly
lo aded
Ġret al
Ġcomp ose
Ġconf ide
Ġstep brother
ters weet
Ġcross bow
Ġind ic
Ġstuff y
la ura
Ġspec k
Ġcho pped
Ġpill ars
Ġfix ated
Ġta wny
Ġwitch light
Ġlangu id
Ġbuzz er
Ġinit iation
Ġstool s
Ġrasp berry
Ġedward s
Ġencl ave
Ġshal ador
Ġconspir ator
Ġrelig ion
Ġhighlight ed
iche ver
mand i
Ġprotru ding
Ġrho des
Ġconcess ion
b itch
t ension
w right
Ġf ated
Ġf used
Ġd ice
Ġn om
or c
Ġin nate
Ġwe lf
Ġj as
ro xy
Ġcould n
us ively
Ġsp asms
Ġbr imming
ks hire
anc ock
Ġwr inging
ead ily
mm m
Ġrep orting
Ġscr ab
Ġcreat or
Ġbook store
Ġsof as
Ġbrief est
Ġsav itar
Ġsac rament
Ġgrave ly
Ġfreak s
je alous
Ġunh armed
Ġmanip ulation
Ġfulf illing
Ġouts ider
Ġaddict ive
Ġsentiment al
Ġanat omy
Ġtract or
Ġcounse ling
Ġinvinc ible
d i
k issed
l idded
v ice
y les
Ġw icker
Ġo scar
Ġf ainted
Ġc lyde
Ġme and
Ġas hen
am eric
Ġch agr
Ġgl ue
Ġgl ows
Ġdoor jam
be au
Ġim promptu
no sed
Ġpe as
Ġchest nut
Ġsor ority
Ġsun ken
me et
Ġtest ament
Ġ1 00
Ġpred ators
Ġcelebr ated
Ġoblig e
Ġflirt atious
Ġzero ed
Ġfuss ing
Ġdwell ing
Ġmaxim um
Ġpunct uated
Ġaward s
Ġcrut ches
Ġinexpl icable
lore lei
Ġpanthe on
Ġapocaly pse
Ġbellige rent
Ġlibid o
Ġuri ah
b earing
f al
f amiliar
Ġl ent
Ġg erm
Ġv as
Ġv antage
Ġlo ads
ning er
Ġcont ag
Ġel oqu
Ġper ception
Ġsle igh
sc ared
sc ape
Ġunc ond
Ġlun wyn
Ġidiot ic
Ġvic ar
Ġprotest ing
Ġaching ly
Ġdeck lan
Ġfashion ed
Ġfairy tale
bur gh
angel ica
Ġbron zed
Ġfellow ship
Ġdat ab
burn s
Ġunbear ably
Ġpeep hole
Ġrut ledge
Ġbrim stone
Ġsculpt ure
Ġexclaim s
Ġaphrod ite
Ġtransf ixed
cuss ions
Ġbarbec ue
Ġwelf are
a head
b ent
m ck
n az
ou dy
Ġfor lorn
ir th
to bias
Ġal bert
Ġcl oudy
Ġsl ab
ick y
Ġte nding
Ġmar riages
Ġnew com
Ġblack m
Ġmon ument
Ġcat hed
Ġind ent
Ġcool ness
Ġfav ored
Ġlap els
Ġbas in
Ġpin ches
kin ich
Ġtele port
Ġvel kan
Ġamb ition
hard ly
etr able
Ġearn estly
Ġfond ly
Ġnet her
Ġming le
Ġmim icked
Ġwrest led
Ġade le
jay linn
Ġconvul sed
Ġrect angular
Ġsimpl er
Ġhistor ical
Ġinfin ite
Ġcamis ole
b il
l ipped
s erg
Ġa jax
Ġw agging
Ġp omp
or med
ar ik
Ġha gg
Ġj aded
ag na
Ġcl iche
Ġbo asted
ort ment
Ġcar rot
Ġte ases
Ġel an
ber ing
ash lyn
Ġpass ive
Ġext ric
ili ation
dam ned
Ġsen ate
Ġsuggest ively
Ġnu zzle
fall ing
Ġalcohol ic
Ġexquis itely
Ġoverhe ar
Ġpig s
Ġpersu asion
Ġtelep athy
Ġancest ral
Ġpermit ted
shif ter
Ġog ling
Ġseraph ina
Ġmercen ary
y ell
Ġh anger
Ġb ung
Ġi cing
Ġo d
at ics
Ġst ip
Ġsc ant
ft s
Ġstar ve
gg ings
Ġdes ks
Ġsw iping
Ġcr an
Ġper ceptive
Ġnothing ness
Ġser pent
Ġsim mered
Ġres ulted
Ġpleas ured
Ġgro ping
Ġpri zed
Ġsub jected
Ġshar on
Ġchrist ine
Ġbent ley
reen ie
Ġthin ner
Ġaccident al
agr am
Ġinit iate
Ġbooth s
Ġpow ered
Ġque asy
Ġmmm m
Ġjac obs
Ġregin a
Ġrecom me
Ġindec ision
Ġtablo ids
Ġallev iate
b our
j et
u v
Ġ _
Ġc ens
on ore
Ġp ing
or ial
Ġg ren
Ġbe eline
Ġwh oop
ch ange
ce line
Ġup ro
ri g
Ġbr ake
Ġsm ear
Ġfl amed
age o
Ġdis em
Ġsw o
Ġdr ape
sp ell
Ġed den
che t
Ġround ing
Ġsuper st
Ġpub ic
Ġdust in
cons uming
sim ple
Ġzoe y
ham mer
Ġnathan ial
ett a
cat ching
Ġinsp ected
Ġbliss fully
Ġdefense less
Ġirre voc
bry an
Ġstam ina
Ġparano ia
Ġcheerle aders
Ġunderest imate
Ġbookshe lves
Ġeffic iently
Ġcatac ombs
Ġnuc lear
m age
ou fl
Ġb ers
ing ton
Ġl achlan
Ġk etch
Ġwh iz
Ġle ila
Ġtr ashed
Ġse eds
Ġsc uffed
Ġpro ps
ful ness
ans as
pr act
Ġlif el
Ġdel ved
Ġsick ened
Ġsumm oning
Ġboo b
Ġalex i
Ġpor ter
Ġstrand ed
Ġorgan ize
Ġec centric
Ġcontain ers
Ġsund own
Ġleaders hip
Ġrumm aging
Ġmarsh al
Ġrou gher
Ġblister ing
Ġambit ious
Ġpopp et
Ġcastald ini
Ġsylver myst
Ġimpen etrable
e in
s cented
Ġo ps
Ġl ava
ent ious
Ġlo athed
Ġen for
Ġam ar
Ġsw erved
Ġword lessly
Ġcr unard
Ġbar rington
Ġconsid ers
Ġless en
Ġrelax ation
Ġprof use
Ġtremb les
Ġspir aled
Ġjax x
Ġju ven
Ġvol can
Ġfer ry
Ġpsych iat
Ġbrill iantly
Ġcro ak
Ġder rick
nes see
might y
Ġpluck s
Ġvoy eur
Ġnood les
Ġmathis on
serg io
h oria
ab et
Ġcont ours
ater ial
Ġcor ral
Ġlif eline
Ġred dish
Ġref illed
Ġins ert
Ġluc ifer
Ġmir acles
tw elve
Ġmas ks
Ġgut ted
ste ve
Ġfist ful
Ġspark ly
Ġbeth any
Ġamb ush
Ġcompet itive
sil ently
Ġcoach man
Ġfrost ed
Ġrod ri
Ġlas agna
Ġsom ers
Ġanaly sis
Ġscient ists
Ġinfect ious
mc kell
Ġrecru it
disapp ointment
Ġrend ez
gri pping
Ġbutto cks
Ġbrus que
Ġsacrament o
Ġketch up
Ġi ke
Ġk ait
Ġr umbles
ad dy
oo king
al ation
ill ion
Ġcl ustered
Ġcl amping
Ġbr y
Ġqu ince
Ġapp li
Ġad ri
Ġside walks
Ġbit tersweet
iv ious
Ġsor ab
Ġpast or
Ġinv ade
Ġra pped
Ġcontin ually
Ġrepl aying
Ġsing ed
Ġbeginning s
Ġsmart est
Ġvo iced
Ġorigin s
Ġcro pped
met is
Ġunt ie
Ġbust le
Ġinterrupt s
Ġandrew s
Ġasp en
dou g
Ġbri be
Ġskept ically
Ġscand alous
inde rella
Ġstilet to
Ġprovoc ative
aus ible
Ġunrel enting
clar issa
Ġlup ine
dies el
Ġcarto on
accept able
Ġzohay d
Ġdoorjam b
r il
Ġo ct
Ġk izzy
Ġr ift
ec hes
Ġv aulted
Ġcon greg
Ġpl under
Ġbo ast
Ġaf ar
Ġpr ank
os c
Ġfin ch
Ġsoft ware
Ġfloor ed
bo om
Ġtrust worthy
mar co
Ġshoot er
gl ory
Ġrespons ive
ser ge
Ġcash mere
Ġtort urous
aly a
Ġlee ch
Ġfac ilities
Ġted ious
Ġyawn ing
Ġruss ia
Ġpy re
Ġfee ble
Ġdyn amic
Ġinterven e
Ġdissol ve
scow ling
c ous
Ġm abel
Ġo asis
Ġg agging
Ġst ages
Ġr ache
Ġsc ope
Ġshould ered
pt uous
Ġwa fting
Ġpass word
Ġcoll een
Ġwin ery
Ġten nessee
Ġtem po
Ġincl ination
Ġforth coming
Ġban ish
Ġward ens
Ġven ue
ele ven
wal ter
bird s
Ġiz abel
Ġamid st
Ġobt ain
further more
Ġbetroth al
s pl
Ġt um
Ġt amed
Ġp its
Ġg ly
Ġhad nt
th ro
Ġget away
Ġpo ign
Ġche ery
Ġwar ms
Ġcr inging
Ġend urance
Ġcomp aring
Ġbro ch
Ġreg istr
Ġtri vial
Ġru ndown
bl ank
Ġdisc ount
ipp i
Ġsal vation
Ġgar th
Ġann ette
Ġbra very
Ġaunt ie
Ġdick head
Ġrob ot
Ġfer til
har low
sar ila
Ġhoriz ont
Ġfled g
Ġnause ous
Ġcelest e
Ġportra its
Ġoo zing
Ġcruc ial
Ġshepher d
tlen eck
a vers
b ond
b red
g then
j ar
k rit
o bel
Ġh ier
Ġn igg
Ġp ens
Ġin coherent
Ġon yx
Ġmy r
Ġas ia
Ġup bringing
Ġch alice
Ġch ubby
Ġro ars
Ġco il
ry l
Ġel ated
Ġdr ooped
bo bby
bec ky
Ġgri gor
Ġsky line
Ġbright ness
Ġhesit ates
fl ower
Ġcapt ivity
Ġprop ortions
Ġbeg ru
Ġimm ature
Ġsque aling
Ġperiod s
Ġske leton
Ġsleeve less
Ġmod esty
Ġexception al
Ġindul ged
Ġveget able
sha ven
Ġmold ing
Ġwithdraw al
Ġshack les
Ġcorpor ation
Ġsquat ted
Ġdepri ved
Ġmiraculous ly
Ġdelusion al
Ġverd ict
Ġauditor ium
d ifferent
e ff
p ound
s se
Ġm un
Ġe inar
am ents
ch y
ab ul
Ġreal ise
Ġrun g
Ġpast ure
Ġdif f
Ġaw aken
Ġind escri
Ġspec ter
Ġnar c
Ġcam oufl
Ġnick i
Ġearth qu
Ġrad je
Ġcow boys
Ġcost umes
Ġnik las
Ġtit ans
Ġ2 1
Ġmck etrick
Ġappe ase
wo ndering
Ġbond age
Ġdrum ming
Ġmelt down
stick s
Ġjean ine
mart y
Ġcul pr
Ġbian chi
Ġoo zed
pen elope
Ġeffic iency
Ġshroud ed
Ġreper cussions
Ġgour met
Ġcontag ious
Ġjuven ile
Ġquince y
c ore
g ic
g ated
Ġh ounds
Ġf ences
Ġin ade
Ġre ne
al o
ir cle
Ġsa ils
Ġab ortion
Ġal arms
Ġse izing
Ġun answ
Ġfl ask
ang us
Ġcar ib
Ġheart y
Ġgi b
Ġbur ly
Ġenjo ys
land on
had ley
Ġpet rified
ev il
mer ry
Ġsuck ling
Ġmort gage
Ġport fol
rel ieved
pro blem
Ġfer r
Ġprod ucing
Ġant id
inc inn
Ġbarn abas
Ġvide os
Ġinsp iration
Ġmanip ulative
Ġtriumph antly
Ġacade mic
may sie
Ġwrest le
Ġgn ar
dem ons
Ġleon ard
Ġprett iest
Ġtra its
krist ine
Ġrey nold
Ġscraw led
Ġmaf ia
l ash
r ne
s and
re ese
Ġto ken
Ġc one
it z
it utes
Ġr ags
ur o
Ġsh rapnel
Ġfr ay
th orn
ri que
Ġv ind
Ġen semble
te resa
ol ate
Ġdeep en
cl ick
Ġpain kill
Ġtop ics
char les
Ġchocol ates
Ġban ister
Ġfed eral
gen er
Ġsore ly
Ġstew art
michael a
half way
Ġunst eadily
ga ius
Ġprem ises
Ġstim ulation
Ġasse mbled
Ġgoat ee
Ġpatron izing
Ġchast ised
Ġunfold ing
Ġperver se
Ġscab b
Ġsideste pped
doub t
Ġrendez vous
Ġcarib bean
Ġm ul
Ġi phone
Ġd ah
Ġn ook
Ġst annett
ut able
Ġat rium
Ġsa gging
Ġle ggings
Ġun ab
Ġde w
Ġpo les
iss ippi
Ġdis pleased
Ġmar veling
Ġwait ers
Ġend lessly
sw anny
cl osure
Ġz ee
Ġfar away
Ġbro derick
Ġdel ores
Ġsweet s
Ġmur phy
Ġer a
Ġesc orting
Ġshar ks
Ġfair child
Ġcrack le
Ġfist ing
rel is
Ġge nder
Ġmach a
Ġsour ces
Ġflin ching
Ġcompet ent
say s
Ġrein forced
aa aa
Ġobed ient
Ġconj ure
Ġflour ish
frustr ation
Ġdelir ious
Ġparamed ics
bus iness
Ġvelve ty
Ġincent ive
5 0
c age
c ence
Ġm esh
Ġr ails
Ġre iter
un ky
Ġcl ink
Ġare s
Ġsl ime
Ġstill s
sh ame
sh attering
day s
Ġconf use
head ing
ger ald
Ġfig ur
Ġpant y
Ġsens ors
Ġstru ct
Ġesc orts
Ġsad ist
ign on
Ġart istic
Ġremo ves
pro logue
Ġdaemon ar
Ġholl ered
Ġclar ify
Ġbelle fleur
Ġflex ible
Ġgear y
foot steps
Ġflu orescent
Ġade quate
Ġdil ig
Ġmotiv ated
d ate
g aston
t ray
Ġb ick
Ġhe ater
Ġf uming
as o
Ġne cr
Ġch ipped
Ġsp iders
ap ha
Ġde jected
Ġen qu
act ive
Ġph y
Ġsn ooping
Ġrel ied
Ġbre ck
Ġsqu aw
Ġmust ache
Ġmus k
Ġtre z
cle an
Ġsy bella
Ġdu pl
Ġwid th
Ġmid day
Ġla unching
Ġsnow fl
Ġprefer ring
Ġinf used
Ġfaint est
Ġx erxes
Ġban quet
Ġprofession ally
Ġhous ing
Ġven ice
Ġsid led
Ġfantas izing
Ġchoo ses
Ġtoler ated
Ġkil morgan
Ġdisag re
Ġaccompan ying
Ġfest ivities
gent le
Ġeman ated
Ġecon omy
Ġplummet ed
Ġspons or
Ġpreser ve
Ġperce ived
Ġsubl ime
Ġcathed ral
Ġappli ances
incinn ati
b acked
f u
f at
i h
k illing
Ġd up
Ġth udding
an no
Ġp ensive
Ġre think
am ble
Ġso les
Ġal igned
Ġcon ve
Ġman ning
Ġcall a
Ġca illen
Ġass ortment
ord id
Ġwall paper
Ġter rain
Ġstraight ens
Ġrub ble
Ġline age
Ġfault s
cri pt
Ġoper ator
Ġant iques
Ġcondition er
Ġcel ib
jax xon
Ġwy the
Ġcivil ization
Ġeup horia
Ġeag le
Ġskir ted
Ġlub ric
c reat
c ream
g oose
k aderin
s ions
s man
t ouching
et or
Ġan us
all ista
Ġv ae
Ġgr umble
Ġqu ell
ff ee
Ġam ate
Ġcome back
Ġste amy
Ġho b
Ġsw armed
Ġdec re
lo ch
Ġret ali
Ġblood stream
Ġfloor boards
Ġpar ks
Ġlu be
Ġble nding
Ġtrans mit
Ġdan vers
Ġthread ing
Ġspring ing
Ġbubb ly
Ġpuff s
van ia
Ġdistinct ive
Ġadvent urous
mal ik
Ġupd ated
Ġcasc ade
Ġdict ate
mus ic
offic er
Ġharv ard
Ġsyll able
Ġfla evynn
Ġexpans ive
Ġdivers ion
Ġthre esome
i ary
l illy
m ount
p ace
he nt
Ġa ld
Ġb aker
Ġl ens
Ġl ax
ld on
Ġon going
oo o
Ġfor ge
to ssing
Ġle ashed
Ġcl aps
Ġro gers
Ġdown worlders
ah na
Ġmar ika
Ġinst all
Ġbro ck
Ġred headed
Ġref ill
Ġref ocused
Ġcoll in
me aning
col or
Ġbill owing
Ġry on
Ġmill ie
can io
Ġcourt room
Ġpsych opath
Ġshape ly
alex ion
Ġske w
isc illa
Ġhyster ia
Ġintru de
Ġens ured
Ġgryph ons
Ġlame ly
Ġunz ip
Ġwield ing
squ ee
Ġmang led
Ġcasser ole
g eary
r im
Ġhe ave
Ġf iend
Ġc inderella
at os
Ġst itched
ic ians
ie val
Ġle a
ag in
Ġfl anders
Ġpre jud
Ġpr imed
you ng
sh ru
Ġste aks
Ġem itted
Ġph ob
Ġwar red
Ġfe vered
Ġkind erg
Ġbre eches
Ġmon k
Ġmiss issippi
Ġtruth s
Ġtrou bling
Ġshock s
Ġmid way
Ġling ers
Ġwrit he
Ġmaj estic
Ġbroad way
Ġhumor less
Ġcred its
Ġjay meson
bry son
Ġmerc iful
Ġsyl vie
Ġwield ed
Ġgee k
agar ia
Ġsnark y
Ġinexper ienced
j asper
t ent
w ick
Ġs ordid
Ġl anky
Ġha rem
ic ular
ad rien
Ġfr is
Ġgo gg
Ġex its
Ġlo athing
Ġsp ooked
Ġsm acks
Ġpo ndering
Ġstr um
Ġfe ud
Ġquick ie
Ġhour glass
che cking
Ġsub sequ
Ġspec imen
Ġcho ir
wor ry
Ġband aged
Ġbirth right
Ġill ustr
Ġtext book
Ġlength y
Ġinj ected
Ġintern ship
Ġshy ness
fall s
Ġtend encies
guard ed
zar ah
Ġeduc ated
Ġded ication
Ġwithdraw ing
Ġstan ford
pres ent
Ġcasc ading
Ġreflex es
Ġkell s
Ġsect ions
Ġmerciless ly
Ġunra vel
Ġlefto vers
Ġscruff y
Ġrelinqu ish
Ġintegr ity
Ġinterf ering
Ġgover ness
Ġsmit ten
b ri
p ay
Ġto en
Ġd ys
Ġg ush
Ġher ald
et ed
Ġst acey
Ġwe aved
Ġj emma
il ot
Ġsc ots
te xt
Ġdis rupt
Ġz ayn
Ġbar ged
Ġcheek y
Ġdu el
Ġrid ers
Ġweird ly
Ġdiv ide
Ġblur ring
Ġfal ter
Ġdescri bing
Ġgrave yard
Ġtur tleneck
Ġcha am
Ġlur ked
Ġlonging ly
Ġdevast ation
dark ness
Ġenv ious
mort imer
Ġdur ante
Ġthu gs
Ġshameless ly
Ġantid ote
d al
p ainted
at able
Ġl lo
on is
Ġha unches
Ġre jecting
ad renaline
al an
Ġj ana
Ġgr aves
Ġpo sing
Ġby rne
ol is
Ġmat ted
Ġgir th
che eks
Ġpar ch
Ġreg rou
Ġfree zes
Ġfur t
Ġtrust s
Ġstre aking
Ġext ract
Ġscar gill
Ġlunch time
Ġelev ated
Ġvib es
Ġspr inkled
Ġvac ated
Ġoper ate
Ġfed s
gre aves
Ġruth lessly
Ġcolo ss
Ġbri g
Ġprosec ut
Ġreverent ly
vir gil
Ġcatast rop
Ġprofuse ly
f aster
t ired
~ ~
Ġr io
Ġsh ipped
ion n
Ġgr anny
Ġfl ute
Ġwa iling
Ġim ple
Ġcar men
Ġfe igning
Ġinst itution
Ġbar bar
Ġask avi
Ġben jamin
Ġfull er
top he
Ġlou ise
Ġstab ility
Ġtur f
Ġquit ting
Ġrever ie
Ġshimm ied
Ġdistract ions
Ġspecific s
Ġscor p
Ġfund raiser
Ġnephew s
Ġtransl ate
Ġramp ant
Ġcondem ned
Ġapoll ites
lind sey
Ġmetaph or
Ġheft y
Ġpoin ty
d ry
k al
l illian
s olo
Ġi pad
Ġhe dged
Ġl umber
Ġy or
Ġon ions
Ġk o
Ġre h
Ġre eve
Ġtr ading
Ġover load
ell i
Ġsp orted
Ġflo ck
Ġbest owed
br ief
let te
cent ury
Ġlar ry
Ġwet ter
Ġworried ly
fl ora
Ġreve rence
Ġpet ted
Ġmed al
Ġmed ieval
Ġfil th
Ġut most
Ġaut hent
Ġfu nding
Ġbroad cast
Ġpsych ology
Ġassist ants
Ġglo omy
Ġgrass y
Ġdecor ate
Ġobject ion
Ġcompre hension
mal colm
Ġfaction less
Ġlum inous
Ġwilder ness
Ġendeav or
Ġapprehen sive
Ġirrespons ible
l oud
p ict
Ġt anya
Ġm cl
Ġl aces
Ġp aren
Ġwe lt
Ġsh ined
Ġwould nt
Ġun av
Ġexp ed
Ġsk idding
Ġact ively
Ġtight s
Ġcomple tion
Ġdel aine
Ġtre v
Ġkid do
com mand
Ġshad ed
Ġmax ine
your s
Ġsweat ers
Ġblind folded
Ġdon ut
ork ers
Ġfer vor
Ġloss es
Ġdut ifully
Ġdy e
Ġpers ist
Ġunlo aded
Ġpoison ing
care ful
Ġbabys itting
Ġeld est
Ġgnaw ed
quiet ly
Ġecon om
Ġcater ing
Ġpedest al
Ġpum mel
Ġperme ated
Ġimmac ulate
Ġllo yd
d harr
g riff
n ash
re ct
Ġb jorn
Ġto ri
Ġc incinnati
Ġp ining
Ġy er
ac ies
Ġas yl
am elie
il ize
Ġle w
ab e
Ġal mond
Ġro byn
Ġam bled
Ġday time
Ġdec ked
Ġbu gging
Ġfar ooq
Ġgre ets
Ġpower fully
Ġdeal ings
Ġrepl ay
Ġwin ces
Ġbag gy
Ġgri zzly
Ġbath robe
Ġsy mph
Ġsam ples
Ġscr aps
Ġeng les
Ġcompl imented
Ġprov oked
Ġcow orkers
Ġexh ales
Ġslee pless
Ġgarden er
Ġant sy
soon er
Ġdull ed
Ġjeff rey
Ġunif ormed
Ġtap ered
Ġmap le
Ġslim y
Ġindul ging
Ġimper ative
Ġaugust a
Ġtart arus
Ġconver ted
Ġunderest imated
Ġrearr anged
Ġfavour ite
Ġbraw l
Ġtoothp aste
Ġapprox imately
abul ary
f i
f en
n onsense
w ake
Ġc ia
at us
Ġha ines
Ġas cension
Ġdo zed
ir k
Ġsh ard
Ġno stal
Ġsp ears
Ġpo em
Ġass essed
Ġgi vin
Ġwhis k
Ġhu ss
Ġdisc retion
Ġsque als
Ġsquare s
Ġunlo ad
Ġtechn iques
Ġprogram s
Ġbust ing
hel mina
spe ak
Ġped al
Ġscur rying
Ġuns uccess
gro aning
Ġcryst all
i our
l ate
u va
v icki
Ġm aps
Ġg ushing
le vi
ut ions
Ġr he
se a
ro sie
Ġsp erm
Ġbr unt
we ak
Ġgl ower
Ġpro jected
whe el
ct urn
Ġwr acked
Ġdec ap
Ġask in
Ġra id
Ġrele vant
Ġthick ness
Ġrespect ive
Ġhy brid
mon a
Ġpout y
think able
Ġtack y
Ġmim icking
Ġpersu aded
Ġdemonstr ated
Ġful brook
Ġuneas iness
Ġattent ions
Ġunp acked
Ġtelepath ic
n zo
Ġt idal
Ġc ed
Ġd ork
Ġe ub
Ġon stage
al a
Ġch it
Ġey rie
Ġse af
Ġun shed
Ġco aster
Ġsl ouched
Ġgl ob
Ġho g
Ġsw oon
pl enty
ud ges
Ġsat ell
lo c
gn ant
Ġpast ry
che ster
Ġscr apes
Ġform ality
bel ow
Ġmal ory
Ġfab ian
Ġspr outed
hy dr
Ġaffect ions
dr ink
Ġdi apers
Ġsatur ated
Ġamb ros
Ġoccup ants
Ġconsequ ence
Ġsher brooke
Ġgroom ed
Ġlege nds
break fast
Ġinsec urity
Ġot to
Ġtheat re
Ġspook y
Ġunsc athed
b ly
r ative
t ish
v ious
Ġd ine
Ġu rian
Ġj or
Ġj ecis
Ġtr aps
Ġover shad
Ġun protected
Ġun acceptable
Ġcom ical
Ġsl op
Ġfl ou
Ġpre n
Ġtw ining
iz ations
Ġdis eng
Ġsn ore
Ġsil encing
Ġhu go
ash li
Ġbat s
ances co
Ġkat a
under standing
Ġrespect s
Ġlex is
Ġignore s
Ġcelebr ities
Ġdomin ate
Ġtur ret
Ġcooper ation
Ġclo gged
gre yson
Ġfoolish ly
iqu ette
Ġnonchal ance
smo oth
Ġrehe ar
Ġvoc abulary
Ġtemp ered
Ġitch y
Ġchart s
Ġhul king
Ġmell ow
jose ph
Ġartific ial
Ġscabb ard
Ġasyl um
f ool
g yn
l ib
l ining
Ġs amp
Ġh ancock
Ġm ong
Ġi van
Ġl umbered
on i
on ted
Ġbe an
ut ton
the m
ab igail
el aine
Ġv ise
Ġun heard
ry dstrom
Ġpre amble
ass ail
Ġtal ia
Ġsn uff
Ġass u
Ġang st
Ġinc oming
Ġpass ions
mar riage
Ġcard igan
Ġblo oms
Ġvill ages
Ġpiss y
Ġrandom ly
occ asion
Ġritual s
Ġgrit ty
Ġbum per
Ġtomat oes
Ġmanif ested
Ġmatern al
Ġimpecc able
Ġrox anne
Ġgraph ic
f acing
l icking
n ar
p his
as a
on te
Ġout ing
th irsty
Ġwhe at
Ġch aper
ind uced
Ġag rona
Ġv oted
Ġoff ending
Ġpl ausible
Ġaf fl
per iod
Ġper k
pr ide
Ġsens or
Ġscr um
Ġlim ping
Ġsuper ficial
Ġlen a
Ġrich ards
Ġreply ing
mat ched
Ġinfl ict
Ġpoison ous
Ġsurrender ing
Ġmult ip
azz led
Ġmum my
rain ier
Ġenvelop ing
Ġga unt
Ġcushion ed
Ġindividual s
wee k
wonder ful
Ġenig matic
Ġhambur ger
Ġsuperher o
Ġhagg ard
Ġrecomme nded
c ings
f ate
n ished
t es
w ire
re sp
Ġo ops
Ġp ampered
st eel
Ġu ch
Ġfor c
ke pt
Ġdo cks
ter rified
Ġab ide
if iable
Ġlo ken
Ġpl umb
ist an
Ġmore au
Ġsc athing
dd er
Ġcall used
de ke
Ġapp lau
co on
Ġlist ing
Ġdream ily
Ġbright est
Ġgar ments
Ġfil tering
Ġcraw ford
Ġspark les
Ġvibr ates
Ġoccur rence
Ġoper ated
Ġtarget ed
Ġgree ks
power ful
Ġspoon ful
Ġcarl os
rain a
Ġpersu asive
Ġbelief s
Ġmerl ina
Ġak ri
Ġric her
Ġfract ured
Ġmarc ie
Ġuninv ited
Ġepit ome
Ġpyram id
Ġvolunt arily
Ġunansw ered
' -
b ax
h anna
p anting
s ensing
Ġw iry
er a
Ġf izz
Ġk isten
Ġas ian
Ġli vin
Ġal mighty
ast rid
est ones
Ġfl an
Ġpre st
Ġmar got
Ġz ipping
Ġstart le
Ġcor k
Ġmen nah
Ġwin ona
Ġpay ments
Ġluck iest
Ġcam illa
gu ided
Ġappreci ating
Ġstiff ening
Ġcre aking
Ġrev is
Ġexec ute
Ġach illes
Ġconven iently
Ġexagger ating
Ġschedul es
Ġsubst itute
Ġborder line
Ġobst acles
hur ry
syl via
Ġmanif est
Ġjeopard y
Ġsket ches
Ġenlight en
Ġremed y
Ġadoles cent
Ġculpr it
griff in
k o
p andora
t asia
u zz
Ġp ies
or gan
im at
Ġme w
ic ably
Ġsu z
Ġcl ums
Ġun pl
Ġfl ags
sh ift
Ġel aina
Ġsur o
Ġcour thouse
Ġmor ph
Ġcons ist
Ġres idual
Ġreg ener
ik o
me eting
Ġadv ancing
Ġwindows ill
Ġexam ination
Ġjam mer
Ġvol upt
omb ies
Ġtips y
od or
Ġpaul ie
Ġdorm s
Ġdece iving
Ġintox icated
Ġspur red
Ġmant le
Ġconfron ting
Ġbluff ing
Ġeaves dropping
Ġportfol io
Ġuch ben
b ows
d ancer
t ons
Ġd elt
Ġp oof
Ġg urn
Ġle aps
Ġun thinkable
Ġde pl
Ġco cking
Ġpre f
Ġam atis
Ġhu gh
Ġimp ot
Ġexpl icit
Ġread just
Ġbusiness like
Ġburn er
Ġign ite
Ġru se
Ġbal m
ron os
car rie
Ġhea ly
Ġprop ortion
Ġentr anced
Ġtick s
Ġfer v
Ġliter al
Ġaffection ately
Ġdang le
Ġcommun icated
Ġapprop riately
Ġtoilet ries
Ġaggress ively
Ġdisag reed
Ġsympat hetically
Ġprow ling
Ġlan es
Ġgaw king
Ġelimin ated
Ġconflic ting
Ġding y
Ġmyri ad
b bles
b irth
f n
y lyn
Ġr ally
Ġli ons
Ġj umble
Ġj ensen
Ġso d
to ff
Ġno cturn
Ġsp ies
Ġsp its
Ġsm ugg
Ġar ctic
Ġgu ild
Ġdis arr
Ġho led
Ġsk int
Ġmar que
Ġwr inkling
Ġcr ashes
Ġtou gher
Ġent ity
ced ented
Ġeas es
Ġed mund
Ġev oked
Ġkitchen s
Ġav ylyn
Ġheav iness
Ġwish ful
Ġsol ie
Ġworth while
Ġstren gthened
Ġdetermined ly
Ġgas oline
Ġpier cings
Ġ2 2
bre aker
Ġpa ved
Ġsid ra
xy pher
Ġconce aling
Ġgossip ing
Ġet iquette
Ġhaw ks
Ġomin ously
Ġscient ific
Ġenh ance
Ġlantern s
Ġerupt s
Ġgil bert
reg ret
hib ited
e er
r and
t i
w orn
Ġt apes
it ative
Ġin put
Ġu riel
Ġk irsty
the tic
Ġsh ines
Ġkn if
un ci
art ane
ap id
Ġun to
ved ere
Ġqu ant
de fe
Ġpe aked
Ġrel oc
umb o
Ġgre ens
Ġshut tered
Ġbat on
lan na
Ġgent led
Ġmas tered
Ġkat agaria
Ġpresent ing
Ġdon or
Ġrob bery
Ġdecl aring
Ġant agon
Ġbehav iour
Ġdun no
Ġterrit orial
Ġhumili ate
Ġswell s
Ġwhim s
Ġlore tta
Ġelement ary
Ġhudd le
jay n
Ġrevol ution
cu pping
Ġrebell ious
Ġphill ips
leon ora
roph ob
Ġa the
Ġm ire
Ġto asted
al ix
all ison
Ġall ure
Ġman kind
Ġen su
Ġstar ters
Ġnight fall
ty pical
Ġhelp fully
uc a
Ġton ic
Ġswe ars
Ġsoft ens
ert ile
Ġz ac
Ġacc idents
Ġref re
Ġhar res
me al
Ġdu vet
res ley
Ġfle cks
con rad
ka ly
Ġpit ching
dr am
Ġdisplay s
Ġcustom ary
Ġmascul inity
Ġvast ly
Ġquarter back
Ġexhib ition
Ġstere oty
Ġscold ing
Ġinhab it
Ġrecess es
Ġpuls ating
Ġsuburb an
americ an
g athering
o om
o king
o ctavia
Ġt ic
Ġt resses
Ġb ombs
im i
Ġst ump
Ġst utter
Ġre fe
Ġsu zy
ag a
Ġex uded
Ġlo ins
Ġbr ag
Ġhead aches
ear a
Ġgl um
Ġwill ie
Ġass uring
Ġsoft est
Ġz ano
Ġhurt led
Ġbar rage
Ġlow e
jo fn
Ġreg ards
Ġlay out
Ġsub mer
Ġsusp ense
Ġclass mates
Ġfold ers
Ġwear iness
Ġrib cage
Ġpsy che
Ġnumb ly
Ġere cted
Ġmeaning fully
Ġinvestig ators
Ġtur tle
Ġstrip es
pre c
Ġreser ves
Ġbik es
Ġfel icity
Ġgrac iously
Ġrasp ing
Ġsmother ing
jac ob
Ġtelepath ically
fing ers
Ġambros ia
kaly na
o vers
he mer
Ġw ag
Ġf isher
Ġj um
Ġj aden
th ronos
Ġor acle
Ġother world
Ġpr ud
Ġim itation
Ġdis grace
Ġsk ot
Ġwar r
Ġmat te
mo del
Ġend uring
Ġcomp at
Ġlar son
Ġremind ers
iny l
Ġtown send
Ġwild est
ract ive
Ġblond ie
Ġpink y
Ġscar ves
Ġgroup ies
Ġinde finitely
Ġfang tasia
Ġcontract ions
Ġinit iated
hard er
Ġnin ja
Ġwhist les
mac on
Ġfond ness
Ġemp athy
Ġawak ening
Ġabsent minded
sleep ing
dim itri
Ġinconven ience
Ġspas med
Ġvert ical
Ġafghan istan
rele asing
Ġpenal ty
Ġsolic itor
Ġkinderg arten
Ġskint ight
d anie
l ips
Ġt umb
Ġw aded
Ġp ect
Ġy ay
Ġin door
Ġbe friend
Ġdo e
Ġj umbled
Ġj azz
th ood
ust rophob
Ġis la
Ġno is
be y
os er
Ġdes iderius
Ġlow ly
Ġmess es
light ning
Ġsear ches
su per
Ġcheck out
Ġur ban
Ġwild fire
Ġund ying
Ġcu be
Ġclut tered
Ġow ing
Ġjess amine
Ġ2 5
Ġmc coy
Ġthunder ous
Ġdial ing
Ġstern um
Ġcub icle
Ġmyster ies
Ġknight ly
Ġjudgment al
Ġmaneu vering
dist ance
Ġunpre cedented
Ġcres cent
Ġrecoll ection
threat ening
Ġslugg ish
Ġgnar led
Ġparch ment
occasion ally
Ġvolupt uous
b ac
e as
l ishing
p earl
s omeday
s ounding
Ġb rennan
Ġf ixture
Ġd inged
Ġd oused
Ġst out
ic ante
ad v
Ġj a
Ġout run
Ġup turned
Ġal an
Ġv u
Ġv essa
Ġtr ot
Ġover time
Ġco smo
Ġtw it
my les
Ġunder current
av age
Ġcur few
Ġair y
Ġres ili
Ġbur gl
Ġtruth ful
Ġgen evieve
Ġsal uted
wor ried
Ġpen c
Ġappreci atively
Ġeffort less
sl ave
ste in
Ġaud acity
Ġpad ding
iant ha
Ġjoy ous
Ġobject ions
Ġjour n
Ġbrill iance
Ġimpl ac
ett i
Ġtoler ance
Ġbloss oms
truth fully
Ġcunning ham
hung ry
kier sten
Ġbisc uits
veron ica
b rett
o des
u gs
re ls
Ġo y
Ġre iss
Ġsh ag
Ġex iting
Ġun hing
Ġun imag
Ġgot cha
Ġpe aches
Ġad onis
les h
Ġopen er
Ġimp aled
Ġbar be
Ġra ving
Ġdet roit
Ġcoff eep
Ġner d
Ġrep airs
Ġrep aired
Ġext racted
Ġmemor ial
off s
Ġaut ograph
Ġcow girl
Ġbrand ing
Ġnon commit
Ġplat onic
bar ry
orne ys
Ġrequire ments
Ġrecon n
cross ed
Ġhav ily
Ġinspect or
Ġapoll ite
quest ion
serge i
Ġindescri bable
h aling
z il
in f
Ġh inting
Ġf ane
Ġd um
Ġre lying
Ġfor fe
am ar
ri ens
Ġch ort
el f
Ġover protective
ell ar
Ġbl ot
ig ans
Ġdes olate
sp ace
Ġfin er
Ġcr ank
Ġper v
Ġatt orneys
Ġsle w
Ġbre eding
Ġhell uva
Ġbelie vable
jo ey
Ġdet ention
iff ed
Ġlim ply
Ġhost ing
Ġlin ens
Ġcarpet ed
Ġsab bath
Ġshay la
dev lin
bal t
Ġtransp ired
Ġquestioning ly
water ing
Ġdece ived
Ġnegot iating
Ġobsc ured
harr ison
Ġshal an
exc use
cour t
Ġoverre acting
Ġwhee zed
Ġrober ts
Ġmast urb
bour ne
Ġlew d
p ick
t ried
Ġs jofn
ed ged
Ġp av
Ġe w
Ġst aining
Ġj r
ab ol
Ġch ime
Ġal icante
Ġcl ipping
Ġcon ting
Ġde eds
ire na
Ġtake out
Ġam ara
sp encer
Ġbel ted
Ġfin esse
ep hy
bed room
cl oud
Ġinv al
br ant
Ġdel bert
Ġpret entious
Ġbes ee
Ġblue berry
Ġeasy going
Ġfem s
Ġrom anov
Ġtest imony
sm elling
Ġ2 3
Ġprec ip
Ġcircumst ance
Ġult ras
Ġbust led
Ġquir k
Ġhyp ot
Ġgargo yles
Ġtrau mat
Ġuncon vin
Ġdiver gent
Ġbland ly
Ġshaw l
Ġcath olic
embarr assed
Ġaval anche
Ġarsen al
Ġunab ashed
Ġtoen ails
o ots
w ashed
Ġb im
Ġd ild
Ġl enses
Ġre agan
ce pted
Ġch attered
Ġv ix
Ġcl amps
Ġsp ain
Ġse as
Ġun sus
Ġun worthy
we nd
Ġde ple
Ġmar ina
Ġkiss er
Ġlight headed
Ġed ible
Ġwin sol
Ġsing ular
Ġdirect ors
Ġvi able
Ġmass es
Ġagree able
Ġequ als
Ġol af
Ġpurpose ful
Ġpsych ological
ias co
Ġdomin ating
Ġunw itting
Ġrestr ict
Ġimpress ions
end ers
Ġadrian a
Ġtrait orous
Ġelement al
handed ly
Ġjoseph ina
Ġresour ce
Ġprinc iple
Ġmah indar
Ġsupreme ly
Ġsidel ong
Ġteet ering
Ġpros per
Ġsorcer i
shru gging
Ġcoffeep ot
b ol
k izzy
k aspar
s age
Ġo at
Ġf iasco
Ġc au
Ġn im
on al
Ġk asar
ic ol
all ied
Ġbut ts
and rus
Ġch ili
Ġal ine
Ġv inyl
Ġmo lec
Ġbo de
Ġsay lor
Ġsur m
Ġjo ck
Ġcle avage
Ġcour te
Ġhum mer
Ġmust y
Ġentire ty
Ġhar assing
Ġfast est
Ġsky lynn
ric ia
Ġval ues
Ġpet ers
Ġtest ify
Ġmart ial
dr unk
Ġoper ative
Ġwaitress es
Ġsoap y
Ġbuff alo
Ġslut ty
Ġwrigg le
smo ke
Ġcling y
Ġisol ation
Ġree ked
Ġhumid ity
Ġgret chen
Ġabund ance
Ġsurviv or
Ġmorg aine
adel ph
return ing
Ġcocon ut
heal thy
Ġferr ari
Ġsymph ony
1 5
b illy
c ory
l ahn
x ual
Ġw reat
Ġc owering
Ġn am
Ġon coming
Ġr ouse
Ġch asm
Ġv apor
Ġgr otes
Ġun holy
est eem
Ġpr isma
Ġcar la
Ġsur g
Ġwar ner
Ġmat s
Ġsat chel
Ġlight house
Ġrun away
Ġimp art
Ġz ombies
Ġcomp ressed
Ġless ened
bl ast
Ġcla ustrophob
Ġchick ens
Ġpsych ometry
nick amedes
Ġult imat
Ġunb orn
Ġrude ly
Ġsyn c
Ġglor iously
ari yal
Ġimpr int
Ġpudd ing
Ġcavern ous
Ġconqu ered
Ġtrau matic
Ġdol ph
Ġaggrav ated
Ġox ford
fre aking
Ġprescri ption
Ġcoloss al
Ġcatastrop he
t ipped
x x
y uri
Ġw aning
Ġb idd
Ġr usted
am jad
all i
Ġfr og
Ġey riens
Ġbl air
Ġco balt
Ġam ity
no ons
Ġhurt ling
Ġconf id
Ġfore front
Ġready ing
Ġlist ens
Ġpur ses
Ġhundred th
Ġcond uc
Ġcapt ors
Ġpolice man
Ġmagn itude
Ġvir ile
Ġbank er
Ġinterview ed
Ġregister ing
tin ent
Ġlia ison
list ening
Ġsnick er
scar let
Ġire land
Ġbridesmaid s
Ġreconc ile
pri v
Ġoverse as
Ġhellh ound
Ġcarr ots
Ġirrevoc ably
Ġregistr ation
Ġreynold s
Ġgurn ey
n ail
o gram
p un
Ġ nd
Ġt rench
Ġa venge
Ġh one
Ġm ons
Ġd ank
Ġd ived
Ġbe w
Ġe ard
am ong
Ġch af
Ġsm udge
Ġco er
Ġpo sh
dy ing
Ġmom s
Ġcar y
air os
ty pe
Ġear ring
Ġinst ig
Ġref rain
Ġmiss ions
Ġign iting
bl ind
Ġthick ening
Ġgun fire
Ġry ssa
Ġearth y
Ġflash y
Ġlad varian
Ġsne aked
call ister
sil ken
Ġshr inking
Ġpolit ician
Ġfurrow s
dis gust
child ren
Ġexcl usively
new t
Ġtether ed
Ġaftersh ave
condition ing
Ġclin ical
yell ow
ih il
Ġamate ur
adelph ia
1 4
d ancing
m ile
n uts
o bed
p al
Ġa version
Ġd ives
Ġin herent
le te
Ġwh iny
Ġch ang
Ġhand i
qu es
Ġgr ating
ine ering
Ġte nds
ber th
Ġsur p
Ġlight wood
co ffee
Ġres olute
Ġter rif
Ġjack al
Ġbag el
bl a
some body
Ġpick y
Ġball oons
Ġstret cher
Ġble ached
Ġmagic ian
Ġmil ky
Ġweak ening
Ġtow ed
Ġmis guided
Ġeight eenth
Ġalex is
rel ated
Ġfu zz
Ġhoo p
Ġfer ruccio
Ġban ked
Ġexpress ing
Ġscoot ing
Ġerr ant
Ġaltern ating
Ġjournal ist
Ġcompassion ate
Ġsail or
Ġreview ed
Ġconvul sing
Ġskit tish
Ġfen ella
jew ell
Ġstrateg ic
Ġperpet ual
Ġcrut ch
Ġphill ip
shir leen
Ġlifel ong
Ġmyr tle
d les
f ires
j un
k icking
p ausing
t it
Ġm ounds
Ġi ve
Ġf umble
Ġn abbed
Ġn ieces
Ġl anna
Ġp and
Ġp ablo
Ġin fr
st aking
Ġwh ores
Ġfor ked
ur als
Ġro iling
Ġbr as
Ġgr ieve
Ġun blinking
Ġlet har
Ġcar rier
Ġam iss
sh aw
Ġstay ner
Ġbus ied
Ġtri ad
Ġfoot prints
Ġda unting
Ġsy nd
Ġopp onents
Ġgar ter
ann ounced
Ġdom ination
Ġmemor able
Ġsuper man
Ġhorse back
Ġvictor ious
Ġexh aling
max im
Ġameric ans
Ġamb ass
Ġkim i
Ġattend ants
Ġhook er
Ġrust led
Ġtrem ulous
hh h
Ġrequire ment
dri ving
Ġlec k
Ġincap ac
Ġaz mah
Ġconsult ant
Ġll ison
Ġharb ored
Ġbask ets
Ġimperson al
Ġgull ible
Ġtourn ament
e au
l ola
m id
m ith
p ieces
Ġf use
Ġp ont
st uff
ur ances
ab ilities
Ġch ival
ul es
Ġhow e
Ġgl owering
ol ent
Ġafter noons
Ġho nda
Ġfin ance
ens on
uc c
Ġrel ayed
Ġang ular
Ġz ig
after noon
Ġcoll iding
Ġhar sher
Ġdar la
ster n
Ġbrown ies
Ġfil ms
Ġphys ics
Ġpot ted
antic ip
Ġvar ying
Ġviv idly
Ġholl ows
cons ider
Ġfashion able
Ġder ision
Ġunivers al
Ġvit am
Ġupd ates
mart in
Ġdetect ives
Ġmonit oring
Ġpurr s
Ġtreas ures
Ġsew ing
Ġot tom
Ġincess ant
Ġprover b
Ġdelt a
Ġdisarr ay
Ġhandi work
i age
s omet
ou st
Ġto bac
er ina
Ġc ower
Ġd ali
Ġg ait
Ġbe gs
im os
ver a
ro ads
Ġkn itting
Ġal ix
Ġtr ink
Ġlo ll
Ġro ving
Ġmo hab
Ġfl air
Ġfl ops
Ġqu art
Ġsc atter
Ġpro vin
Ġad apt
for give
ately n
Ġcut est
Ġtre ading
Ġpur ity
Ġsub s
Ġtu ition
Ġconversation al
Ġeng raved
Ġnarrow ly
Ġmis placed
Ġbrown ie
Ġattack ers
Ġsoc ially
Ġconc ub
Ġcontract or
Ġvin cenzo
Ġorgan ic
Ġintention al
Ġbart on
Ġlore nzo
Ġcrit icism
sav itar
Ġclare mont
Ġasce nder
Ġduff le
Ġcarn age
Ġtread mill
Ġinfin ity
stu art
Ġegypt ian
Ġinhib itions
capt ain
Ġresili ent
Ġeard rum
p ool
Ġ %
Ġ <
in ery
Ġs ift
Ġn oose
on ne
Ġme mo
Ġre cy
Ġback door
un tle
Ġdown hill
Ġbl ithe
Ġbr ack
Ġsm udged
Ġun earth
Ġun guarded
Ġfl ailed
Ġaf for
Ġpr ices
Ġcall agan
Ġeas ter
Ġres ched
Ġdist ribut
Ġtri als
com es
old s
Ġring ed
Ġcock tails
Ġsharp ening
Ġpink ie
Ġmort on
Ġcash ier
Ġhol brook
Ġlust y
Ġrese mble
Ġorgan izing
Ġclient ele
mark et
through out
Ġfel ipe
Ġqual ify
Ġcoward ly
Ġemphas ize
Ġintru ded
Ġenvelop es
Ġpassage way
Ġhorm onal
Ġyouth ful
Ġdict ated
Ġthorn s
Ġhalluc ination
Ġhistor ic
Ġorche stra
Ġreno v
Ġou i
Ġattach ment
Ġrober to
Ġincar cer
Ġtig ers
wend olyn
Ġgrotes que
b read
g asping
l iest
s ons
u gging
w ina
is iac
or th
ic iently
ur red
to by
Ġsu icidal
Ġgr aces
Ġwill y
Ġmar s
sp ective
Ġapp ar
Ġcr ate
pr ince
Ġz ageo
Ġheav es
Ġfast ening
tom my
Ġopp ressive
Ġden nis
sel ena
Ġann ihil
Ġbull s
Ġbell amy
Ġport ray
Ġdon ate
Ġdon ation
Ġgreet ings
Ġsour ly
Ġbudd ing
Ġjol ting
Ġais les
Ġphil adelphia
Ġdece ased
Ġtrait ors
Ġwreck age
Ġens ued
Ġvom iting
Ġfuss ed
Ġreapp ear
Ġener go
Ġinfat uation
Ġpetul ant
hens ible
Ġchagr in
Ġrodri go
Ġhorizont al
Ġced ar
Ġathe ne
hemer al
b uddy
c os
d ru
l aden
s ens
Ġs ill
Ġc uss
she e
Ġup scale
ome ver
Ġsu ede
Ġro oting
Ġun used
Ġco gn
Ġsl ob
Ġbed post
az oned
Ġbel vedere
Ġwr oth
Ġsat an
lo cking
Ġblood shed
Ġblood suck
Ġbar red
Ġed inger
where ver
Ġtre ason
Ġstra ppy
Ġfire bird
ik y
Ġbroken ly
Ġdom ineering
Ġheal ers
Ġscar ier
Ġviol a
Ġpor k
Ġinvest ors
Ġexam s
Ġneighb oring
Ġstrang ling
Ġgoddess es
Ġfol iage
Ġseason s
Ġprofess ors
Ġintru ding
Ġdisgu ised
Ġexhib it
Ġmarking s
syl vania
Ġprolong ed
Ġaphrod isiac
Ġquizz ical
Ġprecar iously
Ġmillenn ia
Ġphenomen al
Ġraf ael
Ġbere ft
Ġmcl achlan
Ġpref ers
1 7
c led
e xt
g ul
g ah
j ured
m ated
p ale
s now
Ġm oping
re id
Ġd c
Ġp au
or ating
Ġst agger
Ġst ooped
Ġmy ra
Ġk el
ic hed
Ġwh ichever
the d
Ġsh im
Ġne mes
Ġout we
Ġch ron
el in
fe b
Ġwo nd
ru le
Ġpast ries
Ġwall ow
Ġev ol
Ġres et
Ġtre ndy
Ġspo iling
Ġrep rod
Ġstreet lights
Ġble ach
Ġpul p
Ġut ility
Ġaunt s
Ġvol ition
Ġrum ored
Ġstir s
anna lynn
Ġunw ind
Ġrot ated
wes tern
Ġcudd les
Ġpanc ake
Ġfet ish
Ġdus ky
answ er
Ġpenn sylvania
Ġsensit ivity
Ġexting uished
Ġbam bi
Ġseren ity
writ ten
Ġsurreptit iously
Ġearthqu ake
Ġgogg les
Ġforc ibly
Ġplumb ing
Ġjourn als
Ġunsus pecting
Ġtobac co
e h
l ot
t aker
Ġ. .
Ġd air
Ġp aternity
oo ks
Ġsh abby
ch ain
Ġno la
Ġcl ash
Ġcl ashed
Ġsp hin
Ġsp urt
Ġro asted
are th
op er
Ġun rest
Ġun announced
Ġfl akes
Ġfl apped
Ġright ful
ment ally
Ġwell s
Ġsk ul
Ġcr ay
Ġatt uned
Ġend ang
ater al
Ġclos ets
Ġfoll owers
Ġev ac
Ġcol umb
Ġcol onel
Ġfun n
Ġins cri
oun cing
Ġdream scape
Ġmut il
Ġrep ressed
ex ha
Ġadv ant
Ġpush y
Ġtrave lled
Ġsin ew
Ġconfir ms
Ġbone less
sim i
Ġobs essing
ixt ies
Ġstunning ly
Ġquir ks
quar ium
Ġmour ned
Ġwrigg ling
Ġcob webs
Ġdimin ished
Ġmish ka
Ġinnue ndo
Ġdatab ase
Ġwond rous
1 3
l ane
l izz
Ġt ally
Ġb om
Ġb orne
ot hing
Ġst aked
Ġme ow
Ġk ern
Ġr g
Ġsa p
Ġab hor
Ġab bey
ab sor
Ġcl ucked
Ġgr u
Ġfl it
Ġpo sse
Ġbefore hand
em ption
ort ak
Ġnight time
Ġtal ons
az y
Ġem ber
Ġopen mouthed
cl aude
ash ton
Ġdam ning
Ġworld wide
bo ld
gr itting
Ġinc ons
Ġlu ce
Ġlie ge
Ġbook case
Ġdest ructive
ars ity
Ġash tray
str ings
Ġkey pad
car lo
Ġbuck ets
Ġtit ian
Ġwis ps
Ġaccess ories
Ġspect rum
li hood
Ġaccompl ishment
Ġcheese bur
Ġfrost y
dou gal
Ġpuzzle ment
strange ly
Ġspont aneously
Ġaur as
jill ian
Ġmarvel ous
Ġome let
Ġinject ion
Ġunfor g
Ġener get
Ġprecar ious
Ġrhe tor
2 0
c aut
l ately
p ered
t uce
Ġs ic
Ġb anned
an as
Ġwh omever
Ġre vers
Ġv ene
Ġcl ips
Ġover bearing
Ġsp iky
Ġhead line
Ġte ac
pl ant
Ġper d
ib i
ib u
Ġz innia
Ġbar r
Ġcomp ass
Ġmust apha
br aska
any time
Ġign ites
Ġav id
Ġann ith
Ġbuy er
Ġsin fully
Ġcloud ing
Ġprincess es
Ġdamp ened
Ġwicked ness
Ġgall op
Ġrust ic
Ġvolunte ers
Ġinqu iry
Ġyog urt
Ġprivile ged
Ġcad ence
Ġwhoo shed
Ġugl iness
Ġprel imin
deb bie
Ġsatell ite
Ġadvant ages
lizz ie
s idra
t ar
w iping
Ġw ench
Ġm callister
Ġl inda
es c
ot hed
ut ing
Ġli lies
ill ac
Ġch ucked
Ġcl asps
ul ed
Ġgr ime
Ġun cover
Ġlook out
ne fri
Ġcame o
Ġbre ached
Ġquick ening
Ġfall out
Ġrepl ica
bl azoned
Ġrec re
Ġprotect iveness
Ġmer chand
Ġmil king
Ġbill ions
Ġbell ow
Ġren ting
Ġhill side
inc red
Ġpled ged
Ġcad illac
Ġdissip ate
Ġcove ted
Ġjeopard ize
expl ain
Ġoverst uffed
ghe ned
Ġpoign ant
Ġnecr om
Ġseaf ood
2 4
o lf
w ent
Ġm oth
Ġhe ctic
Ġc ull
Ġc pd
Ġd ix
Ġg im
Ġk idd
se ated
Ġj az
Ġfr azzled
ch airs
Ġal as
our age
Ġbl acked
Ġar um
Ġpro dding
Ġcar ve
sh ire
Ġpe ppers
Ġwait in
Ġad ul
Ġcle o
Ġpain staking
Ġmor sel
Ġbar it
Ġint oned
Ġsqu ashed
Ġshit ting
Ġpick le
arr in
Ġclass ified
Ġlock ers
Ġpet ition
Ġsmart ass
Ġah h
Ġdon ated
Ġmoon lit
Ġant ib
Ġnud ges
Ġbrut ality
Ġspat ula
Ġskill et
grand mother
Ġbarg aining
Ġkrist ina
Ġprow ess
Ġseam s
Ġfrig gin
Ġhott ie
Ġconver se
pen ny
Ġstrateg ically
Ġstim ulating
Ġunden iably
Ġmau reen
Ġafric an
Ġunfor giving
Ġorchestr ated
hist ory
Ġultras ound
Ġshim my
f ro
n osis
o ire
Ġa quarium
Ġi l
Ġto mm
Ġl uthvian
or able
ar is
Ġst a
Ġk ah
ic uous
ke w
Ġj in
Ġj ahn
ie re
Ġsp uttering
Ġgr is
Ġde ja
Ġcar michael
Ġafter life
sh i
Ġhair ed
Ġcur ts
ner y
Ġdec isive
Ġpar ap
Ġhar vey
Ġnorm an
mar ks
Ġver ify
Ġgener ated
Ġport als
Ġadmitted ly
Ġnur t
Ġinf le
Ġlab els
Ġirrit ate
Ġhoo ps
Ġrese arching
ole um
Ġaltern ately
Ġshore line
nes ia
Ġpurch ases
fold ing
Ġkhak is
Ġrepul sive
Ġshapeshif ter
Ġmargar ita
Ġnemes is
Ġtomm aso
b ags
b ishop
f led
f let
g lo
Ġh oof
Ġb ff
Ġc uc
Ġn our
Ġg wendolyn
im a
Ġr oo
al ison
Ġne braska
ess or
Ġsl ug
Ġsl avery
Ġman ila
Ġbed spread
ne ys
Ġcont acting
Ġel ven
Ġfing ering
Ġwr ing
ool ittle
ib al
ater nal
Ġsor a
Ġacc ents
Ġchar ger
ph oebe
Ġes p
Ġrec ited
Ġemb ers
Ġmal ibu
Ġlab ia
Ġhen ce
Ġlust ful
Ġsettle ment
Ġpunish ments
Ġclock work
Ġeyel iner
Ġglit tery
Ġnu ance
Ġveget arian
Ġglee fully
Ġmicro sc
Ġsteph an
Ġdefle ct
mun ition
Ġprecaut ions
Ġscelt ie
cru ise
Ġcomed y
sent ence
Ġoat meal
f ired
h m
j orie
k izira
Ġt ens
Ġw ont
Ġh ight
Ġh ipp
Ġl att
Ġr v
Ġas ap
Ġli lin
Ġcl attering
Ġover board
Ġtim er
Ġmo cha
Ġar is
Ġar ron
Ġfl am
Ġqu ivers
Ġqu otes
Ġlet tuce
Ġop aque
Ġfin ances
Ġcare ers
mo ved
Ġflo pping
Ġdam aging
Ġred uce
Ġprom pting
Ġbur ge
Ġdet ach
Ġschool girl
use ment
light ly
ann on
Ġcoo ks
Ġhosp itals
Ġrain y
Ġthin ning
Ġdig est
Ġspell ing
Ġfa wn
Ġaffect s
Ġshel by
sim ply
Ġclar ke
Ġcontr ite
Ġlin oleum
Ġandre as
cur iosity
Ġsher ridan
Ġbol ting
Ġcongrat ulate
Ġelliot t
Ġga untle
Ġinqu iring
Ġreun ited
Ġrin sing
Ġmant ra
Ġcul inary
Ġench ant
Ġoptim ism
Ġrac er
Ġperipher y
Ġrepul sed
Ġloaf ers
Ġgerm any
d ale
e ager
m imi
Ġ ]
Ġw ann
Ġf aze
Ġc ows
is la
Ġv arsity
Ġover take
Ġun kind
Ġsl avers
Ġpo etic
Ġpro cl
Ġgu ff
ol onia
Ġcar pent
Ġam munition
Ġsw itches
Ġke aton
Ġhell e
Ġbab bled
Ġaw ait
Ġres ounding
Ġres ulting
Ġdist antly
Ġtri but
Ġjump y
Ġdesk top
Ġmer ged
Ġmed dling
Ġnor se
Ġallow ance
lec ie
Ġmaj ik
Ġsnar ls
po ster
kn eeling
add ison
Ġregular s
Ġpage ant
Ġfurrow ing
Ġmechan ic
Ġflav ors
dem and
Ġescal ating
ez rina
Ġrepresent ative
Ġcate rer
Ġpum m
Ġgoth ic
Ġdiplom atic
chand ler
Ġeug ene
Ġeub anks
Ġbarit one
b orne
c ou
m ach
m uttering
t aken
w ish
Ġh umbled
Ġi ck
Ġf ou
Ġd ale
th row
Ġno nd
ell ine
Ġbl ared
Ġbr agging
Ġun ce
Ġmo vin
Ġsc oops
Ġwal sh
Ġpe g
Ġnew er
Ġent ourage
Ġblood thirsty
aut om
Ġty e
Ġcat ap
Ġfre ight
oh ar
Ġsear s
Ġmas quer
Ġill icit
cher s
Ġflash back
rem ind
Ġadam antly
Ġprefer ably
Ġwitch craft
Ġspr inting
Ġpad dy
Ġvac ations
Ġtur b
Ġetern ally
Ġdism al
Ġhuff s
ett es
Ġflower y
Ġpuff ing
Ġchann eling
Ġindul gence
Ġlil ac
Ġcer amic
Ġsche mes
mara is
Ġfen ris
Ġsubd ue
Ġdouche bag
Ġasse mb
Ġexhilar ation
Ġdimin ish
straight ening
Ġinconven ient
Ġconco ction
Ġprecaut ion
Ġchees ec
Ġantiqu ities
Ġretali ation
h ated
u per
Ġt and
Ġhe inous
is ance
Ġin forming
ac re
Ġst ings
ur sion
Ġsh aping
Ġsa kes
ro de
ter min
Ġdown s
Ġtim bre
Ġgu es
Ġbed ded
az el
Ġwr ight
Ġmat hes
Ġlight weight
cl enching
Ġret ained
Ġcons ciously
Ġsch on
Ġhon ors
Ġdeath ly
Ġsad dened
Ġsett ee
Ġpocket ed
Ġadm irable
under neath
Ġrespect fully
Ġhy de
Ġguilt ily
Ġexte nds
Ġcrew s
Ġunlo cking
add led
Ġing rained
Ġsacrif icing
met al
Ġrust anov
Ġgul ps
Ġrat ty
Ġreb elled
Ġvirt ual
Ġalle ged
Ġaccusing ly
sher ry
ffe es
Ġapplic ations
valent ina
Ġunpack ing
Ġscrutin ized
Ġtresp assing
stre aked
Ġacquis ition
Ġfertil ity
Ġinade quate
dal ene
Ġferv ently
Ġhelle quin
f ant
f allen
j em
m ast
p assion
Ġn aming
ly dia
Ġst oned
Ġst ellar
Ġr anger
Ġre ceding
am i
ag yi
Ġany ways
Ġgr aff
ine ment
ire ne
Ġpro c
Ġho bbled
per se
Ġad s
Ġbit ching
Ġdam sel
Ġcor on
Ġsqu el
Ġcam i
Ġorder ly
Ġeyeb alls
Ġclean up
Ġver anda
Ġmid section
Ġstiff ness
Ġest r
Ġsir i
Ġstal ks
Ġissu ing
Ġcompet itors
Ġunb al
Ġep hemeral
Ġly cc
Ġgentleman ly
Ġjan et
sus ie
fig ure
Ġfare ed
Ġath lete
jac ent
Ġroy ally
Ġkal il
Ġnegle ct
claud ia
aza ar
Ġfirefight er
amb rose
saint crow
Ġpomp ous
osc ope
Ġsubsequ ent
Ġyor kshire
Ġottom an
f lesh
n ike
n ora
y ana
he ath
Ġc atherine
Ġth ug
it udes
Ġin ked
Ġk ateri
Ġre ferences
Ġsh ipping
Ġfr illy
Ġlike lihood
Ġeyes ight
Ġun she
Ġsc aled
Ġstill ing
Ġem blazoned
ber ty
Ġjo ints
Ġcr ane
ret te
Ġang elline
ung ent
Ġsim mer
after s
Ġcal ories
Ġins ensitive
Ġfinger prints
Ġbuild s
Ġhon ky
Ġhang ers
ric ting
Ġmer cer
mar ried
Ġtear y
tr ained
Ġpossess ing
Ġremo del
Ġdon key
Ġ2 00
Ġdecor ative
Ġliter ature
Ġprick les
Ġsunday s
Ġvom ited
Ġstee le
Ġprem ature
Ġjuliet te
Ġcontribut e
Ġbush y
Ġdiag nosed
chuck ling
Ġassemb ly
c ling
j aelyn
he ar
Ġn ast
ll ida
Ġbe a
et ary
se vent
Ġas kew
Ġsh iori
Ġj p
Ġso ar
Ġback handed
Ġcl inking
Ġgr aced
Ġco ffees
Ġsl aver
Ġhow ls
Ġcar cass
ah a
Ġsw agger
Ġel vis
Ġsto ked
Ġmor rison
Ġcomp ul
Ġwrong ed
Ġhit ching
br idget
Ġsweet cheeks
Ġinter cepted
Ġdead pan
ze us
Ġeff ing
Ġspec ulative
wor ked
Ġlap se
Ġcab ins
mar i
Ġpu berty
Ġblond es
Ġfly er
Ġmale volent
Ġdiscuss ions
Ġkick ass
Ġimm unity
Ġprocess ion
Ġren ew
Ġjulian ne
Ġtar gon
Ġworks hop
Ġholl owed
Ġconc ier
sil ent
Ġcro iss
Ġrever ted
Ġnin th
har ry
Ġscout s
bu ilt
Ġwither ed
Ġindign antly
Ġshoo ed
Ġaggrav ating
Ġwagg led
Ġmarshmall ows
Ġmiscar riage
Ġjit tery
Ġnewcom er
Ġproverb ial
m ick
Ġo st
as ters
it ory
st ret
Ġst inking
Ġj b
Ġv on
Ġv and
Ġman hand
Ġexp end
ff ect
Ġcar ted
Ġfin als
Ġconf isc
Ġmust ard
la ved
erm aid
Ġbas king
Ġcru iser
Ġfle et
Ġut ens
Ġpresent able
Ġadam s
Ġinf ir
Ġtun a
Ġsolid ly
Ġmach inery
Ġban king
Ġmc gregor
Ġing en
Ġlawn s
Ġfunction al
Ġmocking ly
Ġinitial s
dor othea
Ġstan hope
Ġepis odes
tot al
hundred s
[...]
