{
  "version": "1.0",
  "truncation": null,
  "padding": null,
  "added_tokens": [
    {
      "id": 0,
      "content": "[PAD]",
      "single_word": false,
      "lstrip": false,
      "rstrip": false,
      "normalized": false,
      "special": true
    },
    {
      "id": 1,
      "content": "[UNK]",
      "single_word": false,
      "lstrip": false,
      "rstrip": false,
      "normalized": false,
      "special": true
    },
    {
      "id": 2,
      "content": "[CLS]",
      "single_word": false,
      "lstrip": false,
      "rstrip": false,
      "normalized": false,
      "special": true
    },
    {
      "id": 3,
      "content": "[SEP]",
      "single_word": false,
      "lstrip": false,
      "rstrip": false,
      "normalized": false,
      "special": true
    },
    {
      "id": 4,
      "content": "[MASK]",
      "single_word": false,
      "lstrip": false,
      "rstrip": false,
      "normalized": false,
      "special": true
    }
  ],
  "normalizer": {
    "type": "BertNormalizer",
    "clean_text": true,
    "handle_chinese_chars": true,
    "strip_accents": null,
    "lowercase": true
  },
  "pre_tokenizer": {
    "type": "BertPreTokenizer"
  },
  "post_processor": {
    "type": "TemplateProcessing",
    "single": [
      {
        "SpecialToken": {
          "id": "[CLS]",
          "type_id": 0
        }
      },
      {
        "Sequence": {
          "id": "A",
          "type_id": 0
        }
      },
      {
        "SpecialToken": {
          "id": "[SEP]",
          "type_id": 0
        }
      }
    ],
    "pair": [
      {
        "SpecialToken": {
          "id": "[CLS]",
          "type_id": 0
        }
      },
      {
        "Sequence": {
          "id": "A",
          "type_id": 0
        }
      },
      {
        "SpecialToken": {
          "id": "[SEP]",
          "type_id": 0
        }
      },
      {
        "Sequence": {
          "id": "B",
          "type_id": 1
        }
      },
      {
        "SpecialToken": {
          "id": "[SEP]",
          "type_id": 1
        }
      }
    ],
    "special_tokens": {
      "[CLS]": {
        "id": "[CLS]",
        "ids": [
          2
        ],
        "tokens": [
          "[CLS]"
        ]
      },
      "[SEP]": {
        "id": "[SEP]",
        "ids": [
          3
        ],
        "tokens": [
          "[SEP]"
        ]
      }
    }
  },
  "decoder": {
    "type": "WordPiece",
    "prefix": "##",
    "cleanup": true
  },
  "model": {
    "type": "WordPiece",
    "unk_token": "[UNK]",
    "continuing_subword_prefix": "##",
    "max_input_chars_per_word": 100,
    "vocab": {
      "[PAD]": 0,
      "[UNK]": 1,
      "[CLS]": 2,
      "[SEP]": 3,
      "[MASK]": 4,
      "!": 5,
      "#": 6,
      "$": 7,
      "%": 8,
      "&": 9,
      "'": 10,
      "(": 11,
      ")": 12,
      "*": 13,
      "+": 14,
      ",": 15,
      "-": 16,
      ".": 17,
      "/": 18,
      "0": 19,
      "1": 20,
      "2": 21,
      "3": 22,
      "4": 23,
      "5": 24,
      "6": 25,
      "7": 26,
      "8": 27,
      "9": 28,
      ":": 29,
      ";": 30,
      "<": 31,
      "=": 32,
      ">": 33,
      "?": 34,
      "@": 35,
      "[": 36,
      "\\": 37,
      "]": 38,
      "^": 39,
      "_": 40,
      "`": 41,
      "a": 42,
      "b": 43,
      "c": 44,
      "d": 45,
      "e": 46,
      "f": 47,
      "g": 48,
      "h": 49,
      "i": 50,
      "j": 51,
      "k": 52,
      "l": 53,
      "m": 54,
      "n": 55,
      "o": 56,
      "p": 57,
      "q": 58,
      "r": 59,
      "s": 60,
      "t": 61,
      "u": 62,
      "v": 63,
      "w": 64,
      "x": 65,
      "y": 66,
      "z": 67,
      "{": 68,
      "|": 69,
      "}": 70,
      "~": 71,
      "##u": 72,
      "##e": 73,
      "##s": 74,
      "##t": 75,
      "##i": 76,
      "##m": 77,
      "##a": 78,
      "##h": 79,
      "##o": 80,
      "##v": 81,
      "##r": 82,
      "##l": 83,
      "##d": 84,
      "##n": 85,
      "##f": 86,
      "##y": 87,
      "##w": 88,
      "##z": 89,
      "##g": 90,
      "##c": 91,
      "##b": 92,
      "##p": 93,
      "##k": 94,
      "##q": 95,
      "##x": 96,
      "##j": 97,
      "##4": 98,
      "##3": 99,
      "##0": 100,
      "##7": 101,
      "##5": 102,
      "##1": 103,
      "##9": 104,
      "##2": 105,
      "##8": 106,
      "##6": 107,
      "##he": 108,
      "##in": 109,
      "##er": 110,
      "the": 111,
      "##ed": 112,
      "##ou": 113,
      "##nd": 114,
      "##ing": 115,
      "to": 116,
      "##at": 117,
      "##re": 118,
      "##is": 119,
      "th": 120,
      "he": 121,
      "and": 122,
      "##as": 123,
      "##en": 124,
      "##an": 125,
      "##ll": 126,
      "##on": 127,
      "##or": 128,
      "##ar": 129,
      "##es": 130,
      "her": 131,
      "in": 132,
      "##it": 133,
      "you": 134,
      "of": 135,
      "ha": 136,
      "##om": 137,
      "be": 138,
      "she": 139,
      "##ow": 140,
      "was": 141,
      "##ut": 142,
      "##id": 143,
      "his": 144,
      "it": 145,
      "##ot": 146,
      "##ld": 147,
      "##le": 148,
      "##ac": 149,
      "##gh": 150,
      "on": 151,
      "##et": 152,
      "##im": 153,
      "that": 154,
      "st": 155,
      "my": 156,
      "##ly": 157,
      "##ay": 158,
      "me": 159,
      "##ve": 160,
      "##st": 161,
      "wh": 162,
      "as": 163,
      "re": 164,
      "##ic": 165,
      "##ver": 166,
      "##se": 167,
      "##ad": 168,
      "##ould": 169,
      "##ght": 170,
      "##ith": 171,
      "##oo": 172,
      "with": 173,
      "##al": 174,
      "for": 175,
      "do": 176,
      "##ur": 177,
      "##ke": 178,
      "li": 179,
      "him": 180,
      "##ir": 181,
      "had": 182,
      "sh": 183,
      "at": 184,
      "an": 185,
      "##ent": 186,
      "but": 187,
      "##ee": 188,
      "##am": 189,
      "##ion": 190,
      "##all": 191,
      "##her": 192,
      "##ked": 193,
      "##ight": 194,
      "fr": 195,
      "so": 196,
      "we": 197,
      "##ant": 198,
      "ne": 199,
      "not": 200,
      "##pp": 201,
      "##ter": 202,
      "sa": 203,
      "##ack": 204,
      "kn": 205,
      "##ro": 206,
      "##hing": 207,
      "##ain": 208,
      "what": 209,
      "out": 210,
      "##ore": 211,
      "##out": 212,
      "up": 213,
      "##ce": 214,
      "whe": 215,
      "did": 216,
      "##ust": 217,
      "##il": 218,
      "##ill": 219,
      "have": 220,
      "##rou": 221,
      "go": 222,
      "##ch": 223,
      "no": 224,
      "this": 225,
      "##ome": 226,
      "##ie": 227,
      "is": 228,
      "ab": 229,
      "##king": 230,
      "could": 231,
      "ch": 232,
      "##us": 233,
      "##one": 234,
      "le": 235,
      "said": 236,
      "##ra": 237,
      "##ec": 238,
      "back": 239,
      "from": 240,
      "##ard": 241,
      "##ri": 242,
      "would": 243,
      "loo": 244,
      "int": 245,
      "all": 246,
      "##hed": 247,
      "su": 248,
      "##ted": 249,
      "like": 250,
      "if": 251,
      "al": 252,
      "##ind": 253,
      "##ere": 254,
      "want": 255,
      "##own": 256,
      "when": 257,
      "cl": 258,
      "they": 259,
      "ag": 260,
      "##au": 261,
      "##ess": 262,
      "just": 263,
      "##el": 264,
      "hand": 265,
      "were": 266,
      "##un": 267,
      "##ss": 268,
      "into": 269,
      "one": 270,
      "about": 271,
      "##ab": 272,
      "##ake": 273,
      "know": 274,
      "wor": 275,
      "##ood": 276,
      "##ace": 277,
      "ex": 278,
      "##ag": 279,
      "##ally": 280,
      "##ry": 281,
      "con": 282,
      "##ide": 283,
      "##ast": 284,
      "there": 285,
      "over": 286,
      "ey": 287,
      "lo": 288,
      "##est": 289,
      "your": 290,
      "##ck": 291,
      "##art": 292,
      "sp": 293,
      "te": 294,
      "then": 295,
      "any": 296,
      "##way": 297,
      "ro": 298,
      "get": 299,
      "been": 300,
      "ever": 301,
      "##ven": 302,
      "bl": 303,
      "again": 304,
      "##ul": 305,
      "see": 306,
      "down": 307,
      "##ers": 308,
      "##lf": 309,
      "tim": 310,
      "or": 311,
      "##ate": 312,
      "##ong": 313,
      "too": 314,
      "sm": 315,
      "##and": 316,
      "co": 317,
      "##um": 318,
      "eyes": 319,
      "un": 320,
      "se": 321,
      "de": 322,
      "them": 323,
      "mo": 324,
      "##are": 325,
      "##op": 326,
      "off": 327,
      "pl": 328,
      "br": 329,
      "are": 330,
      "how": 331,
      "thou": 332,
      "##ist": 333,
      "en": 334,
      "##round": 335,
      "bo": 336,
      "##ice": 337,
      "##if": 338,
      "time": 339,
      "who": 340,
      "head": 341,
      "##ame": 342,
      "##ink": 343,
      "##urn": 344,
      "ar": 345,
      "some": 346,
      "##ew": 347,
      "##ting": 348,
      "##ous": 349,
      "##ull": 350,
      "now": 351,
      "##ig": 352,
      "##pped": 353,
      "more": 354,
      "##ine": 355,
      "##other": 356,
      "sl": 357,
      "com": 358,
      "##ation": 359,
      "##ap": 360,
      "##sed": 361,
      "even": 362,
      "##ive": 363,
      "##self": 364,
      "fl": 365,
      "ac": 366,
      "than": 367,
      "man": 368,
      "##ved": 369,
      "##fore": 370,
      "going": 371,
      "##ick": 372,
      "##ge": 373,
      "every": 374,
      "way": 375,
      "before": 376,
      "##ile": 377,
      "qu": 378,
      "around": 379,
      "gr": 380,
      "##led": 381,
      "by": 382,
      "po": 383,
      "##nder": 384,
      "##ving": 385,
      "tr": 386,
      "bec": 387,
      "##ak": 388,
      "can": 389,
      "af": 390,
      "need": 391,
      "sc": 392,
      "ll": 393,
      "pre": 394,
      "tw": 395,
      "say": 396,
      "##ound": 397,
      "##ps": 398,
      "##reat": 399,
      "##ther": 400,
      "right": 401,
      "##ire": 402,
      "##ade": 403,
      "##th": 404,
      "##dd": 405,
      "##eel": 406,
      "##ear": 407,
      "let": 408,
      "som": 409,
      "##ause": 410,
      "##ure": 411,
      "here": 412,
      "think": 413,
      "somet": 414,
      "##thing": 415,
      "should": 416,
      "ve": 417,
      "feel": 418,
      "look": 419,
      "gl": 420,
      "only": 421,
      "turn": 422,
      "never": 423,
      "##our": 424,
      "##rough": 425,
      "##ort": 426,
      "through": 427,
      "sw": 428,
      "##ered": 429,
      "##ft": 430,
      "thought": 431,
      "thing": 432,
      "us": 433,
      "face": 434,
      "looked": 435,
      "pro": 436,
      "other": 437,
      "away": 438,
      "because": 439,
      "##pt": 440,
      "##eep": 441,
      "che": 442,
      "clo": 443,
      "good": 444,
      "bet": 445,
      "pr": 446,
      "something": 447,
      "after": 448,
      "will": 449,
      "##act": 450,
      "still": 451,
      "##ue": 452,
      "##ite": 453,
      "##dy": 454,
      "##tle": 455,
      "##ened": 456,
      "mu": 457,
      "exp": 458,
      "their": 459,
      "door": 460,
      "##ect": 461,
      "wa": 462,
      "##ell": 463,
      "knew": 464,
      "wanted": 465,
      "why": 466,
      "arm": 467,
      "made": 468,
      "got": 469,
      "gu": 470,
      "long": 471,
      "##aking": 472,
      "##fe": 473,
      "##iz": 474,
      "tell": 475,
      "##ward": 476,
      "##ched": 477,
      "##iss": 478,
      "##able": 479,
      "asked": 480,
      "##ass": 481,
      "##ave": 482,
      "much": 483,
      "im": 484,
      "##em": 485,
      "##ated": 486,
      "##ach": 487,
      "star": 488,
      "make": 489,
      "wat": 490,
      "ho": 491,
      "hands": 492,
      "##ang": 493,
      "am": 494,
      "pull": 495,
      "lit": 496,
      "##ff": 497,
      "room": 498,
      "take": 499,
      "##ious": 500,
      "##ble": 501,
      "car": 502,
      "##elt": 503,
      "##ip": 504,
      "op": 505,
      "##ady": 506,
      "##ity": 507,
      "ca": 508,
      "mom": 509,
      "happ": 510,
      "call": 511,
      "##ance": 512,
      "##wn": 513,
      "where": 514,
      "fir": 515,
      "##ather": 516,
      "##ress": 517,
      "##ning": 518,
      "felt": 519,
      "##ough": 520,
      "##ies": 521,
      "##ment": 522,
      "##ks": 523,
      "##ried": 524,
      "night": 525,
      "under": 526,
      "##ct": 527,
      "vo": 528,
      "wo": 529,
      "fo": 530,
      "well": 531,
      "come": 532,
      "against": 533,
      "little": 534,
      "mar": 535,
      "##ase": 536,
      "two": 537,
      "rem": 538,
      "##gg": 539,
      "##age": 540,
      "sure": 541,
      "tal": 542,
      "##med": 543,
      "day": 544,
      "##ree": 545,
      "dis": 546,
      "wal": 547,
      "ste": 548,
      "love": 549,
      "##side": 550,
      "body": 551,
      "##ah": 552,
      "##een": 553,
      "##nt": 554,
      "took": 555,
      "##be": 556,
      "our": 557,
      "hard": 558,
      "really": 559,
      "##ru": 560,
      "##ath": 561,
      "##air": 562,
      "sk": 563,
      "wom": 564,
      "##ery": 565,
      "bed": 566,
      "cont": 567,
      "em": 568,
      "first": 569,
      "may": 570,
      "##ol": 571,
      "des": 572,
      "##ond": 573,
      "try": 574,
      "voice": 575,
      "hel": 576,
      "##ily": 577,
      "##oth": 578,
      "turned": 579,
      "el": 580,
      "lau": 581,
      "breat": 582,
      "pe": 583,
      "##uck": 584,
      "##ich": 585,
      "told": 586,
      "life": 587,
      "comp": 588,
      "jo": 589,
      "##az": 590,
      "##row": 591,
      "fin": 592,
      "word": 593,
      "hair": 594,
      "real": 595,
      "##ark": 596,
      "anything": 597,
      "res": 598,
      "put": 599,
      "##bb": 600,
      "##outh": 601,
      "##ling": 602,
      "##ied": 603,
      "##ence": 604,
      "##ose": 605,
      "last": 606,
      "ton": 607,
      "##ty": 608,
      "##qu": 609,
      "##ned": 610,
      "fing": 611,
      "##anc": 612,
      "##get": 613,
      "sec": 614,
      "##ves": 615,
      "unt": 616,
      "while": 617,
      "part": 618,
      "another": 619,
      "##ia": 620,
      "being": 621,
      "mouth": 622,
      "ad": 623,
      "help": 624,
      "sur": 625,
      "wait": 626,
      "per": 627,
      "##ber": 628,
      "app": 629,
      "##te": 630,
      "gra": 631,
      "bel": 632,
      "##de": 633,
      "until": 634,
      "nothing": 635,
      "enough": 636,
      "##ook": 637,
      "came": 638,
      "ph": 639,
      "cou": 640,
      "war": 641,
      "##xt": 642,
      "##ouse": 643,
      "moment": 644,
      "beh": 645,
      "##ise": 646,
      "yes": 647,
      "##iend": 648,
      "##ild": 649,
      "went": 650,
      "##ince": 651,
      "##ful": 652,
      "sn": 653,
      "own": 654,
      "side": 655,
      "##eet": 656,
      "left": 657,
      "##ans": 658,
      "does": 659,
      "##igh": 660,
      "arms": 661,
      "##ross": 662,
      "keep": 663,
      "find": 664,
      "maybe": 665,
      "##hes": 666,
      "##sh": 667,
      "mind": 668,
      "very": 669,
      "care": 670,
      "##ways": 671,
      "has": 672,
      "##ens": 673,
      "lips": 674,
      "heart": 675,
      "str": 676,
      "mat": 677,
      "things": 678,
      "##ont": 679,
      "year": 680,
      "##uc": 681,
      "##les": 682,
      "wr": 683,
      "woman": 684,
      "gir": 685,
      "##per": 686,
      "cr": 687,
      "few": 688,
      "behind": 689,
      "ple": 690,
      "cur": 691,
      "ass": 692,
      "##ching": 693,
      "##av": 694,
      "inside": 695,
      "might": 696,
      "sound": 697,
      "new": 698,
      "##ish": 699,
      "always": 700,
      "dec": 701,
      "everything": 702,
      "though": 703,
      "house": 704,
      "smile": 705,
      "cle": 706,
      "which": 707,
      "stu": 708,
      "##iled": 709,
      "att": 710,
      "rel": 711,
      "pulled": 712,
      "##ane": 713,
      "##owed": 714,
      "those": 715,
      "both": 716,
      "oh": 717,
      "##ner": 718,
      "open": 719,
      "##amp": 720,
      "set": 721,
      "home": 722,
      "end": 723,
      "##ople": 724,
      "people": 725,
      "##ared": 726,
      "dr": 727,
      "give": 728,
      "dark": 729,
      "##gan": 730,
      "kiss": 731,
      "##ween": 732,
      "between": 733,
      "##ions": 734,
      "hold": 735,
      "looking": 736,
      "ok": 737,
      "tou": 738,
      "inst": 739,
      "toward": 740,
      "ear": 741,
      "once": 742,
      "without": 743,
      "bu": 744,
      "myself": 745,
      "saw": 746,
      "girl": 747,
      "next": 748,
      "rep": 749,
      "##iff": 750,
      "##ower": 751,
      "sho": 752,
      "breath": 753,
      "##ating": 754,
      "ke": 755,
      "##ness": 756,
      "friend": 757,
      "since": 758,
      "sit": 759,
      "trying": 760,
      "okay": 761,
      "deep": 762,
      "##dded": 763,
      "##ool": 764,
      "mother": 765,
      "front": 766,
      "##int": 767,
      "gi": 768,
      "someone": 769,
      "better": 770,
      "hur": 771,
      "act": 772,
      "bit": 773,
      "work": 774,
      "##mo": 775,
      "hell": 776,
      "hu": 777,
      "bre": 778,
      "fam": 779,
      "gave": 780,
      "##ream": 781,
      "place": 782,
      "most": 783,
      "light": 784,
      "##pping": 785,
      "sat": 786,
      "##sw": 787,
      "hop": 788,
      "sil": 789,
      "##ep": 790,
      "done": 791,
      "imp": 792,
      "##ready": 793,
      "##ord": 794,
      "##gether": 795,
      "already": 796,
      "##less": 797,
      "answ": 798,
      "##ually": 799,
      "stand": 800,
      "same": 801,
      "##ian": 802,
      "father": 803,
      "run": 804,
      "min": 805,
      "words": 806,
      "doing": 807,
      "himself": 808,
      "together": 809,
      "stop": 810,
      "##rew": 811,
      "##orm": 812,
      "##ier": 813,
      "sle": 814,
      "herself": 815,
      "fingers": 816,
      "##ason": 817,
      "started": 818,
      "mean": 819,
      "##used": 820,
      "ang": 821,
      "dam": 822,
      "##ys": 823,
      "ser": 824,
      "stay": 825,
      "chest": 826,
      "##ail": 827,
      "##aught": 828,
      "##cked": 829,
      "##ne": 830,
      "kind": 831,
      "feeling": 832,
      "whis": 833,
      "##irt": 834,
      "##gs": 835,
      "found": 836,
      "##tered": 837,
      "reac": 838,
      "##ever": 839,
      "else": 840,
      "second": 841,
      "rest": 842,
      "##ably": 843,
      "soft": 844,
      "needed": 845,
      "##ory": 846,
      "sto": 847,
      "pain": 848,
      "each": 849,
      "inter": 850,
      "heard": 851,
      "##ped": 852,
      "pus": 853,
      "belie": 854,
      "##ret": 855,
      "kill": 856,
      "close": 857,
      "dri": 858,
      "##ised": 859,
      "old": 860,
      "hear": 861,
      "hun": 862,
      "dro": 863,
      "across": 864,
      "spe": 865,
      "##issed": 866,
      "tried": 867,
      "##most": 868,
      "##ax": 869,
      "god": 870,
      "##aw": 871,
      "walked": 872,
      "gaz": 873,
      "dra": 874,
      "flo": 875,
      "ty": 876,
      "mor": 877,
      "almost": 878,
      "##aned": 879,
      "blood": 880,
      "talk": 881,
      "held": 882,
      "##ured": 883,
      "##ized": 884,
      "##ange": 885,
      "years": 886,
      "wonder": 887,
      "##ert": 888,
      "ye": 889,
      "ret": 890,
      "##icked": 891,
      "##ict": 892,
      "minut": 893,
      "sor": 894,
      "##os": 895,
      "lot": 896,
      "tight": 897,
      "##pr": 898,
      "##gged": 899,
      "##ater": 900,
      "##inking": 901,
      "##ense": 902,
      "cour": 903,
      "quick": 904,
      "##ary": 905,
      "yeah": 906,
      "remem": 907,
      "##umb": 908,
      "phone": 909,
      "bad": 910,
      "big": 911,
      "start": 912,
      "slow": 913,
      "wee": 914,
      "##gn": 915,
      "##ren": 916,
      "sex": 917,
      "black": 918,
      "nodded": 919,
      "seemed": 920,
      "##iv": 921,
      "play": 922,
      "leave": 923,
      "ru": 924,
      "##red": 925,
      "far": 926,
      "smiled": 927,
      "underst": 928,
      "press": 929,
      "shook": 930,
      "getting": 931,
      "##ible": 932,
      "##ced": 933,
      "moved": 934,
      "##day": 935,
      "##ix": 936,
      "tre": 937,
      "col": 938,
      "move": 939,
      "ob": 940,
      "##aut": 941,
      "small": 942,
      "dem": 943,
      "making": 944,
      "skin": 945,
      "##ib": 946,
      "hot": 947,
      "family": 948,
      "finally": 949,
      "##ipped": 950,
      "##ently": 951,
      "bar": 952,
      "##ention": 953,
      "stood": 954,
      "clos": 955,
      "##ash": 956,
      "table": 957,
      "past": 958,
      "##ank": 959,
      "ev": 960,
      "##akes": 961,
      "sim": 962,
      "yet": 963,
      "hurt": 964,
      "##ying": 965,
      "prob": 966,
      "mon": 967,
      "##ither": 968,
      "##ial": 969,
      "ide": 970,
      "rec": 971,
      "gone": 972,
      "##ully": 973,
      "hum": 974,
      "##room": 975,
      "##ons": 976,
      "cons": 977,
      "mine": 978,
      "neck": 979,
      "eas": 980,
      "three": 981,
      "seen": 982,
      "##ple": 983,
      "quest": 984,
      "gaze": 985,
      "sorry": 986,
      "feet": 987,
      "##ten": 988,
      "diff": 989,
      "beaut": 990,
      "met": 991,
      "bus": 992,
      "floor": 993,
      "probably": 994,
      "ap": 995,
      "sig": 996,
      "##aring": 997,
      "bab": 998,
      "##iet": 999,
      "expl": 1000,
      "##ately": 1001,
      "cor": 1002,
      "conf": 1003,
      "taking": 1004,
      "##bbed": 1005,
      "##erson": 1006,
      "cra": 1007,
      "wind": 1008,
      "hour": 1009,
      "##ph": 1010,
      "aw": 1011,
      "##sp": 1012,
      "##ows": 1013,
      "##ished": 1014,
      "wall": 1015,
      "inc": 1016,
      "##ering": 1017,
      "##ected": 1018,
      "##aced": 1019,
      "tra": 1020,
      "brother": 1021,
      "##so": 1022,
      "grin": 1023,
      "supp": 1024,
      "##ale": 1025,
      "fall": 1026,
      "ent": 1027,
      "world": 1028,
      "ed": 1029,
      "anyone": 1030,
      "best": 1031,
      "surpr": 1032,
      "ra": 1033,
      "air": 1034,
      "reached": 1035,
      "foll": 1036,
      "idea": 1037,
      "men": 1038,
      "##fect": 1039,
      "##ars": 1040,
      "says": 1041,
      "ben": 1042,
      "stra": 1043,
      "believe": 1044,
      "ask": 1045,
      "meet": 1046,
      "##ained": 1047,
      "resp": 1048,
      "fact": 1049,
      "least": 1050,
      "soon": 1051,
      "near": 1052,
      "coming": 1053,
      "laugh": 1054,
      "called": 1055,
      "##ined": 1056,
      "poss": 1057,
      "dress": 1058,
      "dad": 1059,
      "happened": 1060,
      "char": 1061,
      "name": 1062,
      "##owing": 1063,
      "chee": 1064,
      "##ud": 1065,
      "acc": 1066,
      "must": 1067,
      "##iness": 1068,
      "##iously": 1069,
      "sleep": 1070,
      "bro": 1071,
      "reason": 1072,
      "lif": 1073,
      "##ips": 1074,
      "later": 1075,
      "whisp": 1076,
      "opened": 1077,
      "thro": 1078,
      "inv": 1079,
      "shoulder": 1080,
      "bes": 1081,
      "having": 1082,
      "##iver": 1083,
      "fore": 1084,
      "course": 1085,
      "##to": 1086,
      "stopped": 1087,
      "kept": 1088,
      "shit": 1089,
      "##here": 1090,
      "also": 1091,
      "person": 1092,
      "half": 1093,
      "morning": 1094,
      "##ghed": 1095,
      "##ged": 1096,
      "wrong": 1097,
      "##ton": 1098,
      "##itc": 1099,
      "thinking": 1100,
      "closed": 1101,
      "roll": 1102,
      "jack": 1103,
      "del": 1104,
      "##arent": 1105,
      "eye": 1106,
      "##ead": 1107,
      "used": 1108,
      "dist": 1109,
      "comple": 1110,
      "guy": 1111,
      "hit": 1112,
      "##dden": 1113,
      "great": 1114,
      "squ": 1115,
      "cut": 1116,
      "child": 1117,
      "##ister": 1118,
      "legs": 1119,
      "ready": 1120,
      "exc": 1121,
      "alone": 1122,
      "##ual": 1123,
      "##ening": 1124,
      "many": 1125,
      "understand": 1126,
      "red": 1127,
      "vamp": 1128,
      "touch": 1129,
      "everyone": 1130,
      "laughed": 1131,
      "##oy": 1132,
      "##na": 1133,
      "glanc": 1134,
      "sudden": 1135,
      "cover": 1136,
      "##ided": 1137,
      "along": 1138,
      "fine": 1139,
      "par": 1140,
      "matter": 1141,
      "top": 1142,
      "##gue": 1143,
      "pret": 1144,
      "such": 1145,
      "ran": 1146,
      "slid": 1147,
      "##cept": 1148,
      "gre": 1149,
      "return": 1150,
      "remember": 1151,
      "##idd": 1152,
      "shirt": 1153,
      "##ief": 1154,
      "forward": 1155,
      "prom": 1156,
      "sweet": 1157,
      "cat": 1158,
      "differ": 1159,
      "mag": 1160,
      "its": 1161,
      "##iful": 1162,
      "watched": 1163,
      "##aken": 1164,
      "mus": 1165,
      "vampire": 1166,
      "high": 1167,
      "water": 1168,
      "##fully": 1169,
      "clear": 1170,
      "plan": 1171,
      "please": 1172,
      "warm": 1173,
      "damn": 1174,
      "talking": 1175,
      "whispered": 1176,
      "exact": 1177,
      "ter": 1178,
      "##der": 1179,
      "##ors": 1180,
      "able": 1181,
      "##ize": 1182,
      "instead": 1183,
      "perfect": 1184,
      "actually": 1185,
      "fight": 1186,
      "##hen": 1187,
      "stared": 1188,
      "list": 1189,
      "##ms": 1190,
      "##eth": 1191,
      "##sit": 1192,
      "point": 1193,
      "##mit": 1194,
      "dou": 1195,
      "prot": 1196,
      "happy": 1197,
      "pleas": 1198,
      "baby": 1199,
      "tonight": 1200,
      "##oney": 1201,
      "na": 1202,
      "beautiful": 1203,
      "cal": 1204,
      "onto": 1205,
      "wra": 1206,
      "##ction": 1207,
      "pretty": 1208,
      "##oc": 1209,
      "throat": 1210,
      "thank": 1211,
      "quiet": 1212,
      "these": 1213,
      "meant": 1214,
      "##gin": 1215,
      "either": 1216,
      "fill": 1217,
      "##ger": 1218,
      "loved": 1219,
      "##ub": 1220,
      "luc": 1221,
      "complete": 1222,
      "##ings": 1223,
      "ref": 1224,
      "##ny": 1225,
      "answer": 1226,
      "leaned": 1227,
      "began": 1228,
      "full": 1229,
      "conc": 1230,
      "##up": 1231,
      "slowly": 1232,
      "boy": 1233,
      "king": 1234,
      "##ically": 1235,
      "days": 1236,
      "##airs": 1237,
      "guess": 1238,
      "shif": 1239,
      "question": 1240,
      "ind": 1241,
      "contin": 1242,
      "caught": 1243,
      "bare": 1244,
      "fig": 1245,
      "lea": 1246,
      "fre": 1247,
      "low": 1248,
      "minutes": 1249,
      "fun": 1250,
      "miss": 1251,
      "power": 1252,
      "##app": 1253,
      "break": 1254,
      "je": 1255,
      "##uth": 1256,
      "show": 1257,
      "exactly": 1258,
      "glass": 1259,
      "##fort": 1260,
      "##ush": 1261,
      "reg": 1262,
      "ago": 1263,
      "##ical": 1264,
      "whole": 1265,
      "realized": 1266,
      "def": 1267,
      "white": 1268,
      "lay": 1269,
      "quickly": 1270,
      "fire": 1271,
      "hope": 1272,
      "unc": 1273,
      "kissed": 1274,
      "sister": 1275,
      "standing": 1276,
      "##head": 1277,
      "whatever": 1278,
      "pat": 1279,
      "mr": 1280,
      "lost": 1281,
      "lu": 1282,
      "dire": 1283,
      "hall": 1284,
      "disc": 1285,
      "inf": 1286,
      "walk": 1287,
      "shoulders": 1288,
      "##lo": 1289,
      "dead": 1290,
      "waiting": 1291,
      "step": 1292,
      "four": 1293,
      "##mor": 1294,
      "ins": 1295,
      "##ression": 1296,
      "##ides": 1297,
      "cold": 1298,
      "##ife": 1299,
      "hor": 1300,
      "kid": 1301,
      "deal": 1302,
      "pur": 1303,
      "times": 1304,
      "nice": 1305,
      "straight": 1306,
      "##vel": 1307,
      "pass": 1308,
      "blue": 1309,
      "bur": 1310,
      "det": 1311,
      "##mm": 1312,
      "##ued": 1313,
      "coll": 1314,
      "fear": 1315,
      "bra": 1316,
      "holding": 1317,
      "contro": 1318,
      "free": 1319,
      "fell": 1320,
      "imag": 1321,
      "read": 1322,
      "sun": 1323,
      "mur": 1324,
      "ele": 1325,
      "stom": 1326,
      "lou": 1327,
      "friends": 1328,
      "din": 1329,
      "##ump": 1330,
      "entire": 1331,
      "chap": 1332,
      "##where": 1333,
      "taken": 1334,
      "glanced": 1335,
      "strong": 1336,
      "##son": 1337,
      "thr": 1338,
      "##ike": 1339,
      "har": 1340,
      "fur": 1341,
      "watching": 1342,
      "pa": 1343,
      "##osed": 1344,
      "trust": 1345,
      "vis": 1346,
      "##ushed": 1347,
      "zane": 1348,
      "##ored": 1349,
      "shut": 1350,
      "##sc": 1351,
      "lifted": 1352,
      "tongue": 1353,
      "bot": 1354,
      "closer": 1355,
      "##ric": 1356,
      "##iling": 1357,
      "job": 1358,
      "spo": 1359,
      "##zy": 1360,
      "mad": 1361,
      "##ien": 1362,
      "shru": 1363,
      "different": 1364,
      "pant": 1365,
      "bring": 1366,
      "grabbed": 1367,
      "month": 1368,
      "repl": 1369,
      "clot": 1370,
      "use": 1371,
      "suddenly": 1372,
      "seat": 1373,
      "##ertain": 1374,
      "short": 1375,
      "mess": 1376,
      "kitc": 1377,
      "##lt": 1378,
      "kitchen": 1379,
      "business": 1380,
      "##rought": 1381,
      "##nding": 1382,
      "pushed": 1383,
      "##uring": 1384,
      "##ken": 1385,
      "##apped": 1386,
      "chapter": 1387,
      "looks": 1388,
      "shot": 1389,
      "sch": 1390,
      "outside": 1391,
      "sam": 1392,
      "apart": 1393,
      "##ming": 1394,
      "five": 1395,
      "women": 1396,
      "tears": 1397,
      "##enty": 1398,
      "##vers": 1399,
      "##inc": 1400,
      "##og": 1401,
      "brought": 1402,
      "##ired": 1403,
      "sitting": 1404,
      "consid": 1405,
      "##pl": 1406,
      "watch": 1407,
      "stepped": 1408,
      "hers": 1409,
      "chair": 1410,
      "sent": 1411,
      "fe": 1412,
      "chance": 1413,
      "sense": 1414,
      "cry": 1415,
      "disapp": 1416,
      "tri": 1417,
      "##anged": 1418,
      "##bo": 1419,
      "today": 1420,
      "attention": 1421,
      "hours": 1422,
      "stomach": 1423,
      "sever": 1424,
      "dream": 1425,
      "##by": 1426,
      "##pe": 1427,
      "ground": 1428,
      "sens": 1429,
      "living": 1430,
      "##ited": 1431,
      "truth": 1432,
      "true": 1433,
      "control": 1434,
      "##acked": 1435,
      "cho": 1436,
      "change": 1437,
      "beside": 1438,
      "##cc": 1439,
      "##ult": 1440,
      "##inted": 1441,
      "cheek": 1442,
      "bell": 1443,
      "##ased": 1444,
      "saying": 1445,
      "##ze": 1446,
      "da": 1447,
      "given": 1448,
      "##read": 1449,
      "mut": 1450,
      "completely": 1451,
      "leaving": 1452,
      "giving": 1453,
      "less": 1454,
      "ign": 1455,
      "expression": 1456,
      "knowing": 1457,
      "win": 1458,
      "dropped": 1459,
      "##ures": 1460,
      "known": 1461,
      "office": 1462,
      "##otion": 1463,
      "parent": 1464,
      "gro": 1465,
      "money": 1466,
      "ten": 1467,
      "##isted": 1468,
      "youn": 1469,
      "burn": 1470,
      "moving": 1471,
      "longer": 1472,
      "hon": 1473,
      "finger": 1474,
      "school": 1475,
      "obv": 1476,
      "ni": 1477,
      "##br": 1478,
      "##la": 1479,
      "coun": 1480,
      "##ters": 1481,
      "av": 1482,
      "frown": 1483,
      "certain": 1484,
      "jul": 1485,
      "comm": 1486,
      "##ially": 1487,
      "##ets": 1488,
      "##ina": 1489,
      "bag": 1490,
      "foot": 1491,
      "gri": 1492,
      "##ations": 1493,
      "##ison": 1494,
      "##nded": 1495,
      "smo": 1496,
      "pressed": 1497,
      "##anger": 1498,
      "scream": 1499,
      "line": 1500,
      "##io": 1501,
      "##ents": 1502,
      "stro": 1503,
      "running": 1504,
      "land": 1505,
      "grand": 1506,
      "sky": 1507,
      "rose": 1508,
      "seeing": 1509,
      "##antly": 1510,
      "##ins": 1511,
      "##aged": 1512,
      "##oun": 1513,
      "proble": 1514,
      "##assed": 1515,
      "sy": 1516,
      "tem": 1517,
      "slight": 1518,
      "doub": 1519,
      "##ird": 1520,
      "lar": 1521,
      "pal": 1522,
      "dev": 1523,
      "##ift": 1524,
      "dan": 1525,
      "bene": 1526,
      "safe": 1527,
      "worry": 1528,
      "cross": 1529,
      "pres": 1530,
      "appear": 1531,
      "decided": 1532,
      "live": 1533,
      "cap": 1534,
      "##irc": 1535,
      "parents": 1536,
      "enj": 1537,
      "build": 1538,
      "human": 1539,
      "week": 1540,
      "##orn": 1541,
      "son": 1542,
      "##iding": 1543,
      "death": 1544,
      "clothes": 1545,
      "working": 1546,
      "ann": 1547,
      "##ship": 1548,
      "##ging": 1549,
      "coff": 1550,
      "##rist": 1551,
      "gas": 1552,
      "lear": 1553,
      "teeth": 1554,
      "stre": 1555,
      "cam": 1556,
      "ner": 1557,
      "fast": 1558,
      "heav": 1559,
      "swe": 1560,
      "begin": 1561,
      "drink": 1562,
      "window": 1563,
      "pol": 1564,
      "add": 1565,
      "thanks": 1566,
      "grow": 1567,
      "liked": 1568,
      "mist": 1569,
      "remind": 1570,
      "##iced": 1571,
      "pict": 1572,
      "circ": 1573,
      "##ees": 1574,
      "pie": 1575,
      "rolled": 1576,
      "filled": 1577,
      "##ma": 1578,
      "couple": 1579,
      "supposed": 1580,
      "forg": 1581,
      "followed": 1582,
      "##aps": 1583,
      "pay": 1584,
      "pri": 1585,
      "admit": 1586,
      "tor": 1587,
      "pulling": 1588,
      "pleasure": 1589,
      "bedroom": 1590,
      "##ames": 1591,
      "##more": 1592,
      "hung": 1593,
      "bath": 1594,
      "yourself": 1595,
      "telling": 1596,
      "sub": 1597,
      "sing": 1598,
      "##aster": 1599,
      "abs": 1600,
      "sighed": 1601,
      "cla": 1602,
      "musc": 1603,
      "##action": 1604,
      "dinner": 1605,
      "several": 1606,
      "coffee": 1607,
      "mir": 1608,
      "##ested": 1609,
      "luck": 1610,
      "##iny": 1611,
      "makes": 1612,
      "ir": 1613,
      "##ply": 1614,
      "happen": 1615,
      "anyway": 1616,
      "##acing": 1617,
      "ale": 1618,
      "##ove": 1619,
      "waist": 1620,
      "##umped": 1621,
      "wife": 1622,
      "##use": 1623,
      "##pted": 1624,
      "##ashed": 1625,
      "hips": 1626,
      "##ular": 1627,
      "pap": 1628,
      "softly": 1629,
      "speak": 1630,
      "drive": 1631,
      "##ape": 1632,
      "jer": 1633,
      "eff": 1634,
      "foc": 1635,
      "hang": 1636,
      "##ount": 1637,
      "draw": 1638,
      "##ility": 1639,
      "##ung": 1640,
      "town": 1641,
      "wrapped": 1642,
      "protect": 1643,
      "##gth": 1644,
      "##pid": 1645,
      "lip": 1646,
      "convers": 1647,
      "appro": 1648,
      "staring": 1649,
      "bat": 1650,
      "barely": 1651,
      "##ition": 1652,
      "cent": 1653,
      "sign": 1654,
      "##cy": 1655,
      "worked": 1656,
      "##raid": 1657,
      "stru": 1658,
      "sus": 1659,
      "late": 1660,
      "edge": 1661,
      "thoughts": 1662,
      "easy": 1663,
      "quite": 1664,
      "shrugged": 1665,
      "##ising": 1666,
      "afraid": 1667,
      "esc": 1668,
      "case": 1669,
      "##els": 1670,
      "wide": 1671,
      "silence": 1672,
      "guys": 1673,
      "minute": 1674,
      "##ror": 1675,
      "twenty": 1676,
      "months": 1677,
      "knees": 1678,
      "hey": 1679,
      "##ject": 1680,
      "continued": 1681,
      "desk": 1682,
      "wearing": 1683,
      "##ley": 1684,
      "reco": 1685,
      "picked": 1686,
      "##ience": 1687,
      "walking": 1688,
      "beneath": 1689,
      "smell": 1690,
      "secret": 1691,
      "stupid": 1692,
      "young": 1693,
      "shar": 1694,
      "nat": 1695,
      "six": 1696,
      "anymore": 1697,
      "##sing": 1698,
      "squee": 1699,
      "tu": 1700,
      "mem": 1701,
      "ian": 1702,
      "##ilt": 1703,
      "surprised": 1704,
      "christ": 1705,
      "touched": 1706,
      "##medi": 1707,
      "dar": 1708,
      "##ates": 1709,
      "turning": 1710,
      "guard": 1711,
      "immedi": 1712,
      "lean": 1713,
      "nearly": 1714,
      "demand": 1715,
      "large": 1716,
      "box": 1717,
      "tone": 1718,
      "conn": 1719,
      "##lan": 1720,
      "du": 1721,
      "stuff": 1722,
      "sort": 1723,
      "norm": 1724,
      "rather": 1725,
      "pun": 1726,
      "rele": 1727,
      "sad": 1728,
      "##cking": 1729,
      "lead": 1730,
      "die": 1731,
      "##hel": 1732,
      "girls": 1733,
      "answered": 1734,
      "##its": 1735,
      "##itely": 1736,
      "heat": 1737,
      "except": 1738,
      "raised": 1739,
      "pick": 1740,
      "##als": 1741,
      "eat": 1742,
      "ball": 1743,
      "rock": 1744,
      "hus": 1745,
      "##man": 1746,
      "kno": 1747,
      "waited": 1748,
      "##bed": 1749,
      "spec": 1750,
      "##ute": 1751,
      "ma": 1752,
      "##iel": 1753,
      "corner": 1754,
      "##ought": 1755,
      "changed": 1756,
      "##ield": 1757,
      "esp": 1758,
      "##ime": 1759,
      "##ony": 1760,
      "##icking": 1761,
      "gen": 1762,
      "gently": 1763,
      "form": 1764,
      "conversation": 1765,
      "eth": 1766,
      "spot": 1767,
      "replied": 1768,
      "swall": 1769,
      "jaw": 1770,
      "weeks": 1771,
      "nar": 1772,
      "den": 1773,
      "doubt": 1774,
      "lun": 1775,
      "seem": 1776,
      "##aces": 1777,
      "thick": 1778,
      "posit": 1779,
      "trou": 1780,
      "##irty": 1781,
      "danger": 1782,
      "green": 1783,
      "bright": 1784,
      "forget": 1785,
      "##aining": 1786,
      "eng": 1787,
      "ext": 1788,
      "crazy": 1789,
      "grinned": 1790,
      "sal": 1791,
      "##imes": 1792,
      "##ient": 1793,
      "##bbing": 1794,
      "exper": 1795,
      "yell": 1796,
      "loud": 1797,
      "##ding": 1798,
      "empt": 1799,
      "sigh": 1800,
      "wet": 1801,
      "ring": 1802,
      "espec": 1803,
      "throw": 1804,
      "problem": 1805,
      "thigh": 1806,
      "cool": 1807,
      "possible": 1808,
      "spent": 1809,
      "relation": 1810,
      "surprise": 1811,
      "spoke": 1812,
      "immediately": 1813,
      "defin": 1814,
      "tomor": 1815,
      "tomorrow": 1816,
      "figure": 1817,
      "chin": 1818,
      "sounded": 1819,
      "conv": 1820,
      "food": 1821,
      "ethan": 1822,
      "returned": 1823,
      "others": 1824,
      "murm": 1825,
      "especially": 1826,
      "##elle": 1827,
      "##iew": 1828,
      "gray": 1829,
      "shad": 1830,
      "agre": 1831,
      "gotten": 1832,
      "anger": 1833,
      "fuck": 1834,
      "##aughter": 1835,
      "bott": 1836,
      "wed": 1837,
      "concer": 1838,
      "##iles": 1839,
      "passed": 1840,
      "##zed": 1841,
      "la": 1842,
      "narrow": 1843,
      "crow": 1844,
      "##ator": 1845,
      "gar": 1846,
      "ce": 1847,
      "letting": 1848,
      "##itch": 1849,
      "##iddle": 1850,
      "##let": 1851,
      "hesit": 1852,
      "bathroom": 1853,
      "sight": 1854,
      "##ches": 1855,
      "covered": 1856,
      "ell": 1857,
      "sel": 1858,
      "relax": 1859,
      "##ident": 1860,
      "drew": 1861,
      "glad": 1862,
      "##ces": 1863,
      "##aled": 1864,
      "##ky": 1865,
      "finished": 1866,
      "##band": 1867,
      "promise": 1868,
      "gold": 1869,
      "sear": 1870,
      "demon": 1871,
      "simply": 1872,
      "##amed": 1873,
      "id": 1874,
      "wondered": 1875,
      "beat": 1876,
      "nose": 1877,
      "muttered": 1878,
      "##ili": 1879,
      "opp": 1880,
      "logan": 1881,
      "tast": 1882,
      "clim": 1883,
      "##gging": 1884,
      "enjoy": 1885,
      "headed": 1886,
      "count": 1887,
      "grace": 1888,
      "##umbled": 1889,
      "##riend": 1890,
      "married": 1891,
      "##light": 1892,
      "ash": 1893,
      "worried": 1894,
      "angry": 1895,
      "middle": 1896,
      "##lic": 1897,
      "import": 1898,
      "worse": 1899,
      "wood": 1900,
      "wants": 1901,
      "##unt": 1902,
      "pock": 1903,
      "knows": 1904,
      "above": 1905,
      "slightly": 1906,
      "become": 1907,
      "gun": 1908,
      "arri": 1909,
      "stri": 1910,
      "fav": 1911,
      "noticed": 1912,
      "calm": 1913,
      "stud": 1914,
      "##que": 1915,
      "##any": 1916,
      "heavy": 1917,
      "leg": 1918,
      "max": 1919,
      "serious": 1920,
      "lie": 1921,
      "clean": 1922,
      "sou": 1923,
      "hate": 1924,
      "toss": 1925,
      "wish": 1926,
      "desire": 1927,
      "broke": 1928,
      "pu": 1929,
      "comfort": 1930,
      "building": 1931,
      "check": 1932,
      "killed": 1933,
      "reach": 1934,
      "expected": 1935,
      "tiny": 1936,
      "earl": 1937,
      "coo": 1938,
      "sometimes": 1939,
      "susp": 1940,
      "art": 1941,
      "mention": 1942,
      "party": 1943,
      "desper": 1944,
      "##ots": 1945,
      "daughter": 1946,
      "interest": 1947,
      "kids": 1948,
      "##ara": 1949,
      "snapped": 1950,
      "hunter": 1951,
      "sett": 1952,
      "bother": 1953,
      "fair": 1954,
      "threat": 1955,
      "shout": 1956,
      "##how": 1957,
      "ur": 1958,
      "##ones": 1959,
      "creat": 1960,
      "definitely": 1961,
      "nick": 1962,
      "cheeks": 1963,
      "empty": 1964,
      "##haps": 1965,
      "##ision": 1966,
      "##rif": 1967,
      "perhaps": 1968,
      "forced": 1969,
      "meeting": 1970,
      "desp": 1971,
      "lap": 1972,
      "##oring": 1973,
      "honest": 1974,
      "disappear": 1975,
      "##ails": 1976,
      "stare": 1977,
      "situ": 1978,
      "during": 1979,
      "##ists": 1980,
      "wanting": 1981,
      "##ively": 1982,
      "##umber": 1983,
      "tot": 1984,
      "apartment": 1985,
      "pack": 1986,
      "fem": 1987,
      "threw": 1988,
      "##land": 1989,
      "jeans": 1990,
      "gent": 1991,
      "shaking": 1992,
      "somehow": 1993,
      "chuck": 1994,
      "relationship": 1995,
      "adv": 1996,
      "pan": 1997,
      "vict": 1998,
      "wild": 1999,
      "amaz": 2000,
      "mer": 2001,
      "steps": 2002,
      "priv": 2003,
      "shower": 2004,
      "pointed": 2005,
      "self": 2006,
      "obviously": 2007,
      "class": 2008,
      "crowd": 2009,
      "##no": 2010,
      "##bs": 2011,
      "clearly": 2012,
      "vi": 2013,
      "jake": 2014,
      "nod": 2015,
      "ry": 2016,
      "##ctor": 2017,
      "##vous": 2018,
      "##ines": 2019,
      "cu": 2020,
      "street": 2021,
      "##aded": 2022,
      "##bered": 2023,
      "died": 2024,
      "##sy": 2025,
      "hated": 2026,
      "##ign": 2027,
      "quietly": 2028,
      "husband": 2029,
      "managed": 2030,
      "single": 2031,
      "spread": 2032,
      "sounds": 2033,
      "##ibly": 2034,
      "mark": 2035,
      "eight": 2036,
      "##ster": 2037,
      "story": 2038,
      "added": 2039,
      "##using": 2040,
      "dest": 2041,
      "##lves": 2042,
      "seconds": 2043,
      "important": 2044,
      "##lly": 2045,
      "##ls": 2046,
      "cas": 2047,
      "frowned": 2048,
      "led": 2049,
      "##cess": 2050,
      "##aint": 2051,
      "##ances": 2052,
      "scent": 2053,
      "bottom": 2054,
      "jen": 2055,
      "##ucked": 2056,
      "force": 2057,
      "lying": 2058,
      "lim": 2059,
      "occ": 2060,
      "order": 2061,
      "game": 2062,
      "ord": 2063,
      "none": 2064,
      "road": 2065,
      "favor": 2066,
      "alth": 2067,
      "##ipping": 2068,
      "within": 2069,
      "dom": 2070,
      "strange": 2071,
      "although": 2072,
      "laughing": 2073,
      "stret": 2074,
      "eyeb": 2075,
      "sick": 2076,
      "smiling": 2077,
      "children": 2078,
      "keeping": 2079,
      "rid": 2080,
      "##igg": 2081,
      "willing": 2082,
      "##unk": 2083,
      "##rec": 2084,
      "couch": 2085,
      "sharp": 2086,
      "book": 2087,
      "magic": 2088,
      "sol": 2089,
      "##arr": 2090,
      "naked": 2091,
      "fut": 2092,
      "dep": 2093,
      "respond": 2094,
      "summ": 2095,
      "pract": 2096,
      "##ney": 2097,
      "ble": 2098,
      "direction": 2099,
      "##lyn": 2100,
      "##mb": 2101,
      "explain": 2102,
      "##zz": 2103,
      "fit": 2104,
      "lose": 2105,
      "hund": 2106,
      "hundred": 2107,
      "deser": 2108,
      "stairs": 2109,
      "hoping": 2110,
      "##olog": 2111,
      "##rie": 2112,
      "number": 2113,
      "takes": 2114,
      "##erg": 2115,
      "luke": 2116,
      "asking": 2117,
      "paused": 2118,
      "##ments": 2119,
      "bill": 2120,
      "glance": 2121,
      "broken": 2122,
      "remembered": 2123,
      "##att": 2124,
      "realize": 2125,
      "space": 2126,
      "cab": 2127,
      "eyebrow": 2128,
      "lower": 2129,
      "sof": 2130,
      "exh": 2131,
      "##ining": 2132,
      "vampires": 2133,
      "worth": 2134,
      "pet": 2135,
      "##ities": 2136,
      "##erm": 2137,
      "cock": 2138,
      "tall": 2139,
      "val": 2140,
      "cell": 2141,
      "trouble": 2142,
      "situation": 2143,
      "catch": 2144,
      "means": 2145,
      "slam": 2146,
      "silent": 2147,
      "pen": 2148,
      "choice": 2149,
      "lady": 2150,
      "daniel": 2151,
      "inform": 2152,
      "spr": 2153,
      "##ecting": 2154,
      "gentle": 2155,
      "nervous": 2156,
      "##ann": 2157,
      "##asm": 2158,
      "repe": 2159,
      "##iting": 2160,
      "huge": 2161,
      "counter": 2162,
      "date": 2163,
      "##oss": 2164,
      "besides": 2165,
      "er": 2166,
      "firm": 2167,
      "##over": 2168,
      "##ping": 2169,
      "wid": 2170,
      "matt": 2171,
      "playing": 2172,
      "weak": 2173,
      "fa": 2174,
      "pants": 2175,
      "##aling": 2176,
      "slipped": 2177,
      "whisper": 2178,
      "ris": 2179,
      "##tering": 2180,
      "fle": 2181,
      "cup": 2182,
      "##inked": 2183,
      "alex": 2184,
      "piece": 2185,
      "emotion": 2186,
      "clen": 2187,
      "hide": 2188,
      "##esh": 2189,
      "brown": 2190,
      "paper": 2191,
      "bas": 2192,
      "position": 2193,
      "wedding": 2194,
      "comes": 2195,
      "missed": 2196,
      "prete": 2197,
      "##orted": 2198,
      "law": 2199,
      "pound": 2200,
      "earlier": 2201,
      "recogn": 2202,
      "forever": 2203,
      "##asing": 2204,
      "mis": 2205,
      "scr": 2206,
      "cond": 2207,
      "##rian": 2208,
      "forgot": 2209,
      "expect": 2210,
      "taste": 2211,
      "breathing": 2212,
      "forehead": 2213,
      "##my": 2214,
      "locked": 2215,
      "tow": 2216,
      "murmured": 2217,
      "fold": 2218,
      "brain": 2219,
      "##ler": 2220,
      "imagine": 2221,
      "city": 2222,
      "queen": 2223,
      "emb": 2224,
      "##ucking": 2225,
      "push": 2226,
      "thumb": 2227,
      "future": 2228,
      "##gu": 2229,
      "crossed": 2230,
      "tired": 2231,
      "sugg": 2232,
      "##ital": 2233,
      "##ork": 2234,
      "##ager": 2235,
      "und": 2236,
      "prep": 2237,
      "sexy": 2238,
      "boo": 2239,
      "scared": 2240,
      "##ices": 2241,
      "##set": 2242,
      "agreed": 2243,
      "listen": 2244,
      "handle": 2245,
      "##oming": 2246,
      "strugg": 2247,
      "lock": 2248,
      "fro": 2249,
      "state": 2250,
      "##fer": 2251,
      "##cing": 2252,
      "somewhere": 2253,
      "hoped": 2254,
      "##ract": 2255,
      "ver": 2256,
      "blank": 2257,
      "pill": 2258,
      "##orge": 2259,
      "alive": 2260,
      "questions": 2261,
      "picture": 2262,
      "placed": 2263,
      "assum": 2264,
      "blond": 2265,
      "lived": 2266,
      "doors": 2267,
      "##kes": 2268,
      "##ishing": 2269,
      "became": 2270,
      "lucky": 2271,
      "dressed": 2272,
      "shifted": 2273,
      "news": 2274,
      "##rit": 2275,
      "danc": 2276,
      "however": 2277,
      "talked": 2278,
      "pocket": 2279,
      "##ination": 2280,
      "flat": 2281,
      "early": 2282,
      "wondering": 2283,
      "med": 2284,
      "stren": 2285,
      "spl": 2286,
      "event": 2287,
      "dav": 2288,
      "shake": 2289,
      "truck": 2290,
      "whether": 2291,
      "eric": 2292,
      "invol": 2293,
      "##aped": 2294,
      "stone": 2295,
      "relief": 2296,
      "spend": 2297,
      "##ards": 2298,
      "normal": 2299,
      "shock": 2300,
      "trent": 2301,
      "lord": 2302,
      "dry": 2303,
      "soph": 2304,
      "harder": 2305,
      "charl": 2306,
      "kissing": 2307,
      "##stairs": 2308,
      "##ene": 2309,
      "direct": 2310,
      "##uss": 2311,
      "ow": 2312,
      "jumped": 2313,
      "##ior": 2314,
      "needs": 2315,
      "brief": 2316,
      "incl": 2317,
      "putting": 2318,
      "##ustr": 2319,
      "##isf": 2320,
      "fix": 2321,
      "trans": 2322,
      "offered": 2323,
      "sar": 2324,
      "pin": 2325,
      "evening": 2326,
      "##body": 2327,
      "weight": 2328,
      "##me": 2329,
      "pair": 2330,
      "##arth": 2331,
      "appeared": 2332,
      "shiver": 2333,
      "##iliar": 2334,
      "ant": 2335,
      "##owers": 2336,
      "carry": 2337,
      "##cious": 2338,
      "prof": 2339,
      "##usted": 2340,
      "despite": 2341,
      "color": 2342,
      "##izing": 2343,
      "##ement": 2344,
      "##old": 2345,
      "gon": 2346,
      "isab": 2347,
      "handed": 2348,
      "settled": 2349,
      "soul": 2350,
      "wel": 2351,
      "bey": 2352,
      "save": 2353,
      "##tern": 2354,
      "round": 2355,
      "beyond": 2356,
      "nor": 2357,
      "##co": 2358,
      "##ached": 2359,
      "camer": 2360,
      "ones": 2361,
      "capt": 2362,
      "noah": 2363,
      "information": 2364,
      "club": 2365,
      "tru": 2366,
      "enc": 2367,
      "wip": 2368,
      "aff": 2369,
      "using": 2370,
      "satisf": 2371,
      "company": 2372,
      "seriously": 2373,
      "##gr": 2374,
      "apparent": 2375,
      "figured": 2376,
      "fly": 2377,
      "gage": 2378,
      "##pper": 2379,
      "##rible": 2380,
      "sand": 2381,
      "##olute": 2382,
      "stayed": 2383,
      "strength": 2384,
      "##ushing": 2385,
      "aside": 2386,
      "follow": 2387,
      "male": 2388,
      "##ains": 2389,
      "avo": 2390,
      "colt": 2391,
      "busy": 2392,
      "angel": 2393,
      "odd": 2394,
      "view": 2395,
      "gab": 2396,
      "blo": 2397,
      "distance": 2398,
      "blinked": 2399,
      "cried": 2400,
      "offer": 2401,
      "bent": 2402,
      "##ude": 2403,
      "feelings": 2404,
      "seems": 2405,
      "bull": 2406,
      "cre": 2407,
      "determ": 2408,
      "##aked": 2409,
      "wore": 2410,
      "usually": 2411,
      "muscles": 2412,
      "sweat": 2413,
      "aware": 2414,
      "##ession": 2415,
      "##inn": 2416,
      "##acy": 2417,
      "cast": 2418,
      "##achel": 2419,
      "dance": 2420,
      "wine": 2421,
      "gather": 2422,
      "send": 2423,
      "allowed": 2424,
      "##ulous": 2425,
      "##vy": 2426,
      "memory": 2427,
      "inn": 2428,
      "##imed": 2429,
      "marry": 2430,
      "center": 2431,
      "silver": 2432,
      "afterno": 2433,
      "pink": 2434,
      "thrust": 2435,
      "##ault": 2436,
      "delic": 2437,
      "swallowed": 2438,
      "wound": 2439,
      "ahead": 2440,
      "easily": 2441,
      "rain": 2442,
      "showed": 2443,
      "##riage": 2444,
      "const": 2445,
      "##reci": 2446,
      "asks": 2447,
      "breast": 2448,
      "##uct": 2449,
      "helped": 2450,
      "ill": 2451,
      "treat": 2452,
      "kat": 2453,
      "wear": 2454,
      "contact": 2455,
      "absolute": 2456,
      "##oof": 2457,
      "##iam": 2458,
      "memor": 2459,
      "appreci": 2460,
      "pul": 2461,
      "falling": 2462,
      "understood": 2463,
      "##inct": 2464,
      "drop": 2465,
      "##ael": 2466,
      "sav": 2467,
      "beginning": 2468,
      "chase": 2469,
      "walls": 2470,
      "rom": 2471,
      "##otions": 2472,
      "effort": 2473,
      "##onse": 2474,
      "van": 2475,
      "yours": 2476,
      "chlo": 2477,
      "music": 2478,
      "dog": 2479,
      "pushing": 2480,
      "david": 2481,
      "frustr": 2482,
      "afternoon": 2483,
      "neither": 2484,
      "chloe": 2485,
      "embarr": 2486,
      "amazing": 2487,
      "shu": 2488,
      "##come": 2489,
      "demanded": 2490,
      "ended": 2491,
      "area": 2492,
      "calling": 2493,
      "fighting": 2494,
      "personal": 2495,
      "reve": 2496,
      "shoved": 2497,
      "grou": 2498,
      "mirror": 2499,
      "ride": 2500,
      "thighs": 2501,
      "phot": 2502,
      "pour": 2503,
      "grip": 2504,
      "pregn": 2505,
      "carefully": 2506,
      "kisses": 2507,
      "bottle": 2508,
      "phys": 2509,
      "flesh": 2510,
      "##selves": 2511,
      "##ific": 2512,
      "##ection": 2513,
      "##idence": 2514,
      "nic": 2515,
      "share": 2516,
      "response": 2517,
      "scre": 2518,
      "burst": 2519,
      "weird": 2520,
      "special": 2521,
      "##vie": 2522,
      "belong": 2523,
      "surround": 2524,
      "##illed": 2525,
      "attem": 2526,
      "##ues": 2527,
      "grew": 2528,
      "sleeping": 2529,
      "loc": 2530,
      "bal": 2531,
      "##abeth": 2532,
      "leaning": 2533,
      "smooth": 2534,
      "attack": 2535,
      "##ants": 2536,
      "eliz": 2537,
      "une": 2538,
      "suit": 2539,
      "grab": 2540,
      "familiar": 2541,
      "truly": 2542,
      "grim": 2543,
      "bitch": 2544,
      "palm": 2545,
      "often": 2546,
      "gest": 2547,
      "##usion": 2548,
      "starting": 2549,
      "twisted": 2550,
      "darkness": 2551,
      "requ": 2552,
      "bow": 2553,
      "brand": 2554,
      "mike": 2555,
      "learned": 2556,
      "cass": 2557,
      "hea": 2558,
      "julian": 2559,
      "thirty": 2560,
      "further": 2561,
      "##ises": 2562,
      "rubbed": 2563,
      "hosp": 2564,
      "reminded": 2565,
      "sty": 2566,
      "##ressed": 2567,
      "regret": 2568,
      "##cks": 2569,
      "notice": 2570,
      "cand": 2571,
      "mrs": 2572,
      "boys": 2573,
      "gasped": 2574,
      "##rac": 2575,
      "ears": 2576,
      "shoot": 2577,
      "sts": 2578,
      "funny": 2579,
      "brushed": 2580,
      "ol": 2581,
      "dangerous": 2582,
      "certainly": 2583,
      "focus": 2584,
      "dim": 2585,
      "rich": 2586,
      "gets": 2587,
      "##sand": 2588,
      "##ative": 2589,
      "ice": 2590,
      "len": 2591,
      "summer": 2592,
      "older": 2593,
      "path": 2594,
      "arrived": 2595,
      "bite": 2596,
      "##iot": 2597,
      "simple": 2598,
      "jon": 2599,
      "command": 2600,
      "test": 2601,
      "##rupt": 2602,
      "serv": 2603,
      "apparently": 2604,
      "blake": 2605,
      "touching": 2606,
      "band": 2607,
      "pot": 2608,
      "rough": 2609,
      "thousand": 2610,
      "thin": 2611,
      "tightened": 2612,
      "totally": 2613,
      "drove": 2614,
      "age": 2615,
      "level": 2616,
      "earth": 2617,
      "mid": 2618,
      "opening": 2619,
      "pale": 2620,
      "private": 2621,
      "##ages": 2622,
      "##astic": 2623,
      "pier": 2624,
      "track": 2625,
      "mas": 2626,
      "laught": 2627,
      "lights": 2628,
      "note": 2629,
      "store": 2630,
      "laughter": 2631,
      "hospital": 2632,
      "feels": 2633,
      "breathe": 2634,
      "lives": 2635,
      "bir": 2636,
      "clay": 2637,
      "bod": 2638,
      "jerked": 2639,
      "stiff": 2640,
      "elb": 2641,
      "lex": 2642,
      "incred": 2643,
      "wake": 2644,
      "jason": 2645,
      "curled": 2646,
      "female": 2647,
      "groaned": 2648,
      "hanging": 2649,
      "surv": 2650,
      "ah": 2651,
      "mill": 2652,
      "stuck": 2653,
      "##ension": 2654,
      "laid": 2655,
      "rachel": 2656,
      "fool": 2657,
      "jace": 2658,
      "mass": 2659,
      "sucked": 2660,
      "accept": 2661,
      "leather": 2662,
      "simon": 2663,
      "squeezed": 2664,
      "partic": 2665,
      "heal": 2666,
      "victor": 2667,
      "key": 2668,
      "scar": 2669,
      "fresh": 2670,
      "honey": 2671,
      "mel": 2672,
      "jump": 2673,
      "suff": 2674,
      "jud": 2675,
      "uh": 2676,
      "police": 2677,
      "obvious": 2678,
      "explained": 2679,
      "narrowed": 2680,
      "##ayed": 2681,
      "bast": 2682,
      "##leep": 2683,
      "visit": 2684,
      "ky": 2685,
      "godd": 2686,
      "inte": 2687,
      "asleep": 2688,
      "elizabeth": 2689,
      "##ella": 2690,
      "##ik": 2691,
      "shoes": 2692,
      "hotel": 2693,
      "ge": 2694,
      "sen": 2695,
      "considered": 2696,
      "##fast": 2697,
      "wished": 2698,
      "unless": 2699,
      "upon": 2700,
      "##ald": 2701,
      "##asted": 2702,
      "moments": 2703,
      "imposs": 2704,
      "park": 2705,
      "apolog": 2706,
      "sword": 2707,
      "tossed": 2708,
      "anywhere": 2709,
      "reaction": 2710,
      "mac": 2711,
      "powerful": 2712,
      "instantly": 2713,
      "interested": 2714,
      "jase": 2715,
      "##ote": 2716,
      "##ston": 2717,
      "study": 2718,
      "beauty": 2719,
      "hallway": 2720,
      "repeated": 2721,
      "remained": 2722,
      "##roy": 2723,
      "happening": 2724,
      "gorge": 2725,
      "##od": 2726,
      "##ca": 2727,
      "birth": 2728,
      "adm": 2729,
      "mood": 2730,
      "compl": 2731,
      "super": 2732,
      "disappo": 2733,
      "growled": 2734,
      "luis": 2735,
      "anim": 2736,
      "discover": 2737,
      "finish": 2738,
      "turns": 2739,
      "promised": 2740,
      "##ics": 2741,
      "careful": 2742,
      "ren": 2743,
      "mia": 2744,
      "##ural": 2745,
      "clenched": 2746,
      "ways": 2747,
      "finding": 2748,
      "excuse": 2749,
      "group": 2750,
      "swear": 2751,
      "##idden": 2752,
      "gorgeous": 2753,
      "likely": 2754,
      "unable": 2755,
      "diffic": 2756,
      "dig": 2757,
      "warning": 2758,
      "perfectly": 2759,
      "lunch": 2760,
      "motion": 2761,
      "reaching": 2762,
      "jax": 2763,
      "adam": 2764,
      "storm": 2765,
      "gener": 2766,
      "usual": 2767,
      "stun": 2768,
      "liam": 2769,
      "jacket": 2770,
      "##aff": 2771,
      "disappeared": 2772,
      "mort": 2773,
      "beer": 2774,
      "##friend": 2775,
      "energ": 2776,
      "emotions": 2777,
      "##nds": 2778,
      "seven": 2779,
      "ignored": 2780,
      "##line": 2781,
      "intim": 2782,
      "##ries": 2783,
      "iss": 2784,
      "buy": 2785,
      "crack": 2786,
      "decision": 2787,
      "##emon": 2788,
      "inch": 2789,
      "##cho": 2790,
      "lowered": 2791,
      "comfortable": 2792,
      "##par": 2793,
      "experience": 2794,
      "stick": 2795,
      "gift": 2796,
      "marriage": 2797,
      "pub": 2798,
      "claire": 2799,
      "emma": 2800,
      "brothers": 2801,
      "carried": 2802,
      "speaking": 2803,
      "tremb": 2804,
      "crying": 2805,
      "shouted": 2806,
      "driving": 2807,
      "pulls": 2808,
      "upset": 2809,
      "##urity": 2810,
      "fucking": 2811,
      "cleared": 2812,
      "rush": 2813,
      "warri": 2814,
      "domin": 2815,
      "##oud": 2816,
      "missing": 2817,
      "weap": 2818,
      "towards": 2819,
      "beth": 2820,
      "believed": 2821,
      "entered": 2822,
      "pissed": 2823,
      "##roud": 2824,
      "memories": 2825,
      "pop": 2826,
      "feat": 2827,
      "ut": 2828,
      "magn": 2829,
      "##ges": 2830,
      "consider": 2831,
      "##ented": 2832,
      "uncle": 2833,
      "goes": 2834,
      "##owled": 2835,
      "mal": 2836,
      "innoc": 2837,
      "confused": 2838,
      "##oned": 2839,
      "learn": 2840,
      "favorite": 2841,
      "proper": 2842,
      "button": 2843,
      "##allen": 2844,
      "equ": 2845,
      "##oe": 2846,
      "brow": 2847,
      "##uce": 2848,
      "##go": 2849,
      "gigg": 2850,
      "##zen": 2851,
      "daemon": 2852,
      "length": 2853,
      "##vin": 2854,
      "agree": 2855,
      "deeper": 2856,
      "played": 2857,
      "allow": 2858,
      "weeke": 2859,
      "doll": 2860,
      "##ius": 2861,
      "##ope": 2862,
      "kate": 2863,
      "sliding": 2864,
      "losing": 2865,
      "flash": 2866,
      "##str": 2867,
      "text": 2868,
      "gut": 2869,
      "absolutely": 2870,
      "clock": 2871,
      "fault": 2872,
      "focused": 2873,
      "arr": 2874,
      "windows": 2875,
      "offic": 2876,
      "growing": 2877,
      "concern": 2878,
      "chuckled": 2879,
      "boyfriend": 2880,
      "challen": 2881,
      "##ashing": 2882,
      "belly": 2883,
      "involved": 2884,
      "cash": 2885,
      "team": 2886,
      "wave": 2887,
      "passion": 2888,
      "##omfort": 2889,
      "doctor": 2890,
      "dru": 2891,
      "##oying": 2892,
      "huh": 2893,
      "dear": 2894,
      "lift": 2895,
      "released": 2896,
      "##ole": 2897,
      "possess": 2898,
      "##aur": 2899,
      "##for": 2900,
      "prov": 2901,
      "energy": 2902,
      "##amb": 2903,
      "smart": 2904,
      "breathed": 2905,
      "fought": 2906,
      "slammed": 2907,
      "##unity": 2908,
      "humans": 2909,
      "difficult": 2910,
      "##ancy": 2911,
      "enter": 2912,
      "##alous": 2913,
      "impossible": 2914,
      "refused": 2915,
      "mil": 2916,
      "mate": 2917,
      "coat": 2918,
      "respons": 2919,
      "escape": 2920,
      "##rent": 2921,
      "planned": 2922,
      "##gie": 2923,
      "##val": 2924,
      "slept": 2925,
      "instinct": 2926,
      "fil": 2927,
      "burned": 2928,
      "tree": 2929,
      "breakfast": 2930,
      "spell": 2931,
      "prop": 2932,
      "flashed": 2933,
      "intense": 2934,
      "screen": 2935,
      "hi": 2936,
      "ta": 2937,
      "warmth": 2938,
      "viol": 2939,
      "main": 2940,
      "security": 2941,
      "proud": 2942,
      "ava": 2943,
      "##yn": 2944,
      "blind": 2945,
      "plans": 2946,
      "shared": 2947,
      "tightly": 2948,
      "doorway": 2949,
      "don": 2950,
      "##like": 2951,
      "gives": 2952,
      "##ounced": 2953,
      "heels": 2954,
      "fully": 2955,
      "guest": 2956,
      "desperate": 2957,
      "message": 2958,
      "mere": 2959,
      "faster": 2960,
      "sean": 2961,
      "presence": 2962,
      "##het": 2963,
      "yan": 2964,
      "screamed": 2965,
      "##racted": 2966,
      "tab": 2967,
      "concerned": 2968,
      "fant": 2969,
      "##ug": 2970,
      "bodies": 2971,
      "hug": 2972,
      "particular": 2973,
      "tip": 2974,
      "excited": 2975,
      "shudd": 2976,
      "kicked": 2977,
      "staying": 2978,
      "til": 2979,
      "##anted": 2980,
      "##ived": 2981,
      "worst": 2982,
      "elev": 2983,
      "kick": 2984,
      "cru": 2985,
      "james": 2986,
      "wrist": 2987,
      "pool": 2988,
      "unb": 2989,
      "mic": 2990,
      "##uff": 2991,
      "slee": 2992,
      "##ring": 2993,
      "trist": 2994,
      "panic": 2995,
      "peace": 2996,
      "pregnant": 2997,
      "master": 2998,
      "##ey": 2999,
      "##arm": 3000,
      "##cer": 3001,
      "knife": 3002,
      "considering": 3003,
      "restaur": 3004,
      "extra": 3005,
      "wonderful": 3006,
      "fist": 3007,
      "hearing": 3008,
      "hat": 3009,
      "port": 3010,
      "clut": 3011,
      "##izz": 3012,
      "screw": 3013,
      "colle": 3014,
      "eventually": 3015,
      "battle": 3016,
      "waved": 3017,
      "poor": 3018,
      "pressing": 3019,
      "##ified": 3020,
      "trail": 3021,
      "possibly": 3022,
      "cook": 3023,
      "trees": 3024,
      "##ibility": 3025,
      "shop": 3026,
      "prefer": 3027,
      "imm": 3028,
      "acce": 3029,
      "includ": 3030,
      "##inging": 3031,
      "risk": 3032,
      "following": 3033,
      "oppos": 3034,
      "reb": 3035,
      "sed": 3036,
      "##ker": 3037,
      "jealous": 3038,
      "sink": 3039,
      "twice": 3040,
      "snow": 3041,
      "##asy": 3042,
      "bound": 3043,
      "##oose": 3044,
      "studied": 3045,
      "boss": 3046,
      "purp": 3047,
      "ling": 3048,
      "sides": 3049,
      "jam": 3050,
      "beg": 3051,
      "aunt": 3052,
      "surf": 3053,
      "mistake": 3054,
      "smir": 3055,
      "mot": 3056,
      "lad": 3057,
      "butt": 3058,
      "hungry": 3059,
      "##imp": 3060,
      "handsome": 3061,
      "##rified": 3062,
      "##unately": 3063,
      "trip": 3064,
      "hen": 3065,
      "horse": 3066,
      "##cher": 3067,
      "##athan": 3068,
      "welcome": 3069,
      "below": 3070,
      "admitted": 3071,
      "places": 3072,
      "##ana": 3073,
      "heading": 3074,
      "dust": 3075,
      "##itched": 3076,
      "speed": 3077,
      "##ading": 3078,
      "##rid": 3079,
      "soc": 3080,
      "tex": 3081,
      "steady": 3082,
      "rul": 3083,
      "breaking": 3084,
      "skirt": 3085,
      "stretched": 3086,
      "subject": 3087,
      "ordered": 3088,
      "destroy": 3089,
      "##ses": 3090,
      "weekend": 3091,
      "bear": 3092,
      "type": 3093,
      "nate": 3094,
      "easier": 3095,
      "hello": 3096,
      "court": 3097,
      "jess": 3098,
      "##iley": 3099,
      "moon": 3100,
      "shocked": 3101,
      "##rage": 3102,
      "obs": 3103,
      "relaxed": 3104,
      "eager": 3105,
      "listening": 3106,
      "books": 3107,
      "knee": 3108,
      "ment": 3109,
      "loose": 3110,
      "effect": 3111,
      "cared": 3112,
      "cause": 3113,
      "purse": 3114,
      "excite": 3115,
      "paid": 3116,
      "cabin": 3117,
      "rap": 3118,
      "gras": 3119,
      "viv": 3120,
      "##oll": 3121,
      "##right": 3122,
      "circle": 3123,
      "spir": 3124,
      "determined": 3125,
      "girlf": 3126,
      "org": 3127,
      "dreams": 3128,
      "girlfriend": 3129,
      "##oved": 3130,
      "bought": 3131,
      "vision": 3132,
      "nipp": 3133,
      "##ball": 3134,
      "temp": 3135,
      "plate": 3136,
      "joh": 3137,
      "fort": 3138,
      "bun": 3139,
      "##ids": 3140,
      "bastard": 3141,
      "hesitated": 3142,
      "sne": 3143,
      "crap": 3144,
      "fallen": 3145,
      "parking": 3146,
      "dare": 3147,
      "thor": 3148,
      "##ique": 3149,
      "##lessly": 3150,
      "aut": 3151,
      "third": 3152,
      "fab": 3153,
      "hardly": 3154,
      "##mas": 3155,
      "continue": 3156,
      "echo": 3157,
      "jew": 3158,
      "chang": 3159,
      "rece": 3160,
      "defe": 3161,
      "present": 3162,
      "unf": 3163,
      "nur": 3164,
      "fift": 3165,
      "princ": 3166,
      "excitement": 3167,
      "tension": 3168,
      "card": 3169,
      "knock": 3170,
      "decide": 3171,
      "##ives": 3172,
      "##ners": 3173,
      "burning": 3174,
      "hiding": 3175,
      "themselves": 3176,
      "forgotten": 3177,
      "##rod": 3178,
      "##ica": 3179,
      "movie": 3180,
      "shadow": 3181,
      "##cted": 3182,
      "flick": 3183,
      "closing": 3184,
      "ceiling": 3185,
      "jes": 3186,
      "clary": 3187,
      "metal": 3188,
      "craw": 3189,
      "discuss": 3190,
      "noise": 3191,
      "brows": 3192,
      "mount": 3193,
      "wolf": 3194,
      "drunk": 3195,
      "climbed": 3196,
      "shift": 3197,
      "dy": 3198,
      "boots": 3199,
      "caused": 3200,
      "lovely": 3201,
      "glared": 3202,
      "div": 3203,
      "##zing": 3204,
      "features": 3205,
      "##idge": 3206,
      "shall": 3207,
      "tort": 3208,
      "beach": 3209,
      "image": 3210,
      "respect": 3211,
      "prince": 3212,
      "##rupted": 3213,
      "tender": 3214,
      "bringing": 3215,
      "yester": 3216,
      "##mer": 3217,
      "succ": 3218,
      "ju": 3219,
      "##board": 3220,
      "panties": 3221,
      "yesterday": 3222,
      "tristan": 3223,
      "showing": 3224,
      "suck": 3225,
      "buck": 3226,
      "rad": 3227,
      "##miss": 3228,
      "driver": 3229,
      "blame": 3230,
      "golden": 3231,
      "pee": 3232,
      "opposite": 3233,
      "##hood": 3234,
      "camp": 3235,
      "##py": 3236,
      "slide": 3237,
      "blow": 3238,
      "josh": 3239,
      "suggest": 3240,
      "##aming": 3241,
      "invest": 3242,
      "accident": 3243,
      "release": 3244,
      "##ordan": 3245,
      "prev": 3246,
      "nine": 3247,
      "##anda": 3248,
      "necess": 3249,
      "mostly": 3250,
      "exha": 3251,
      "por": 3252,
      "public": 3253,
      "awk": 3254,
      "psy": 3255,
      "uncomfort": 3256,
      "cream": 3257,
      "awkward": 3258,
      "regard": 3259,
      "badly": 3260,
      "forth": 3261,
      "eyebrows": 3262,
      "rushed": 3263,
      "drag": 3264,
      "stor": 3265,
      "woke": 3266,
      "restaurant": 3267,
      "##iety": 3268,
      "lucien": 3269,
      "claim": 3270,
      "cost": 3271,
      "caress": 3272,
      "dirty": 3273,
      "unfort": 3274,
      "process": 3275,
      "jordan": 3276,
      "loving": 3277,
      "lat": 3278,
      "tugged": 3279,
      "aud": 3280,
      "trick": 3281,
      "swung": 3282,
      "college": 3283,
      "##antic": 3284,
      "join": 3285,
      "pictures": 3286,
      "blur": 3287,
      "betr": 3288,
      "##bast": 3289,
      "##ensive": 3290,
      "tucked": 3291,
      "##gl": 3292,
      "irrit": 3293,
      "song": 3294,
      "sebast": 3295,
      "reading": 3296,
      "##agged": 3297,
      "refle": 3298,
      "##bby": 3299,
      "cole": 3300,
      "##ency": 3301,
      "inj": 3302,
      "helping": 3303,
      "rafe": 3304,
      "##vet": 3305,
      "##bing": 3306,
      "hint": 3307,
      "##atic": 3308,
      "pressure": 3309,
      "vib": 3310,
      "##ena": 3311,
      "ivy": 3312,
      "widened": 3313,
      "sha": 3314,
      "checked": 3315,
      "purpose": 3316,
      "##otte": 3317,
      "final": 3318,
      "directly": 3319,
      "##lin": 3320,
      "arched": 3321,
      "deeply": 3322,
      "tick": 3323,
      "reply": 3324,
      "wes": 3325,
      "##iculous": 3326,
      "tear": 3327,
      "witch": 3328,
      "comput": 3329,
      "cel": 3330,
      "##iana": 3331,
      "sebastian": 3332,
      "lee": 3333,
      "deliver": 3334,
      "mich": 3335,
      "##yal": 3336,
      "joe": 3337,
      "hidden": 3338,
      "vir": 3339,
      "gard": 3340,
      "##ern": 3341,
      "feed": 3342,
      "entr": 3343,
      "field": 3344,
      "##attered": 3345,
      "sending": 3346,
      "guilt": 3347,
      "##lle": 3348,
      "spark": 3349,
      "ignore": 3350,
      "grate": 3351,
      "mix": 3352,
      "##annah": 3353,
      "kee": 3354,
      "opt": 3355,
      "imagined": 3356,
      "dragged": 3357,
      "eating": 3358,
      "fifteen": 3359,
      "lightly": 3360,
      "staff": 3361,
      "groan": 3362,
      "dick": 3363,
      "licked": 3364,
      "born": 3365,
      "support": 3366,
      "relie": 3367,
      "antic": 3368,
      "##ka": 3369,
      "buried": 3370,
      "towel": 3371,
      "pleased": 3372,
      "##mother": 3373,
      "##entr": 3374,
      "fang": 3375,
      "yelled": 3376,
      "ja": 3377,
      "happens": 3378,
      "calls": 3379,
      "separ": 3380,
      "experien": 3381,
      "interesting": 3382,
      "##thy": 3383,
      "heaven": 3384,
      "gods": 3385,
      "hy": 3386,
      "evil": 3387,
      "anticip": 3388,
      "lab": 3389,
      "bry": 3390,
      "disg": 3391,
      "urge": 3392,
      "rh": 3393,
      "concentr": 3394,
      "post": 3395,
      "killing": 3396,
      "tele": 3397,
      "otherw": 3398,
      "pure": 3399,
      "searching": 3400,
      "##ipp": 3401,
      "greet": 3402,
      "surre": 3403,
      "comment": 3404,
      "entirely": 3405,
      "##ashes": 3406,
      "curt": 3407,
      "sensation": 3408,
      "hip": 3409,
      "christmas": 3410,
      "##cri": 3411,
      "demons": 3412,
      "shadows": 3413,
      "prepared": 3414,
      "wheel": 3415,
      "vibr": 3416,
      "wings": 3417,
      "##itive": 3418,
      "nik": 3419,
      "anx": 3420,
      "sexual": 3421,
      "alec": 3422,
      "opport": 3423,
      "fury": 3424,
      "rang": 3425,
      "john": 3426,
      "rising": 3427,
      "whenever": 3428,
      "expecting": 3429,
      "les": 3430,
      "##nday": 3431,
      "suspic": 3432,
      "numb": 3433,
      "##omed": 3434,
      "paris": 3435,
      "pause": 3436,
      "##house": 3437,
      "est": 3438,
      "pieces": 3439,
      "prove": 3440,
      "##ills": 3441,
      "scene": 3442,
      "fier": 3443,
      "##form": 3444,
      "rage": 3445,
      "cous": 3446,
      "faint": 3447,
      "resist": 3448,
      "elevator": 3449,
      "##inting": 3450,
      "island": 3451,
      "scra": 3452,
      "fingert": 3453,
      "size": 3454,
      "attempt": 3455,
      "tun": 3456,
      "board": 3457,
      "practically": 3458,
      "temper": 3459,
      "cow": 3460,
      "among": 3461,
      "spun": 3462,
      "mentioned": 3463,
      "folded": 3464,
      "ridiculous": 3465,
      "faced": 3466,
      "##ades": 3467,
      "frank": 3468,
      "eyed": 3469,
      "teasing": 3470,
      "current": 3471,
      "hig": 3472,
      "tang": 3473,
      "drawing": 3474,
      "wow": 3475,
      "##illy": 3476,
      "##itude": 3477,
      "rum": 3478,
      "bitter": 3479,
      "grown": 3480,
      "lifting": 3481,
      "arg": 3482,
      "rested": 3483,
      "gripped": 3484,
      "hist": 3485,
      "itself": 3486,
      "##key": 3487,
      "chick": 3488,
      "eve": 3489,
      "honestly": 3490,
      "accom": 3491,
      "##ooked": 3492,
      "ting": 3493,
      "smiles": 3494,
      "exist": 3495,
      "avoid": 3496,
      "surely": 3497,
      "cree": 3498,
      "whit": 3499,
      "rolling": 3500,
      "pretend": 3501,
      "upstairs": 3502,
      "##idding": 3503,
      "thinks": 3504,
      "stab": 3505,
      "##aly": 3506,
      "lines": 3507,
      "##intment": 3508,
      "dere": 3509,
      "double": 3510,
      "slip": 3511,
      "mary": 3512,
      "rare": 3513,
      "charlotte": 3514,
      "solid": 3515,
      "##ost": 3516,
      "knocked": 3517,
      "throwing": 3518,
      "##ham": 3519,
      "prison": 3520,
      "##ama": 3521,
      "fu": 3522,
      "##ils": 3523,
      "##iolet": 3524,
      "moan": 3525,
      "##reme": 3526,
      "enem": 3527,
      "reality": 3528,
      "##ety": 3529,
      "william": 3530,
      "overw": 3531,
      "glare": 3532,
      "approached": 3533,
      "ryan": 3534,
      "flew": 3535,
      "##ution": 3536,
      "##ledge": 3537,
      "spine": 3538,
      "writ": 3539,
      "##night": 3540,
      "terrible": 3541,
      "##asion": 3542,
      "violet": 3543,
      "moaned": 3544,
      "tilted": 3545,
      "zoe": 3546,
      "sir": 3547,
      "um": 3548,
      "derek": 3549,
      "appreciate": 3550,
      "keys": 3551,
      "computer": 3552,
      "mart": 3553,
      "miles": 3554,
      "planning": 3555,
      "instant": 3556,
      "elect": 3557,
      "warned": 3558,
      "##aine": 3559,
      "awake": 3560,
      "ken": 3561,
      "wand": 3562,
      "murder": 3563,
      "frustration": 3564,
      "##iday": 3565,
      "sold": 3566,
      "physical": 3567,
      "firmly": 3568,
      "annoy": 3569,
      "froze": 3570,
      "gle": 3571,
      "setting": 3572,
      "country": 3573,
      "swept": 3574,
      "joined": 3575,
      "##add": 3576,
      "arou": 3577,
      "non": 3578,
      "##port": 3579,
      "belt": 3580,
      "base": 3581,
      "silently": 3582,
      "##ocol": 3583,
      "closet": 3584,
      "inde": 3585,
      "##aul": 3586,
      "maj": 3587,
      "lexi": 3588,
      "shield": 3589,
      "reasons": 3590,
      "fierce": 3591,
      "lust": 3592,
      "soot": 3593,
      "joy": 3594,
      "rob": 3595,
      "idiot": 3596,
      "##aging": 3597,
      "vic": 3598,
      "rubbing": 3599,
      "entrance": 3600,
      "cloud": 3601,
      "backward": 3602,
      "di": 3603,
      "deb": 3604,
      "meaning": 3605,
      "##ague": 3606,
      "unw": 3607,
      "harm": 3608,
      "honor": 3609,
      "neigh": 3610,
      "##ume": 3611,
      "damned": 3612,
      "##res": 3613,
      "fright": 3614,
      "dancing": 3615,
      "tatt": 3616,
      "neighb": 3617,
      "chat": 3618,
      "jackson": 3619,
      "sip": 3620,
      "comb": 3621,
      "recognized": 3622,
      "enjoyed": 3623,
      "lace": 3624,
      "marsh": 3625,
      "gabe": 3626,
      "dylan": 3627,
      "glasses": 3628,
      "##stem": 3629,
      "hart": 3630,
      "underne": 3631,
      "details": 3632,
      "underneath": 3633,
      "var": 3634,
      "pillow": 3635,
      "curious": 3636,
      "colin": 3637,
      "isabella": 3638,
      "##ago": 3639,
      "carrying": 3640,
      "vol": 3641,
      "michael": 3642,
      "built": 3643,
      "##iona": 3644,
      "system": 3645,
      "stir": 3646,
      "flying": 3647,
      "##ron": 3648,
      "fren": 3649,
      "landed": 3650,
      "fi": 3651,
      "##lled": 3652,
      "pride": 3653,
      "unfortunately": 3654,
      "otherwise": 3655,
      "##father": 3656,
      "drif": 3657,
      "enjoying": 3658,
      "grandmother": 3659,
      "listened": 3660,
      "scrat": 3661,
      "dying": 3662,
      "kim": 3663,
      "lucy": 3664,
      "##yer": 3665,
      "indic": 3666,
      "callum": 3667,
      "blanket": 3668,
      "adj": 3669,
      "delight": 3670,
      "answers": 3671,
      "inh": 3672,
      "##ground": 3673,
      "screaming": 3674,
      "deserve": 3675,
      "grateful": 3676,
      "rub": 3677,
      "uncomfortable": 3678,
      "hurry": 3679,
      "tattoo": 3680,
      "sank": 3681,
      "plenty": 3682,
      "movement": 3683,
      "relieved": 3684,
      "##cil": 3685,
      "##ury": 3686,
      "gh": 3687,
      "knowledge": 3688,
      "##ott": 3689,
      "bloody": 3690,
      "opportunity": 3691,
      "hugged": 3692,
      "##oted": 3693,
      "##rect": 3694,
      "plane": 3695,
      "spin": 3696,
      "brush": 3697,
      "abrupt": 3698,
      "henry": 3699,
      "flipped": 3700,
      "holy": 3701,
      "##andra": 3702,
      "ron": 3703,
      "##illing": 3704,
      "madd": 3705,
      "lied": 3706,
      "problems": 3707,
      "nights": 3708,
      "poured": 3709,
      "stream": 3710,
      "tea": 3711,
      "collar": 3712,
      "pace": 3713,
      "underw": 3714,
      "stal": 3715,
      "uns": 3716,
      "struck": 3717,
      "faded": 3718,
      "libr": 3719,
      "##view": 3720,
      "claw": 3721,
      "tan": 3722,
      "twist": 3723,
      "lack": 3724,
      "clit": 3725,
      "wiped": 3726,
      "utter": 3727,
      "san": 3728,
      "innocent": 3729,
      "fif": 3730,
      "##eless": 3731,
      "scan": 3732,
      "balls": 3733,
      "##uries": 3734,
      "tar": 3735,
      "wit": 3736,
      "##ese": 3737,
      "abby": 3738,
      "ya": 3739,
      "york": 3740,
      "waves": 3741,
      "cute": 3742,
      "drinking": 3743,
      "flight": 3744,
      "fal": 3745,
      "wrap": 3746,
      "commit": 3747,
      "curse": 3748,
      "embarrass": 3749,
      "everywhere": 3750,
      "convince": 3751,
      "##ille": 3752,
      "exch": 3753,
      "orgasm": 3754,
      "jim": 3755,
      "atte": 3756,
      "overwhel": 3757,
      "heads": 3758,
      "muscle": 3759,
      "hannah": 3760,
      "broad": 3761,
      "beast": 3762,
      "jesus": 3763,
      "harsh": 3764,
      "jared": 3765,
      "stroked": 3766,
      "##work": 3767,
      "##ploy": 3768,
      "amy": 3769,
      "##rest": 3770,
      "tie": 3771,
      "acting": 3772,
      "flowers": 3773,
      "stopping": 3774,
      "suppose": 3775,
      "record": 3776,
      "holly": 3777,
      "ignoring": 3778,
      "ripped": 3779,
      "##agger": 3780,
      "psych": 3781,
      "silk": 3782,
      "surface": 3783,
      "suggested": 3784,
      "##ante": 3785,
      "prod": 3786,
      "layne": 3787,
      "dal": 3788,
      "vill": 3789,
      "obl": 3790,
      "lake": 3791,
      "saved": 3792,
      "introd": 3793,
      "##pting": 3794,
      "backed": 3795,
      "cooper": 3796,
      "dais": 3797,
      "##iest": 3798,
      "squeeze": 3799,
      "confusion": 3800,
      "lily": 3801,
      "yanked": 3802,
      "snar": 3803,
      "nipple": 3804,
      "ease": 3805,
      "jaen": 3806,
      "##vered": 3807,
      "nobody": 3808,
      "##ira": 3809,
      "fists": 3810,
      "jaenelle": 3811,
      "stunned": 3812,
      "downstairs": 3813,
      "fer": 3814,
      "palms": 3815,
      "teased": 3816,
      "amount": 3817,
      "pounding": 3818,
      "affect": 3819,
      "becoming": 3820,
      "tense": 3821,
      "jenks": 3822,
      "dating": 3823,
      "assumed": 3824,
      "warrior": 3825,
      "stage": 3826,
      "aid": 3827,
      "sev": 3828,
      "extreme": 3829,
      "emer": 3830,
      "mason": 3831,
      "history": 3832,
      "tv": 3833,
      "porch": 3834,
      "morgan": 3835,
      "##umbling": 3836,
      "chocol": 3837,
      "##ider": 3838,
      "boat": 3839,
      "forgive": 3840,
      "hole": 3841,
      "##iant": 3842,
      "action": 3843,
      "##time": 3844,
      "bride": 3845,
      "##igned": 3846,
      "##under": 3847,
      "gathered": 3848,
      "##uit": 3849,
      "choose": 3850,
      "rooms": 3851,
      "##arily": 3852,
      "##eled": 3853,
      "sophia": 3854,
      "##aper": 3855,
      "cameron": 3856,
      "##ivar": 3857,
      "elbow": 3858,
      "descri": 3859,
      "##rett": 3860,
      "vinc": 3861,
      "lucivar": 3862,
      "stronger": 3863,
      "##gant": 3864,
      "faces": 3865,
      "sco": 3866,
      "##issa": 3867,
      "loss": 3868,
      "bones": 3869,
      "ability": 3870,
      "smelled": 3871,
      "rules": 3872,
      "mach": 3873,
      "sque": 3874,
      "struggled": 3875,
      "##rib": 3876,
      "sac": 3877,
      "straightened": 3878,
      "birthday": 3879,
      "grabbing": 3880,
      "saf": 3881,
      "insisted": 3882,
      "dut": 3883,
      "victoria": 3884,
      "damp": 3885,
      "pred": 3886,
      "hurried": 3887,
      "connor": 3888,
      "princess": 3889,
      "sinc": 3890,
      "younger": 3891,
      "tech": 3892,
      "powers": 3893,
      "remain": 3894,
      "##fit": 3895,
      "##otic": 3896,
      "charlie": 3897,
      "blade": 3898,
      "quinn": 3899,
      "surrounded": 3900,
      "##lish": 3901,
      "search": 3902,
      "##mp": 3903,
      "marc": 3904,
      "higher": 3905,
      "interrupted": 3906,
      "desperately": 3907,
      "reass": 3908,
      "ank": 3909,
      "##ilar": 3910,
      "##gar": 3911,
      "trave": 3912,
      "removed": 3913,
      "##irled": 3914,
      "flut": 3915,
      "##ocking": 3916,
      "connection": 3917,
      "unlike": 3918,
      "starts": 3919,
      "sniff": 3920,
      "##ument": 3921,
      "delicious": 3922,
      "prec": 3923,
      "resting": 3924,
      "skyla": 3925,
      "swift": 3926,
      "whose": 3927,
      "iron": 3928,
      "challenge": 3929,
      "glow": 3930,
      "assist": 3931,
      "furn": 3932,
      "bigger": 3933,
      "sell": 3934,
      "horrible": 3935,
      "fingertips": 3936,
      "employ": 3937,
      "bella": 3938,
      "deserved": 3939,
      "trembling": 3940,
      "aband": 3941,
      "beating": 3942,
      "normally": 3943,
      "popped": 3944,
      "host": 3945,
      "ari": 3946,
      "picking": 3947,
      "necessary": 3948,
      "garrett": 3949,
      "jet": 3950,
      "##sion": 3951,
      "fabric": 3952,
      "rise": 3953,
      "dropping": 3954,
      "protest": 3955,
      "including": 3956,
      "million": 3957,
      "forcing": 3958,
      "incre": 3959,
      "daddy": 3960,
      "suspected": 3961,
      "amb": 3962,
      "##ppy": 3963,
      "horror": 3964,
      "split": 3965,
      "##ogra": 3966,
      "charge": 3967,
      "nightm": 3968,
      "animal": 3969,
      "garden": 3970,
      "spoken": 3971,
      "covers": 3972,
      "cupped": 3973,
      "intens": 3974,
      "intended": 3975,
      "andre": 3976,
      "nowhere": 3977,
      "difference": 3978,
      "success": 3979,
      "##ddy": 3980,
      "stat": 3981,
      "vul": 3982,
      "painful": 3983,
      "embr": 3984,
      "##idy": 3985,
      "amel": 3986,
      "rever": 3987,
      "##ios": 3988,
      "intent": 3989,
      "leaves": 3990,
      "snorted": 3991,
      "cele": 3992,
      "##raction": 3993,
      "##bers": 3994,
      "tour": 3995,
      "occasion": 3996,
      "dirt": 3997,
      "surprising": 3998,
      "tied": 3999,
      "shape": 4000,
      "insane": 4001,
      "parked": 4002,
      "tent": 4003,
      "##inced": 4004,
      "natural": 4005,
      "##ences": 4006,
      "cust": 4007,
      "mod": 4008,
      "wicked": 4009,
      "##uced": 4010,
      "celebr": 4011,
      "loves": 4012,
      "cord": 4013,
      "teen": 4014,
      "nightmare": 4015,
      "nathan": 4016,
      "convinced": 4017,
      "##icing": 4018,
      "guil": 4019,
      "##ola": 4020,
      "##ilities": 4021,
      "lover": 4022,
      "mc": 4023,
      "embarrassed": 4024,
      "##erial": 4025,
      "mall": 4026,
      "drawn": 4027,
      "river": 4028,
      "##ste": 4029,
      "glancing": 4030,
      "##velop": 4031,
      "sofa": 4032,
      "punish": 4033,
      "gw": 4034,
      "guards": 4035,
      "##dding": 4036,
      "amuse": 4037,
      "decl": 4038,
      "guilty": 4039,
      "##iving": 4040,
      "chocolate": 4041,
      "facing": 4042,
      "##inger": 4043,
      "bru": 4044,
      "match": 4045,
      "station": 4046,
      "damien": 4047,
      "failed": 4048,
      "accepted": 4049,
      "shifter": 4050,
      "ident": 4051,
      "dug": 4052,
      "ai": 4053,
      "freaking": 4054,
      "##heart": 4055,
      "argue": 4056,
      "works": 4057,
      "sofia": 4058,
      "pulse": 4059,
      "liqu": 4060,
      "swim": 4061,
      "riley": 4062,
      "##ously": 4063,
      "gasp": 4064,
      "##ris": 4065,
      "displ": 4066,
      "cousin": 4067,
      "cad": 4068,
      "row": 4069,
      "hissed": 4070,
      "##iment": 4071,
      "settle": 4072,
      "weapon": 4073,
      "snat": 4074,
      "glo": 4075,
      "##asha": 4076,
      "ms": 4077,
      "confir": 4078,
      "ack": 4079,
      "##den": 4080,
      "holl": 4081,
      "kidding": 4082,
      "pers": 4083,
      "##bert": 4084,
      "shay": 4085,
      "smoke": 4086,
      "material": 4087,
      "discovered": 4088,
      "##itation": 4089,
      "spending": 4090,
      "misty": 4091,
      "##itted": 4092,
      "secrets": 4093,
      "kin": 4094,
      "tam": 4095,
      "tore": 4096,
      "goddam": 4097,
      "tess": 4098,
      "zach": 4099,
      "occur": 4100,
      "##rection": 4101,
      "steel": 4102,
      "investig": 4103,
      "lungs": 4104,
      "emily": 4105,
      "cop": 4106,
      "declan": 4107,
      "dalton": 4108,
      "##antage": 4109,
      "##sie": 4110,
      "understanding": 4111,
      "west": 4112,
      "grass": 4113,
      "##unted": 4114,
      "##ailing": 4115,
      "##asty": 4116,
      "instru": 4117,
      "sensed": 4118,
      "papers": 4119,
      "ori": 4120,
      "grinning": 4121,
      "upper": 4122,
      "##aying": 4123,
      "stubb": 4124,
      "tig": 4125,
      "cheer": 4126,
      "cale": 4127,
      "inches": 4128,
      "thrown": 4129,
      "parted": 4130,
      "experienced": 4131,
      "sophie": 4132,
      "joke": 4133,
      "##uses": 4134,
      "amused": 4135,
      "sweetheart": 4136,
      "yellow": 4137,
      "assured": 4138,
      "exam": 4139,
      "reluct": 4140,
      "startled": 4141,
      "flood": 4142,
      "butter": 4143,
      "gown": 4144,
      "tit": 4145,
      "daisy": 4146,
      "lang": 4147,
      "mck": 4148,
      "raw": 4149,
      "capable": 4150,
      "ate": 4151,
      "##nowled": 4152,
      "vulner": 4153,
      "##che": 4154,
      "##ico": 4155,
      "##beat": 4156,
      "square": 4157,
      "library": 4158,
      "rib": 4159,
      "##umps": 4160,
      "toes": 4161,
      "disgust": 4162,
      "broo": 4163,
      "##acks": 4164,
      "grandfather": 4165,
      "##ational": 4166,
      "marshall": 4167,
      "service": 4168,
      "##urch": 4169,
      "plus": 4170,
      "acknowled": 4171,
      "##ixt": 4172,
      "##ndon": 4173,
      "kane": 4174,
      "teac": 4175,
      "tells": 4176,
      "chic": 4177,
      "worn": 4178,
      "offering": 4179,
      "terrified": 4180,
      "blew": 4181,
      "##cul": 4182,
      "vac": 4183,
      "meal": 4184,
      "nods": 4185,
      "##ium": 4186,
      "julie": 4187,
      "woods": 4188,
      "wash": 4189,
      "twel": 4190,
      "sour": 4191,
      "sake": 4192,
      "whoever": 4193,
      "##ette": 4194,
      "manage": 4195,
      "anton": 4196,
      "responded": 4197,
      "jamie": 4198,
      "impat": 4199,
      "gwen": 4200,
      "gy": 4201,
      "won": 4202,
      "survive": 4203,
      "graham": 4204,
      "shorts": 4205,
      "##ias": 4206,
      "shakes": 4207,
      "heavily": 4208,
      "vincent": 4209,
      "partner": 4210,
      "##istic": 4211,
      "##isa": 4212,
      "recognize": 4213,
      "cha": 4214,
      "filling": 4215,
      "nails": 4216,
      "kit": 4217,
      "##bel": 4218,
      "happiness": 4219,
      "oce": 4220,
      "recall": 4221,
      "##eline": 4222,
      "awful": 4223,
      "common": 4224,
      "engine": 4225,
      "ache": 4226,
      "##wood": 4227,
      "whispers": 4228,
      "race": 4229,
      "champ": 4230,
      "fat": 4231,
      "roof": 4232,
      "wrapping": 4233,
      "created": 4234,
      "amusement": 4235,
      "ghost": 4236,
      "pit": 4237,
      "exhausted": 4238,
      "dun": 4239,
      "marcus": 4240,
      "hud": 4241,
      "deny": 4242,
      "##ceed": 4243,
      "bree": 4244,
      "##asc": 4245,
      "##aky": 4246,
      "vel": 4247,
      "##hew": 4248,
      "stepping": 4249,
      "##etan": 4250,
      "stubborn": 4251,
      "strang": 4252,
      "dining": 4253,
      "causing": 4254,
      "humor": 4255,
      "ban": 4256,
      "inner": 4257,
      "wooden": 4258,
      "total": 4259,
      "shame": 4260,
      "casual": 4261,
      "blonde": 4262,
      "shivered": 4263,
      "twelve": 4264,
      "london": 4265,
      "##amped": 4266,
      "alice": 4267,
      "lone": 4268,
      "shrug": 4269,
      "trailed": 4270,
      "senses": 4271,
      "covering": 4272,
      "intern": 4273,
      "nature": 4274,
      "bay": 4275,
      "##itor": 4276,
      "##cent": 4277,
      "sheets": 4278,
      "cursed": 4279,
      "contract": 4280,
      "merely": 4281,
      "hudson": 4282,
      "##icle": 4283,
      "sea": 4284,
      "safety": 4285,
      "saetan": 4286,
      "hurting": 4287,
      "##end": 4288,
      "conner": 4289,
      "rule": 4290,
      "shade": 4291,
      "train": 4292,
      "sin": 4293,
      "##top": 4294,
      "hector": 4295,
      "nope": 4296,
      "nerves": 4297,
      "account": 4298,
      "satisfied": 4299,
      "ladies": 4300,
      "react": 4301,
      "cred": 4302,
      "fart": 4303,
      "##stand": 4304,
      "height": 4305,
      "##pet": 4306,
      "robe": 4307,
      "##men": 4308,
      "chose": 4309,
      "wrists": 4310,
      "##ona": 4311,
      "paying": 4312,
      "sounding": 4313,
      "bothered": 4314,
      "anna": 4315,
      "##agg": 4316,
      "breasts": 4317,
      "aver": 4318,
      "lots": 4319,
      "gesture": 4320,
      "briefly": 4321,
      "anc": 4322,
      "letter": 4323,
      "travel": 4324,
      "cars": 4325,
      "satisfaction": 4326,
      "chain": 4327,
      "##ffed": 4328,
      "witness": 4329,
      "##vor": 4330,
      "unex": 4331,
      "leading": 4332,
      "likes": 4333,
      "report": 4334,
      "evan": 4335,
      "abruptly": 4336,
      "goddess": 4337,
      "jerk": 4338,
      "##ective": 4339,
      "fash": 4340,
      "##wal": 4341,
      "mack": 4342,
      "decor": 4343,
      "giant": 4344,
      "jane": 4345,
      "blink": 4346,
      "seth": 4347,
      "ocean": 4348,
      "bags": 4349,
      "##essed": 4350,
      "##iber": 4351,
      "exte": 4352,
      "evidence": 4353,
      "erection": 4354,
      "correct": 4355,
      "sched": 4356,
      "sooner": 4357,
      "nearby": 4358,
      "dozen": 4359,
      "babe": 4360,
      "dawn": 4361,
      "wren": 4362,
      "oper": 4363,
      "##iper": 4364,
      "makeup": 4365,
      "distracted": 4366,
      "wan": 4367,
      "fixed": 4368,
      "slapped": 4369,
      "freed": 4370,
      "frame": 4371,
      "tur": 4372,
      "nap": 4373,
      "bone": 4374,
      "cher": 4375,
      "grad": 4376,
      "yep": 4377,
      "anticipation": 4378,
      "clar": 4379,
      "mumbled": 4380,
      "parts": 4381,
      "block": 4382,
      "ine": 4383,
      "holds": 4384,
      "catching": 4385,
      "passing": 4386,
      "amer": 4387,
      "##iction": 4388,
      "##uine": 4389,
      "stranger": 4390,
      "bleed": 4391,
      "explan": 4392,
      "announced": 4393,
      "geor": 4394,
      "ship": 4395,
      "forty": 4396,
      "##sal": 4397,
      "##gress": 4398,
      "rick": 4399,
      "ec": 4400,
      "taught": 4401,
      "callie": 4402,
      "gate": 4403,
      "isabelle": 4404,
      "quar": 4405,
      "fashion": 4406,
      "sway": 4407,
      "wis": 4408,
      "halfway": 4409,
      "ked": 4410,
      "mered": 4411,
      "garage": 4412,
      "oliv": 4413,
      "##ception": 4414,
      "advantage": 4415,
      "quit": 4416,
      "##azed": 4417,
      "refer": 4418,
      "finn": 4419,
      "satur": 4420,
      "jonas": 4421,
      "meredith": 4422,
      "cro": 4423,
      "##erv": 4424,
      "tipped": 4425,
      "maggie": 4426,
      "swallow": 4427,
      "indeed": 4428,
      "genuine": 4429,
      "olivia": 4430,
      "chairs": 4431,
      "stands": 4432,
      "whitney": 4433,
      "incredible": 4434,
      "church": 4435,
      "tail": 4436,
      "sisters": 4437,
      "constant": 4438,
      "accord": 4439,
      "depe": 4440,
      "tiger": 4441,
      "major": 4442,
      "dread": 4443,
      "belle": 4444,
      "##mi": 4445,
      "bank": 4446,
      "washed": 4447,
      "rhy": 4448,
      "styx": 4449,
      "hmm": 4450,
      "members": 4451,
      "potent": 4452,
      "chicago": 4453,
      "opin": 4454,
      "##ask": 4455,
      "trusted": 4456,
      "object": 4457,
      "cutting": 4458,
      "##osen": 4459,
      "eased": 4460,
      "flushed": 4461,
      "##dom": 4462,
      "lies": 4463,
      "sensitive": 4464,
      "tasted": 4465,
      "##gest": 4466,
      "chosen": 4467,
      "slo": 4468,
      "rome": 4469,
      "##well": 4470,
      "##pes": 4471,
      "##ura": 4472,
      "langu": 4473,
      "issue": 4474,
      "statement": 4475,
      "arrange": 4476,
      "games": 4477,
      "profession": 4478,
      "##ki": 4479,
      "clue": 4480,
      "##ization": 4481,
      "threatened": 4482,
      "checking": 4483,
      "leans": 4484,
      "##asped": 4485,
      "rebec": 4486,
      "cassidy": 4487,
      "swell": 4488,
      "##pected": 4489,
      "##une": 4490,
      "driveway": 4491,
      "##vision": 4492,
      "changing": 4493,
      "##bit": 4494,
      "log": 4495,
      "address": 4496,
      "heartbeat": 4497,
      "training": 4498,
      "gall": 4499,
      "devil": 4500,
      "unexpected": 4501,
      "searched": 4502,
      "##enger": 4503,
      "thread": 4504,
      "rebecca": 4505,
      "confident": 4506,
      "neg": 4507,
      "brushing": 4508,
      "crew": 4509,
      "brill": 4510,
      "escaped": 4511,
      "##ify": 4512,
      "julia": 4513,
      "goodby": 4514,
      "origin": 4515,
      "##ism": 4516,
      "stroke": 4517,
      "trapped": 4518,
      "stars": 4519,
      "##ffled": 4520,
      "techn": 4521,
      "##lder": 4522,
      "carson": 4523,
      "alarm": 4524,
      "ny": 4525,
      "shy": 4526,
      "##vern": 4527,
      "##umping": 4528,
      "fasc": 4529,
      "fifty": 4530,
      "conscious": 4531,
      "valent": 4532,
      "##ule": 4533,
      "fate": 4534,
      "wishing": 4535,
      "##anna": 4536,
      "clothing": 4537,
      "torn": 4538,
      "##gly": 4539,
      "leap": 4540,
      "bowl": 4541,
      "stories": 4542,
      "virgin": 4543,
      "gazed": 4544,
      "##shit": 4545,
      "sucking": 4546,
      "fac": 4547,
      "bul": 4548,
      "riding": 4549,
      "moves": 4550,
      "hitting": 4551,
      "vers": 4552,
      "damage": 4553,
      "access": 4554,
      "mattress": 4555,
      "edd": 4556,
      "liter": 4557,
      "creature": 4558,
      "##esome": 4559,
      "possibility": 4560,
      "afford": 4561,
      "##fl": 4562,
      "thom": 4563,
      "fangs": 4564,
      "stumbled": 4565,
      "aching": 4566,
      "furious": 4567,
      "drifted": 4568,
      "winked": 4569,
      "tray": 4570,
      "meas": 4571,
      "curve": 4572,
      "shifters": 4573,
      "##heron": 4574,
      "fake": 4575,
      "ward": 4576,
      "answering": 4577,
      "##vering": 4578,
      "acheron": 4579,
      "kell": 4580,
      "guessed": 4581,
      "gav": 4582,
      "jour": 4583,
      "##rel": 4584,
      "patted": 4585,
      "stroking": 4586,
      "sarc": 4587,
      "hous": 4588,
      "suite": 4589,
      "cryst": 4590,
      "##iently": 4591,
      "photogra": 4592,
      "silly": 4593,
      "behav": 4594,
      "sarah": 4595,
      "balance": 4596,
      "trevor": 4597,
      "camera": 4598,
      "bunch": 4599,
      "sib": 4600,
      "##ats": 4601,
      "##atically": 4602,
      "disbel": 4603,
      "drinks": 4604,
      "tables": 4605,
      "myst": 4606,
      "forest": 4607,
      "spirit": 4608,
      "##ulf": 4609,
      "bird": 4610,
      "rory": 4611,
      "chew": 4612,
      "heated": 4613,
      "frances": 4614,
      "style": 4615,
      "dipped": 4616,
      "##anor": 4617,
      "hunters": 4618,
      "page": 4619,
      "ugly": 4620,
      "rip": 4621,
      "belonged": 4622,
      "cracked": 4623,
      "eddie": 4624,
      "shopping": 4625,
      "echoed": 4626,
      "fiona": 4627,
      "plastic": 4628,
      "growl": 4629,
      "##bble": 4630,
      "remembering": 4631,
      "hood": 4632,
      "##hol": 4633,
      "walks": 4634,
      "raise": 4635,
      "##place": 4636,
      "needing": 4637,
      "rand": 4638,
      "zack": 4639,
      "resc": 4640,
      "choked": 4641,
      "nad": 4642,
      "##ounce": 4643,
      "symp": 4644,
      "attract": 4645,
      "magnus": 4646,
      "nu": 4647,
      "begging": 4648,
      "darling": 4649,
      "fan": 4650,
      "practice": 4651,
      "painting": 4652,
      "emotional": 4653,
      "amelia": 4654,
      "slipping": 4655,
      "waste": 4656,
      "guests": 4657,
      "rhyth": 4658,
      "##hetic": 4659,
      "returning": 4660,
      "written": 4661,
      "freak": 4662,
      "loudly": 4663,
      "trace": 4664,
      "##ormed": 4665,
      "##aun": 4666,
      "ka": 4667,
      "social": 4668,
      "neighbor": 4669,
      "racing": 4670,
      "yard": 4671,
      "etern": 4672,
      "enemy": 4673,
      "consum": 4674,
      "vanished": 4675,
      "names": 4676,
      "smoot": 4677,
      "target": 4678,
      "unh": 4679,
      "christian": 4680,
      "oliver": 4681,
      "murd": 4682,
      "##ature": 4683,
      "##umn": 4684,
      "##umble": 4685,
      "tighter": 4686,
      "rev": 4687,
      "unlo": 4688,
      "##wh": 4689,
      "spar": 4690,
      "ens": 4691,
      "##bbled": 4692,
      "hors": 4693,
      "snap": 4694,
      "katie": 4695,
      "flames": 4696,
      "sweep": 4697,
      "##aves": 4698,
      "encou": 4699,
      "##acle": 4700,
      "gear": 4701,
      "scow": 4702,
      "cart": 4703,
      "##ival": 4704,
      "connected": 4705,
      "steal": 4706,
      "contr": 4707,
      "rhythm": 4708,
      "bullshit": 4709,
      "##ob": 4710,
      "lick": 4711,
      "stair": 4712,
      "univer": 4713,
      "eyel": 4714,
      "flin": 4715,
      "mental": 4716,
      "##zie": 4717,
      "farm": 4718,
      "sid": 4719,
      "claimed": 4720,
      "invited": 4721,
      "disappointment": 4722,
      "responsible": 4723,
      "stated": 4724,
      "appe": 4725,
      "underwear": 4726,
      "realizing": 4727,
      "##roll": 4728,
      "buzz": 4729,
      "french": 4730,
      "heather": 4731,
      "nurse": 4732,
      "##itches": 4733,
      "##ora": 4734,
      "farther": 4735,
      "nina": 4736,
      "curios": 4737,
      "##asper": 4738,
      "collap": 4739,
      "actions": 4740,
      "##ache": 4741,
      "ven": 4742,
      "##kin": 4743,
      "tensed": 4744,
      "insp": 4745,
      "voices": 4746,
      "bored": 4747,
      "knuck": 4748,
      "arch": 4749,
      "disappointed": 4750,
      "pockets": 4751,
      "kyle": 4752,
      "##iture": 4753,
      "punch": 4754,
      "tub": 4755,
      "##laimed": 4756,
      "caleb": 4757,
      "##aret": 4758,
      "veins": 4759,
      "circum": 4760,
      "saturday": 4761,
      "rout": 4762,
      "project": 4763,
      "##uction": 4764,
      "lately": 4765,
      "apologize": 4766,
      "aim": 4767,
      "furniture": 4768,
      "curiosity": 4769,
      "##ales": 4770,
      "orders": 4771,
      "extremely": 4772,
      "complic": 4773,
      "shooting": 4774,
      "expensive": 4775,
      "shuddered": 4776,
      "##apping": 4777,
      "hunger": 4778,
      "intimate": 4779,
      "friday": 4780,
      "colored": 4781,
      "tough": 4782,
      "delicate": 4783,
      "digging": 4784,
      "raced": 4785,
      "##omb": 4786,
      "lux": 4787,
      "depart": 4788,
      "deliber": 4789,
      "dumb": 4790,
      "##inated": 4791,
      "ryder": 4792,
      "bang": 4793,
      "sheet": 4794,
      "##yes": 4795,
      "restr": 4796,
      "pointing": 4797,
      "crim": 4798,
      "embrace": 4799,
      "named": 4800,
      "hank": 4801,
      "mail": 4802,
      "romantic": 4803,
      "grasp": 4804,
      "pile": 4805,
      "paul": 4806,
      "plain": 4807,
      "begged": 4808,
      "awesome": 4809,
      "explanation": 4810,
      "hal": 4811,
      "mattered": 4812,
      "impress": 4813,
      "drug": 4814,
      "kend": 4815,
      "bud": 4816,
      "core": 4817,
      "compan": 4818,
      "result": 4819,
      "fed": 4820,
      "centuries": 4821,
      "weapons": 4822,
      "nadia": 4823,
      "laughs": 4824,
      "##ral": 4825,
      "##ett": 4826,
      "faith": 4827,
      "allowing": 4828,
      "biting": 4829,
      "gestured": 4830,
      "grief": 4831,
      "mountain": 4832,
      "spring": 4833,
      "##lor": 4834,
      "strode": 4835,
      "distur": 4836,
      "adrian": 4837,
      "compet": 4838,
      "regular": 4839,
      "strip": 4840,
      "##ij": 4841,
      "stall": 4842,
      "deck": 4843,
      "whom": 4844,
      "struggling": 4845,
      "glit": 4846,
      "##iven": 4847,
      "##ients": 4848,
      "advice": 4849,
      "pierce": 4850,
      "teach": 4851,
      "flicked": 4852,
      "career": 4853,
      "brandon": 4854,
      "##ran": 4855,
      "##aph": 4856,
      "confidence": 4857,
      "attend": 4858,
      "lin": 4859,
      "ps": 4860,
      "winced": 4861,
      "organ": 4862,
      "explod": 4863,
      "tessa": 4864,
      "##ases": 4865,
      "chill": 4866,
      "elbows": 4867,
      "pizz": 4868,
      "leo": 4869,
      "rode": 4870,
      "sab": 4871,
      "init": 4872,
      "traced": 4873,
      "goodbye": 4874,
      "custom": 4875,
      "knot": 4876,
      "hook": 4877,
      "##erie": 4878,
      "happily": 4879,
      "acqu": 4880,
      "sharing": 4881,
      "condition": 4882,
      "local": 4883,
      "intention": 4884,
      "##mission": 4885,
      "##ini": 4886,
      "sugar": 4887,
      "behavior": 4888,
      "##uts": 4889,
      "withd": 4890,
      "contem": 4891,
      "lined": 4892,
      "jeff": 4893,
      "annoyed": 4894,
      "council": 4895,
      "prim": 4896,
      "ranch": 4897,
      "##urs": 4898,
      "##alle": 4899,
      "protection": 4900,
      "##iring": 4901,
      "ruin": 4902,
      "velvet": 4903,
      "thomas": 4904,
      "north": 4905,
      "property": 4906,
      "ly": 4907,
      "cocked": 4908,
      "tony": 4909,
      "##aud": 4910,
      "##inkled": 4911,
      "ou": 4912,
      "drown": 4913,
      "##ugg": 4914,
      "##pri": 4915,
      "##ires": 4916,
      "brad": 4917,
      "vulnerable": 4918,
      "packed": 4919,
      "salv": 4920,
      "haul": 4921,
      "##imm": 4922,
      "keeps": 4923,
      "attacked": 4924,
      "crad": 4925,
      "incredibly": 4926,
      "plun": 4927,
      "opinion": 4928,
      "cara": 4929,
      "terms": 4930,
      "peter": 4931,
      "formed": 4932,
      "request": 4933,
      "pretending": 4934,
      "issues": 4935,
      "entert": 4936,
      "jay": 4937,
      "matters": 4938,
      "chuckle": 4939,
      "term": 4940,
      "assume": 4941,
      "torture": 4942,
      "intensity": 4943,
      "shifting": 4944,
      "isa": 4945,
      "qual": 4946,
      "due": 4947,
      "precious": 4948,
      "stiffened": 4949,
      "##insley": 4950,
      "francesca": 4951,
      "##case": 4952,
      "dealing": 4953,
      "verity": 4954,
      "gavin": 4955,
      "background": 4956,
      "purple": 4957,
      "haired": 4958,
      "##yed": 4959,
      "loyal": 4960,
      "insist": 4961,
      "runs": 4962,
      "squir": 4963,
      "rig": 4964,
      "tapped": 4965,
      "breaths": 4966,
      "miranda": 4967,
      "condom": 4968,
      "gran": 4969,
      "feared": 4970,
      "climb": 4971,
      "fail": 4972,
      "ep": 4973,
      "victim": 4974,
      "##hell": 4975,
      "served": 4976,
      "sharply": 4977,
      "approach": 4978,
      "studying": 4979,
      "horses": 4980,
      "##rick": 4981,
      "##iated": 4982,
      "bridge": 4983,
      "liquid": 4984,
      "diam": 4985,
      "jenny": 4986,
      "preston": 4987,
      "whipped": 4988,
      "massive": 4989,
      "divor": 4990,
      "##steps": 4991,
      "##shine": 4992,
      "egg": 4993,
      "##ts": 4994,
      "##nel": 4995,
      "hol": 4996,
      "dragging": 4997,
      "monster": 4998,
      "frustrated": 4999,
      "price": 5000,
      "seeming": 5001,
      "laz": 5002,
      "##inary": 5003,
      "grandma": 5004,
      "owe": 5005,
      "frag": 5006,
      "##ielle": 5007,
      "disp": 5008,
      "scru": 5009,
      "thunder": 5010,
      "exposed": 5011,
      "##uing": 5012,
      "bye": 5013,
      "frozen": 5014,
      "barn": 5015,
      "grimaced": 5016,
      "peered": 5017,
      "bart": 5018,
      "trained": 5019,
      "temple": 5020,
      "dude": 5021,
      "brilliant": 5022,
      "hopefully": 5023,
      "pity": 5024,
      "treated": 5025,
      "arro": 5026,
      "roth": 5027,
      "sacrif": 5028,
      "landing": 5029,
      "agreement": 5030,
      "colby": 5031,
      "jol": 5032,
      "midnight": 5033,
      "credit": 5034,
      "scramb": 5035,
      "footsteps": 5036,
      "piss": 5037,
      "retreat": 5038,
      "images": 5039,
      "rocked": 5040,
      "helpless": 5041,
      "giggled": 5042,
      "pad": 5043,
      "nodding": 5044,
      "drank": 5045,
      "buddy": 5046,
      "ribs": 5047,
      "cere": 5048,
      "##aire": 5049,
      "depth": 5050,
      "carol": 5051,
      "urg": 5052,
      "cig": 5053,
      "perform": 5054,
      "english": 5055,
      "enth": 5056,
      "nud": 5057,
      "apoll": 5058,
      "##ienna": 5059,
      "shown": 5060,
      "syn": 5061,
      "##coming": 5062,
      "carpet": 5063,
      "content": 5064,
      "disbelief": 5065,
      "##athy": 5066,
      "##idly": 5067,
      "fired": 5068,
      "curved": 5069,
      "##ov": 5070,
      "##yl": 5071,
      "##tail": 5072,
      "diamond": 5073,
      "spike": 5074,
      "circumst": 5075,
      "glimp": 5076,
      "ult": 5077,
      "photo": 5078,
      "##walk": 5079,
      "scare": 5080,
      "charming": 5081,
      "winter": 5082,
      "streets": 5083,
      "spotted": 5084,
      "shove": 5085,
      "nin": 5086,
      "dagger": 5087,
      "fish": 5088,
      "sienna": 5089,
      "grave": 5090,
      "brian": 5091,
      "afterward": 5092,
      "evalle": 5093,
      "ainsley": 5094,
      "cave": 5095,
      "##cell": 5096,
      "glowing": 5097,
      "sunday": 5098,
      "quiver": 5099,
      "sally": 5100,
      "##ican": 5101,
      "##ander": 5102,
      "friendly": 5103,
      "alco": 5104,
      "##aze": 5105,
      "breeze": 5106,
      "rust": 5107,
      "miser": 5108,
      "hill": 5109,
      "ruined": 5110,
      "isaac": 5111,
      "write": 5112,
      "immort": 5113,
      "killer": 5114,
      "affection": 5115,
      "circles": 5116,
      "curls": 5117,
      "possessed": 5118,
      "crou": 5119,
      "##anced": 5120,
      "sunshine": 5121,
      "veh": 5122,
      "vivian": 5123,
      "swoll": 5124,
      "swollen": 5125,
      "dism": 5126,
      "shining": 5127,
      "sweater": 5128,
      "ginger": 5129,
      "scowled": 5130,
      "electric": 5131,
      "kendall": 5132,
      "gem": 5133,
      "swore": 5134,
      "wil": 5135,
      "member": 5136,
      "prick": 5137,
      "discus": 5138,
      "occurred": 5139,
      "biggest": 5140,
      "##ffic": 5141,
      "demanding": 5142,
      "megan": 5143,
      "duty": 5144,
      "sara": 5145,
      "encoun": 5146,
      "explo": 5147,
      "drawer": 5148,
      "dollars": 5149,
      "attached": 5150,
      "scary": 5151,
      "begun": 5152,
      "jewel": 5153,
      "spee": 5154,
      "orange": 5155,
      "##lynn": 5156,
      "alcohol": 5157,
      "similar": 5158,
      "duke": 5159,
      "fol": 5160,
      "cake": 5161,
      "develop": 5162,
      "owned": 5163,
      "##can": 5164,
      "literally": 5165,
      "plat": 5166,
      "falls": 5167,
      "adult": 5168,
      "points": 5169,
      "according": 5170,
      "acted": 5171,
      "pizza": 5172,
      "##irling": 5173,
      "saving": 5174,
      "##esday": 5175,
      "charm": 5176,
      "revealing": 5177,
      "diego": 5178,
      "ancient": 5179,
      "##gram": 5180,
      "dante": 5181,
      "##ooped": 5182,
      "professional": 5183,
      "recently": 5184,
      "concl": 5185,
      "dammit": 5186,
      "doubted": 5187,
      "shr": 5188,
      "##agne": 5189,
      "placing": 5190,
      "courage": 5191,
      "mara": 5192,
      "territ": 5193,
      "replaced": 5194,
      "bond": 5195,
      "informed": 5196,
      "caut": 5197,
      "desce": 5198,
      "eleven": 5199,
      "painted": 5200,
      "file": 5201,
      "##omes": 5202,
      "events": 5203,
      "##iod": 5204,
      "ends": 5205,
      "mask": 5206,
      "received": 5207,
      "notes": 5208,
      "rot": 5209,
      "period": 5210,
      "champagne": 5211,
      "##aron": 5212,
      "magaz": 5213,
      "pinned": 5214,
      "display": 5215,
      "melted": 5216,
      "particularly": 5217,
      "ted": 5218,
      "vague": 5219,
      "slowed": 5220,
      "laun": 5221,
      "eighteen": 5222,
      "goin": 5223,
      "smirk": 5224,
      "raising": 5225,
      "surreal": 5226,
      "crystal": 5227,
      "shrie": 5228,
      "##xed": 5229,
      "dang": 5230,
      "gripping": 5231,
      "##ulation": 5232,
      "carter": 5233,
      "suspect": 5234,
      "ray": 5235,
      "##inged": 5236,
      "rushing": 5237,
      "meg": 5238,
      "##quis": 5239,
      "loos": 5240,
      "punched": 5241,
      "##aping": 5242,
      "argument": 5243,
      "enorm": 5244,
      "corrid": 5245,
      "##rier": 5246,
      "tend": 5247,
      "##rowed": 5248,
      "##atively": 5249,
      "paint": 5250,
      "terror": 5251,
      "impression": 5252,
      "reaches": 5253,
      "##ront": 5254,
      "weather": 5255,
      "agent": 5256,
      "destroyed": 5257,
      "bike": 5258,
      "rent": 5259,
      "##raw": 5260,
      "scen": 5261,
      "gide": 5262,
      "exploded": 5263,
      "gideon": 5264,
      "##vis": 5265,
      "##ket": 5266,
      "##olo": 5267,
      "village": 5268,
      "ram": 5269,
      "warriors": 5270,
      "appearance": 5271,
      "knuckles": 5272,
      "cards": 5273,
      "##eness": 5274,
      "resear": 5275,
      "##arse": 5276,
      "kay": 5277,
      "wink": 5278,
      "sevent": 5279,
      "hesitation": 5280,
      "mission": 5281,
      "poison": 5282,
      "nerve": 5283,
      "danced": 5284,
      "tom": 5285,
      "throughout": 5286,
      "snarled": 5287,
      "melan": 5288,
      "sensual": 5289,
      "football": 5290,
      "##apers": 5291,
      "bryn": 5292,
      "accent": 5293,
      "richard": 5294,
      "option": 5295,
      "##mon": 5296,
      "closely": 5297,
      "south": 5298,
      "##enzie": 5299,
      "halt": 5300,
      "clutched": 5301,
      "et": 5302,
      "dial": 5303,
      "trembled": 5304,
      "##af": 5305,
      "appo": 5306,
      "humili": 5307,
      "doc": 5308,
      "houses": 5309,
      "stress": 5310,
      "spinning": 5311,
      "bench": 5312,
      "darcy": 5313,
      "proof": 5314,
      "##rey": 5315,
      "drake": 5316,
      "sixt": 5317,
      "betray": 5318,
      "bleeding": 5319,
      "cage": 5320,
      "nav": 5321,
      "##zzled": 5322,
      "bor": 5323,
      "diss": 5324,
      "##gy": 5325,
      "seated": 5326,
      "commun": 5327,
      "##ption": 5328,
      "mckay": 5329,
      "pounded": 5330,
      "##uous": 5331,
      "noted": 5332,
      "writing": 5333,
      "##the": 5334,
      "remote": 5335,
      "attractive": 5336,
      "babies": 5337,
      "existence": 5338,
      "exit": 5339,
      "speech": 5340,
      "##cture": 5341,
      "blast": 5342,
      "mortal": 5343,
      "gym": 5344,
      "tips": 5345,
      "gritted": 5346,
      "judge": 5347,
      "##phone": 5348,
      "glances": 5349,
      "ador": 5350,
      "airport": 5351,
      "threatening": 5352,
      "sandw": 5353,
      "hooked": 5354,
      "weal": 5355,
      "thorne": 5356,
      "##iating": 5357,
      "invitation": 5358,
      "reception": 5359,
      "ending": 5360,
      "sadness": 5361,
      "design": 5362,
      "traffic": 5363,
      "madison": 5364,
      "roman": 5365,
      "spect": 5366,
      "ached": 5367,
      "tier": 5368,
      "shaft": 5369,
      "selfish": 5370,
      "neat": 5371,
      "lashes": 5372,
      "television": 5373,
      "bon": 5374,
      "dogs": 5375,
      "kinds": 5376,
      "exclaimed": 5377,
      "goddamn": 5378,
      "sits": 5379,
      "impressed": 5380,
      "utterly": 5381,
      "rox": 5382,
      "stole": 5383,
      "occup": 5384,
      "role": 5385,
      "machine": 5386,
      "tank": 5387,
      "activ": 5388,
      "jere": 5389,
      "ri": 5390,
      "stark": 5391,
      "##priate": 5392,
      "##irl": 5393,
      "swing": 5394,
      "lucas": 5395,
      "comfor": 5396,
      "##aker": 5397,
      "clearing": 5398,
      "lur": 5399,
      "drugs": 5400,
      "circumstances": 5401,
      "buttons": 5402,
      "rarely": 5403,
      "lobby": 5404,
      "aaron": 5405,
      "##cl": 5406,
      "tug": 5407,
      "tyler": 5408,
      "hed": 5409,
      "grind": 5410,
      "nix": 5411,
      "uncertain": 5412,
      "maddie": 5413,
      "kicking": 5414,
      "movements": 5415,
      "screwed": 5416,
      "thrilled": 5417,
      "stretch": 5418,
      "assistant": 5419,
      "whist": 5420,
      "interview": 5421,
      "goss": 5422,
      "ronin": 5423,
      "stack": 5424,
      "former": 5425,
      "auth": 5426,
      "nasty": 5427,
      "infl": 5428,
      "george": 5429,
      "##urance": 5430,
      "coach": 5431,
      "##back": 5432,
      "##book": 5433,
      "various": 5434,
      "skills": 5435,
      "physically": 5436,
      "##boy": 5437,
      "stern": 5438,
      "##ability": 5439,
      "span": 5440,
      "pray": 5441,
      "cris": 5442,
      "owen": 5443,
      "twin": 5444,
      "viper": 5445,
      "sore": 5446,
      "##eling": 5447,
      "freedom": 5448,
      "passenger": 5449,
      "tangled": 5450,
      "vide": 5451,
      "jasm": 5452,
      "neckl": 5453,
      "jasmine": 5454,
      "##hin": 5455,
      "rude": 5456,
      "captain": 5457,
      "tossing": 5458,
      "reveal": 5459,
      "ess": 5460,
      "frightened": 5461,
      "ripp": 5462,
      "ideas": 5463,
      "panting": 5464,
      "unus": 5465,
      "knocking": 5466,
      "##acter": 5467,
      "roy": 5468,
      "stef": 5469,
      "ze": 5470,
      "mallory": 5471,
      "gul": 5472,
      "scout": 5473,
      "strike": 5474,
      "friendship": 5475,
      "drops": 5476,
      "ger": 5477,
      "##sey": 5478,
      "perman": 5479,
      "meat": 5480,
      "handful": 5481,
      "slick": 5482,
      "detail": 5483,
      "beck": 5484,
      "sidewalk": 5485,
      "sunlight": 5486,
      "language": 5487,
      "lore": 5488,
      "##ita": 5489,
      "corners": 5490,
      "begins": 5491,
      "autom": 5492,
      "brut": 5493,
      "famil": 5494,
      "squeezing": 5495,
      "cot": 5496,
      "pear": 5497,
      "##zzy": 5498,
      "##ader": 5499,
      "outfit": 5500,
      "express": 5501,
      "distant": 5502,
      "tierney": 5503,
      "item": 5504,
      "deg": 5505,
      "cruel": 5506,
      "uncons": 5507,
      "ara": 5508,
      "thera": 5509,
      "manner": 5510,
      "army": 5511,
      "stops": 5512,
      "thorough": 5513,
      "mace": 5514,
      "pleasant": 5515,
      "##town": 5516,
      "louder": 5517,
      "erin": 5518,
      "valentine": 5519,
      "opens": 5520,
      "shoving": 5521,
      "stefan": 5522,
      "bert": 5523,
      "cain": 5524,
      "darkened": 5525,
      "author": 5526,
      "client": 5527,
      "curl": 5528,
      "hunt": 5529,
      "jules": 5530,
      "hoo": 5531,
      "obe": 5532,
      "##jected": 5533,
      "monday": 5534,
      "##orts": 5535,
      "darted": 5536,
      "task": 5537,
      "ally": 5538,
      "smith": 5539,
      "signs": 5540,
      "##lord": 5541,
      "intell": 5542,
      "marble": 5543,
      "parker": 5544,
      "swiftly": 5545,
      "drum": 5546,
      "frowning": 5547,
      "version": 5548,
      "excell": 5549,
      "hired": 5550,
      "##erved": 5551,
      "glor": 5552,
      "anxious": 5553,
      "hid": 5554,
      "##gas": 5555,
      "amber": 5556,
      "explos": 5557,
      "waitress": 5558,
      "serve": 5559,
      "officer": 5560,
      "attitude": 5561,
      "boring": 5562,
      "pony": 5563,
      "##met": 5564,
      "calvin": 5565,
      "preferred": 5566,
      "##ators": 5567,
      "sneak": 5568,
      "decis": 5569,
      "mixed": 5570,
      "sheer": 5571,
      "fairy": 5572,
      "alexandra": 5573,
      "castle": 5574,
      "##aunt": 5575,
      "abandoned": 5576,
      "aly": 5577,
      "extended": 5578,
      "brit": 5579,
      "##ilet": 5580,
      "thankfully": 5581,
      "booth": 5582,
      "polite": 5583,
      "privacy": 5584,
      "sloane": 5585,
      "tap": 5586,
      "upward": 5587,
      "kelly": 5588,
      "spit": 5589,
      "foolish": 5590,
      "toe": 5591,
      "previous": 5592,
      "chicken": 5593,
      "##erence": 5594,
      "arousal": 5595,
      "##eter": 5596,
      "ing": 5597,
      "appl": 5598,
      "##nat": 5599,
      "##glass": 5600,
      "##eron": 5601,
      "thirt": 5602,
      "trash": 5603,
      "patience": 5604,
      "rat": 5605,
      "##orting": 5606,
      "##imate": 5607,
      "flared": 5608,
      "eleanor": 5609,
      "shel": 5610,
      "loun": 5611,
      "##lad": 5612,
      "boun": 5613,
      "mitc": 5614,
      "##kn": 5615,
      "##urally": 5616,
      "bread": 5617,
      "hamm": 5618,
      "protective": 5619,
      "soothing": 5620,
      "tara": 5621,
      "suitc": 5622,
      "schedule": 5623,
      "maint": 5624,
      "smaller": 5625,
      "rocky": 5626,
      "keely": 5627,
      "regan": 5628,
      "spare": 5629,
      "tugging": 5630,
      "complicated": 5631,
      "sentence": 5632,
      "dall": 5633,
      "dull": 5634,
      "mitchell": 5635,
      "sixteen": 5636,
      "jean": 5637,
      "ford": 5638,
      "absor": 5639,
      "exchange": 5640,
      "scanned": 5641,
      "enormous": 5642,
      "cy": 5643,
      "shaky": 5644,
      "licking": 5645,
      "glimpse": 5646,
      "spilled": 5647,
      "bullet": 5648,
      "tease": 5649,
      "##ino": 5650,
      "##ha": 5651,
      "casually": 5652,
      "precise": 5653,
      "dreamed": 5654,
      "eternity": 5655,
      "eaten": 5656,
      "robert": 5657,
      "torment": 5658,
      "##orate": 5659,
      "clung": 5660,
      "punishment": 5661,
      "andrew": 5662,
      "reyes": 5663,
      "slap": 5664,
      "learning": 5665,
      "fel": 5666,
      "alley": 5667,
      "dish": 5668,
      "hero": 5669,
      "##vies": 5670,
      "rear": 5671,
      "trey": 5672,
      "flu": 5673,
      "laptop": 5674,
      "adjust": 5675,
      "immortal": 5676,
      "sant": 5677,
      "##iers": 5678,
      "defense": 5679,
      "carly": 5680,
      "ellis": 5681,
      "##venge": 5682,
      "exhaled": 5683,
      "excellent": 5684,
      "##ila": 5685,
      "##ctions": 5686,
      "lauren": 5687,
      "fantasy": 5688,
      "contain": 5689,
      "lingering": 5690,
      "##ores": 5691,
      "cheese": 5692,
      "wry": 5693,
      "emerg": 5694,
      "driven": 5695,
      "blush": 5696,
      "arrest": 5697,
      "wrath": 5698,
      "##guing": 5699,
      "hurts": 5700,
      "lifet": 5701,
      "fancy": 5702,
      "vlad": 5703,
      "kevin": 5704,
      "accompl": 5705,
      "families": 5706,
      "necklace": 5707,
      "##iate": 5708,
      "slave": 5709,
      "##usi": 5710,
      "avail": 5711,
      "collapsed": 5712,
      "snugg": 5713,
      "smirked": 5714,
      "fork": 5715,
      "conce": 5716,
      "mult": 5717,
      "jumping": 5718,
      "cleaned": 5719,
      "lightning": 5720,
      "avoiding": 5721,
      "##aching": 5722,
      "program": 5723,
      "##pher": 5724,
      "##erc": 5725,
      "leader": 5726,
      "maria": 5727,
      "warn": 5728,
      "softened": 5729,
      "gradu": 5730,
      "knox": 5731,
      "throbbing": 5732,
      "crawled": 5733,
      "existed": 5734,
      "photos": 5735,
      "feather": 5736,
      "wigg": 5737,
      "##agement": 5738,
      "movies": 5739,
      "##ato": 5740,
      "invis": 5741,
      "lets": 5742,
      "planted": 5743,
      "hoarse": 5744,
      "talent": 5745,
      "matthew": 5746,
      "gain": 5747,
      "##gard": 5748,
      "leah": 5749,
      "code": 5750,
      "determination": 5751,
      "surrender": 5752,
      "edges": 5753,
      "claws": 5754,
      "nervously": 5755,
      "##oning": 5756,
      "letters": 5757,
      "wise": 5758,
      "flip": 5759,
      "talon": 5760,
      "##vit": 5761,
      "revealed": 5762,
      "nicole": 5763,
      "bust": 5764,
      "heel": 5765,
      "colors": 5766,
      "overwhelming": 5767,
      "surrounding": 5768,
      "##chie": 5769,
      "vegas": 5770,
      "remove": 5771,
      "surve": 5772,
      "closest": 5773,
      "snatched": 5774,
      "teacher": 5775,
      "dee": 5776,
      "ratt": 5777,
      "braced": 5778,
      "caring": 5779,
      "animals": 5780,
      "apollo": 5781,
      "lonely": 5782,
      "dart": 5783,
      "trem": 5784,
      "stuffed": 5785,
      "jealousy": 5786,
      "##wor": 5787,
      "harley": 5788,
      "ske": 5789,
      "##aste": 5790,
      "propped": 5791,
      "lane": 5792,
      "##arest": 5793,
      "polit": 5794,
      "bolt": 5795,
      "unif": 5796,
      "sees": 5797,
      "pretended": 5798,
      "healthy": 5799,
      "communic": 5800,
      "irritated": 5801,
      "##bled": 5802,
      "longing": 5803,
      "ankles": 5804,
      "cigaret": 5805,
      "justice": 5806,
      "##ridan": 5807,
      "cops": 5808,
      "struggle": 5809,
      "twisting": 5810,
      "gossip": 5811,
      "upright": 5812,
      "general": 5813,
      "corridor": 5814,
      "habit": 5815,
      "pillows": 5816,
      "balc": 5817,
      "tempor": 5818,
      "##immed": 5819,
      "crush": 5820,
      "wre": 5821,
      "therefore": 5822,
      "cleaning": 5823,
      "market": 5824,
      "pattern": 5825,
      "##bone": 5826,
      "moist": 5827,
      "flashing": 5828,
      "gentleman": 5829,
      "werew": 5830,
      "smug": 5831,
      "##ruction": 5832,
      "melt": 5833,
      "stool": 5834,
      "##ament": 5835,
      "agony": 5836,
      "grumbled": 5837,
      "dallas": 5838,
      "ragged": 5839,
      "refuse": 5840,
      "brave": 5841,
      "mug": 5842,
      "resol": 5843,
      "coop": 5844,
      "fog": 5845,
      "##amps": 5846,
      "drained": 5847,
      "##inating": 5848,
      "create": 5849,
      "stunning": 5850,
      "mmm": 5851,
      "location": 5852,
      "enthusi": 5853,
      "krist": 5854,
      "violent": 5855,
      "pec": 5856,
      "crime": 5857,
      "boxes": 5858,
      "gemma": 5859,
      "draped": 5860,
      "##gment": 5861,
      "rod": 5862,
      "protecting": 5863,
      "elegant": 5864,
      "settling": 5865,
      "##what": 5866,
      "apr": 5867,
      "melanie": 5868,
      "ourselves": 5869,
      "bubb": 5870,
      "andrea": 5871,
      "lesson": 5872,
      "cooking": 5873,
      "gathering": 5874,
      "lor": 5875,
      "straw": 5876,
      "pow": 5877,
      "dressing": 5878,
      "whim": 5879,
      "swip": 5880,
      "anytime": 5881,
      "georgie": 5882,
      "basket": 5883,
      "hay": 5884,
      "brace": 5885,
      "changes": 5886,
      "embarrassment": 5887,
      "ringing": 5888,
      "rings": 5889,
      "sole": 5890,
      "society": 5891,
      "delivered": 5892,
      "exec": 5893,
      "brick": 5894,
      "##osing": 5895,
      "clan": 5896,
      "bothering": 5897,
      "trigg": 5898,
      "hunting": 5899,
      "##nal": 5900,
      "breathless": 5901,
      "typ": 5902,
      "##iveness": 5903,
      "twins": 5904,
      "mercy": 5905,
      "season": 5906,
      "stol": 5907,
      "smack": 5908,
      "waking": 5909,
      "bars": 5910,
      "deliberately": 5911,
      "bliss": 5912,
      "somewhat": 5913,
      "stephen": 5914,
      "rope": 5915,
      "territory": 5916,
      "stilled": 5917,
      "formal": 5918,
      "classes": 5919,
      "moonlight": 5920,
      "##renal": 5921,
      "arranged": 5922,
      "unsure": 5923,
      "shimm": 5924,
      "marks": 5925,
      "weakness": 5926,
      "toast": 5927,
      "positive": 5928,
      "adrenal": 5929,
      "concentrate": 5930,
      "hau": 5931,
      "boot": 5932,
      "scars": 5933,
      "trap": 5934,
      "required": 5935,
      "kar": 5936,
      "##vert": 5937,
      "smoothed": 5938,
      "phil": 5939,
      "worrying": 5940,
      "##ended": 5941,
      "expert": 5942,
      "lifetime": 5943,
      "ais": 5944,
      "##sequ": 5945,
      "regardless": 5946,
      "shattered": 5947,
      "permission": 5948,
      "earn": 5949,
      "commanded": 5950,
      "vent": 5951,
      "om": 5952,
      "whiskey": 5953,
      "mentally": 5954,
      "##ples": 5955,
      "clicked": 5956,
      "##azz": 5957,
      "purs": 5958,
      "pouring": 5959,
      "##riel": 5960,
      "liz": 5961,
      "joking": 5962,
      "owed": 5963,
      "stalked": 5964,
      "waving": 5965,
      "captured": 5966,
      "laken": 5967,
      "numbers": 5968,
      "aeron": 5969,
      "roared": 5970,
      "flow": 5971,
      "fallon": 5972,
      "miserable": 5973,
      "##elled": 5974,
      "alert": 5975,
      "grant": 5976,
      "renna": 5977,
      "owner": 5978,
      "indy": 5979,
      "wandered": 5980,
      "stolen": 5981,
      "pent": 5982,
      "dismiss": 5983,
      "healing": 5984,
      "##izzy": 5985,
      "##incing": 5986,
      "greeted": 5987,
      "grac": 5988,
      "whispering": 5989,
      "dominic": 5990,
      "declared": 5991,
      "puts": 5992,
      "niall": 5993,
      "##ships": 5994,
      "reput": 5995,
      "jill": 5996,
      "##nda": 5997,
      "motor": 5998,
      "vehicle": 5999,
      "pout": 6000,
      "actual": 6001,
      "batt": 6002,
      "invisible": 6003,
      "bowed": 6004,
      "##ians": 6005,
      "retrie": 6006,
      "recover": 6007,
      "grunted": 6008,
      "percent": 6009,
      "sleeve": 6010,
      "##etr": 6011,
      "link": 6012,
      "section": 6013,
      "amanda": 6014,
      "gabriel": 6015,
      "suffer": 6016,
      "american": 6017,
      "##ero": 6018,
      "emph": 6019,
      "fridge": 6020,
      "wrote": 6021,
      "rocks": 6022,
      "slamming": 6023,
      "calmly": 6024,
      "hollow": 6025,
      "lisa": 6026,
      "decent": 6027,
      "rounded": 6028,
      "##anny": 6029,
      "proved": 6030,
      "der": 6031,
      "##eral": 6032,
      "spite": 6033,
      "anxiety": 6034,
      "ba": 6035,
      "constantly": 6036,
      "reflection": 6037,
      "bertie": 6038,
      "manip": 6039,
      "stead": 6040,
      "kidna": 6041,
      "yawn": 6042,
      "crossing": 6043,
      "##iev": 6044,
      "backs": 6045,
      "twitched": 6046,
      "wipe": 6047,
      "##ded": 6048,
      "glaring": 6049,
      "traveled": 6050,
      "alc": 6051,
      "pregnancy": 6052,
      "potential": 6053,
      "diana": 6054,
      "##oop": 6055,
      "maid": 6056,
      "thumbs": 6057,
      "balcony": 6058,
      "matching": 6059,
      "tempted": 6060,
      "estate": 6061,
      "lawyer": 6062,
      "jail": 6063,
      "##ulate": 6064,
      "scrambled": 6065,
      "reminder": 6066,
      "responsibility": 6067,
      "crash": 6068,
      "research": 6069,
      "clare": 6070,
      "source": 6071,
      "##amber": 6072,
      "blowing": 6073,
      "jeremy": 6074,
      "elle": 6075,
      "##lling": 6076,
      "secure": 6077,
      "painfully": 6078,
      "autumn": 6079,
      "##do": 6080,
      "stripped": 6081,
      "myth": 6082,
      "elliot": 6083,
      "video": 6084,
      "nest": 6085,
      "##atore": 6086,
      "##bbie": 6087,
      "random": 6088,
      "shane": 6089,
      "##velope": 6090,
      "envelope": 6091,
      "pushes": 6092,
      "##ox": 6093,
      "click": 6094,
      "padd": 6095,
      "stock": 6096,
      "separate": 6097,
      "##va": 6098,
      "contempl": 6099,
      "muscular": 6100,
      "micah": 6101,
      "salvatore": 6102,
      "intellig": 6103,
      "vance": 6104,
      "fantastic": 6105,
      "adrenaline": 6106,
      "stif": 6107,
      "curling": 6108,
      "reminding": 6109,
      "fond": 6110,
      "skye": 6111,
      "nicola": 6112,
      "oblig": 6113,
      "reluctantly": 6114,
      "ducked": 6115,
      "##illa": 6116,
      "buildings": 6117,
      "chances": 6118,
      "switch": 6119,
      "dishes": 6120,
      "clutching": 6121,
      "protected": 6122,
      "##iable": 6123,
      "##atory": 6124,
      "##rily": 6125,
      "curves": 6126,
      "daim": 6127,
      "survived": 6128,
      "bob": 6129,
      "natal": 6130,
      "stirred": 6131,
      "icy": 6132,
      "shed": 6133,
      "exasper": 6134,
      "sideways": 6135,
      "aston": 6136,
      "realm": 6137,
      "attracted": 6138,
      "chains": 6139,
      "repeat": 6140,
      "instinctively": 6141,
      "jonathan": 6142,
      "##eg": 6143,
      "##raged": 6144,
      "##mes": 6145,
      "##rison": 6146,
      "arrive": 6147,
      "wounds": 6148,
      "circled": 6149,
      "spreading": 6150,
      "##anne": 6151,
      "wherever": 6152,
      "hesitate": 6153,
      "bik": 6154,
      "##mist": 6155,
      "photograph": 6156,
      "##otch": 6157,
      "childhood": 6158,
      "seats": 6159,
      "fence": 6160,
      "brooke": 6161,
      "revenge": 6162,
      "terrif": 6163,
      "rigid": 6164,
      "lamp": 6165,
      "washing": 6166,
      "available": 6167,
      "stretching": 6168,
      "department": 6169,
      "climax": 6170,
      "##eeling": 6171,
      "##zzle": 6172,
      "warlord": 6173,
      "crashed": 6174,
      "crowded": 6175,
      "unusual": 6176,
      "distract": 6177,
      "gree": 6178,
      "whirled": 6179,
      "saint": 6180,
      "hatred": 6181,
      "cush": 6182,
      "jac": 6183,
      "lump": 6184,
      "grayson": 6185,
      "dor": 6186,
      "plant": 6187,
      "femin": 6188,
      "injured": 6189,
      "##ushes": 6190,
      "students": 6191,
      "haw": 6192,
      "cer": 6193,
      "##itar": 6194,
      "##agr": 6195,
      "rocking": 6196,
      "guessing": 6197,
      "psychic": 6198,
      "tuck": 6199,
      "stradd": 6200,
      "buying": 6201,
      "yelling": 6202,
      "limbs": 6203,
      "jonah": 6204,
      "fears": 6205,
      "ecst": 6206,
      "handing": 6207,
      "decisions": 6208,
      "##attering": 6209,
      "molly": 6210,
      "divorce": 6211,
      "creatures": 6212,
      "whore": 6213,
      "surge": 6214,
      "palace": 6215,
      "##orter": 6216,
      "compared": 6217,
      "haz": 6218,
      "remaining": 6219,
      "annoying": 6220,
      "cloth": 6221,
      "fourth": 6222,
      "##lights": 6223,
      "slender": 6224,
      "medic": 6225,
      "strained": 6226,
      "cub": 6227,
      "highly": 6228,
      "blushed": 6229,
      "brun": 6230,
      "natalie": 6231,
      "bord": 6232,
      "purch": 6233,
      "larger": 6234,
      "clouds": 6235,
      "signed": 6236,
      "mild": 6237,
      "##hand": 6238,
      "flower": 6239,
      "##rik": 6240,
      "cotton": 6241,
      "shell": 6242,
      "character": 6243,
      "surprisingly": 6244,
      "progress": 6245,
      "frey": 6246,
      "shots": 6247,
      "helen": 6248,
      "dripping": 6249,
      "dryly": 6250,
      "clayton": 6251,
      "ankle": 6252,
      "alph": 6253,
      "congr": 6254,
      "wy": 6255,
      "sher": 6256,
      "intend": 6257,
      "bend": 6258,
      "flush": 6259,
      "##mate": 6260,
      "bran": 6261,
      "insides": 6262,
      "companion": 6263,
      "iona": 6264,
      "intimid": 6265,
      "jessie": 6266,
      "##mony": 6267,
      "mane": 6268,
      "##utton": 6269,
      "##inal": 6270,
      "##sel": 6271,
      "##pack": 6272,
      "##aks": 6273,
      "suppl": 6274,
      "tightening": 6275,
      "##ibilities": 6276,
      "interrupt": 6277,
      "uniform": 6278,
      "rescue": 6279,
      "choices": 6280,
      "connect": 6281,
      "##teen": 6282,
      "hardened": 6283,
      "eggs": 6284,
      "forb": 6285,
      "sob": 6286,
      "fae": 6287,
      "mackenzie": 6288,
      "ruth": 6289,
      "tearing": 6290,
      "##ifer": 6291,
      "##spect": 6292,
      "##ika": 6293,
      "violence": 6294,
      "web": 6295,
      "apology": 6296,
      "milk": 6297,
      "sheridan": 6298,
      "sticking": 6299,
      "##essing": 6300,
      "fourteen": 6301,
      "flowed": 6302,
      "vacation": 6303,
      "##iance": 6304,
      "marked": 6305,
      "angle": 6306,
      "ellie": 6307,
      "seduct": 6308,
      "##assie": 6309,
      "dram": 6310,
      "laying": 6311,
      "realization": 6312,
      "map": 6313,
      "discussion": 6314,
      "emergency": 6315,
      "##itions": 6316,
      "giggle": 6317,
      "##inge": 6318,
      "shows": 6319,
      "shaped": 6320,
      "clients": 6321,
      "switched": 6322,
      "confirmed": 6323,
      "wing": 6324,
      "milit": 6325,
      "erotic": 6326,
      "reputation": 6327,
      "prent": 6328,
      "benny": 6329,
      "leads": 6330,
      "nikki": 6331,
      "ceremony": 6332,
      "##tt": 6333,
      "exciting": 6334,
      "torso": 6335,
      "suspicious": 6336,
      "prentice": 6337,
      "plates": 6338,
      "cron": 6339,
      "layla": 6340,
      "dresser": 6341,
      "unkn": 6342,
      "provided": 6343,
      "mascul": 6344,
      "shortly": 6345,
      "exhaust": 6346,
      "unconscious": 6347,
      "bi": 6348,
      "remar": 6349,
      "devyn": 6350,
      "tad": 6351,
      "skull": 6352,
      "lawn": 6353,
      "shouting": 6354,
      "mile": 6355,
      "guar": 6356,
      "rolls": 6357,
      "trad": 6358,
      "climbing": 6359,
      "carl": 6360,
      "##berry": 6361,
      "attempted": 6362,
      "##off": 6363,
      "##lair": 6364,
      "darius": 6365,
      "##otted": 6366,
      "##emis": 6367,
      "singing": 6368,
      "artemis": 6369,
      "calif": 6370,
      "amazed": 6371,
      "rate": 6372,
      "##ipt": 6373,
      "knelt": 6374,
      "bold": 6375,
      "tempt": 6376,
      "duc": 6377,
      "net": 6378,
      "newsp": 6379,
      "fireplace": 6380,
      "pathetic": 6381,
      "insult": 6382,
      "arrogant": 6383,
      "californ": 6384,
      "glory": 6385,
      "motioned": 6386,
      "overwhelmed": 6387,
      "drama": 6388,
      "stares": 6389,
      "sinking": 6390,
      "distraction": 6391,
      "engaged": 6392,
      "fantas": 6393,
      "gal": 6394,
      "sinclair": 6395,
      "sull": 6396,
      "justin": 6397,
      "amery": 6398,
      "crushed": 6399,
      "patient": 6400,
      "wiping": 6401,
      "soap": 6402,
      "bren": 6403,
      "catcher": 6404,
      "hem": 6405,
      "##ads": 6406,
      "string": 6407,
      "dani": 6408,
      "##ahn": 6409,
      "obliv": 6410,
      "emerged": 6411,
      "knight": 6412,
      "fruit": 6413,
      "imagining": 6414,
      "cries": 6415,
      "mont": 6416,
      "##ndy": 6417,
      "##lla": 6418,
      "planet": 6419,
      "seventeen": 6420,
      "##ites": 6421,
      "spat": 6422,
      "corp": 6423,
      "lacey": 6424,
      "aisle": 6425,
      "edward": 6426,
      "options": 6427,
      "##ipper": 6428,
      "##yard": 6429,
      "##asp": 6430,
      "endless": 6431,
      "tate": 6432,
      "atl": 6433,
      "horrified": 6434,
      "separated": 6435,
      "dried": 6436,
      "mama": 6437,
      "trunk": 6438,
      "feb": 6439,
      "ella": 6440,
      "##rected": 6441,
      "candy": 6442,
      "adding": 6443,
      "health": 6444,
      "provide": 6445,
      "dave": 6446,
      "myster": 6447,
      "royal": 6448,
      "california": 6449,
      "betrayed": 6450,
      "refusing": 6451,
      "dove": 6452,
      "ponytail": 6453,
      "impro": 6454,
      "propos": 6455,
      "universe": 6456,
      "bind": 6457,
      "flowing": 6458,
      "sonia": 6459,
      "thirteen": 6460,
      "suitcase": 6461,
      "based": 6462,
      "shiny": 6463,
      "messed": 6464,
      "scowl": 6465,
      "flir": 6466,
      "celia": 6467,
      "##usive": 6468,
      "##ulated": 6469,
      "defend": 6470,
      "chief": 6471,
      "scott": 6472,
      "financ": 6473,
      "messages": 6474,
      "##bal": 6475,
      "##cle": 6476,
      "##icy": 6477,
      "warmed": 6478,
      "caressed": 6479,
      "questioning": 6480,
      "reapers": 6481,
      "##ops": 6482,
      "brings": 6483,
      "ashamed": 6484,
      "frost": 6485,
      "neighborhood": 6486,
      "slumped": 6487,
      "sibyl": 6488,
      "attraction": 6489,
      "famous": 6490,
      "latest": 6491,
      "##rop": 6492,
      "anya": 6493,
      "swinging": 6494,
      "magnific": 6495,
      "official": 6496,
      "screams": 6497,
      "mand": 6498,
      "crown": 6499,
      "grey": 6500,
      "##uded": 6501,
      "loth": 6502,
      "##chy": 6503,
      "consequ": 6504,
      "somebody": 6505,
      "sets": 6506,
      "##isc": 6507,
      "pinched": 6508,
      "shudder": 6509,
      "rav": 6510,
      "reward": 6511,
      "hopes": 6512,
      "crawl": 6513,
      "inhaled": 6514,
      "choo": 6515,
      "hundreds": 6516,
      "brandt": 6517,
      "civ": 6518,
      "##issy": 6519,
      "soaked": 6520,
      "theo": 6521,
      "carved": 6522,
      "camille": 6523,
      "cassie": 6524,
      "dated": 6525,
      "jun": 6526,
      "profess": 6527,
      "caden": 6528,
      "ought": 6529,
      "claud": 6530,
      "##kyrian": 6531,
      "nykyrian": 6532,
      "intri": 6533,
      "smacked": 6534,
      "addition": 6535,
      "##iqu": 6536,
      "invite": 6537,
      "wildly": 6538,
      "moder": 6539,
      "nuts": 6540,
      "equally": 6541,
      "dumped": 6542,
      "##irst": 6543,
      "naturally": 6544,
      "eyelids": 6545,
      "jade": 6546,
      "magical": 6547,
      "##rom": 6548,
      "blinking": 6549,
      "nostr": 6550,
      "buff": 6551,
      "iv": 6552,
      "sting": 6553,
      "##hea": 6554,
      "assure": 6555,
      "caroline": 6556,
      "drift": 6557,
      "grins": 6558,
      "##veled": 6559,
      "desperation": 6560,
      "clamped": 6561,
      "flooded": 6562,
      "chaos": 6563,
      "dared": 6564,
      "increased": 6565,
      "impact": 6566,
      "entry": 6567,
      "cookies": 6568,
      "prevent": 6569,
      "##eday": 6570,
      "touches": 6571,
      "cronus": 6572,
      "sasha": 6573,
      "##agon": 6574,
      "basically": 6575,
      "##hh": 6576,
      "##ns": 6577,
      "someday": 6578,
      "devast": 6579,
      "##enses": 6580,
      "suffering": 6581,
      "liar": 6582,
      "parties": 6583,
      "tilt": 6584,
      "##kee": 6585,
      "lil": 6586,
      "dip": 6587,
      "prior": 6588,
      "approval": 6589,
      "panicked": 6590,
      "magazine": 6591,
      "##hold": 6592,
      "##acon": 6593,
      "visible": 6594,
      "tracks": 6595,
      "aroused": 6596,
      "nightstand": 6597,
      "skill": 6598,
      "argued": 6599,
      "exquis": 6600,
      "devour": 6601,
      "misery": 6602,
      "candle": 6603,
      "sire": 6604,
      "##lar": 6605,
      "abb": 6606,
      "blaz": 6607,
      "grat": 6608,
      "greed": 6609,
      "currently": 6610,
      "congrat": 6611,
      "subtle": 6612,
      "dusty": 6613,
      "seeking": 6614,
      "series": 6615,
      "bury": 6616,
      "tries": 6617,
      "##rete": 6618,
      "##ddled": 6619,
      "prompted": 6620,
      "thousands": 6621,
      "original": 6622,
      "dorm": 6623,
      "##pan": 6624,
      "xav": 6625,
      "vik": 6626,
      "reaper": 6627,
      "aloud": 6628,
      "basement": 6629,
      "##icles": 6630,
      "goodness": 6631,
      "elij": 6632,
      "strangely": 6633,
      "duche": 6634,
      "elijah": 6635,
      "##idget": 6636,
      "christop": 6637,
      "tanner": 6638,
      "kenned": 6639,
      "toilet": 6640,
      "##shot": 6641,
      "prepare": 6642,
      "defeat": 6643,
      "##itching": 6644,
      "nearest": 6645,
      "kennedy": 6646,
      "russ": 6647,
      "appointment": 6648,
      "clasped": 6649,
      "shirts": 6650,
      "husky": 6651,
      "chann": 6652,
      "##gen": 6653,
      "duchess": 6654,
      "altern": 6655,
      "overhead": 6656,
      "roar": 6657,
      "thoughtful": 6658,
      "charity": 6659,
      "paced": 6660,
      "ham": 6661,
      "flame": 6662,
      "dollar": 6663,
      "stil": 6664,
      "duncan": 6665,
      "witches": 6666,
      "stagg": 6667,
      "impul": 6668,
      "fluttered": 6669,
      "waiter": 6670,
      "cups": 6671,
      "nostrils": 6672,
      "##ints": 6673,
      "continues": 6674,
      "mystery": 6675,
      "flickered": 6676,
      "sacrifice": 6677,
      "##esty": 6678,
      "mock": 6679,
      "wrinkled": 6680,
      "guns": 6681,
      "enemies": 6682,
      "##bl": 6683,
      "topic": 6684,
      "imagination": 6685,
      "shrugs": 6686,
      "package": 6687,
      "flung": 6688,
      "personally": 6689,
      "penetr": 6690,
      "marrying": 6691,
      "exchanged": 6692,
      "##ogan": 6693,
      "pages": 6694,
      "reject": 6695,
      "suc": 6696,
      "impl": 6697,
      "detective": 6698,
      "tooth": 6699,
      "assoc": 6700,
      "satin": 6701,
      "fairly": 6702,
      "acknowledge": 6703,
      "edgard": 6704,
      "tunnel": 6705,
      "gloves": 6706,
      "succeed": 6707,
      "salt": 6708,
      "traveling": 6709,
      "candace": 6710,
      "roughly": 6711,
      "##glas": 6712,
      "fever": 6713,
      "douglas": 6714,
      "community": 6715,
      "##ribly": 6716,
      "pam": 6717,
      "sucks": 6718,
      "perf": 6719,
      "register": 6720,
      "radio": 6721,
      "charged": 6722,
      "juice": 6723,
      "##lying": 6724,
      "scattered": 6725,
      "menu": 6726,
      "transfer": 6727,
      "##tery": 6728,
      "silky": 6729,
      "males": 6730,
      "haunted": 6731,
      "josie": 6732,
      "indul": 6733,
      "mountains": 6734,
      "##hett": 6735,
      "##li": 6736,
      "##sec": 6737,
      "##antically": 6738,
      "strap": 6739,
      "conference": 6740,
      "affair": 6741,
      "spraw": 6742,
      "##ission": 6743,
      "flinched": 6744,
      "presses": 6745,
      "landon": 6746,
      "conven": 6747,
      "floating": 6748,
      "arguing": 6749,
      "creating": 6750,
      "embarrassing": 6751,
      "##uted": 6752,
      "##ado": 6753,
      "##guer": 6754,
      "crept": 6755,
      "barte": 6756,
      "bomb": 6757,
      "rab": 6758,
      "##umph": 6759,
      "marguer": 6760,
      "included": 6761,
      "raph": 6762,
      "##jo": 6763,
      "crouched": 6764,
      "gry": 6765,
      "asp": 6766,
      "##atherine": 6767,
      "funeral": 6768,
      "lifts": 6769,
      "ink": 6770,
      "overl": 6771,
      "floors": 6772,
      "jobs": 6773,
      "luckily": 6774,
      "curtain": 6775,
      "measure": 6776,
      "incident": 6777,
      "slightest": 6778,
      "tuesday": 6779,
      "brutal": 6780,
      "marguerite": 6781,
      "automatically": 6782,
      "steering": 6783,
      "medical": 6784,
      "aidan": 6785,
      "impatient": 6786,
      "raphael": 6787,
      "##ulations": 6788,
      "recent": 6789,
      "suffered": 6790,
      "sought": 6791,
      "##sa": 6792,
      "##arted": 6793,
      "oddly": 6794,
      "consumed": 6795,
      "##glasses": 6796,
      "##idently": 6797,
      "irritation": 6798,
      "##uary": 6799,
      "##armed": 6800,
      "complex": 6801,
      "bri": 6802,
      "gryph": 6803,
      "##hip": 6804,
      "hugging": 6805,
      "preparing": 6806,
      "sandwich": 6807,
      "##etch": 6808,
      "depths": 6809,
      "feminine": 6810,
      "aj": 6811,
      "crashing": 6812,
      "gloss": 6813,
      "emerson": 6814,
      "influ": 6815,
      "bending": 6816,
      "craved": 6817,
      "suz": 6818,
      "adop": 6819,
      "benj": 6820,
      "staircase": 6821,
      "comforting": 6822,
      "sipped": 6823,
      "concrete": 6824,
      "syl": 6825,
      "lothaire": 6826,
      "##ample": 6827,
      "appropriate": 6828,
      "sighs": 6829,
      "bounced": 6830,
      "##alled": 6831,
      "sliced": 6832,
      "reck": 6833,
      "frantic": 6834,
      "tradition": 6835,
      "##ookie": 6836,
      "miche": 6837,
      "assh": 6838,
      "los": 6839,
      "proceed": 6840,
      "exception": 6841,
      "pounds": 6842,
      "frankie": 6843,
      "throne": 6844,
      "naught": 6845,
      "lia": 6846,
      "confront": 6847,
      "judgment": 6848,
      "liv": 6849,
      "goal": 6850,
      "cigarette": 6851,
      "snake": 6852,
      "staffan": 6853,
      "false": 6854,
      "sympathy": 6855,
      "impressive": 6856,
      "sele": 6857,
      "successful": 6858,
      "cliff": 6859,
      "archer": 6860,
      "strate": 6861,
      "pussy": 6862,
      "treas": 6863,
      "wolves": 6864,
      "steam": 6865,
      "stealing": 6866,
      "lucian": 6867,
      "assuming": 6868,
      "journey": 6869,
      "foyer": 6870,
      "audience": 6871,
      "##gers": 6872,
      "##istered": 6873,
      "whimp": 6874,
      "mansion": 6875,
      "masculine": 6876,
      "loaded": 6877,
      "alter": 6878,
      "hits": 6879,
      "deciding": 6880,
      "deadly": 6881,
      "blurted": 6882,
      "slim": 6883,
      "matched": 6884,
      "royce": 6885,
      "##itha": 6886,
      "##fall": 6887,
      "wary": 6888,
      "barked": 6889,
      "remark": 6890,
      "tabitha": 6891,
      "rapidly": 6892,
      "spoon": 6893,
      "compliment": 6894,
      "trailer": 6895,
      "desert": 6896,
      "avoided": 6897,
      "folks": 6898,
      "dece": 6899,
      "apple": 6900,
      "legal": 6901,
      "grunt": 6902,
      "barb": 6903,
      "strands": 6904,
      "##ology": 6905,
      "pra": 6906,
      "approaching": 6907,
      "domen": 6908,
      "inclined": 6909,
      "grasped": 6910,
      "explode": 6911,
      "pave": 6912,
      "##bur": 6913,
      "noelle": 6914,
      "##uments": 6915,
      "appreciated": 6916,
      "instincts": 6917,
      "tack": 6918,
      "miracle": 6919,
      "routine": 6920,
      "domenico": 6921,
      "##cel": 6922,
      "unlocked": 6923,
      "earned": 6924,
      "##alian": 6925,
      "appears": 6926,
      "##oke": 6927,
      "##pre": 6928,
      "bee": 6929,
      "hearts": 6930,
      "collect": 6931,
      "tax": 6932,
      "##lings": 6933,
      "lazy": 6934,
      "triumph": 6935,
      "mum": 6936,
      "swimming": 6937,
      "brooks": 6938,
      "doin": 6939,
      "colton": 6940,
      "modern": 6941,
      "guided": 6942,
      "madeline": 6943,
      "sofie": 6944,
      "files": 6945,
      "jose": 6946,
      "specific": 6947,
      "ned": 6948,
      "##olas": 6949,
      "introduced": 6950,
      "pacing": 6951,
      "taut": 6952,
      "devon": 6953,
      "souls": 6954,
      "toy": 6955,
      "##umpled": 6956,
      "lexie": 6957,
      "sweeping": 6958,
      "pig": 6959,
      "alb": 6960,
      "kimber": 6961,
      "##agging": 6962,
      "cowboy": 6963,
      "healed": 6964,
      "beau": 6965,
      "muffled": 6966,
      "crit": 6967,
      "cuts": 6968,
      "evelyn": 6969,
      "holiday": 6970,
      "flynn": 6971,
      "backing": 6972,
      "aura": 6973,
      "jan": 6974,
      "females": 6975,
      "railing": 6976,
      "dod": 6977,
      "##itute": 6978,
      "doug": 6979,
      "mim": 6980,
      "replace": 6981,
      "smells": 6982,
      "murdered": 6983,
      "east": 6984,
      "protested": 6985,
      "adjusted": 6986,
      "alright": 6987,
      "blown": 6988,
      "arrow": 6989,
      "bottles": 6990,
      "magnificent": 6991,
      "hailey": 6992,
      "##ardon": 6993,
      "emerald": 6994,
      "dragon": 6995,
      "inevit": 6996,
      "model": 6997,
      "grabs": 6998,
      "horiz": 6999,
      "servants": 7000,
      "##osure": 7001,
      "useless": 7002,
      "##itting": 7003,
      "poked": 7004,
      "worthy": 7005,
      "illum": 7006,
      "distinct": 7007,
      "brightly": 7008,
      "sighing": 7009,
      "advent": 7010,
      "zay": 7011,
      "whoa": 7012,
      "cott": 7013,
      "vast": 7014,
      "##aid": 7015,
      "sons": 7016,
      "granted": 7017,
      "finds": 7018,
      "safely": 7019,
      "scarlet": 7020,
      "lingered": 7021,
      "greeting": 7022,
      "jones": 7023,
      "fragile": 7024,
      "##aries": 7025,
      "controlled": 7026,
      "thrill": 7027,
      "gasping": 7028,
      "irre": 7029,
      "lant": 7030,
      "unre": 7031,
      "slice": 7032,
      "louisa": 7033,
      "describe": 7034,
      "anne": 7035,
      "relationships": 7036,
      "typical": 7037,
      "hauk": 7038,
      "lind": 7039,
      "steven": 7040,
      "limp": 7041,
      "boxers": 7042,
      "jenn": 7043,
      "combination": 7044,
      "scratched": 7045,
      "unhapp": 7046,
      "hopped": 7047,
      "cupping": 7048,
      "cassandra": 7049,
      "rack": 7050,
      "##icted": 7051,
      "franc": 7052,
      "wider": 7053,
      "##keeper": 7054,
      "tortured": 7055,
      "mouths": 7056,
      "burns": 7057,
      "counted": 7058,
      "toler": 7059,
      "churn": 7060,
      "dess": 7061,
      "strokes": 7062,
      "suspicion": 7063,
      "unknown": 7064,
      "stew": 7065,
      "saff": 7066,
      "escort": 7067,
      "oil": 7068,
      "locks": 7069,
      "everybody": 7070,
      "sunglasses": 7071,
      "hyp": 7072,
      "manager": 7073,
      "eva": 7074,
      "consc": 7075,
      "fulf": 7076,
      "groom": 7077,
      "##tin": 7078,
      "leth": 7079,
      "greg": 7080,
      "vane": 7081,
      "barg": 7082,
      "dessert": 7083,
      "##ano": 7084,
      "feeding": 7085,
      "remo": 7086,
      "##da": 7087,
      "beam": 7088,
      "darker": 7089,
      "signific": 7090,
      "dancer": 7091,
      "directions": 7092,
      "unbutton": 7093,
      "twitch": 7094,
      "##izes": 7095,
      "campus": 7096,
      "precisely": 7097,
      "las": 7098,
      "##ailed": 7099,
      "##stick": 7100,
      "wallet": 7101,
      "smoothly": 7102,
      "sniffed": 7103,
      "adorable": 7104,
      "##rien": 7105,
      "slides": 7106,
      "merc": 7107,
      "chris": 7108,
      "grade": 7109,
      "affected": 7110,
      "entertain": 7111,
      "fade": 7112,
      "trade": 7113,
      "##oh": 7114,
      "heck": 7115,
      "clapped": 7116,
      "stabbed": 7117,
      "pix": 7118,
      "##xic": 7119,
      "gruff": 7120,
      "jewelry": 7121,
      "reassuring": 7122,
      "lighting": 7123,
      "ax": 7124,
      "serena": 7125,
      "inviting": 7126,
      "equal": 7127,
      "tasha": 7128,
      "frantically": 7129,
      "suv": 7130,
      "fellows": 7131,
      "items": 7132,
      "##natural": 7133,
      "gazing": 7134,
      "gifts": 7135,
      "sale": 7136,
      "guide": 7137,
      "directed": 7138,
      "announce": 7139,
      "saffi": 7140,
      "cough": 7141,
      "occasionally": 7142,
      "bartender": 7143,
      "ripping": 7144,
      "clenching": 7145,
      "flirt": 7146,
      "withdrew": 7147,
      "degree": 7148,
      "##arre": 7149,
      "blouse": 7150,
      "accus": 7151,
      "grandp": 7152,
      "mistress": 7153,
      "forming": 7154,
      "dreaming": 7155,
      "properly": 7156,
      "annie": 7157,
      "volun": 7158,
      "laced": 7159,
      "stained": 7160,
      "whip": 7161,
      "spill": 7162,
      "perfection": 7163,
      "volunte": 7164,
      "quir": 7165,
      "helena": 7166,
      "forearm": 7167,
      "quarter": 7168,
      "overhe": 7169,
      "engagement": 7170,
      "thoroughly": 7171,
      "hire": 7172,
      "scri": 7173,
      "player": 7174,
      "puff": 7175,
      "studio": 7176,
      "sincere": 7177,
      "framed": 7178,
      "wraps": 7179,
      "messy": 7180,
      "##antha": 7181,
      "worries": 7182,
      "related": 7183,
      "shocking": 7184,
      "annoyance": 7185,
      "ruby": 7186,
      "sweetie": 7187,
      "##ounted": 7188,
      "braden": 7189,
      "spade": 7190,
      "ellison": 7191,
      "student": 7192,
      "curtains": 7193,
      "##etri": 7194,
      "shore": 7195,
      "anth": 7196,
      "strider": 7197,
      "pleading": 7198,
      "winning": 7199,
      "cautiously": 7200,
      "##down": 7201,
      "##ula": 7202,
      "##iation": 7203,
      "awareness": 7204,
      "uneasy": 7205,
      "fiercely": 7206,
      "bol": 7207,
      "endelle": 7208,
      "hast": 7209,
      "contained": 7210,
      "##ivan": 7211,
      "taller": 7212,
      "folds": 7213,
      "lac": 7214,
      "##oon": 7215,
      "##fire": 7216,
      "floated": 7217,
      "urged": 7218,
      "branch": 7219,
      "pip": 7220,
      "##iece": 7221,
      "mud": 7222,
      "cheap": 7223,
      "snapping": 7224,
      "ribb": 7225,
      "fitting": 7226,
      "fled": 7227,
      "officially": 7228,
      "##resh": 7229,
      "##pleas": 7230,
      "##arian": 7231,
      "##arded": 7232,
      "expand": 7233,
      "##idra": 7234,
      "##cery": 7235,
      "levet": 7236,
      "scor": 7237,
      "swirling": 7238,
      "calcul": 7239,
      "breaks": 7240,
      "shallow": 7241,
      "martin": 7242,
      "disaster": 7243,
      "demetri": 7244,
      "##olded": 7245,
      "romance": 7246,
      "chasing": 7247,
      "chamber": 7248,
      "seed": 7249,
      "maddy": 7250,
      "xavier": 7251,
      "kald": 7252,
      "##rous": 7253,
      "excl": 7254,
      "polished": 7255,
      "descended": 7256,
      "chip": 7257,
      "priest": 7258,
      "judging": 7259,
      "ming": 7260,
      "##iration": 7261,
      "ali": 7262,
      "promises": 7263,
      "loyalty": 7264,
      "kil": 7265,
      "surged": 7266,
      "committed": 7267,
      "##stone": 7268,
      "##seat": 7269,
      "instructions": 7270,
      "##bre": 7271,
      "suits": 7272,
      "##ums": 7273,
      "politely": 7274,
      "taun": 7275,
      "anybody": 7276,
      "thrusting": 7277,
      "cabinet": 7278,
      "##bell": 7279,
      "env": 7280,
      "resem": 7281,
      "generous": 7282,
      "zipper": 7283,
      "stella": 7284,
      "curb": 7285,
      "daily": 7286,
      "suzanne": 7287,
      "ped": 7288,
      "rash": 7289,
      "stable": 7290,
      "consequences": 7291,
      "kaldar": 7292,
      "ryker": 7293,
      "unbel": 7294,
      "sleeves": 7295,
      "spi": 7296,
      "awe": 7297,
      "peeked": 7298,
      "dean": 7299,
      "##ffin": 7300,
      "remains": 7301,
      "hovering": 7302,
      "christopher": 7303,
      "sheep": 7304,
      "backseat": 7305,
      "##ggy": 7306,
      "dresses": 7307,
      "confirm": 7308,
      "roses": 7309,
      "##arek": 7310,
      "salad": 7311,
      "tasting": 7312,
      "piercing": 7313,
      "##olf": 7314,
      "replies": 7315,
      "product": 7316,
      "genuinely": 7317,
      "ecstasy": 7318,
      "stake": 7319,
      "sworn": 7320,
      "##atter": 7321,
      "##astically": 7322,
      "benefit": 7323,
      "puppy": 7324,
      "temporary": 7325,
      "partners": 7326,
      "##formed": 7327,
      "accepting": 7328,
      "nipples": 7329,
      "maneu": 7330,
      "bice": 7331,
      "site": 7332,
      "##zes": 7333,
      "entering": 7334,
      "##rina": 7335,
      "symb": 7336,
      "odds": 7337,
      "headache": 7338,
      "require": 7339,
      "coward": 7340,
      "vicious": 7341,
      "govern": 7342,
      "believing": 7343,
      "vaguely": 7344,
      "whimper": 7345,
      "theory": 7346,
      "regin": 7347,
      "eden": 7348,
      "##orld": 7349,
      "murmur": 7350,
      "savage": 7351,
      "introduce": 7352,
      "nolan": 7353,
      "blocked": 7354,
      "intently": 7355,
      "releasing": 7356,
      "fortune": 7357,
      "status": 7358,
      "maddox": 7359,
      "hazel": 7360,
      "rasped": 7361,
      "betrayal": 7362,
      "##ford": 7363,
      "##inity": 7364,
      "liking": 7365,
      "chand": 7366,
      "raven": 7367,
      "lowering": 7368,
      "blankets": 7369,
      "estab": 7370,
      "italian": 7371,
      "skipped": 7372,
      "susan": 7373,
      "prayed": 7374,
      "corrected": 7375,
      "craft": 7376,
      "hyster": 7377,
      "mommy": 7378,
      "professor": 7379,
      "sissy": 7380,
      "##olyn": 7381,
      "neal": 7382,
      "lovers": 7383,
      "glowed": 7384,
      "assign": 7385,
      "profile": 7386,
      "disgusted": 7387,
      "##ogen": 7388,
      "fingern": 7389,
      "nause": 7390,
      "wasted": 7391,
      "wounded": 7392,
      "efforts": 7393,
      "exquisite": 7394,
      "crun": 7395,
      "negot": 7396,
      "permanent": 7397,
      "bald": 7398,
      "bubble": 7399,
      "sadd": 7400,
      "sadly": 7401,
      "ashley": 7402,
      "oct": 7403,
      "stung": 7404,
      "bodygu": 7405,
      "mateo": 7406,
      "##und": 7407,
      "function": 7408,
      "lush": 7409,
      "##ooled": 7410,
      "highway": 7411,
      "##00": 7412,
      "possession": 7413,
      "napkin": 7414,
      "explosion": 7415,
      "flirting": 7416,
      "jab": 7417,
      "skip": 7418,
      "nightmares": 7419,
      "shred": 7420,
      "deepened": 7421,
      "##low": 7422,
      "spilling": 7423,
      "explore": 7424,
      "foreign": 7425,
      "symbol": 7426,
      "tipt": 7427,
      "##eared": 7428,
      "mini": 7429,
      "crisp": 7430,
      "military": 7431,
      "##ddle": 7432,
      "helps": 7433,
      "range": 7434,
      "##uish": 7435,
      "joining": 7436,
      "finishing": 7437,
      "perched": 7438,
      "sleepy": 7439,
      "emphas": 7440,
      "noticing": 7441,
      "arc": 7442,
      "reacted": 7443,
      "valky": 7444,
      "sookie": 7445,
      "sports": 7446,
      "coast": 7447,
      "swirled": 7448,
      "repres": 7449,
      "spray": 7450,
      "prey": 7451,
      "financial": 7452,
      "offers": 7453,
      "continuing": 7454,
      "indicated": 7455,
      "terrifying": 7456,
      "unbeliev": 7457,
      "##ifully": 7458,
      "arth": 7459,
      "minds": 7460,
      "sarcasm": 7461,
      "goose": 7462,
      "pil": 7463,
      "##outhed": 7464,
      "dates": 7465,
      "flaw": 7466,
      "hovered": 7467,
      "keira": 7468,
      "backpack": 7469,
      "cringed": 7470,
      "laws": 7471,
      "snuggled": 7472,
      "mysterious": 7473,
      "michelle": 7474,
      "dash": 7475,
      "tighten": 7476,
      "picks": 7477,
      "##riger": 7478,
      "refriger": 7479,
      "dealt": 7480,
      "inher": 7481,
      "thrusts": 7482,
      "regarded": 7483,
      "gleaming": 7484,
      "educ": 7485,
      "cameras": 7486,
      "jennifer": 7487,
      "##hest": 7488,
      "haze": 7489,
      "warren": 7490,
      "squinted": 7491,
      "tay": 7492,
      "moans": 7493,
      "meth": 7494,
      "rubi": 7495,
      "civil": 7496,
      "sang": 7497,
      "handled": 7498,
      "juliana": 7499,
      "hauled": 7500,
      "tiss": 7501,
      "##inate": 7502,
      "sanct": 7503,
      "intentions": 7504,
      "daph": 7505,
      "severe": 7506,
      "soldiers": 7507,
      "sometime": 7508,
      "##mod": 7509,
      "sensing": 7510,
      "##cting": 7511,
      "cloak": 7512,
      "##strom": 7513,
      "denied": 7514,
      "daphne": 7515,
      "gau": 7516,
      "##iara": 7517,
      "##uman": 7518,
      "flor": 7519,
      "carriage": 7520,
      "maris": 7521,
      "compass": 7522,
      "century": 7523,
      "ensure": 7524,
      "tact": 7525,
      "##ulating": 7526,
      "marian": 7527,
      "furrowed": 7528,
      "shutting": 7529,
      "victory": 7530,
      "seductive": 7531,
      "naughty": 7532,
      "gaped": 7533,
      "##hem": 7534,
      "##aches": 7535,
      "emp": 7536,
      "shoe": 7537,
      "ber": 7538,
      "bark": 7539,
      "bites": 7540,
      "cuff": 7541,
      "nudged": 7542,
      "##ville": 7543,
      "##riff": 7544,
      "dazed": 7545,
      "rit": 7546,
      "guardian": 7547,
      "sariana": 7548,
      "lasted": 7549,
      "lic": 7550,
      "offended": 7551,
      "charles": 7552,
      "stomped": 7553,
      "##racting": 7554,
      "kira": 7555,
      "lila": 7556,
      "blocks": 7557,
      "dred": 7558,
      "technically": 7559,
      "tat": 7560,
      "##oul": 7561,
      "##aren": 7562,
      "countered": 7563,
      "sparkling": 7564,
      "delighted": 7565,
      "##olai": 7566,
      "scratch": 7567,
      "occupied": 7568,
      "##com": 7569,
      "blunt": 7570,
      "trailing": 7571,
      "mirr": 7572,
      "blocking": 7573,
      "##ierra": 7574,
      "darlin": 7575,
      "mes": 7576,
      "damon": 7577,
      "dies": 7578,
      "##uel": 7579,
      "flex": 7580,
      "zarek": 7581,
      "flare": 7582,
      "acade": 7583,
      "cares": 7584,
      "involve": 7585,
      "monst": 7586,
      "wishes": 7587,
      "vikt": 7588,
      "cottage": 7589,
      "kam": 7590,
      "##we": 7591,
      "avery": 7592,
      "alpha": 7593,
      "abilities": 7594,
      "appet": 7595,
      "relent": 7596,
      "visited": 7597,
      "sensations": 7598,
      "dump": 7599,
      "mistakes": 7600,
      "bracelet": 7601,
      "achie": 7602,
      "tiff": 7603,
      "tape": 7604,
      "sped": 7605,
      "frequ": 7606,
      "bills": 7607,
      "newspaper": 7608,
      "fucked": 7609,
      "swallowing": 7610,
      "creek": 7611,
      "alcide": 7612,
      "holt": 7613,
      "sorts": 7614,
      "denise": 7615,
      "merit": 7616,
      "heaved": 7617,
      "ninet": 7618,
      "anthony": 7619,
      "intru": 7620,
      "illeg": 7621,
      "rumors": 7622,
      "##away": 7623,
      "ree": 7624,
      "mocking": 7625,
      "##yson": 7626,
      "bearing": 7627,
      "##ctors": 7628,
      "honesty": 7629,
      "fortunately": 7630,
      "merry": 7631,
      "scooted": 7632,
      "trigger": 7633,
      "nancy": 7634,
      "##etic": 7635,
      "##ienne": 7636,
      "encounter": 7637,
      "happier": 7638,
      "nikolai": 7639,
      "penthouse": 7640,
      "elise": 7641,
      "clever": 7642,
      "katherine": 7643,
      "##ainted": 7644,
      "designed": 7645,
      "brenna": 7646,
      "gn": 7647,
      "sentin": 7648,
      "tremble": 7649,
      "##hu": 7650,
      "scooped": 7651,
      "personality": 7652,
      "ace": 7653,
      "nah": 7654,
      "oun": 7655,
      "clipped": 7656,
      "garg": 7657,
      "beaten": 7658,
      "states": 7659,
      "clinging": 7660,
      "severance": 7661,
      "texted": 7662,
      "frightening": 7663,
      "grinding": 7664,
      "tob": 7665,
      "coven": 7666,
      "joked": 7667,
      "##isk": 7668,
      "imper": 7669,
      "##bones": 7670,
      "##col": 7671,
      "sweetly": 7672,
      "jenna": 7673,
      "chewed": 7674,
      "cidra": 7675,
      "rif": 7676,
      "##fits": 7677,
      "murmurs": 7678,
      "internet": 7679,
      "##heres": 7680,
      "candles": 7681,
      "abandon": 7682,
      "crimson": 7683,
      "##field": 7684,
      "outrage": 7685,
      "willingly": 7686,
      "injuries": 7687,
      "tits": 7688,
      "##inous": 7689,
      "lid": 7690,
      "##giving": 7691,
      "##arel": 7692,
      "discon": 7693,
      "discussing": 7694,
      "bump": 7695,
      "##arms": 7696,
      "sorrow": 7697,
      "vince": 7698,
      "popular": 7699,
      "glorious": 7700,
      "##ressing": 7701,
      "wer": 7702,
      "seek": 7703,
      "differently": 7704,
      "##uther": 7705,
      "kitten": 7706,
      "contents": 7707,
      "bew": 7708,
      "doz": 7709,
      "laund": 7710,
      "scoffed": 7711,
      "elder": 7712,
      "roke": 7713,
      "corn": 7714,
      "meetings": 7715,
      "sweaty": 7716,
      "refrigerator": 7717,
      "##ta": 7718,
      "sober": 7719,
      "coax": 7720,
      "##ifying": 7721,
      "spots": 7722,
      "sabin": 7723,
      "gang": 7724,
      "chey": 7725,
      "sleek": 7726,
      "##lie": 7727,
      "praying": 7728,
      "brew": 7729,
      "absence": 7730,
      "##ele": 7731,
      "bouncing": 7732,
      "guarant": 7733,
      "yel": 7734,
      "##umed": 7735,
      "arrival": 7736,
      "imogen": 7737,
      "##udge": 7738,
      "counting": 7739,
      "##gues": 7740,
      "novel": 7741,
      "pho": 7742,
      "wealth": 7743,
      "pumping": 7744,
      "flipping": 7745,
      "desired": 7746,
      "insul": 7747,
      "roxie": 7748,
      "arthur": 7749,
      "leto": 7750,
      "arrangement": 7751,
      "gargoy": 7752,
      "##cup": 7753,
      "booker": 7754,
      "jessica": 7755,
      "ire": 7756,
      "ku": 7757,
      "recalled": 7758,
      "lighter": 7759,
      "ox": 7760,
      "conversations": 7761,
      "##rehen": 7762,
      "tracing": 7763,
      "valkyrie": 7764,
      "daring": 7765,
      "izzy": 7766,
      "dizzy": 7767,
      "ker": 7768,
      "heven": 7769,
      "shir": 7770,
      "##ishly": 7771,
      "transl": 7772,
      "located": 7773,
      "senior": 7774,
      "saun": 7775,
      "registered": 7776,
      "trusting": 7777,
      "kyrian": 7778,
      "title": 7779,
      "##robe": 7780,
      "bron": 7781,
      "##akable": 7782,
      "retorted": 7783,
      "freaked": 7784,
      "visiting": 7785,
      "kenny": 7786,
      "quality": 7787,
      "dozens": 7788,
      "##imil": 7789,
      "##phan": 7790,
      "paj": 7791,
      "caressing": 7792,
      "decorated": 7793,
      "unn": 7794,
      "strangers": 7795,
      "load": 7796,
      "resent": 7797,
      "jerking": 7798,
      "striking": 7799,
      "asshole": 7800,
      "##iter": 7801,
      "abdom": 7802,
      "motorcy": 7803,
      "mex": 7804,
      "hopeful": 7805,
      "focusing": 7806,
      "launched": 7807,
      "aimed": 7808,
      "pey": 7809,
      "huff": 7810,
      "##hun": 7811,
      "##oting": 7812,
      "blades": 7813,
      "serving": 7814,
      "raked": 7815,
      "film": 7816,
      "##anches": 7817,
      "surroundings": 7818,
      "baseball": 7819,
      "tee": 7820,
      "shelf": 7821,
      "rein": 7822,
      "##ags": 7823,
      "##ucing": 7824,
      "##gued": 7825,
      "##bon": 7826,
      "socks": 7827,
      "huffed": 7828,
      "portal": 7829,
      "sullivan": 7830,
      "unique": 7831,
      "glist": 7832,
      "freezing": 7833,
      "hating": 7834,
      "##hile": 7835,
      "##inkling": 7836,
      "ours": 7837,
      "taylor": 7838,
      "lana": 7839,
      "##ooling": 7840,
      "strolled": 7841,
      "passionate": 7842,
      "allie": 7843,
      "relaxing": 7844,
      "possessive": 7845,
      "teenager": 7846,
      "bruises": 7847,
      "pitch": 7848,
      "##esy": 7849,
      "overs": 7850,
      "veget": 7851,
      "##aware": 7852,
      "dominique": 7853,
      "marty": 7854,
      "persu": 7855,
      "ga": 7856,
      "greater": 7857,
      "whimpered": 7858,
      "biz": 7859,
      "##hy": 7860,
      "##rant": 7861,
      "thane": 7862,
      "daylight": 7863,
      "##rupting": 7864,
      "savanna": 7865,
      "discussed": 7866,
      "phoen": 7867,
      "explaining": 7868,
      "disappearing": 7869,
      "emotionally": 7870,
      "creepy": 7871,
      "##enne": 7872,
      "neut": 7873,
      "elab": 7874,
      "eyeing": 7875,
      "wreck": 7876,
      "greek": 7877,
      "inward": 7878,
      "leaped": 7879,
      "playful": 7880,
      "catches": 7881,
      "accidentally": 7882,
      "cursing": 7883,
      "craving": 7884,
      "pictured": 7885,
      "phoenix": 7886,
      "steve": 7887,
      "grocery": 7888,
      "ridge": 7889,
      "shelter": 7890,
      "kas": 7891,
      "anch": 7892,
      "solution": 7893,
      "supplies": 7894,
      "rational": 7895,
      "##cheres": 7896,
      "##acles": 7897,
      "mencheres": 7898,
      "despair": 7899,
      "employees": 7900,
      "swayed": 7901,
      "bore": 7902,
      "##ench": 7903,
      "angrily": 7904,
      "grounds": 7905,
      "skylar": 7906,
      "seemingly": 7907,
      "awa": 7908,
      "capture": 7909,
      "oblivious": 7910,
      "ounce": 7911,
      "kade": 7912,
      "online": 7913,
      "email": 7914,
      "jewels": 7915,
      "fading": 7916,
      "weep": 7917,
      "wrest": 7918,
      "zero": 7919,
      "##lah": 7920,
      "league": 7921,
      "paperwork": 7922,
      "strand": 7923,
      "shadowhun": 7924,
      "slipp": 7925,
      "starving": 7926,
      "fascinated": 7927,
      "bout": 7928,
      "sized": 7929,
      "injury": 7930,
      "##ervation": 7931,
      "sparks": 7932,
      "ego": 7933,
      "##chan": 7934,
      "secretary": 7935,
      "rhett": 7936,
      "overt": 7937,
      "coinc": 7938,
      "equip": 7939,
      "celest": 7940,
      "tattoos": 7941,
      "celebrate": 7942,
      "werewolf": 7943,
      "bikini": 7944,
      "gig": 7945,
      "##ei": 7946,
      "restless": 7947,
      "terr": 7948,
      "media": 7949,
      "attempting": 7950,
      "drifting": 7951,
      "exerc": 7952,
      "chan": 7953,
      "##apes": 7954,
      "##bbling": 7955,
      "interior": 7956,
      "veron": 7957,
      "treatment": 7958,
      "results": 7959,
      "##ada": 7960,
      "tempting": 7961,
      "scraped": 7962,
      "##retched": 7963,
      "##ification": 7964,
      "ticket": 7965,
      "jael": 7966,
      "reed": 7967,
      "marched": 7968,
      "showered": 7969,
      "madness": 7970,
      "alexei": 7971,
      "fund": 7972,
      "bax": 7973,
      "referring": 7974,
      "leapt": 7975,
      "##gation": 7976,
      "shone": 7977,
      "laundry": 7978,
      "homes": 7979,
      "solo": 7980,
      "samantha": 7981,
      "increasing": 7982,
      "zacharel": 7983,
      "lethal": 7984,
      "nail": 7985,
      "locking": 7986,
      "choking": 7987,
      "nak": 7988,
      "nash": 7989,
      "accused": 7990,
      "immediate": 7991,
      "audrey": 7992,
      "gracie": 7993,
      "##nie": 7994,
      "cade": 7995,
      "scal": 7996,
      "packing": 7997,
      "suggestion": 7998,
      "##gia": 7999,
      "limo": 8000,
      "tapping": 8001,
      "unhappy": 8002,
      "##acher": 8003,
      "mona": 8004,
      "investigation": 8005,
      "##entin": 8006,
      "juliet": 8007,
      "aiden": 8008,
      "bared": 8009,
      "eur": 8010,
      "raz": 8011,
      "##zzed": 8012,
      "indust": 8013,
      "ashton": 8014,
      "##itated": 8015,
      "quentin": 8016,
      "barrier": 8017,
      "disappro": 8018,
      "paw": 8019,
      "aggress": 8020,
      "stove": 8021,
      "forgetting": 8022,
      "kh": 8023,
      "revel": 8024,
      "guitar": 8025,
      "shrieked": 8026,
      "sweetness": 8027,
      "hiss": 8028,
      "##celyn": 8029,
      "jocelyn": 8030,
      "shivering": 8031,
      "oak": 8032,
      "##rell": 8033,
      "##omi": 8034,
      "agg": 8035,
      "prospect": 8036,
      "softness": 8037,
      "equipment": 8038,
      "unsp": 8039,
      "absently": 8040,
      "jolt": 8041,
      "kad": 8042,
      "undo": 8043,
      "plunged": 8044,
      "lan": 8045,
      "calder": 8046,
      "pained": 8047,
      "blazing": 8048,
      "deuce": 8049,
      "demands": 8050,
      "remarked": 8051,
      "tiffany": 8052,
      "bumps": 8053,
      "cue": 8054,
      "journal": 8055,
      "duck": 8056,
      "buzzed": 8057,
      "convincing": 8058,
      "commitment": 8059,
      "reflected": 8060,
      "francis": 8061,
      "leon": 8062,
      "alana": 8063,
      "##ipher": 8064,
      "appeal": 8065,
      "lege": 8066,
      "thankful": 8067,
      "tower": 8068,
      "motel": 8069,
      "##uttered": 8070,
      "bund": 8071,
      "awhile": 8072,
      "scenar": 8073,
      "##oms": 8074,
      "momentarily": 8075,
      "edged": 8076,
      "glittering": 8077,
      "joseph": 8078,
      "peyton": 8079,
      "theran": 8080,
      "lev": 8081,
      "unl": 8082,
      "choke": 8083,
      "ordinary": 8084,
      "queens": 8085,
      "neighbors": 8086,
      "lori": 8087,
      "##power": 8088,
      "helmet": 8089,
      "assass": 8090,
      "screec": 8091,
      "nape": 8092,
      "tucking": 8093,
      "mob": 8094,
      "counts": 8095,
      "value": 8096,
      "kaia": 8097,
      "cult": 8098,
      "carolyn": 8099,
      "bedside": 8100,
      "resisted": 8101,
      "skinny": 8102,
      "trous": 8103,
      "cradled": 8104,
      "andy": 8105,
      "##enth": 8106,
      "##athed": 8107,
      "##ida": 8108,
      "##agers": 8109,
      "matth": 8110,
      "drawled": 8111,
      "matthias": 8112,
      "rattled": 8113,
      "qhu": 8114,
      "envelop": 8115,
      "desig": 8116,
      "india": 8117,
      "landsc": 8118,
      "recovered": 8119,
      "pierre": 8120,
      "april": 8121,
      "qhuinn": 8122,
      "motions": 8123,
      "session": 8124,
      "elec": 8125,
      "circling": 8126,
      "congratulations": 8127,
      "erik": 8128,
      "crooked": 8129,
      "kinda": 8130,
      "eagerly": 8131,
      "ronan": 8132,
      "maintain": 8133,
      "bizarre": 8134,
      "pry": 8135,
      "##eez": 8136,
      "##erve": 8137,
      "bits": 8138,
      "melting": 8139,
      "alay": 8140,
      "penny": 8141,
      "pump": 8142,
      "lola": 8143,
      "consciousness": 8144,
      "signal": 8145,
      "basic": 8146,
      "gleam": 8147,
      "##sive": 8148,
      "decades": 8149,
      "travis": 8150,
      "fellow": 8151,
      "doubts": 8152,
      "19": 8153,
      "redhead": 8154,
      "servant": 8155,
      "identity": 8156,
      "ware": 8157,
      "denying": 8158,
      "positioned": 8159,
      "teaching": 8160,
      "exagger": 8161,
      "muse": 8162,
      "dialed": 8163,
      "inevitable": 8164,
      "pitched": 8165,
      "innocence": 8166,
      "neatly": 8167,
      "diver": 8168,
      "##rim": 8169,
      "seized": 8170,
      "greatest": 8171,
      "lessons": 8172,
      "muscled": 8173,
      "lame": 8174,
      "ticked": 8175,
      "beep": 8176,
      "kingdom": 8177,
      "cadogan": 8178,
      "tammy": 8179,
      "gratitude": 8180,
      "branches": 8181,
      "fluff": 8182,
      "potato": 8183,
      "statue": 8184,
      "fashioned": 8185,
      "##ories": 8186,
      "crushing": 8187,
      "cora": 8188,
      "burden": 8189,
      "flicker": 8190,
      "encourage": 8191,
      "heir": 8192,
      "##unate": 8193,
      "reasonable": 8194,
      "birds": 8195,
      "pausing": 8196,
      "zayne": 8197,
      "##acted": 8198,
      "pierced": 8199,
      "guarantee": 8200,
      "nons": 8201,
      "sheriff": 8202,
      "dele": 8203,
      "tones": 8204,
      "straining": 8205,
      "lounge": 8206,
      "arrested": 8207,
      "jar": 8208,
      "sobs": 8209,
      "backyard": 8210,
      "intimacy": 8211,
      "##elling": 8212,
      "gazes": 8213,
      "artist": 8214,
      "vivienne": 8215,
      "gallery": 8216,
      "scalp": 8217,
      "##acular": 8218,
      "timing": 8219,
      "patio": 8220,
      "folding": 8221,
      "temples": 8222,
      "soldier": 8223,
      "abdomen": 8224,
      "overcome": 8225,
      "shades": 8226,
      "brianna": 8227,
      "enthusiasm": 8228,
      "sentinel": 8229,
      "##bles": 8230,
      "sund": 8231,
      "questioned": 8232,
      "england": 8233,
      "witnessed": 8234,
      "sierra": 8235,
      "slit": 8236,
      "scul": 8237,
      "peering": 8238,
      "serge": 8239,
      "widen": 8240,
      "pup": 8241,
      "##bber": 8242,
      "lunged": 8243,
      "slung": 8244,
      "armed": 8245,
      "##iple": 8246,
      "curiously": 8247,
      "stacy": 8248,
      "##icient": 8249,
      "alt": 8250,
      "disgu": 8251,
      "wandering": 8252,
      "kiara": 8253,
      "flav": 8254,
      "layer": 8255,
      "limits": 8256,
      "cruise": 8257,
      "marg": 8258,
      "deserves": 8259,
      "electricity": 8260,
      "stride": 8261,
      "restraint": 8262,
      "unaware": 8263,
      "government": 8264,
      "hallie": 8265,
      "danika": 8266,
      "scarf": 8267,
      "persp": 8268,
      "brynne": 8269,
      "method": 8270,
      "tumbled": 8271,
      "tops": 8272,
      "kneeling": 8273,
      "slacks": 8274,
      "ballroom": 8275,
      "gross": 8276,
      "stones": 8277,
      "wendy": 8278,
      "clench": 8279,
      "resolve": 8280,
      "compassion": 8281,
      "##enced": 8282,
      "chips": 8283,
      "##ishment": 8284,
      "humming": 8285,
      "admired": 8286,
      "visions": 8287,
      "mutter": 8288,
      "fabulous": 8289,
      "selling": 8290,
      "reluctant": 8291,
      "alien": 8292,
      "##ounded": 8293,
      "locker": 8294,
      "concentrated": 8295,
      "disturbing": 8296,
      "##aa": 8297,
      "##enn": 8298,
      "passage": 8299,
      "sadie": 8300,
      "cheyenne": 8301,
      "tel": 8302,
      "troy": 8303,
      "##ody": 8304,
      "pauses": 8305,
      "variety": 8306,
      "nep": 8307,
      "lod": 8308,
      "obsc": 8309,
      "doctors": 8310,
      "brielle": 8311,
      "newly": 8312,
      "jesse": 8313,
      "claiming": 8314,
      "dangling": 8315,
      "lucah": 8316,
      "incredulous": 8317,
      "peaceful": 8318,
      "disgusting": 8319,
      "tingling": 8320,
      "lahn": 8321,
      "mixt": 8322,
      "vall": 8323,
      "offense": 8324,
      "sabine": 8325,
      "nothin": 8326,
      "chassie": 8327,
      "melissa": 8328,
      "tenderness": 8329,
      "schedul": 8330,
      "loosened": 8331,
      "##idual": 8332,
      "regretted": 8333,
      "perfume": 8334,
      "mcc": 8335,
      "tant": 8336,
      "noble": 8337,
      "spur": 8338,
      "caf": 8339,
      "disag": 8340,
      "strict": 8341,
      "accur": 8342,
      "##hab": 8343,
      "mold": 8344,
      "papa": 8345,
      "indication": 8346,
      "##mates": 8347,
      "unle": 8348,
      "malcol": 8349,
      "malcolm": 8350,
      "mitch": 8351,
      "sabr": 8352,
      "waistband": 8353,
      "testing": 8354,
      "pearl": 8355,
      "nineteen": 8356,
      "sabrina": 8357,
      "freeze": 8358,
      "customers": 8359,
      "spectacular": 8360,
      "jude": 8361,
      "pel": 8362,
      "noises": 8363,
      "snick": 8364,
      "closes": 8365,
      "##lock": 8366,
      "diner": 8367,
      "groin": 8368,
      "urgent": 8369,
      "obey": 8370,
      "amun": 8371,
      "thus": 8372,
      "##lee": 8373,
      "copy": 8374,
      "bobby": 8375,
      "greyson": 8376,
      "puzzled": 8377,
      "platform": 8378,
      "pleaded": 8379,
      "logic": 8380,
      "exhaustion": 8381,
      "stance": 8382,
      "##epend": 8383,
      "cases": 8384,
      "inqu": 8385,
      "outs": 8386,
      "unz": 8387,
      "##umbles": 8388,
      "sprang": 8389,
      "europe": 8390,
      "mour": 8391,
      "mouthed": 8392,
      "sizz": 8393,
      "angels": 8394,
      "pand": 8395,
      "garb": 8396,
      "cousins": 8397,
      "##ologet": 8398,
      "sanctuary": 8399,
      "beamed": 8400,
      "arching": 8401,
      "louis": 8402,
      "casey": 8403,
      "mixture": 8404,
      "hates": 8405,
      "march": 8406,
      "independ": 8407,
      "staggered": 8408,
      "gina": 8409,
      "pic": 8410,
      "vom": 8411,
      "mechan": 8412,
      "phr": 8413,
      "bray": 8414,
      "secretly": 8415,
      "mage": 8416,
      "rue": 8417,
      "lion": 8418,
      "##abelle": 8419,
      "figures": 8420,
      "prize": 8421,
      "yanking": 8422,
      "stormed": 8423,
      "revol": 8424,
      "influence": 8425,
      "##gio": 8426,
      "butler": 8427,
      "artif": 8428,
      "inex": 8429,
      "sympat": 8430,
      "navy": 8431,
      "alayna": 8432,
      "patch": 8433,
      "employee": 8434,
      "acknowledged": 8435,
      "authority": 8436,
      "bacon": 8437,
      "##inter": 8438,
      "clip": 8439,
      "thanked": 8440,
      "shifts": 8441,
      "halted": 8442,
      "choosing": 8443,
      "##comed": 8444,
      "reminds": 8445,
      "kidnapped": 8446,
      "erupted": 8447,
      "hotter": 8448,
      "tripp": 8449,
      "temperature": 8450,
      "dissol": 8451,
      "beard": 8452,
      "chased": 8453,
      "sumi": 8454,
      "shouts": 8455,
      "flexed": 8456,
      "moaning": 8457,
      "##fted": 8458,
      "shitty": 8459,
      "bargain": 8460,
      "downtown": 8461,
      "##xton": 8462,
      "ashlyn": 8463,
      "cherry": 8464,
      "venge": 8465,
      "initial": 8466,
      "temptation": 8467,
      "recon": 8468,
      "##flies": 8469,
      "quen": 8470,
      "seattle": 8471,
      "accompan": 8472,
      "math": 8473,
      "zone": 8474,
      "hadley": 8475,
      "comments": 8476,
      "calmed": 8477,
      "telep": 8478,
      "criminal": 8479,
      "##gil": 8480,
      "unst": 8481,
      "roommate": 8482,
      "gravel": 8483,
      "stray": 8484,
      "strings": 8485,
      "terribly": 8486,
      "guarded": 8487,
      "streaming": 8488,
      "noon": 8489,
      "marie": 8490,
      "flashlight": 8491,
      "pist": 8492,
      "fingernails": 8493,
      "stam": 8494,
      "possibilities": 8495,
      "sprawled": 8496,
      "10": 8497,
      "tale": 8498,
      "##ata": 8499,
      "ages": 8500,
      "greaves": 8501,
      "hastily": 8502,
      "raging": 8503,
      "essence": 8504,
      "ded": 8505,
      "##ari": 8506,
      "bruised": 8507,
      "kent": 8508,
      "pulsing": 8509,
      "prisoner": 8510,
      "jacob": 8511,
      "sorcer": 8512,
      "laylah": 8513,
      "sly": 8514,
      "thresh": 8515,
      "bein": 8516,
      "sealed": 8517,
      "##shirt": 8518,
      "collected": 8519,
      "designer": 8520,
      "horm": 8521,
      "partially": 8522,
      "maxim": 8523,
      "described": 8524,
      "horizon": 8525,
      "nephew": 8526,
      "vit": 8527,
      "warily": 8528,
      "transp": 8529,
      "wealthy": 8530,
      "mesmer": 8531,
      "motorcycle": 8532,
      "threshold": 8533,
      "bachel": 8534,
      "##mail": 8535,
      "##atives": 8536,
      "shelves": 8537,
      "assault": 8538,
      "interf": 8539,
      "lav": 8540,
      "intoxic": 8541,
      "exposing": 8542,
      "drain": 8543,
      "oldest": 8544,
      "trial": 8545,
      "bis": 8546,
      "fount": 8547,
      "example": 8548,
      "overly": 8549,
      "slack": 8550,
      "cheating": 8551,
      "element": 8552,
      "neutral": 8553,
      "##chal": 8554,
      "##aude": 8555,
      "collection": 8556,
      "basis": 8557,
      "sox": 8558,
      "beloved": 8559,
      "dismissed": 8560,
      "conclusion": 8561,
      "keen": 8562,
      "##sity": 8563,
      "chad": 8564,
      "evidently": 8565,
      "seduce": 8566,
      "nuzzled": 8567,
      "wryly": 8568,
      "##oken": 8569,
      "##unks": 8570,
      "crawling": 8571,
      "bucket": 8572,
      "sanity": 8573,
      "dramatic": 8574,
      "peeled": 8575,
      "fisted": 8576,
      "##box": 8577,
      "giggling": 8578,
      "theater": 8579,
      "cavern": 8580,
      "rug": 8581,
      "america": 8582,
      "##iago": 8583,
      "valley": 8584,
      "gates": 8585,
      "pine": 8586,
      "sage": 8587,
      "plas": 8588,
      "longed": 8589,
      "cafe": 8590,
      "sunny": 8591,
      "adds": 8592,
      "peek": 8593,
      "performance": 8594,
      "##urd": 8595,
      "resort": 8596,
      "sadi": 8597,
      "sneaking": 8598,
      "gulped": 8599,
      "license": 8600,
      "youth": 8601,
      "illusion": 8602,
      "complain": 8603,
      "##oot": 8604,
      "slips": 8605,
      "##omp": 8606,
      "##imer": 8607,
      "outl": 8608,
      "##ustered": 8609,
      "kindness": 8610,
      "welcomed": 8611,
      "##ionaire": 8612,
      "aimee": 8613,
      "aug": 8614,
      "absorbed": 8615,
      "##ige": 8616,
      "virt": 8617,
      "##gance": 8618,
      "captive": 8619,
      "jaxx": 8620,
      "cimil": 8621,
      "jeep": 8622,
      "rail": 8623,
      "analy": 8624,
      "safer": 8625,
      "eli": 8626,
      "tingle": 8627,
      "route": 8628,
      "luxury": 8629,
      "santiago": 8630,
      "##istr": 8631,
      "destruction": 8632,
      "failure": 8633,
      "riv": 8634,
      "thump": 8635,
      "##rose": 8636,
      "cait": 8637,
      "ambul": 8638,
      "removing": 8639,
      "##eting": 8640,
      "##ooping": 8641,
      "mating": 8642,
      "contrast": 8643,
      "activity": 8644,
      "wiggled": 8645,
      "ritual": 8646,
      "hills": 8647,
      "##nic": 8648,
      "##aration": 8649,
      "walker": 8650,
      "echoing": 8651,
      "##mn": 8652,
      "tomm": 8653,
      "orn": 8654,
      "##ffle": 8655,
      "underground": 8656,
      "stirring": 8657,
      "dashed": 8658,
      "blows": 8659,
      "##anging": 8660,
      "gargoyle": 8661,
      "thud": 8662,
      "##ables": 8663,
      "endure": 8664,
      "hopeless": 8665,
      "admire": 8666,
      "feroc": 8667,
      "impatiently": 8668,
      "fantasies": 8669,
      "##ulet": 8670,
      "facts": 8671,
      "mistaken": 8672,
      "sixty": 8673,
      "soothe": 8674,
      "proposal": 8675,
      "##making": 8676,
      "exited": 8677,
      "attor": 8678,
      "belongs": 8679,
      "challenged": 8680,
      "scanning": 8681,
      "pumped": 8682,
      "##iments": 8683,
      "sobbing": 8684,
      "sche": 8685,
      "belief": 8686,
      "limit": 8687,
      "grimace": 8688,
      "artifact": 8689,
      "till": 8690,
      "amusing": 8691,
      "muttering": 8692,
      "soup": 8693,
      "violently": 8694,
      "unwilling": 8695,
      "##usions": 8696,
      "consp": 8697,
      "rapid": 8698,
      "illegal": 8699,
      "suic": 8700,
      "christina": 8701,
      "flutter": 8702,
      "georgia": 8703,
      "##fly": 8704,
      "##ware": 8705,
      "##amas": 8706,
      "##inda": 8707,
      "defensive": 8708,
      "quarters": 8709,
      "trousers": 8710,
      "thurs": 8711,
      "slut": 8712,
      "playfully": 8713,
      "spells": 8714,
      "panc": 8715,
      "slaves": 8716,
      "##ceded": 8717,
      "groans": 8718,
      "subst": 8719,
      "jaxon": 8720,
      "##och": 8721,
      "reen": 8722,
      "downward": 8723,
      "##ighed": 8724,
      "usher": 8725,
      "thursday": 8726,
      "pian": 8727,
      "##con": 8728,
      "##ties": 8729,
      "atop": 8730,
      "blamed": 8731,
      "plants": 8732,
      "woken": 8733,
      "wander": 8734,
      "teenage": 8735,
      "jem": 8736,
      "fila": 8737,
      "instructed": 8738,
      "##amiliar": 8739,
      "##ifically": 8740,
      "feral": 8741,
      "ral": 8742,
      "watches": 8743,
      "walter": 8744,
      "ranon": 8745,
      "lipstick": 8746,
      "drowning": 8747,
      "victims": 8748,
      "intelligent": 8749,
      "##inkle": 8750,
      "limited": 8751,
      "honeymo": 8752,
      "agents": 8753,
      "pole": 8754,
      "needle": 8755,
      "unfamiliar": 8756,
      "gained": 8757,
      "todd": 8758,
      "frig": 8759,
      "cracking": 8760,
      "##see": 8761,
      "weigh": 8762,
      "griffin": 8763,
      "pinning": 8764,
      "combined": 8765,
      "humiliation": 8766,
      "channing": 8767,
      "brisk": 8768,
      "patrick": 8769,
      "duval": 8770,
      "dil": 8771,
      "ties": 8772,
      "##child": 8773,
      "chal": 8774,
      "##ssa": 8775,
      "carrie": 8776,
      "pursed": 8777,
      "backwards": 8778,
      "fiance": 8779,
      "tamara": 8780,
      "tobias": 8781,
      "##ock": 8782,
      "seam": 8783,
      "laura": 8784,
      "cocky": 8785,
      "squealed": 8786,
      "##ishop": 8787,
      "distress": 8788,
      "domini": 8789,
      "bucks": 8790,
      "sail": 8791,
      "armor": 8792,
      "marco": 8793,
      "excuses": 8794,
      "vig": 8795,
      "yards": 8796,
      "##kell": 8797,
      "unner": 8798,
      "doorbell": 8799,
      "wetness": 8800,
      "nonsense": 8801,
      "lair": 8802,
      "alto": 8803,
      "holes": 8804,
      "intrigued": 8805,
      "jasper": 8806,
      "shaken": 8807,
      "headboard": 8808,
      "pills": 8809,
      "lids": 8810,
      "rumbled": 8811,
      "tended": 8812,
      "plo": 8813,
      "startling": 8814,
      "punished": 8815,
      "repeatedly": 8816,
      "debt": 8817,
      "cerise": 8818,
      "fidget": 8819,
      "exasperated": 8820,
      "flinch": 8821,
      "tory": 8822,
      "poker": 8823,
      "linked": 8824,
      "##esa": 8825,
      "useful": 8826,
      "swiped": 8827,
      "silken": 8828,
      "hunched": 8829,
      "confession": 8830,
      "uncont": 8831,
      "##erted": 8832,
      "##ulsion": 8833,
      "housekeeper": 8834,
      "gentlemen": 8835,
      "complained": 8836,
      "gary": 8837,
      "sout": 8838,
      "searing": 8839,
      "##ancing": 8840,
      "sales": 8841,
      "conscience": 8842,
      "rim": 8843,
      "rane": 8844,
      "##amble": 8845,
      "popping": 8846,
      "demonstr": 8847,
      "shuddering": 8848,
      "stee": 8849,
      "##quet": 8850,
      "couples": 8851,
      "discomfort": 8852,
      "bryan": 8853,
      "dign": 8854,
      "haid": 8855,
      "##outs": 8856,
      "harry": 8857,
      "frankly": 8858,
      "treasure": 8859,
      "honeymoon": 8860,
      "ay": 8861,
      "hom": 8862,
      "##zar": 8863,
      "cheekbones": 8864,
      "siblings": 8865,
      "bian": 8866,
      "gail": 8867,
      "karen": 8868,
      "##rad": 8869,
      "shal": 8870,
      "clin": 8871,
      "seet": 8872,
      "gasps": 8873,
      "sticky": 8874,
      "pavement": 8875,
      "weres": 8876,
      "##aney": 8877,
      "bishop": 8878,
      "jagr": 8879,
      "toys": 8880,
      "ponder": 8881,
      "specifically": 8882,
      "tanned": 8883,
      "groaning": 8884,
      "melo": 8885,
      "minim": 8886,
      "messing": 8887,
      "jewell": 8888,
      "##bling": 8889,
      "##chief": 8890,
      "##umes": 8891,
      "unpleas": 8892,
      "##zzie": 8893,
      "virgil": 8894,
      "labor": 8895,
      "ultimate": 8896,
      "wire": 8897,
      "##unting": 8898,
      "delaney": 8899,
      "luca": 8900,
      "nonchal": 8901,
      "buzzing": 8902,
      "overd": 8903,
      "traum": 8904,
      "cookie": 8905,
      "heavens": 8906,
      "paintings": 8907,
      "prayer": 8908,
      "daunt": 8909,
      "##omy": 8910,
      "minded": 8911,
      "furiously": 8912,
      "##mend": 8913,
      "generally": 8914,
      "awkwardly": 8915,
      "fishing": 8916,
      "tile": 8917,
      "##hire": 8918,
      "##len": 8919,
      "appreciation": 8920,
      "bodyguard": 8921,
      "vow": 8922,
      "yank": 8923,
      "##var": 8924,
      "##gre": 8925,
      "##unken": 8926,
      "##laim": 8927,
      "swords": 8928,
      "fiery": 8929,
      "elaborate": 8930,
      "kadie": 8931,
      "goo": 8932,
      "##idal": 8933,
      "##imately": 8934,
      "blay": 8935,
      "blushing": 8936,
      "plucked": 8937,
      "slapping": 8938,
      "harlow": 8939,
      "ruthless": 8940,
      "stan": 8941,
      "weary": 8942,
      "lemon": 8943,
      "spear": 8944,
      "snuck": 8945,
      "denial": 8946,
      "lys": 8947,
      "vick": 8948,
      "spy": 8949,
      "interro": 8950,
      "growls": 8951,
      "transform": 8952,
      "lizzie": 8953,
      "soda": 8954,
      "##aneously": 8955,
      "article": 8956,
      "particip": 8957,
      "depends": 8958,
      "gaping": 8959,
      "dock": 8960,
      "clam": 8961,
      "dise": 8962,
      "benn": 8963,
      "swelled": 8964,
      "cautious": 8965,
      "daimons": 8966,
      "cushion": 8967,
      "garbage": 8968,
      "caine": 8969,
      "knives": 8970,
      "didnt": 8971,
      "##raging": 8972,
      "straps": 8973,
      "flee": 8974,
      "academy": 8975,
      "cure": 8976,
      "reese": 8977,
      "##acey": 8978,
      "unmist": 8979,
      "monitor": 8980,
      "##ignation": 8981,
      "concerns": 8982,
      "depend": 8983,
      "rows": 8984,
      "##chair": 8985,
      "skim": 8986,
      "indiv": 8987,
      "delivery": 8988,
      "wardrobe": 8989,
      "##ppers": 8990,
      "swam": 8991,
      "comprom": 8992,
      "coughed": 8993,
      "charges": 8994,
      "destiny": 8995,
      "services": 8996,
      "examined": 8997,
      "therapy": 8998,
      "oven": 8999,
      "asher": 9000,
      "clad": 9001,
      "monty": 9002,
      "penis": 9003,
      "ambulance": 9004,
      "dauntless": 9005,
      "bumped": 9006,
      "##orse": 9007,
      "surg": 9008,
      "stuart": 9009,
      "awak": 9010,
      "##ological": 9011,
      "welcoming": 9012,
      "bitterly": 9013,
      "skept": 9014,
      "piano": 9015,
      "rico": 9016,
      "##itors": 9017,
      "repair": 9018,
      "confessed": 9019,
      "tilting": 9020,
      "claude": 9021,
      "##ummy": 9022,
      "stubble": 9023,
      "bug": 9024,
      "ras": 9025,
      "lilly": 9026,
      "column": 9027,
      "experiment": 9028,
      "notebook": 9029,
      "receive": 9030,
      "urgency": 9031,
      "claudia": 9032,
      "fest": 9033,
      "sauce": 9034,
      "##elope": 9035,
      "conqu": 9036,
      "contest": 9037,
      "##quar": 9038,
      "angled": 9039,
      "fifth": 9040,
      "banged": 9041,
      "reun": 9042,
      "pose": 9043,
      "angus": 9044,
      "tripped": 9045,
      "rises": 9046,
      "fianc": 9047,
      "rejection": 9048,
      "##acity": 9049,
      "coy": 9050,
      "##angle": 9051,
      "nibbled": 9052,
      "solve": 9053,
      "unbear": 9054,
      "solemn": 9055,
      "thirst": 9056,
      "veil": 9057,
      "strain": 9058,
      "banging": 9059,
      "fiancee": 9060,
      "piled": 9061,
      "plot": 9062,
      "songs": 9063,
      "concentration": 9064,
      "ugh": 9065,
      "nef": 9066,
      "simone": 9067,
      "winding": 9068,
      "guts": 9069,
      "shiftertown": 9070,
      "competition": 9071,
      "borrow": 9072,
      "upside": 9073,
      "brink": 9074,
      "recip": 9075,
      "##ai": 9076,
      "##lei": 9077,
      "##aving": 9078,
      "seal": 9079,
      "threats": 9080,
      "verl": 9081,
      "trenton": 9082,
      "senator": 9083,
      "##iser": 9084,
      "knots": 9085,
      "flashes": 9086,
      "interrupting": 9087,
      "traitor": 9088,
      "lorelei": 9089,
      "biceps": 9090,
      "warehouse": 9091,
      "##bow": 9092,
      "##akin": 9093,
      "delay": 9094,
      "alongside": 9095,
      "##leen": 9096,
      "condo": 9097,
      "mah": 9098,
      "vigg": 9099,
      "upd": 9100,
      "score": 9101,
      "beds": 9102,
      "apologet": 9103,
      "insurance": 9104,
      "depos": 9105,
      "retreated": 9106,
      "viggo": 9107,
      "shack": 9108,
      "mode": 9109,
      "pron": 9110,
      "jokes": 9111,
      "##ivity": 9112,
      "smoking": 9113,
      "rights": 9114,
      "drunken": 9115,
      "meantime": 9116,
      "tenn": 9117,
      "manners": 9118,
      "panted": 9119,
      "antonio": 9120,
      "wri": 9121,
      "##asms": 9122,
      "shattering": 9123,
      "fighter": 9124,
      "##occup": 9125,
      "sweatshirt": 9126,
      "hardness": 9127,
      "snort": 9128,
      "farrell": 9129,
      "deme": 9130,
      "confess": 9131,
      "casting": 9132,
      "cement": 9133,
      "mused": 9134,
      "puzzle": 9135,
      "texas": 9136,
      "border": 9137,
      "bewild": 9138,
      "bloss": 9139,
      "indiff": 9140,
      "accommod": 9141,
      "chatting": 9142,
      "bou": 9143,
      "wasting": 9144,
      "reports": 9145,
      "kold": 9146,
      "tin": 9147,
      "brist": 9148,
      "distr": 9149,
      "massage": 9150,
      "resistance": 9151,
      "adults": 9152,
      "expressions": 9153,
      "earnest": 9154,
      "koldo": 9155,
      "tina": 9156,
      "##anah": 9157,
      "rosie": 9158,
      "crumpled": 9159,
      "altogether": 9160,
      "pir": 9161,
      "respected": 9162,
      "constantij": 9163,
      "arrangements": 9164,
      "photographer": 9165,
      "essent": 9166,
      "assignment": 9167,
      "shorter": 9168,
      "catal": 9169,
      "fills": 9170,
      "sunset": 9171,
      "bullets": 9172,
      "legend": 9173,
      "verlaine": 9174,
      "pang": 9175,
      "tenderly": 9176,
      "constantijin": 9177,
      "cit": 9178,
      "hilt": 9179,
      "tongues": 9180,
      "simi": 9181,
      "shivers": 9182,
      "vest": 9183,
      "spider": 9184,
      "##phy": 9185,
      "destro": 9186,
      "##step": 9187,
      "activities": 9188,
      "nut": 9189,
      "##rehe": 9190,
      "structure": 9191,
[...]
