[PAD]
[UNK]
[CLS]
[SEP]
[MASK]
!
#
$
%
&
'
(
)
*
+
,
-
.
/
0
1
2
3
4
5
6
7
8
9
:
;
<
=
>
?
@
[
\
]
^
_
`
a
b
c
d
e
f
g
h
i
j
k
l
m
n
o
p
q
r
s
t
u
v
w
x
y
z
{
|
}
~
##e
##s
##h
##n
##o
##u
##c
##d
##l
##m
##b
##r
##a
##i
##f
##g
##t
##k
##y
##p
##x
##v
##9
##1
##3
##w
##z
##j
##2
##4
##5
##6
##q
##0
##7
##8
##he
##in
##er
the
##ed
##ou
##nd
##ing
to
##at
##re
##is
th
he
and
##as
##en
##an
##ll
##on
##or
##ar
##es
her
in
##it
you
of
ha
##om
be
she
##ow
was
##ut
##id
his
it
##ot
##ld
##le
##ac
##gh
on
##et
##im
that
st
my
##ly
##ay
me
##ve
##st
wh
as
re
##ic
##ver
##se
##ad
##ould
##ght
##ith
##oo
with
##al
for
do
##ur
##ke
li
him
##ir
had
sh
at
an
##ent
but
##ee
##am
##ion
##all
##her
##ked
##ight
fr
so
we
##ant
ne
not
##pp
##ter
sa
##ack
kn
##ro
##hing
##ain
what
out
##ore
##out
up
##ce
whe
did
##ust
##il
##ill
have
##rou
go
##ch
no
this
##ome
##ie
is
ab
##king
could
ch
##us
##one
le
said
##ra
##ec
back
from
##ard
##ri
would
loo
int
all
##hed
su
##ted
like
if
al
##ind
##ere
want
##own
when
cl
they
ag
##au
##ess
just
##el
hand
were
##un
##ss
into
one
about
##ab
##ake
know
wor
##ood
##ace
ex
##ag
##ally
##ry
con
##ide
##ast
there
over
ey
lo
##est
your
##ck
##art
sp
te
then
any
##way
ro
get
been
ever
##ven
bl
again
##ul
see
down
##ers
##lf
tim
or
##ate
##ong
too
sm
##and
co
##um
eyes
un
se
de
them
mo
##are
##op
off
pl
br
are
how
thou
##ist
en
##round
bo
##ice
##if
time
who
head
##ame
##ink
##urn
ar
some
##ew
##ting
##ous
##ull
now
##ig
##pped
more
##ine
##other
sl
com
##ation
##ap
##sed
even
##ive
##self
fl
ac
than
man
##ved
##fore
going
##ick
##ge
every
way
before
##ile
qu
around
gr
##led
by
po
##nder
##ving
tr
bec
##ak
can
af
need
sc
ll
pre
tw
say
##ound
##ps
##reat
##ther
right
##ire
##ade
##th
##dd
##eel
##ear
let
som
##ause
##ure
here
think
somet
##thing
should
ve
feel
look
gl
only
turn
never
##our
##rough
##ort
through
sw
##ered
##ft
thought
thing
us
face
looked
pro
other
away
because
##pt
##eep
che
clo
good
bet
pr
something
after
will
##act
still
##ue
##ite
##dy
##tle
##ened
mu
exp
their
door
##ect
wa
##ell
knew
wanted
why
arm
made
got
gu
long
##aking
##fe
##iz
tell
##ward
##ched
##iss
##able
asked
##ass
##ave
much
im
##em
##ated
##ach
star
make
wat
ho
hands
##ang
am
pull
lit
##ff
room
take
##ious
##ble
car
##elt
##ip
op
##ady
##ity
ca
mom
happ
call
##ance
##wn
where
fir
##ather
##ress
##ning
felt
##ough
##ies
##ment
##ks
##ried
night
under
##ct
vo
wo
fo
well
come
against
little
mar
##ase
two
rem
##gg
##age
sure
tal
##med
day
##ree
dis
wal
ste
love
##side
body
##ah
##een
##nt
took
##be
our
hard
really
##ru
##ath
##air
sk
wom
##ery
bed
cont
em
first
may
##ol
des
##ond
try
voice
hel
##ily
##oth
turned
el
lau
breat
pe
##uck
##ich
told
life
comp
jo
##az
##row
fin
word
hair
real
##ark
anything
res
put
##bb
##outh
##ling
##ied
##ence
##ose
last
ton
##ty
##qu
##ned
fing
##anc
##get
sec
##ves
unt
while
part
another
##ia
being
mouth
ad
help
sur
wait
per
##ber
app
##te
gra
bel
##de
until
nothing
enough
##ook
came
ph
cou
war
##xt
##ouse
moment
beh
##ise
yes
##iend
##ild
went
##ince
##ful
sn
own
side
##eet
left
##ans
does
##igh
arms
##ross
keep
find
maybe
##hes
##sh
mind
very
care
##ways
has
##ens
lips
heart
str
mat
things
##ont
year
##uc
##les
wr
woman
gir
##per
cr
few
behind
ple
cur
ass
##ching
##av
inside
might
sound
new
##ish
always
dec
everything
though
house
smile
cle
which
stu
##iled
att
rel
pulled
##ane
##owed
those
both
oh
##ner
open
##amp
set
home
end
##ople
people
##ared
dr
give
dark
##gan
kiss
##ween
between
##ions
hold
looking
ok
tou
inst
toward
ear
once
without
bu
myself
saw
girl
next
rep
##iff
##ower
sho
breath
##ating
ke
##ness
friend
since
sit
trying
okay
deep
##dded
##ool
mother
front
##int
gi
someone
better
hur
act
bit
work
##mo
hell
hu
bre
fam
gave
##ream
place
most
light
##pping
sat
##sw
hop
sil
##ep
done
imp
##ready
##ord
##gether
already
##less
answ
##ually
stand
same
##ian
father
run
min
words
doing
himself
together
stop
##rew
##orm
##ier
sle
herself
fingers
##ason
started
mean
##used
ang
dam
##ys
ser
stay
chest
##ail
##aught
##cked
##ne
kind
feeling
whis
##irt
##gs
found
##tered
reac
##ever
else
second
rest
##ably
soft
needed
##ory
sto
pain
each
inter
heard
##ped
pus
belie
##ret
kill
close
dri
##ised
old
hear
hun
dro
across
spe
##issed
tried
##most
##ax
god
##aw
walked
gaz
dra
flo
ty
mor
almost
##aned
blood
talk
held
##ured
##ized
##ange
years
wonder
##ert
ye
ret
##icked
##ict
minut
sor
##os
lot
tight
##pr
##gged
##ater
##inking
##ense
cour
quick
##ary
yeah
remem
##umb
phone
bad
big
start
slow
wee
##gn
##ren
sex
black
nodded
seemed
##iv
play
leave
ru
##red
far
smiled
underst
press
shook
getting
##ible
##ced
moved
##day
##ix
tre
col
move
ob
##aut
small
dem
making
skin
##ib
hot
family
finally
##ipped
##ently
bar
##ention
stood
clos
##ash
table
past
##ank
ev
##akes
sim
yet
hurt
##ying
prob
mon
##ither
##ial
ide
rec
gone
##ully
hum
##room
##ons
cons
mine
neck
eas
three
seen
##ple
quest
gaze
sorry
feet
##ten
diff
beaut
met
bus
floor
probably
ap
sig
##aring
bab
##iet
expl
##ately
cor
conf
taking
##bbed
##erson
cra
wind
hour
##ph
aw
##sp
##ows
##ished
wall
inc
##ering
##ected
##aced
tra
brother
##so
grin
supp
##ale
fall
ent
world
ed
anyone
best
surpr
ra
air
reached
foll
idea
men
##fect
##ars
says
ben
stra
believe
ask
meet
##ained
resp
fact
least
soon
near
coming
laugh
called
##ined
poss
dress
dad
happened
char
name
##owing
chee
##ud
acc
must
##iness
##iously
sleep
bro
reason
lif
##ips
later
whisp
opened
thro
inv
shoulder
bes
having
##iver
fore
course
##to
stopped
kept
shit
##here
also
person
half
morning
##ghed
##ged
wrong
##ton
##itc
thinking
closed
roll
jack
del
##arent
eye
##ead
used
dist
comple
guy
hit
##dden
great
squ
cut
child
##ister
legs
ready
exc
alone
##ual
##ening
many
understand
red
vamp
touch
everyone
laughed
##oy
##na
glanc
sudden
cover
##ided
along
fine
par
matter
top
##gue
pret
such
ran
slid
##cept
gre
return
remember
##idd
shirt
##ief
forward
prom
sweet
cat
differ
mag
its
##iful
watched
##aken
mus
vampire
high
water
##fully
clear
plan
please
warm
damn
talking
whispered
exact
ter
##der
##ors
able
##ize
instead
perfect
actually
fight
##hen
stared
list
##ms
##eth
##sit
point
##mit
dou
prot
happy
pleas
baby
tonight
##oney
na
beautiful
cal
onto
wra
##ction
pretty
##oc
throat
thank
quiet
these
meant
##gin
either
fill
##ger
loved
##ub
luc
complete
##ings
ref
##ny
answer
leaned
began
full
conc
##up
slowly
boy
king
##ically
days
##airs
guess
shif
question
ind
contin
caught
bare
fig
lea
fre
low
minutes
fun
miss
power
##app
break
je
##uth
show
exactly
glass
##fort
##ush
reg
ago
##ical
whole
realized
def
white
lay
quickly
fire
hope
unc
kissed
sister
standing
##head
whatever
pat
mr
lost
lu
dire
hall
disc
inf
walk
shoulders
##lo
dead
waiting
step
four
##mor
ins
##ression
##ides
cold
##ife
hor
kid
deal
pur
times
nice
straight
##vel
pass
blue
bur
det
##mm
##ued
coll
fear
bra
holding
contro
free
fell
imag
read
sun
mur
ele
stom
lou
friends
din
##ump
entire
chap
##where
taken
glanced
strong
##son
thr
##ike
har
fur
watching
pa
##osed
trust
vis
##ushed
zane
##ored
shut
##sc
lifted
tongue
bot
closer
##ric
##iling
job
spo
##zy
mad
##ien
shru
different
pant
bring
grabbed
month
repl
clot
use
suddenly
seat
##ertain
short
mess
kitc
##lt
kitchen
business
##rought
##nding
pushed
##uring
##ken
##apped
chapter
looks
shot
sch
outside
sam
apart
##ming
five
women
tears
##enty
##vers
##inc
##og
brought
##ired
sitting
consid
##pl
watch
stepped
hers
chair
sent
fe
chance
sense
cry
disapp
tri
##anged
##bo
today
attention
hours
stomach
sever
dream
##by
##pe
ground
sens
living
##ited
truth
true
control
##acked
cho
change
beside
##cc
##ult
##inted
cheek
bell
##ased
saying
##ze
da
given
##read
mut
completely
leaving
giving
less
ign
expression
knowing
win
dropped
##ures
known
office
##otion
parent
gro
money
ten
##isted
youn
burn
moving
longer
hon
finger
school
obv
ni
##br
##la
coun
##ters
av
frown
certain
jul
comm
##ially
##ets
##ina
bag
foot
gri
##ations
##ison
##nded
smo
pressed
##anger
scream
line
##io
##ents
stro
running
land
grand
sky
rose
seeing
##antly
##ins
##aged
##oun
proble
##assed
sy
tem
slight
doub
##ird
lar
pal
dev
##ift
dan
bene
safe
worry
cross
pres
appear
decided
live
cap
##irc
parents
enj
build
human
week
##orn
son
##iding
death
clothes
working
ann
##ship
##ging
coff
##rist
gas
lear
teeth
stre
cam
ner
fast
heav
swe
begin
drink
window
pol
add
thanks
grow
liked
mist
remind
##iced
pict
circ
##ees
pie
rolled
filled
##ma
couple
supposed
forg
followed
##aps
pay
pri
admit
tor
pulling
pleasure
bedroom
##ames
##more
hung
bath
yourself
telling
sub
sing
##aster
abs
sighed
cla
musc
##action
dinner
several
coffee
mir
##ested
luck
##iny
makes
ir
##ply
happen
anyway
##acing
ale
##ove
waist
##umped
wife
##use
##pted
##ashed
hips
##ular
pap
softly
speak
drive
##ape
jer
eff
foc
hang
##ount
draw
##ility
##ung
town
wrapped
protect
##gth
##pid
lip
convers
appro
staring
bat
barely
##ition
cent
sign
##cy
worked
##raid
stru
sus
late
edge
thoughts
easy
quite
shrugged
##ising
afraid
esc
case
##els
wide
silence
guys
minute
##ror
twenty
months
knees
hey
##ject
continued
desk
wearing
##ley
reco
picked
##ience
walking
beneath
smell
secret
stupid
young
shar
nat
six
anymore
##sing
squee
tu
mem
ian
##ilt
surprised
christ
touched
##medi
dar
##ates
turning
guard
immedi
lean
nearly
demand
large
box
tone
conn
##lan
du
stuff
sort
norm
rather
pun
rele
sad
##cking
lead
die
##hel
girls
answered
##its
##itely
heat
except
raised
pick
##als
eat
ball
rock
hus
##man
kno
waited
##bed
spec
##ute
ma
##iel
corner
##ought
changed
##ield
esp
##ime
##ony
##icking
gen
gently
form
conversation
eth
spot
replied
swall
jaw
weeks
nar
den
doubt
lun
seem
##aces
thick
posit
trou
##irty
danger
green
bright
forget
##aining
eng
ext
crazy
grinned
sal
##imes
##ient
##bbing
exper
yell
loud
##ding
empt
sigh
wet
ring
espec
throw
problem
thigh
cool
possible
spent
relation
surprise
spoke
immediately
defin
tomor
tomorrow
figure
chin
sounded
conv
food
ethan
returned
others
murm
especially
##elle
##iew
gray
shad
agre
gotten
anger
fuck
##aughter
bott
wed
concer
##iles
passed
##zed
la
narrow
crow
##ator
gar
ce
letting
##itch
##iddle
##let
hesit
bathroom
sight
##ches
covered
ell
sel
relax
##ident
drew
glad
##ces
##aled
##ky
finished
##band
promise
gold
sear
demon
simply
##amed
id
wondered
beat
nose
muttered
##ili
opp
logan
tast
clim
##gging
enjoy
headed
count
grace
##umbled
##riend
married
##light
ash
worried
angry
middle
##lic
import
worse
wood
wants
##unt
pock
knows
above
slightly
become
gun
arri
stri
fav
noticed
calm
stud
##que
##any
heavy
leg
max
serious
lie
clean
sou
hate
toss
wish
desire
broke
pu
comfort
building
check
killed
reach
expected
tiny
earl
coo
sometimes
susp
art
mention
party
desper
##ots
daughter
interest
kids
##ara
snapped
hunter
sett
bother
fair
threat
shout
##how
ur
##ones
creat
definitely
nick
cheeks
empty
##haps
##ision
##rif
perhaps
forced
meeting
desp
lap
##oring
honest
disappear
##ails
stare
situ
during
##ists
wanting
##ively
##umber
tot
apartment
pack
fem
threw
##land
jeans
gent
shaking
somehow
chuck
relationship
adv
pan
vict
wild
amaz
mer
steps
priv
shower
pointed
self
obviously
class
crowd
##no
##bs
clearly
vi
jake
nod
ry
##ctor
##vous
##ines
cu
street
##aded
##bered
died
##sy
hated
##ign
quietly
husband
managed
single
spread
sounds
##ibly
mark
eight
##ster
story
added
##using
dest
##lves
seconds
important
##lly
##ls
cas
frowned
led
##cess
##aint
##ances
scent
bottom
jen
##ucked
force
lying
lim
occ
order
game
ord
none
road
favor
alth
##ipping
within
dom
strange
although
laughing
stret
eyeb
sick
smiling
children
keeping
rid
##igg
willing
##unk
##rec
couch
sharp
book
magic
sol
##arr
naked
fut
dep
respond
summ
pract
##ney
ble
direction
##lyn
##mb
explain
##zz
fit
lose
hund
hundred
deser
stairs
hoping
##olog
##rie
number
takes
##erg
luke
asking
paused
##ments
bill
glance
broken
remembered
##att
realize
space
cab
eyebrow
lower
sof
exh
##ining
vampires
worth
pet
##ities
##erm
cock
tall
val
cell
trouble
situation
catch
means
slam
silent
pen
choice
lady
daniel
inform
spr
##ecting
gentle
nervous
##ann
##asm
repe
##iting
huge
counter
date
##oss
besides
er
firm
##over
##ping
wid
matt
playing
weak
fa
pants
##aling
slipped
whisper
ris
##tering
fle
cup
##inked
alex
piece
emotion
clen
hide
##esh
brown
paper
bas
position
wedding
comes
missed
prete
##orted
law
pound
earlier
recogn
forever
##asing
mis
scr
cond
##rian
forgot
expect
taste
breathing
forehead
##my
locked
tow
murmured
fold
brain
##ler
imagine
city
queen
emb
##ucking
push
thumb
future
##gu
crossed
tired
sugg
##ital
##ork
##ager
und
prep
sexy
boo
scared
##ices
##set
agreed
listen
handle
##oming
strugg
lock
fro
state
##fer
##cing
somewhere
hoped
##ract
ver
blank
pill
##orge
alive
questions
picture
placed
assum
blond
lived
doors
##kes
##ishing
became
lucky
dressed
shifted
news
##rit
danc
however
talked
pocket
##ination
flat
early
wondering
med
stren
spl
event
dav
shake
truck
whether
eric
invol
##aped
stone
relief
spend
##ards
normal
shock
trent
lord
dry
soph
harder
charl
kissing
##stairs
##ene
direct
##uss
ow
jumped
##ior
needs
brief
incl
putting
##ustr
##isf
fix
trans
offered
sar
pin
evening
##body
weight
##me
pair
##arth
appeared
shiver
##iliar
ant
##owers
carry
##cious
prof
##usted
despite
color
##izing
##ement
##old
gon
isab
handed
settled
soul
wel
bey
save
##tern
round
beyond
nor
##co
##ached
camer
ones
capt
noah
information
club
tru
enc
wip
aff
using
satisf
company
seriously
##gr
apparent
figured
fly
gage
##pper
##rible
sand
##olute
stayed
strength
##ushing
aside
follow
male
##ains
avo
colt
busy
angel
odd
view
gab
blo
distance
blinked
cried
offer
bent
##ude
feelings
seems
bull
cre
determ
##aked
wore
usually
muscles
sweat
aware
##ession
##inn
##acy
cast
##achel
dance
wine
gather
send
allowed
##ulous
##vy
memory
inn
##imed
marry
center
silver
afterno
pink
thrust
##ault
delic
swallowed
wound
ahead
easily
rain
showed
##riage
const
##reci
asks
breast
##uct
helped
ill
treat
kat
wear
contact
absolute
##oof
##iam
memor
appreci
pul
falling
understood
##inct
drop
##ael
sav
beginning
chase
walls
rom
##otions
effort
##onse
van
yours
chlo
music
dog
pushing
david
frustr
afternoon
neither
chloe
embarr
amazing
shu
##come
demanded
ended
area
calling
fighting
personal
reve
shoved
grou
mirror
ride
thighs
phot
pour
grip
pregn
carefully
kisses
bottle
phys
flesh
##selves
##ific
##ection
##idence
nic
share
response
scre
burst
weird
special
##vie
belong
surround
##illed
attem
##ues
grew
sleeping
loc
bal
##abeth
leaning
smooth
attack
##ants
eliz
une
suit
grab
familiar
truly
grim
bitch
palm
often
gest
##usion
starting
twisted
darkness
requ
bow
brand
mike
learned
cass
hea
julian
thirty
further
##ises
rubbed
hosp
reminded
sty
##ressed
regret
##cks
notice
cand
mrs
boys
gasped
##rac
ears
shoot
sts
funny
brushed
ol
dangerous
certainly
focus
dim
rich
gets
##sand
##ative
ice
len
summer
older
path
arrived
bite
##iot
simple
jon
command
test
##rupt
serv
apparently
blake
touching
band
pot
rough
thousand
thin
tightened
totally
drove
age
level
earth
mid
opening
pale
private
##ages
##astic
pier
track
mas
laught
lights
note
store
laughter
hospital
feels
breathe
lives
bir
clay
bod
jerked
stiff
elb
lex
incred
wake
jason
curled
female
groaned
hanging
surv
ah
mill
stuck
##ension
laid
rachel
fool
jace
mass
sucked
accept
leather
simon
squeezed
partic
heal
victor
key
scar
fresh
honey
mel
jump
suff
jud
uh
police
obvious
explained
narrowed
##ayed
bast
##leep
visit
ky
godd
inte
asleep
elizabeth
##ella
##ik
shoes
hotel
ge
sen
considered
##fast
wished
unless
upon
##ald
##asted
moments
imposs
park
apolog
sword
tossed
anywhere
reaction
mac
powerful
instantly
interested
jase
##ote
##ston
study
beauty
hallway
repeated
remained
##roy
happening
gorge
##od
##ca
birth
adm
mood
compl
super
disappo
growled
luis
anim
discover
finish
turns
promised
##ics
careful
ren
mia
##ural
clenched
ways
finding
excuse
group
swear
##idden
gorgeous
likely
unable
diffic
dig
warning
perfectly
lunch
motion
reaching
jax
adam
storm
gener
usual
stun
liam
jacket
##aff
disappeared
mort
beer
##friend
energ
emotions
##nds
seven
ignored
##line
intim
##ries
iss
buy
crack
decision
##emon
inch
##cho
lowered
comfortable
##par
experience
stick
gift
marriage
pub
claire
emma
brothers
carried
speaking
tremb
crying
shouted
driving
pulls
upset
##urity
fucking
cleared
rush
warri
domin
##oud
missing
weap
towards
beth
believed
entered
pissed
##roud
memories
pop
feat
ut
magn
##ges
consider
##ented
uncle
goes
##owled
mal
innoc
confused
##oned
learn
favorite
proper
button
##allen
equ
##oe
brow
##uce
##go
gigg
##zen
daemon
length
##vin
agree
deeper
played
allow
weeke
doll
##ius
##ope
kate
sliding
losing
flash
##str
text
gut
absolutely
clock
fault
focused
arr
windows
offic
growing
concern
chuckled
boyfriend
challen
##ashing
belly
involved
cash
team
wave
passion
##omfort
doctor
dru
##oying
huh
dear
lift
released
##ole
possess
##aur
##for
prov
energy
##amb
smart
breathed
fought
slammed
##unity
humans
difficult
##ancy
enter
##alous
impossible
refused
mil
mate
coat
respons
escape
##rent
planned
##gie
##val
slept
instinct
fil
burned
tree
breakfast
spell
prop
flashed
intense
screen
hi
ta
warmth
viol
main
security
proud
ava
##yn
blind
plans
shared
tightly
doorway
don
##like
gives
##ounced
heels
fully
guest
desperate
message
mere
faster
sean
presence
##het
yan
screamed
##racted
tab
concerned
fant
##ug
bodies
hug
particular
tip
excited
shudd
kicked
staying
til
##anted
##ived
worst
elev
kick
cru
james
wrist
pool
unb
mic
##uff
slee
##ring
trist
panic
peace
pregnant
master
##ey
##arm
##cer
knife
considering
restaur
extra
wonderful
fist
hearing
hat
port
clut
##izz
screw
colle
eventually
battle
waved
poor
pressing
##ified
trail
possibly
cook
trees
##ibility
shop
prefer
imm
acce
includ
##inging
risk
following
oppos
reb
sed
##ker
jealous
sink
twice
snow
##asy
bound
##oose
studied
boss
purp
ling
sides
jam
beg
aunt
surf
mistake
smir
mot
lad
butt
hungry
##imp
handsome
##rified
##unately
trip
hen
horse
##cher
##athan
welcome
below
admitted
places
##ana
heading
dust
##itched
speed
##ading
##rid
soc
tex
steady
rul
breaking
skirt
stretched
subject
ordered
destroy
##ses
weekend
bear
type
nate
easier
hello
court
jess
##iley
moon
shocked
##rage
obs
relaxed
eager
listening
books
knee
ment
loose
effect
cared
cause
purse
excite
paid
cabin
rap
gras
viv
##oll
##right
circle
spir
determined
girlf
org
dreams
girlfriend
##oved
bought
vision
nipp
##ball
temp
plate
joh
fort
bun
##ids
bastard
hesitated
sne
crap
fallen
parking
dare
thor
##ique
##lessly
aut
third
fab
hardly
##mas
continue
echo
jew
chang
rece
defe
present
unf
nur
fift
princ
excitement
tension
card
knock
decide
##ners
##ives
burning
hiding
themselves
forgotten
##rod
##ica
movie
shadow
##cted
flick
closing
ceiling
jes
clary
metal
craw
discuss
noise
brows
mount
wolf
drunk
climbed
shift
dy
boots
caused
lovely
glared
div
##zing
features
##idge
shall
tort
beach
image
respect
prince
##rupted
tender
bringing
yester
##mer
succ
ju
##board
panties
yesterday
tristan
showing
suck
buck
rad
##miss
driver
blame
golden
pee
opposite
##hood
camp
##py
slide
blow
josh
suggest
##aming
invest
accident
release
##ordan
prev
nine
##anda
necess
mostly
exha
por
public
awk
psy
uncomfort
cream
awkward
regard
badly
forth
eyebrows
rushed
drag
stor
woke
restaurant
##iety
lucien
claim
cost
caress
dirty
unfort
process
jordan
loving
lat
tugged
aud
trick
swung
college
##antic
join
pictures
blur
betr
##bast
##ensive
tucked
##gl
irrit
song
sebast
reading
##agged
refle
##bby
cole
##ency
inj
helping
rafe
##vet
##bing
hint
##atic
pressure
vib
##ena
ivy
widened
sha
checked
purpose
##otte
final
directly
##lin
arched
deeply
tick
reply
wes
##iculous
tear
witch
comput
cel
##iana
sebastian
lee
deliver
mich
##yal
joe
hidden
vir
gard
##ern
feed
entr
field
##attered
sending
guilt
##lle
spark
ignore
grate
mix
##annah
kee
opt
imagined
dragged
eating
fifteen
lightly
staff
groan
dick
licked
born
support
relie
antic
##ka
buried
towel
pleased
##mother
##entr
fang
yelled
ja
happens
calls
separ
experien
interesting
##thy
heaven
gods
hy
evil
anticip
lab
bry
disg
urge
rh
concentr
post
killing
tele
otherw
pure
searching
##ipp
greet
surre
comment
entirely
##ashes
curt
sensation
hip
christmas
##cri
demons
shadows
prepared
wheel
vibr
wings
##itive
nik
anx
sexual
alec
opport
fury
rang
john
rising
whenever
expecting
les
##nday
suspic
numb
##omed
paris
pause
##house
est
pieces
prove
##ills
scene
fier
##form
rage
cous
faint
resist
elevator
##inting
island
scra
fingert
size
attempt
tun
board
practically
temper
cow
among
spun
mentioned
folded
ridiculous
faced
##ades
frank
eyed
teasing
current
hig
tang
drawing
wow
##illy
##itude
rum
bitter
grown
lifting
arg
rested
gripped
hist
itself
##key
chick
eve
honestly
accom
##ooked
ting
smiles
exist
avoid
surely
cree
whit
rolling
pretend
upstairs
##idding
thinks
stab
##aly
lines
##intment
dere
double
slip
mary
rare
charlotte
solid
##ost
knocked
throwing
##ham
prison
##ama
fu
##ils
##iolet
moan
##reme
enem
reality
##ety
william
overw
glare
approached
ryan
flew
##ution
##ledge
spine
writ
##night
terrible
##asion
violet
moaned
tilted
zoe
sir
um
derek
appreciate
keys
computer
mart
miles
planning
instant
elect
warned
##aine
awake
ken
wand
murder
frustration
##iday
sold
physical
firmly
annoy
froze
gle
setting
country
swept
joined
##add
arou
non
##port
belt
base
silently
##ocol
closet
inde
##aul
maj
lexi
shield
reasons
fierce
lust
soot
joy
rob
idiot
##aging
vic
rubbing
entrance
cloud
backward
di
deb
meaning
##ague
unw
harm
honor
neigh
##ume
damned
##res
fright
dancing
tatt
neighb
chat
jackson
sip
comb
recognized
enjoyed
lace
marsh
gabe
dylan
glasses
##stem
hart
underne
details
underneath
var
pillow
curious
colin
isabella
##ago
carrying
vol
michael
built
##iona
system
stir
flying
##ron
fren
landed
fi
##lled
pride
unfortunately
otherwise
##father
drif
enjoying
grandmother
listened
scrat
dying
kim
lucy
##yer
indic
callum
blanket
adj
delight
answers
inh
##ground
screaming
deserve
grateful
rub
uncomfortable
hurry
tattoo
sank
plenty
movement
relieved
##cil
##ury
gh
knowledge
##ott
bloody
opportunity
hugged
##oted
##rect
plane
spin
brush
abrupt
henry
flipped
holy
##andra
ron
##illing
madd
lied
problems
nights
poured
stream
tea
collar
pace
underw
stal
uns
struck
faded
libr
##view
claw
tan
twist
lack
clit
wiped
utter
san
innocent
fif
##eless
scan
balls
##uries
tar
wit
##ese
abby
ya
york
waves
cute
drinking
flight
fal
wrap
commit
curse
embarrass
everywhere
convince
##ille
exch
orgasm
jim
atte
overwhel
heads
muscle
hannah
broad
beast
jesus
harsh
jared
stroked
##work
##ploy
amy
##rest
tie
acting
flowers
stopping
suppose
record
holly
ignoring
ripped
##agger
psych
silk
surface
suggested
##ante
prod
layne
dal
vill
obl
lake
saved
introd
##pting
backed
cooper
dais
##iest
squeeze
confusion
lily
yanked
snar
nipple
ease
jaen
##vered
nobody
##ira
fists
jaenelle
stunned
downstairs
fer
palms
teased
amount
pounding
affect
becoming
tense
jenks
dating
assumed
warrior
stage
aid
sev
extreme
emer
mason
history
tv
porch
morgan
##umbling
chocol
##ider
boat
forgive
hole
##iant
action
##time
bride
##igned
##under
gathered
##uit
choose
rooms
##arily
##eled
sophia
##aper
cameron
##ivar
elbow
descri
##rett
vinc
lucivar
stronger
##gant
faces
sco
##issa
loss
bones
ability
smelled
rules
mach
sque
struggled
##rib
sac
straightened
birthday
grabbing
saf
insisted
dut
victoria
damp
pred
hurried
connor
princess
sinc
younger
tech
powers
remain
##fit
##otic
charlie
blade
quinn
surrounded
##lish
search
##mp
marc
higher
interrupted
desperately
reass
ank
##ilar
##gar
trave
removed
##irled
flut
##ocking
connection
unlike
starts
sniff
##ument
delicious
prec
resting
skyla
swift
whose
iron
challenge
glow
assist
furn
bigger
sell
horrible
fingertips
employ
bella
deserved
trembling
aband
beating
normally
popped
host
ari
picking
necessary
garrett
jet
##sion
fabric
rise
dropping
protest
including
million
forcing
incre
daddy
suspected
amb
##ppy
horror
split
##ogra
charge
nightm
animal
garden
spoken
covers
cupped
intens
intended
andre
nowhere
difference
success
##ddy
stat
vul
painful
embr
##idy
amel
rever
##ios
intent
leaves
snorted
cele
##raction
##bers
tour
occasion
dirt
surprising
tied
shape
insane
parked
tent
##inced
natural
##ences
cust
mod
wicked
##uced
celebr
loves
cord
teen
nightmare
nathan
convinced
##icing
guil
##ola
##ilities
lover
mc
embarrassed
##erial
mall
drawn
river
##ste
glancing
##velop
sofa
punish
gw
guards
##dding
amuse
decl
guilty
##iving
chocolate
facing
##inger
bru
match
station
damien
failed
accepted
shifter
ident
dug
ai
freaking
##heart
argue
works
sofia
pulse
liqu
swim
riley
##ously
gasp
##ris
displ
cousin
cad
row
hissed
##iment
settle
weapon
snat
glo
##asha
ms
confir
ack
##den
holl
kidding
pers
##bert
shay
smoke
material
discovered
##itation
spending
misty
##itted
secrets
kin
tam
tore
goddam
tess
zach
occur
##rection
steel
investig
lungs
emily
cop
declan
dalton
##antage
##sie
understanding
west
grass
##unted
##ailing
##asty
instru
sensed
papers
ori
grinning
upper
##aying
stubb
tig
cheer
cale
inches
thrown
parted
experienced
sophie
joke
##uses
amused
sweetheart
yellow
assured
exam
reluct
startled
flood
butter
gown
tit
daisy
lang
mck
raw
capable
ate
##nowled
vulner
##che
##ico
##beat
square
library
rib
##umps
toes
disgust
broo
##acks
grandfather
##ational
marshall
service
##urch
plus
acknowled
##ixt
##ndon
kane
teac
tells
chic
worn
offering
terrified
blew
##cul
vac
meal
nods
##ium
julie
woods
wash
twel
sour
sake
whoever
##ette
manage
anton
responded
jamie
impat
gwen
gy
won
survive
graham
shorts
##ias
shakes
heavily
vincent
partner
##istic
##isa
recognize
cha
filling
nails
kit
##bel
happiness
oce
recall
##eline
awful
common
engine
ache
##wood
whispers
race
champ
fat
roof
wrapping
created
amusement
ghost
pit
exhausted
dun
marcus
hud
deny
##ceed
bree
##asc
##aky
vel
##hew
stepping
##etan
stubborn
strang
dining
causing
humor
ban
inner
wooden
total
shame
casual
blonde
shivered
twelve
london
##amped
alice
lone
shrug
trailed
senses
covering
intern
nature
bay
##itor
##cent
sheets
cursed
contract
merely
hudson
##icle
sea
safety
saetan
hurting
##end
conner
rule
shade
train
sin
##top
hector
nope
nerves
account
satisfied
ladies
react
cred
fart
##stand
height
##pet
robe
##men
chose
wrists
##ona
paying
sounding
bothered
anna
##agg
breasts
aver
lots
gesture
briefly
anc
letter
travel
cars
satisfaction
chain
##ffed
witness
##vor
unex
leading
likes
report
evan
abruptly
goddess
jerk
##ective
fash
##wal
mack
decor
giant
jane
blink
seth
ocean
bags
##essed
##iber
exte
evidence
erection
correct
sched
sooner
nearby
dozen
babe
dawn
wren
oper
##iper
makeup
distracted
wan
fixed
slapped
freed
frame
tur
nap
bone
cher
grad
yep
anticipation
clar
mumbled
parts
block
ine
holds
catching
passing
amer
##iction
##uine
stranger
bleed
explan
announced
geor
ship
forty
##sal
##gress
rick
ec
taught
callie
gate
isabelle
quar
fashion
sway
wis
halfway
ked
mered
garage
oliv
##ception
advantage
quit
##azed
refer
finn
satur
jonas
meredith
cro
##erv
tipped
maggie
swallow
indeed
genuine
olivia
chairs
stands
whitney
incredible
church
tail
sisters
constant
accord
depe
tiger
major
dread
belle
##mi
bank
washed
rhy
styx
hmm
members
potent
chicago
opin
##ask
trusted
object
cutting
##osen
eased
flushed
##dom
lies
sensitive
tasted
##gest
chosen
slo
rome
##pes
##well
##ura
langu
issue
statement
arrange
games
profession
##ki
clue
##ization
threatened
checking
leans
##asped
rebec
cassidy
swell
##pected
##une
driveway
##vision
changing
##bit
log
address
heartbeat
training
gall
devil
unexpected
searched
##enger
thread
rebecca
confident
neg
brushing
crew
brill
escaped
##ify
julia
goodby
origin
##ism
stroke
trapped
stars
##ffled
techn
##lder
carson
alarm
ny
shy
##vern
##umping
fasc
fifty
conscious
valent
##ule
fate
wishing
##anna
clothing
torn
##gly
leap
bowl
stories
virgin
gazed
##shit
sucking
fac
bul
riding
moves
hitting
vers
damage
access
mattress
edd
liter
creature
##esome
possibility
afford
##fl
thom
fangs
stumbled
aching
furious
drifted
winked
tray
meas
curve
shifters
##heron
fake
ward
answering
##vering
acheron
kell
guessed
gav
jour
##rel
patted
stroking
sarc
hous
suite
cryst
##iently
photogra
silly
behav
sarah
balance
trevor
camera
bunch
sib
##ats
##atically
disbel
drinks
tables
myst
forest
spirit
##ulf
bird
rory
chew
heated
frances
style
dipped
##anor
hunters
page
ugly
rip
belonged
cracked
eddie
shopping
echoed
fiona
plastic
growl
##bble
remembering
hood
##hol
walks
raise
##place
needing
rand
zack
resc
choked
nad
##ounce
symp
attract
magnus
nu
begging
darling
fan
practice
painting
emotional
amelia
slipping
waste
guests
rhyth
##hetic
returning
written
freak
loudly
trace
##ormed
##aun
ka
social
neighbor
racing
yard
etern
enemy
consum
vanished
names
smoot
target
unh
christian
oliver
murd
##ature
##umn
##umble
tighter
rev
unlo
##wh
spar
ens
##bbled
hors
snap
katie
flames
sweep
##aves
encou
##acle
gear
scow
cart
##ival
connected
steal
contr
rhythm
bullshit
##ob
lick
stair
univer
eyel
flin
mental
##zie
farm
sid
claimed
invited
disappointment
responsible
stated
appe
underwear
realizing
##roll
buzz
french
heather
nurse
##itches
##ora
farther
nina
curios
##asper
collap
actions
##ache
ven
##kin
tensed
insp
voices
bored
knuck
arch
disappointed
pockets
kyle
##iture
punch
tub
##laimed
caleb
##aret
veins
circum
saturday
rout
project
##uction
lately
apologize
aim
furniture
curiosity
##ales
orders
extremely
complic
shooting
expensive
shuddered
##apping
hunger
intimate
friday
colored
tough
delicate
digging
raced
##omb
lux
depart
deliber
dumb
##inated
ryder
bang
sheet
##yes
restr
pointing
crim
embrace
named
hank
mail
romantic
grasp
pile
paul
plain
begged
awesome
explanation
hal
mattered
impress
drug
kend
bud
core
compan
result
fed
centuries
weapons
nadia
laughs
##ral
##ett
faith
allowing
biting
gestured
grief
mountain
spring
##lor
strode
distur
adrian
compet
regular
strip
##ij
stall
deck
whom
struggling
glit
##iven
##ients
advice
pierce
teach
flicked
career
brandon
##ran
##aph
confidence
attend
lin
ps
winced
organ
explod
tessa
##ases
chill
elbows
pizz
leo
rode
sab
init
traced
goodbye
custom
knot
hook
##erie
happily
acqu
sharing
condition
local
intention
##mission
##ini
sugar
behavior
##uts
withd
contem
lined
jeff
annoyed
council
prim
ranch
##urs
##alle
protection
##iring
ruin
velvet
thomas
north
property
ly
cocked
tony
##aud
##inkled
ou
drown
##ugg
##pri
##ires
brad
vulnerable
packed
salv
haul
##imm
keeps
attacked
crad
incredibly
plun
opinion
cara
terms
peter
formed
request
pretending
issues
entert
jay
matters
chuckle
term
assume
torture
intensity
shifting
isa
qual
due
precious
stiffened
##insley
francesca
##case
dealing
verity
gavin
background
purple
haired
##yed
loyal
insist
runs
squir
rig
tapped
breaths
miranda
condom
gran
feared
climb
fail
ep
victim
##hell
served
sharply
approach
studying
horses
##rick
##iated
bridge
liquid
diam
jenny
preston
whipped
massive
divor
##steps
##shine
egg
##ts
##nel
hol
dragging
monster
frustrated
price
seeming
laz
##inary
grandma
owe
frag
##ielle
disp
scru
thunder
exposed
##uing
bye
frozen
barn
grimaced
peered
bart
trained
temple
dude
brilliant
hopefully
pity
treated
arro
roth
sacrif
landing
agreement
colby
jol
midnight
credit
scramb
footsteps
piss
retreat
images
rocked
helpless
giggled
pad
nodding
drank
buddy
ribs
cere
##aire
depth
carol
urg
cig
perform
english
enth
nud
apoll
##ienna
shown
syn
##coming
carpet
content
disbelief
##athy
##idly
fired
curved
##ov
##yl
##tail
diamond
spike
circumst
glimp
ult
photo
##walk
scare
charming
winter
streets
spotted
shove
nin
dagger
fish
sienna
grave
brian
afterward
evalle
ainsley
cave
##cell
glowing
sunday
quiver
sally
##ican
##ander
friendly
alco
##aze
breeze
rust
miser
hill
ruined
isaac
write
immort
killer
affection
circles
curls
possessed
crou
##anced
sunshine
veh
vivian
swoll
swollen
dism
shining
sweater
ginger
scowled
electric
kendall
gem
swore
wil
member
prick
discus
occurred
biggest
##ffic
demanding
megan
duty
sara
encoun
explo
drawer
dollars
attached
scary
begun
jewel
spee
orange
##lynn
alcohol
similar
duke
fol
cake
develop
owned
##can
literally
plat
falls
adult
points
according
acted
pizza
##irling
saving
##esday
charm
revealing
diego
ancient
##gram
dante
##ooped
professional
recently
concl
dammit
doubted
shr
##agne
placing
courage
mara
territ
replaced
bond
informed
caut
desce
eleven
painted
file
##omes
events
##iod
ends
mask
received
notes
rot
period
champagne
##aron
magaz
pinned
display
melted
particularly
ted
vague
slowed
laun
eighteen
goin
smirk
raising
surreal
crystal
shrie
##xed
dang
gripping
##ulation
carter
suspect
ray
##inged
rushing
meg
##quis
loos
punched
##aping
argument
enorm
corrid
##rier
tend
##rowed
##atively
paint
terror
impression
reaches
##ront
weather
agent
destroyed
bike
rent
##raw
scen
gide
exploded
gideon
##vis
##ket
##olo
village
ram
warriors
appearance
knuckles
cards
##eness
resear
##arse
kay
wink
sevent
hesitation
mission
poison
nerve
danced
tom
throughout
snarled
melan
sensual
football
##apers
bryn
accent
richard
option
##mon
closely
south
##enzie
halt
clutched
et
dial
trembled
##af
appo
humili
doc
houses
stress
spinning
bench
darcy
proof
##rey
drake
sixt
betray
bleeding
cage
nav
##zzled
bor
diss
##gy
seated
commun
##ption
mckay
pounded
##uous
noted
writing
##the
remote
attractive
babies
existence
exit
speech
##cture
blast
mortal
gym
tips
gritted
judge
##phone
glances
ador
airport
threatening
sandw
hooked
weal
thorne
##iating
invitation
reception
ending
sadness
design
traffic
madison
roman
spect
ached
tier
shaft
selfish
neat
lashes
television
bon
dogs
kinds
exclaimed
goddamn
sits
impressed
utterly
rox
stole
occup
role
machine
tank
activ
jere
ri
stark
##priate
##irl
swing
lucas
comfor
##aker
clearing
lur
drugs
circumstances
buttons
rarely
lobby
aaron
##cl
tug
tyler
hed
grind
nix
uncertain
maddie
kicking
movements
screwed
thrilled
stretch
assistant
whist
interview
goss
ronin
stack
former
auth
nasty
infl
george
##urance
coach
##back
##book
various
skills
physically
##boy
stern
##ability
span
pray
cris
owen
twin
viper
sore
##eling
freedom
passenger
tangled
vide
jasm
neckl
jasmine
##hin
rude
captain
tossing
reveal
ess
frightened
ripp
ideas
panting
unus
knocking
##acter
roy
stef
ze
mallory
gul
scout
strike
friendship
drops
ger
##sey
perman
meat
handful
slick
detail
beck
sidewalk
sunlight
language
lore
##ita
corners
begins
autom
brut
famil
squeezing
cot
pear
##zzy
##ader
outfit
express
distant
tierney
item
deg
cruel
uncons
ara
thera
manner
army
stops
thorough
mace
pleasant
##town
louder
erin
valentine
opens
shoving
stefan
bert
cain
darkened
author
client
curl
hunt
jules
hoo
obe
##jected
monday
##orts
darted
task
ally
smith
signs
##lord
intell
marble
parker
swiftly
drum
frowning
version
excell
hired
##erved
glor
anxious
hid
##gas
amber
explos
waitress
serve
officer
attitude
boring
pony
##met
calvin
preferred
##ators
sneak
decis
mixed
sheer
fairy
alexandra
castle
##aunt
abandoned
aly
extended
brit
##ilet
thankfully
booth
polite
privacy
sloane
tap
upward
kelly
spit
foolish
toe
previous
chicken
##erence
arousal
##eter
ing
appl
##nat
##glass
##eron
thirt
trash
patience
rat
##orting
##imate
flared
eleanor
shel
loun
##lad
boun
mitc
##kn
##urally
bread
hamm
protective
soothing
tara
suitc
schedule
maint
smaller
rocky
keely
regan
spare
tugging
complicated
sentence
dall
dull
mitchell
sixteen
jean
ford
absor
exchange
scanned
enormous
cy
shaky
licking
glimpse
spilled
bullet
tease
##ino
##ha
casually
precise
dreamed
eternity
eaten
robert
torment
##orate
clung
punishment
andrew
reyes
slap
learning
fel
alley
dish
hero
##vies
rear
trey
flu
laptop
adjust
immortal
sant
##iers
defense
carly
ellis
##venge
exhaled
excellent
##ila
##ctions
lauren
fantasy
contain
lingering
##ores
cheese
wry
emerg
driven
blush
arrest
wrath
##guing
hurts
lifet
fancy
vlad
kevin
accompl
families
necklace
##iate
slave
##usi
avail
collapsed
snugg
smirked
fork
conce
mult
jumping
cleaned
lightning
avoiding
##aching
program
##pher
##erc
leader
maria
warn
softened
gradu
knox
throbbing
crawled
existed
photos
feather
wigg
##agement
movies
##ato
invis
lets
planted
hoarse
talent
matthew
gain
##gard
leah
code
determination
surrender
edges
claws
nervously
##oning
letters
wise
flip
talon
##vit
revealed
nicole
bust
heel
colors
overwhelming
surrounding
##chie
vegas
remove
surve
closest
snatched
teacher
dee
ratt
braced
caring
animals
apollo
lonely
dart
trem
stuffed
jealousy
##wor
harley
ske
##aste
propped
lane
##arest
polit
bolt
unif
sees
pretended
healthy
communic
irritated
##bled
longing
ankles
cigaret
justice
##ridan
cops
struggle
twisting
gossip
upright
general
corridor
habit
pillows
balc
tempor
##immed
crush
wre
therefore
cleaning
market
pattern
##bone
moist
flashing
gentleman
werew
smug
##ruction
melt
stool
##ament
agony
grumbled
dallas
ragged
refuse
brave
mug
resol
coop
fog
##amps
drained
##inating
create
stunning
mmm
location
enthusi
krist
violent
pec
crime
boxes
gemma
draped
##gment
rod
protecting
elegant
settling
##what
apr
melanie
ourselves
bubb
andrea
lesson
cooking
gathering
lor
straw
pow
dressing
whim
swip
anytime
georgie
basket
hay
brace
changes
embarrassment
ringing
rings
sole
society
delivered
exec
brick
##osing
clan
bothering
trigg
hunting
##nal
breathless
typ
##iveness
twins
mercy
season
stol
smack
waking
bars
deliberately
bliss
somewhat
stephen
rope
territory
stilled
formal
classes
moonlight
##renal
arranged
unsure
shimm
marks
weakness
toast
positive
adrenal
concentrate
hau
boot
scars
trap
required
kar
##vert
smoothed
phil
worrying
##ended
expert
lifetime
ais
##sequ
regardless
shattered
permission
earn
commanded
vent
om
whiskey
mentally
##ples
clicked
##azz
purs
pouring
##riel
liz
joking
owed
stalked
waving
captured
laken
numbers
aeron
roared
flow
fallon
miserable
##elled
alert
grant
renna
owner
indy
wandered
stolen
pent
dismiss
healing
##izzy
##incing
greeted
grac
whispering
dominic
declared
puts
niall
##ships
reput
jill
##nda
motor
vehicle
pout
actual
batt
invisible
bowed
##ians
retrie
recover
grunted
percent
sleeve
##etr
link
section
amanda
gabriel
suffer
american
##ero
emph
fridge
wrote
rocks
slamming
calmly
hollow
lisa
decent
rounded
##anny
proved
der
##eral
spite
anxiety
ba
constantly
reflection
bertie
manip
stead
kidna
yawn
crossing
##iev
backs
twitched
wipe
##ded
glaring
traveled
alc
pregnancy
potential
diana
##oop
maid
thumbs
balcony
matching
tempted
estate
lawyer
jail
##ulate
scrambled
reminder
responsibility
crash
research
clare
source
##amber
blowing
jeremy
elle
##lling
secure
painfully
autumn
##do
stripped
myth
elliot
video
nest
##atore
##bbie
random
shane
##velope
envelope
pushes
##ox
click
padd
stock
separate
##va
contempl
muscular
micah
salvatore
intellig
vance
fantastic
adrenaline
stif
curling
reminding
fond
skye
nicola
oblig
reluctantly
ducked
##illa
buildings
chances
switch
dishes
clutching
protected
##iable
##atory
##rily
curves
daim
survived
bob
natal
stirred
icy
shed
exasper
sideways
aston
realm
attracted
chains
repeat
instinctively
jonathan
##eg
##raged
##mes
##rison
arrive
wounds
circled
spreading
##anne
wherever
hesitate
bik
##mist
photograph
##otch
childhood
seats
fence
brooke
revenge
terrif
rigid
lamp
washing
available
stretching
department
climax
##eeling
##zzle
warlord
crashed
crowded
unusual
distract
gree
whirled
saint
hatred
cush
jac
lump
grayson
dor
plant
femin
injured
##ushes
students
haw
cer
##itar
##agr
rocking
guessing
psychic
tuck
stradd
buying
yelling
limbs
jonah
fears
ecst
handing
decisions
##attering
molly
divorce
creatures
whore
surge
palace
##orter
compared
haz
remaining
annoying
cloth
fourth
##lights
slender
medic
strained
cub
highly
blushed
brun
natalie
bord
purch
larger
clouds
signed
mild
##hand
flower
##rik
cotton
shell
character
surprisingly
progress
frey
shots
helen
dripping
dryly
clayton
ankle
alph
congr
wy
sher
intend
bend
flush
##mate
bran
insides
companion
iona
intimid
jessie
##mony
mane
##utton
##inal
##sel
##pack
##aks
suppl
tightening
##ibilities
interrupt
uniform
rescue
choices
connect
##teen
hardened
eggs
forb
sob
fae
mackenzie
ruth
tearing
##ifer
##spect
##ika
violence
web
apology
milk
sheridan
sticking
##essing
fourteen
flowed
vacation
##iance
marked
angle
ellie
seduct
##assie
dram
laying
realization
map
discussion
emergency
##itions
giggle
##inge
shows
shaped
clients
switched
confirmed
wing
milit
erotic
reputation
prent
benny
leads
nikki
ceremony
##tt
exciting
torso
suspicious
prentice
plates
cron
layla
dresser
unkn
provided
mascul
shortly
exhaust
unconscious
bi
remar
devyn
tad
skull
lawn
shouting
mile
guar
rolls
trad
climbing
carl
##berry
attempted
##off
##lair
darius
##otted
##emis
singing
artemis
calif
amazed
rate
##ipt
knelt
bold
tempt
duc
net
newsp
fireplace
pathetic
insult
arrogant
californ
glory
motioned
overwhelmed
drama
stares
sinking
distraction
engaged
fantas
gal
sinclair
sull
justin
amery
crushed
patient
wiping
soap
bren
catcher
hem
##ads
string
dani
##ahn
obliv
emerged
knight
fruit
imagining
cries
mont
##ndy
##lla
planet
seventeen
##ites
spat
corp
lacey
aisle
edward
options
##ipper
##yard
##asp
endless
tate
atl
horrified
separated
dried
mama
trunk
feb
ella
##rected
candy
adding
health
provide
dave
myster
royal
california
betrayed
refusing
dove
ponytail
impro
propos
universe
bind
flowing
sonia
thirteen
suitcase
based
shiny
messed
scowl
flir
celia
##usive
##ulated
defend
chief
scott
financ
messages
##bal
##cle
##icy
warmed
caressed
questioning
reapers
##ops
brings
ashamed
frost
neighborhood
slumped
sibyl
attraction
famous
latest
##rop
anya
swinging
magnific
official
screams
mand
crown
grey
##uded
loth
##chy
consequ
somebody
sets
##isc
pinched
shudder
rav
reward
hopes
crawl
inhaled
choo
hundreds
brandt
civ
##issy
soaked
theo
carved
camille
cassie
dated
jun
profess
caden
ought
claud
##kyrian
nykyrian
intri
smacked
addition
##iqu
invite
wildly
moder
nuts
equally
dumped
##irst
naturally
eyelids
jade
magical
##rom
blinking
nostr
buff
iv
sting
##hea
assure
caroline
drift
grins
##veled
desperation
clamped
flooded
chaos
dared
increased
impact
entry
cookies
prevent
##eday
touches
cronus
sasha
##agon
basically
##hh
##ns
someday
devast
##enses
suffering
liar
parties
tilt
##kee
lil
dip
prior
approval
panicked
magazine
##hold
##acon
visible
tracks
aroused
nightstand
skill
argued
exquis
devour
misery
candle
sire
##lar
abb
blaz
grat
greed
currently
congrat
subtle
dusty
seeking
series
bury
tries
##rete
##ddled
prompted
thousands
original
dorm
##pan
xav
vik
reaper
aloud
basement
##icles
goodness
elij
strangely
duche
elijah
##idget
christop
tanner
kenned
toilet
##shot
prepare
defeat
##itching
nearest
kennedy
russ
appointment
clasped
shirts
husky
chann
##gen
duchess
altern
overhead
roar
thoughtful
charity
paced
ham
flame
dollar
stil
duncan
witches
stagg
impul
fluttered
waiter
cups
nostrils
##ints
continues
mystery
flickered
sacrifice
##esty
mock
wrinkled
guns
enemies
##bl
topic
imagination
shrugs
package
flung
personally
penetr
marrying
exchanged
##ogan
pages
reject
suc
impl
detective
tooth
assoc
satin
fairly
acknowledge
edgard
tunnel
gloves
succeed
salt
traveling
candace
roughly
##glas
fever
douglas
community
##ribly
pam
sucks
perf
register
radio
charged
juice
##lying
scattered
menu
transfer
##tery
silky
males
haunted
josie
indul
mountains
##hett
##li
##sec
##antically
strap
conference
affair
spraw
##ission
flinched
presses
landon
conven
floating
arguing
creating
embarrassing
##uted
##ado
##guer
crept
barte
bomb
rab
##umph
marguer
included
raph
##jo
crouched
gry
asp
##atherine
funeral
lifts
ink
overl
floors
jobs
luckily
curtain
measure
incident
slightest
tuesday
brutal
marguerite
automatically
steering
medical
aidan
impatient
raphael
##ulations
recent
suffered
sought
##sa
##arted
oddly
consumed
##glasses
##idently
irritation
##uary
##armed
complex
bri
gryph
##hip
hugging
preparing
sandwich
##etch
depths
feminine
aj
crashing
gloss
emerson
influ
bending
craved
suz
adop
benj
staircase
comforting
sipped
concrete
syl
lothaire
##ample
appropriate
sighs
bounced
##alled
sliced
reck
frantic
tradition
##ookie
miche
assh
los
proceed
exception
pounds
frankie
throne
naught
lia
confront
judgment
liv
goal
cigarette
snake
staffan
false
sympathy
impressive
sele
successful
cliff
archer
strate
pussy
treas
wolves
steam
stealing
lucian
assuming
journey
foyer
audience
##gers
##istered
whimp
mansion
masculine
loaded
alter
hits
deciding
deadly
blurted
slim
matched
royce
##itha
##fall
wary
barked
remark
tabitha
rapidly
spoon
compliment
trailer
desert
avoided
folks
dece
apple
legal
grunt
barb
strands
##ology
pra
approaching
domen
inclined
grasped
explode
pave
##bur
noelle
##uments
appreciated
instincts
tack
miracle
routine
domenico
##cel
unlocked
earned
##alian
appears
##oke
##pre
bee
hearts
collect
tax
##lings
lazy
triumph
mum
swimming
brooks
doin
colton
modern
guided
madeline
sofie
files
jose
specific
ned
##olas
introduced
pacing
taut
devon
souls
toy
##umpled
lexie
sweeping
pig
alb
kimber
##agging
cowboy
healed
beau
muffled
crit
cuts
evelyn
holiday
flynn
backing
aura
jan
females
railing
dod
##itute
doug
mim
replace
smells
murdered
east
protested
adjusted
alright
blown
arrow
bottles
magnificent
hailey
##ardon
emerald
dragon
inevit
model
grabs
horiz
servants
##osure
useless
##itting
poked
worthy
illum
distinct
brightly
sighing
advent
zay
whoa
cott
vast
##aid
sons
granted
finds
safely
scarlet
lingered
greeting
jones
fragile
##aries
controlled
thrill
gasping
irre
lant
unre
slice
louisa
describe
anne
relationships
typical
hauk
lind
steven
limp
boxers
jenn
combination
scratched
unhapp
hopped
cupping
cassandra
rack
##icted
franc
wider
##keeper
tortured
mouths
burns
counted
toler
churn
dess
strokes
suspicion
unknown
stew
saff
escort
oil
locks
everybody
sunglasses
hyp
manager
eva
consc
fulf
groom
##tin
leth
greg
vane
barg
dessert
##ano
feeding
remo
##da
beam
darker
signific
dancer
directions
unbutton
twitch
##izes
campus
precisely
las
##ailed
##stick
wallet
smoothly
sniffed
adorable
##rien
slides
merc
chris
grade
affected
entertain
fade
trade
##oh
heck
clapped
stabbed
pix
##xic
gruff
jewelry
reassuring
lighting
ax
serena
inviting
equal
tasha
frantically
suv
fellows
items
##natural
gazing
gifts
sale
guide
directed
announce
saffi
cough
occasionally
bartender
ripping
clenching
flirt
withdrew
degree
##arre
blouse
accus
grandp
mistress
forming
dreaming
properly
annie
volun
laced
stained
whip
spill
perfection
volunte
quir
helena
forearm
quarter
overhe
engagement
thoroughly
hire
scri
player
puff
studio
sincere
framed
wraps
messy
##antha
worries
related
shocking
annoyance
ruby
sweetie
##ounted
braden
spade
ellison
student
curtains
##etri
shore
anth
strider
pleading
winning
cautiously
##down
##ula
##iation
awareness
uneasy
fiercely
bol
endelle
hast
contained
##ivan
taller
folds
lac
##oon
##fire
floated
urged
branch
pip
##iece
mud
cheap
snapping
ribb
fitting
fled
officially
##resh
##pleas
##arian
##arded
expand
##idra
##cery
levet
scor
swirling
calcul
breaks
shallow
martin
disaster
demetri
##olded
romance
chasing
chamber
seed
maddy
xavier
kald
##rous
excl
polished
descended
chip
priest
judging
ming
##iration
ali
promises
loyalty
kil
surged
committed
##stone
##seat
instructions
##bre
suits
##ums
politely
taun
anybody
thrusting
cabinet
##bell
env
resem
generous
zipper
stella
curb
daily
suzanne
ped
rash
stable
consequences
kaldar
ryker
unbel
sleeves
spi
awe
peeked
dean
##ffin
remains
hovering
christopher
sheep
backseat
##ggy
dresses
confirm
roses
##arek
salad
tasting
piercing
##olf
replies
product
genuinely
ecstasy
stake
sworn
##atter
##astically
benefit
puppy
temporary
partners
##formed
accepting
nipples
maneu
bice
site
##zes
entering
##rina
symb
odds
headache
require
coward
vicious
govern
believing
vaguely
whimper
theory
regin
eden
##orld
murmur
savage
introduce
nolan
blocked
intently
releasing
fortune
status
maddox
hazel
rasped
betrayal
##ford
##inity
liking
chand
raven
lowering
blankets
estab
italian
skipped
susan
prayed
corrected
craft
hyster
mommy
professor
sissy
##olyn
neal
lovers
glowed
assign
profile
disgusted
##ogen
fingern
nause
wasted
wounded
efforts
exquisite
crun
negot
permanent
bald
bubble
sadd
sadly
ashley
oct
stung
bodygu
mateo
##und
function
lush
##ooled
highway
##00
possession
napkin
explosion
flirting
jab
skip
nightmares
shred
deepened
##low
spilling
explore
foreign
symbol
tipt
##eared
mini
crisp
military
##ddle
helps
range
##uish
joining
finishing
perched
sleepy
emphas
noticing
arc
reacted
valky
sookie
sports
coast
swirled
repres
spray
prey
financial
offers
continuing
indicated
terrifying
unbeliev
##ifully
arth
minds
sarcasm
goose
pil
##outhed
dates
flaw
hovered
keira
backpack
cringed
laws
snuggled
mysterious
michelle
dash
tighten
picks
##riger
refriger
dealt
inher
thrusts
regarded
gleaming
educ
cameras
jennifer
##hest
haze
warren
squinted
tay
moans
meth
rubi
civil
sang
handled
juliana
hauled
tiss
##inate
sanct
intentions
daph
severe
soldiers
sometime
##mod
sensing
##cting
cloak
##strom
denied
daphne
gau
##iara
##uman
flor
carriage
maris
compass
century
ensure
tact
##ulating
marian
furrowed
shutting
victory
seductive
naughty
gaped
##hem
##aches
emp
shoe
ber
bark
bites
cuff
nudged
##ville
##riff
dazed
rit
guardian
sariana
lasted
lic
offended
charles
stomped
##racting
kira
lila
blocks
dred
technically
tat
##oul
##aren
countered
sparkling
delighted
##olai
scratch
occupied
##com
blunt
trailing
mirr
blocking
##ierra
darlin
mes
damon
dies
##uel
flex
zarek
flare
acade
cares
involve
monst
wishes
vikt
cottage
kam
##we
avery
alpha
abilities
appet
relent
visited
sensations
dump
mistakes
bracelet
achie
tiff
tape
sped
frequ
bills
newspaper
fucked
swallowing
creek
alcide
holt
sorts
denise
merit
heaved
ninet
anthony
intru
illeg
rumors
##away
ree
mocking
##yson
bearing
##ctors
honesty
fortunately
merry
scooted
trigger
nancy
##etic
##ienne
encounter
happier
nikolai
penthouse
elise
clever
katherine
##ainted
designed
brenna
gn
sentin
tremble
##hu
scooped
personality
ace
nah
oun
clipped
garg
beaten
states
clinging
severance
texted
frightening
grinding
tob
coven
joked
##isk
imper
##bones
##col
sweetly
jenna
chewed
cidra
rif
##fits
murmurs
internet
##heres
candles
abandon
crimson
##field
outrage
willingly
injuries
tits
##inous
lid
##giving
##arel
discon
discussing
bump
##arms
sorrow
vince
popular
glorious
##ressing
wer
seek
differently
##uther
kitten
contents
bew
doz
laund
scoffed
elder
roke
corn
meetings
sweaty
refrigerator
##ta
sober
coax
##ifying
spots
sabin
gang
chey
sleek
##lie
praying
brew
absence
##ele
bouncing
guarant
yel
##umed
arrival
imogen
##udge
counting
##gues
novel
pho
wealth
pumping
flipping
desired
insul
roxie
arthur
leto
arrangement
gargoy
##cup
booker
jessica
ire
ku
recalled
lighter
ox
conversations
##rehen
tracing
valkyrie
daring
izzy
dizzy
ker
heven
shir
##ishly
transl
located
senior
saun
registered
trusting
kyrian
title
##robe
bron
##akable
retorted
freaked
visiting
kenny
quality
dozens
##imil
##phan
paj
caressing
decorated
unn
strangers
load
resent
jerking
striking
asshole
##iter
abdom
motorcy
mex
hopeful
focusing
launched
aimed
pey
huff
##hun
##oting
blades
serving
raked
film
##anches
surroundings
baseball
tee
shelf
rein
##ags
##ucing
##bon
##gued
socks
huffed
portal
sullivan
unique
glist
freezing
hating
##hile
##inkling
ours
taylor
lana
##ooling
strolled
passionate
allie
relaxing
possessive
teenager
bruises
pitch
##esy
overs
veget
##aware
dominique
marty
persu
ga
greater
whimpered
biz
##hy
##rant
thane
daylight
##rupting
savanna
discussed
phoen
explaining
disappearing
emotionally
creepy
##enne
neut
elab
eyeing
wreck
greek
inward
leaped
playful
catches
accidentally
cursing
craving
pictured
phoenix
steve
grocery
ridge
shelter
kas
anch
solution
supplies
rational
##cheres
##acles
mencheres
despair
employees
swayed
bore
##ench
angrily
grounds
skylar
seemingly
awa
capture
oblivious
ounce
kade
online
email
jewels
fading
weep
wrest
zero
##lah
league
paperwork
strand
shadowhun
slipp
starving
fascinated
bout
sized
injury
##ervation
sparks
ego
##chan
secretary
rhett
overt
coinc
equip
celest
tattoos
celebrate
werewolf
bikini
gig
##ei
restless
terr
media
attempting
drifting
exerc
chan
##apes
##bbling
interior
veron
treatment
results
##ada
tempting
scraped
##retched
##ification
ticket
jael
reed
marched
showered
madness
alexei
fund
bax
referring
leapt
##gation
shone
laundry
homes
solo
samantha
increasing
zacharel
lethal
nail
locking
choking
nak
nash
accused
immediate
audrey
gracie
##nie
cade
scal
packing
suggestion
##gia
limo
tapping
unhappy
##acher
mona
investigation
##entin
juliet
aiden
bared
eur
raz
##zzed
indust
ashton
##itated
quentin
barrier
disappro
paw
aggress
stove
forgetting
kh
revel
guitar
shrieked
sweetness
hiss
##celyn
jocelyn
shivering
oak
##rell
##omi
agg
prospect
softness
equipment
unsp
absently
jolt
kad
undo
plunged
lan
calder
pained
blazing
deuce
demands
remarked
tiffany
bumps
cue
journal
duck
buzzed
convincing
commitment
reflected
francis
leon
alana
##ipher
appeal
lege
thankful
tower
motel
##uttered
bund
awhile
scenar
##oms
momentarily
edged
glittering
joseph
peyton
theran
lev
unl
choke
ordinary
queens
neighbors
lori
##power
helmet
assass
screec
nape
tucking
mob
counts
value
kaia
cult
carolyn
bedside
resisted
skinny
trous
cradled
andy
##enth
##athed
##ida
##agers
matth
drawled
matthias
rattled
qhu
envelop
desig
india
landsc
recovered
pierre
april
qhuinn
motions
session
elec
circling
congratulations
erik
crooked
kinda
eagerly
ronan
maintain
bizarre
pry
##eez
##erve
bits
melting
alay
penny
pump
lola
consciousness
signal
basic
gleam
##sive
decades
travis
fellow
doubts
19
redhead
servant
identity
ware
denying
positioned
teaching
exagger
muse
dialed
inevitable
pitched
innocence
neatly
diver
##rim
seized
greatest
lessons
muscled
lame
ticked
beep
kingdom
cadogan
tammy
gratitude
branches
fluff
potato
statue
fashioned
##ories
crushing
cora
burden
flicker
encourage
heir
##unate
reasonable
birds
pausing
zayne
##acted
pierced
guarantee
nons
sheriff
dele
tones
straining
lounge
arrested
jar
sobs
backyard
intimacy
##elling
gazes
artist
vivienne
gallery
scalp
##acular
timing
patio
folding
temples
soldier
abdomen
overcome
shades
brianna
enthusiasm
sentinel
##bles
sund
questioned
england
witnessed
sierra
slit
scul
peering
serge
widen
pup
##bber
lunged
slung
armed
##iple
curiously
stacy
##icient
alt
disgu
wandering
kiara
flav
layer
limits
cruise
marg
deserves
electricity
stride
restraint
unaware
government
hallie
danika
scarf
persp
brynne
method
tumbled
tops
kneeling
slacks
ballroom
gross
stones
wendy
clench
resolve
compassion
##enced
chips
##ishment
humming
admired
visions
mutter
fabulous
selling
reluctant
alien
##ounded
locker
concentrated
disturbing
##aa
##enn
passage
sadie
cheyenne
tel
troy
##ody
pauses
variety
nep
lod
obsc
doctors
brielle
newly
jesse
claiming
dangling
lucah
incredulous
peaceful
disgusting
tingling
lahn
mixt
vall
offense
sabine
nothin
chassie
melissa
tenderness
schedul
loosened
##idual
regretted
perfume
mcc
tant
noble
spur
caf
disag
strict
accur
##hab
mold
papa
indication
##mates
unle
malcol
malcolm
mitch
sabr
waistband
testing
pearl
nineteen
sabrina
freeze
customers
spectacular
jude
pel
noises
snick
closes
##lock
diner
groin
urgent
obey
amun
thus
##lee
copy
bobby
greyson
puzzled
platform
pleaded
logic
exhaustion
stance
##epend
cases
inqu
outs
unz
##umbles
sprang
europe
mour
mouthed
sizz
angels
pand
garb
cousins
##ologet
sanctuary
beamed
arching
louis
casey
mixture
hates
march
independ
staggered
gina
pic
vom
mechan
phr
bray
secretly
mage
rue
lion
##abelle
figures
prize
yanking
stormed
revol
influence
##gio
butler
artif
inex
sympat
navy
alayna
patch
employee
acknowledged
authority
bacon
##inter
clip
thanked
shifts
halted
choosing
##comed
reminds
kidnapped
erupted
hotter
tripp
temperature
dissol
beard
chased
sumi
shouts
flexed
moaning
##fted
shitty
bargain
downtown
##xton
ashlyn
cherry
venge
initial
temptation
recon
##flies
quen
seattle
accompan
math
zone
hadley
comments
calmed
telep
criminal
##gil
unst
roommate
gravel
stray
strings
terribly
guarded
streaming
noon
marie
flashlight
pist
fingernails
stam
possibilities
sprawled
10
tale
##ata
ages
greaves
hastily
raging
essence
ded
##ari
bruised
kent
pulsing
prisoner
jacob
sorcer
laylah
sly
thresh
bein
sealed
##shirt
collected
designer
horm
partially
maxim
described
horizon
nephew
vit
warily
transp
wealthy
mesmer
motorcycle
threshold
bachel
##mail
##atives
shelves
assault
interf
lav
intoxic
exposing
drain
oldest
trial
bis
fount
example
overly
slack
cheating
element
neutral
##chal
##aude
collection
basis
sox
beloved
dismissed
conclusion
keen
##sity
chad
evidently
seduce
nuzzled
wryly
##oken
##unks
crawling
bucket
sanity
dramatic
peeled
fisted
##box
giggling
theater
cavern
rug
america
##iago
valley
gates
pine
sage
plas
longed
cafe
sunny
adds
peek
performance
##urd
resort
sadi
sneaking
gulped
license
youth
illusion
complain
##oot
slips
##omp
##imer
outl
##ustered
kindness
welcomed
##ionaire
aimee
aug
absorbed
##ige
virt
##gance
captive
jaxx
cimil
jeep
rail
analy
safer
eli
tingle
route
luxury
santiago
##istr
destruction
failure
riv
thump
##rose
cait
ambul
removing
##eting
##ooping
mating
contrast
activity
wiggled
ritual
hills
##nic
##aration
walker
echoing
##mn
tomm
orn
##ffle
underground
stirring
dashed
blows
##anging
gargoyle
thud
##ables
endure
hopeless
admire
feroc
impatiently
fantasies
##ulet
facts
mistaken
sixty
soothe
proposal
##making
exited
attor
belongs
challenged
scanning
pumped
##iments
sobbing
sche
belief
limit
grimace
artifact
till
amusing
muttering
soup
violently
unwilling
##usions
consp
rapid
illegal
suic
christina
flutter
georgia
##fly
##ware
##amas
##inda
defensive
quarters
trousers
thurs
slut
playfully
spells
panc
slaves
##ceded
groans
subst
jaxon
##och
reen
downward
##ighed
usher
thursday
pian
##con
##ties
atop
blamed
plants
woken
wander
teenage
jem
fila
instructed
##amiliar
##ifically
feral
ral
watches
walter
ranon
lipstick
drowning
victims
intelligent
##inkle
limited
honeymo
agents
pole
needle
unfamiliar
gained
todd
frig
cracking
##see
weigh
griffin
pinning
combined
humiliation
channing
brisk
patrick
duval
dil
ties
##child
chal
##ssa
carrie
pursed
backwards
fiance
tamara
tobias
##ock
seam
laura
cocky
squealed
##ishop
distress
domini
bucks
sail
armor
marco
excuses
vig
yards
##kell
unner
doorbell
wetness
nonsense
lair
alto
holes
intrigued
jasper
shaken
headboard
pills
lids
rumbled
tended
plo
startling
punished
repeatedly
debt
cerise
fidget
exasperated
flinch
tory
poker
linked
##esa
useful
swiped
silken
hunched
confession
uncont
##erted
##ulsion
housekeeper
gentlemen
complained
gary
sout
searing
##ancing
sales
conscience
rim
rane
##amble
popping
demonstr
shuddering
stee
##quet
couples
discomfort
bryan
dign
haid
##outs
harry
frankly
treasure
honeymoon
ay
hom
##zar
cheekbones
siblings
bian
gail
karen
##rad
shal
clin
seet
gasps
sticky
pavement
weres
##aney
bishop
jagr
toys
ponder
specifically
tanned
groaning
melo
minim
messing
jewell
##bling
##chief
##umes
unpleas
##zzie
virgil
labor
ultimate
wire
##unting
delaney
luca
nonchal
buzzing
overd
traum
cookie
heavens
paintings
prayer
daunt
##omy
minded
furiously
##mend
generally
awkwardly
fishing
tile
##hire
##len
appreciation
bodyguard
vow
yank
##gre
##var
##unken
##laim
swords
fiery
elaborate
kadie
goo
##idal
##imately
blay
blushing
plucked
slapping
harlow
ruthless
stan
weary
lemon
spear
snuck
denial
lys
vick
spy
interro
growls
transform
lizzie
soda
##aneously
article
particip
depends
gaping
dock
clam
dise
benn
swelled
cautious
daimons
cushion
garbage
caine
knives
didnt
##raging
straps
flee
academy
cure
reese
##acey
unmist
monitor
##ignation
concerns
depend
rows
##chair
skim
indiv
delivery
wardrobe
##ppers
swam
comprom
coughed
charges
destiny
services
examined
therapy
oven
asher
clad
monty
penis
ambulance
dauntless
bumped
##orse
surg
stuart
awak
##ological
welcoming
bitterly
skept
piano
rico
##itors
repair
confessed
tilting
claude
##ummy
stubble
bug
ras
lilly
column
experiment
notebook
receive
urgency
claudia
fest
sauce
##elope
conqu
contest
##quar
angled
fifth
banged
reun
pose
angus
tripped
rises
fianc
rejection
##acity
coy
##angle
nibbled
solve
unbear
solemn
thirst
veil
strain
banging
fiancee
piled
plot
songs
concentration
ugh
nef
simone
winding
guts
shiftertown
competition
borrow
upside
brink
recip
##ai
##lei
##aving
seal
threats
verl
trenton
senator
##iser
knots
flashes
interrupting
traitor
lorelei
biceps
warehouse
##bow
##akin
delay
alongside
##leen
condo
mah
vigg
upd
score
beds
apologet
insurance
depos
retreated
viggo
shack
mode
pron
jokes
##ivity
smoking
rights
drunken
meantime
tenn
manners
panted
antonio
wri
##asms
shattering
fighter
##occup
sweatshirt
hardness
snort
farrell
deme
confess
casting
cement
mused
puzzle
texas
border
bewild
bloss
indiff
accommod
chatting
bou
wasting
reports
kold
tin
brist
distr
massage
resistance
adults
expressions
earnest
koldo
tina
##anah
rosie
crumpled
altogether
pir
respected
constantij
arrangements
photographer
essent
assignment
shorter
catal
fills
sunset
bullets
legend
verlaine
pang
tenderly
constantijin
cit
hilt
tongues
simi
shivers
vest
spider
##phy
destro
##step
activities
nut
##rehe
structure
valer
august
fet
debbie
penelope
requested
vibrated
butterfly
aged
agon
chef
levels
portra
dwell
patiently
barry
troubled
obsessed
rumble
laci
bennett
sobbed
##isha
hollywood
peer
behave
species
vivid
lysander
##liness
##mph
neil
overnight
promising
burying
salon
angelica
savanah
motiv
reassure
raises
heaving
applied
stifled
stry
minor
infur
cheerful
butterflies
plastered
dive
rape
outer
##tedly
strapped
obed
faction
horrif
speaks
desires
grimly
padded
unpleasant
cheated
sergio
frenzy
bolted
junk
##bor
##ector
waters
parano
underworld
duties
##lene
##ae
##char
chuckles
shuffled
admiring
facility
sack
tires
##po
proc
##icho
damaged
practical
tire
roam
hummed
##herent
controlling
smelling
convent
regarding
ana
##anting
absurd
construction
tracking
blinding
stalking
shimmering
rashid
razor
brody
teresa
freely
volume
sylv
francisco
pend
predict
correctly
dipping
##anked
cooked
grasping
encouraging
obeyed
stryker
stain
thoughtfully
thanksgiving
ast
myka
atmo
dripped
supply
throws
cezar
responding
average
atmosp
##iselle
##roft
somethin
##anky
ryd
tune
lurched
brunette
yog
##iope
sweating
survival
mortimer
appealing
greedy
vowed
unit
grady
skimmed
director
souther
flet
sagged
coated
treating
tests
scowling
zeus
kess
ts
gesturing
scrubbed
moisture
fred
blaire
areas
horn
towels
portion
fare
adrien
lands
strangled
fascinating
junior
pistol
dimples
steadily
picnic
vengeance
lass
anguish
stroll
pencil
bitterness
liquor
##arming
talks
throbbed
bathing
include
effects
buckle
collarbone
nipped
##aved
warming
drawers
spa
ropes
##aughters
complaining
supernatural
robbie
proven
returns
figuring
adventure
tissue
soaking
steak
breed
kitty
astr
##nesday
toby
##icop
shine
loft
wednesday
cyn
caution
faintly
multiple
ramp
tane
lecture
scot
disre
zeke
foul
##ros
brood
forearms
squad
fingertip
dren
##taking
openly
growling
##uri
weighed
cos
##rud
helicop
##appro
sunk
err
tricks
description
darting
shirleen
ric
rhea
smashed
flicking
decade
hesitant
brains
fountain
pardon
glued
homework
nicely
skirts
rifle
##bag
##ota
review
##ithing
blat
glided
resour
jericho
uncomfortably
fen
nich
tz
whoo
##ieving
hugs
gabrie
lanthe
landscape
wrigg
wool
wield
##kk
agency
purred
passes
luxur
daimon
channel
coincidence
dizz
jumps
reserved
strides
writhing
university
individual
steep
colog
malik
retrieve
tipto
##idded
naive
spoiled
micro
diamonds
atmosphere
cologne
##gun
##alf
cler
cancer
parting
identical
kayla
rydstrom
conrad
pandora
##onos
hav
offices
gliding
reenie
##ending
abd
loop
courty
approve
verge
levi
southern
##gic
##xes
preoccup
genius
misunder
parisa
squirmed
aust
kaly
yuri
##rus
##inton
defeated
fascination
smoothing
speechless
kalyna
ture
##gown
flatt
beings
escal
jolted
medicine
##acious
amulet
destination
casino
nestled
forbidden
tas
insec
handy
prompt
mckell
consuming
theirs
resigned
vicki
##gate
outdo
proudly
wrenched
gus
nicc
encountered
ralph
brushes
pickup
fluid
aggressive
unspoken
##bi
##reet
whipping
mol
##ifted
arist
stays
exploring
uncon
president
graceful
threaten
busted
brim
olive
##uffed
glee
gleamed
surveyed
niccolo
dh
smother
manic
hesitantly
billionaire
tzader
naz
sipping
##cast
easing
urging
scarred
fuzzy
jagged
blessed
canv
hairs
convul
tickled
vibrating
suspiciously
sympathetic
cory
##mered
scand
quivering
nightgown
bedrooms
nickn
challenging
meals
deni
cupc
##ram
glint
exercise
foster
helpful
spirits
soothed
phones
parad
cats
explains
softer
attempts
snarl
disconn
dont
##mont
calliope
extraord
root
barre
thronos
admitting
tunn
custody
unmistakable
rehe
twitching
prime
obst
surprises
screwing
etched
powder
sherry
##load
isabel
admission
fans
##iac
owners
storage
costume
occasional
ingr
compound
frowns
logical
##asions
suited
panel
indicating
goddamned
wist
##mber
##oub
sapp
behalf
heartbre
admin
##fold
##kins
certainty
campa
announcement
##iar
##immer
##icated
narrowing
anticipated
altar
failing
wives
blasted
orle
scroll
sophistic
savoring
bruise
courtyard
mant
py
##ustomed
secured
metis
announ
impulse
overheard
monsters
daughters
##rees
exotic
##istent
boom
##apor
beautifully
observed
taxi
orleans
gay
kink
##boards
denver
summoned
sparkle
developed
accomplish
execut
##anity
print
elsewhere
fights
messenger
feast
syd
sarcastic
disturbed
strategy
lyn
handling
pulsed
courtesy
arik
antonia
##standing
swaying
permanently
mildly
##don
alic
apprehen
undoub
gardens
whistled
bubbles
valerius
gag
unison
bells
thong
inappro
conj
folder
splashed
briefs
blurred
jimmy
scenario
dab
vamps
glide
plea
drives
colorful
buckled
uncertainty
russian
##eted
rejected
completed
eyelashes
##rin
nov
mayor
##shan
yawned
gp
perse
satisfying
dangerously
tentatively
snatch
##uated
##hearted
rex
pled
scient
calming
escorted
filthy
ladder
destroying
lave
##beth
##zer
inched
truman
swat
terre
punching
countless
weakly
impatience
dawned
roshan
tools
stephan
##ucker
layers
chuckling
amazement
brandy
texts
granite
represent
mound
crotch
rainier
venom
sham
alike
semi
becomes
##olves
owns
institute
aven
##ode
##wind
##ador
pepper
flopped
device
index
fumbled
##ex
##rolled
bla
rubs
defined
discreet
mutual
streaked
kinich
significant
attorney
proving
compar
babys
foref
uttered
experiencing
headlights
chewing
beef
sylvia
az
goodnight
reporter
breathtaking
implic
distracting
sparked
uncontroll
partly
yup
##water
##essa
poking
tangle
outst
laney
werewolves
undoubtedly
rag
escaping
accomplished
appetite
cul
stumble
comf
comprehe
forgiveness
central
demeanor
mutters
youngest
satisfy
unease
flickering
negative
museum
kier
##eds
unpr
acceptance
bait
scheduled
shah
imprison
sarcastically
tag
noting
##opard
instr
presented
cocktail
intelligence
entertainment
oxy
tracy
recom
visibly
seduction
ribbon
suicide
tut
##ds
blessing
battered
jett
rusty
##aver
cheat
##ffling
adored
smold
appearing
saddle
##encer
butch
sexually
scarce
education
disease
##bie
stem
deaf
scur
concert
flatly
fortress
##works
bid
##za
asce
barrel
fitted
tingled
gap
lining
abuse
sup
##agan
mighty
trib
addison
internal
piper
handc
cozy
bracing
grit
leaf
##rated
golf
humanity
positions
teddy
##ecess
cling
pluck
endured
standard
follows
undead
giggles
creeping
launch
improve
pancakes
flag
glove
curly
muted
maia
tastes
merl
sandals
records
pilot
flattened
campaign
heath
ath
practiced
ironic
reckless
pesh
clasp
##igan
lovemaking
creative
harshly
backside
disd
ade
bleak
achieve
##ouched
plays
casc
tink
slur
earlo
widening
rou
glam
peak
##ounting
brighter
magazines
unbuttoned
eh
fee
chained
sequ
speaker
beats
auction
cant
mounted
skit
believes
paled
dimension
predator
mexico
bum
cind
eerie
zip
##gage
##vent
concept
remorse
snaps
##soever
lords
sends
necessarily
##cloth
succeeded
thorn
vod
##shield
relatively
confron
dana
rippled
accusation
outstretched
##vity
##urt
byron
hitched
annabelle
operation
valentina
mandi
wince
sum
coke
managing
legit
pete
suggesting
fluttering
jillian
##usal
encouraged
helicopter
tunnels
oo
thu
whatsoever
chilled
eighty
alarmed
rubber
##udged
knob
ghosts
glossy
##bits
heap
##onent
liber
brax
strongly
subd
occasions
superior
##aulted
grandparent
fau
stevie
becky
chandler
vodka
reapp
loki
simult
fires
straightening
payment
cheerle
acquaint
primal
whistle
ups
sult
motherf
accustomed
regain
baff
vote
##mar
stumbling
backup
soften
windshield
wheels
shoots
slowing
deaths
stripping
sticks
##ambling
examine
bachelor
dur
##idents
macie
linger
seventy
collapse
jaxxon
##lished
pendant
shh
composure
privile
celine
disturb
disdain
jung
midst
##mond
##udging
addict
tart
##uable
shamp
ignor
recognition
bastards
sauntered
shampoo
stinging
unlikely
gulp
aspect
gin
##oph
swanny
coldly
arriving
freshly
galen
atlant
dazz
forces
assigned
evang
cooler
stores
shops
peeking
feathers
accompanied
##athing
plump
hardest
##athom
paraly
scrut
unfortunate
shahara
nike
sust
vine
##rings
blah
tool
lindsey
bluff
joint
accusing
receiver
sparkled
concentrating
sheree
confusing
scrun
exasperation
##orous
##assing
undone
mainly
straddling
tommy
surgery
##gom
badass
officers
britt
luther
rus
rosal
lifesty
susie
leaders
billy
profound
immense
amelie
unbelievable
bundle
plopped
terreille
brant
endear
squared
subs
tickets
posture
rumor
##resist
lilith
traditional
grandparents
##kers
##cha
acute
uses
absent
agenda
unfair
cradling
photographs
gabrielle
oxygen
##ishes
chemist
pointedly
sandy
admiration
commented
political
outline
worship
rogan
heady
guiding
gyps
knead
twent
compare
withdraw
inwardly
aub
quinton
talkin
receiving
navig
taunting
##iddy
unp
players
incap
horny
radiated
creep
entertaining
irene
##phed
stiffly
sandwic
stacked
grows
talented
jogged
bushes
clarissa
cushions
disguise
hormones
##anes
##sell
somber
stocking
wesley
shields
intensified
vulnerability
dunge
paradise
spencer
reported
foundation
menacing
fixing
kylie
hostess
linen
organization
kor
##zo
hack
swive
household
huddled
apologized
rielle
##foot
##erity
notion
science
voc
freck
erase
identify
ancest
quivered
gaius
drenched
gord
roaring
unset
situations
deserted
intending
epis
purchased
vale
##mark
neared
curving
budd
convenient
maax
summon
repeating
connections
anderson
prow
streak
roads
savor
##lict
##otes
nova
leash
unin
acid
curran
##brush
shaved
tolerate
grazed
snagged
complaint
eman
addie
pinch
kaspar
phrase
fidd
france
china
kaele
nausea
pupils
preoccupied
italy
stressed
reeling
blaze
needy
expectations
lingerie
scraping
celebration
drowned
graduated
apron
##quarters
rin
tested
hes
hott
hammer
albret
unnecess
inappropriate
bounce
apply
attic
evident
discarded
insanity
rearview
quirked
rut
##lers
isol
irresist
classic
gradually
bould
lacy
woo
sport
roots
intensely
adopt
pajamas
terrace
11
ez
intact
envy
envir
jal
forms
friction
glazed
walt
striding
crook
fulfill
glistening
kaeleer
unread
someplace
tremor
worlds
punct
vibrant
rumm
swelling
perspective
nicholas
gust
blazed
##amedes
nickamedes
renew
immune
sneered
stables
originally
santa
earlobe
dict
ditch
giddy
iz
##anse
johnny
faltered
jut
raped
sheath
chir
presc
joey
assess
angie
shawn
##while
screeched
kir
##ati
##ooking
loan
laure
newt
squat
bathed
##onym
scented
angelo
montgom
montgomery
patting
casper
nixon
##ercial
##ciating
##erent
reid
sue
doorstep
obsession
purchase
lifestyle
##iantly
##imir
agitated
coco
enfor
fling
elin
phoe
scenes
##point
lavender
##tled
poised
selena
crest
strawberry
binding
devastating
exclusive
dignity
ezrina
##othea
flustered
craig
clawed
dorothea
cuffs
phoebe
##abel
actress
##arring
contempt
chemistry
##made
didn
alas
float
##licted
squirm
vows
ski
breathlessly
##ianna
schol
##maid
fleeting
bursting
intimidating
gaw
cody
irritating
benji
kessen
tumbling
whirl
expanse
mates
scratching
attended
loosen
mik
lever
##oles
##anca
weekends
threaded
jungle
18
dus
wulf
wears
amid
prett
signature
riot
##rons
fraction
intric
interests
visitors
nurses
peep
##oman
##oused
retire
visual
clutch
potatoes
##nders
heating
residence
denim
verbal
effective
champion
##aggers
arrogance
comforter
comparison
ful
conver
plush
scotch
##ruct
kills
kristine
##blood
rasp
notch
##rive
plum
longest
fairies
boston
ruining
limous
sleeved
margaret
intoxicating
presents
splayed
displayed
environ
daggers
hushed
nanny
chimed
stepfather
circular
nefri
canvas
##llian
hades
headquarters
carn
contacted
elissa
dissip
hypn
fluffy
simultaneously
leis
examining
condoms
hilar
therap
infect
slither
snug
earrings
hunted
grandd
towering
attacking
apologies
customer
rabid
ocks
##augh
welled
elim
bitten
invent
latched
adopted
umm
##iates
##enc
fastened
oversized
eld
krit
national
##inent
manh
grips
shadowed
ceased
unexpectedly
receptionist
felix
conspir
##crow
##tes
##ooks
##avel
clement
nickname
##brook
danny
petite
combat
gee
##piece
stench
fried
grocer
irish
tube
yoga
lure
##ogue
prost
ada
commercial
extent
ariz
mirrors
unbearable
reins
maysie
horns
suspe
raina
gerard
cubs
##vey
kneel
ench
vein
resumed
uneas
awakened
erect
##wined
##ouch
blaine
jerry
transport
mimi
sergei
award
##oid
##uits
##long
detect
creamy
highest
dharr
unreadable
cunt
kader
wincing
##rav
twinge
quickened
optim
assistance
tendr
hooking
leisure
banc
##born
void
sentiment
judson
telephone
relentless
gordon
bancroft
og
##oration
##unning
unders
document
sophisticated
rans
##fight
tracked
regrets
ruled
battles
finest
permit
cells
pops
harmless
calend
insistent
lurking
baxter
##inable
manor
benefits
suffoc
cracks
sincerity
baya
glittered
groceries
fits
peel
##gor
types
traged
throb
straighten
increase
evangeline
environment
diet
##oked
chunk
##ulty
hallow
groups
stairwell
apologetic
sapphire
kaderin
dot
##wayne
curses
##innie
massaging
chatter
tailored
ninety
spiked
clerk
od
piv
vital
united
paragon
forgiven
valuable
commanding
squeaked
hammering
beaming
##gger
deepest
douche
defenses
##headed
addressed
mischie
tentative
elderly
vomit
luxurious
buddies
faz
conflict
fatig
exaggerated
mischievous
ixt
redd
truthfully
gene
boobs
suspicions
limousine
##oma
firing
sketch
sweetest
doubled
supposedly
advised
erra
ridiculously
irresistible
arizona
ixtab
bears
stim
chis
downright
brass
##avi
relig
healer
produced
sevasty
laurelyn
hush
oll
pins
lew
looming
twirled
commission
devlin
antique
straddled
resentment
resources
sevastyan
ak
zomb
gladly
dancers
blindly
purposely
##uster
compelled
fireworks
clubs
streamed
retrieved
octav
niece
undid
virginity
portrait
filed
##cons
##tos
##acting
clicking
##rup
burger
springs
##maker
rect
outcome
enh
bottoms
exhib
ravyn
viktis
##ombs
seeped
shrugging
shayne
divorced
british
priority
veronica
giselle
##uished
haunt
resur
##amping
crazed
limb
masc
adjusting
alternative
insulted
bure
cater
allison
neverthe
shotgun
capital
legion
risked
transformed
murderer
concluded
rental
citiz
sydney
nevertheless
oath
##etry
involunt
agreeing
scrap
hurrying
tattooed
reverse
wrenching
spanish
pelvis
steaming
helplessly
acceptable
slippery
octavia
hound
bever
prem
pean
suppressed
pointless
lugg
puddle
worthless
orgasms
proceeded
##nes
spart
disor
##mob
devoted
bodice
label
churning
luggage
data
fbi
##imeter
needles
advert
dimit
lyric
ominous
mam
##girl
##anks
##oops
outright
conviction
pupp
communication
manhatt
##inges
cane
claims
hyper
script
clinic
fazire
dent
##umer
mouthful
coup
scrape
additional
tens
clu
becca
supper
engulf
ashli
measured
rescued
contrad
novak
hust
bland
expose
sawyer
colour
rosalind
jell
##rum
hayes
fries
##rap
marking
brett
infin
trips
amazingly
boundaries
accounts
rodeo
comprehend
kal
lus
##veling
scale
marabeth
##ivers
counse
##zzling
briefcase
innocently
psycho
audible
romeo
knotted
borrowed
assassin
fletcher
bunk
vase
inquis
##aston
trim
swig
wax
refres
depressed
hideous
drugged
blinds
fields
chicks
astonishment
inherit
manhattan
bucked
troll
chilly
newest
restroom
excru
calves
harrison
rounds
confrontation
nan
puck
rumbling
stink
##irable
sully
##inkles
flour
petals
motionless
remotely
celestra
excruciating
dud
union
kindly
vibe
acceler
effectively
jae
indicate
reactions
clarity
wisdom
graduation
##irm
aback
draining
submit
sickness
dimly
ultimately
corpse
revelation
##utes
##ablo
samson
widow
erica
intimately
flooding
establish
ross
mothers
##cedes
heavier
troubles
salty
advance
locate
impossibly
excitedly
tickling
mixing
extraordinary
render
brina
exhilar
eliza
tingles
villa
slower
##ggs
moron
tourists
mesmerized
mouse
vaugh
zar
chills
exter
##uming
mocked
twists
##ocr
irr
angeles
attending
plunging
disagree
##urb
workout
reverber
florida
shadowhunters
bianka
persephone
##ician
outward
simpl
county
cupboard
expectantly
contacts
dimple
succumb
radiating
reference
plunge
abbess
calendar
tide
##kno
loomed
contrib
determine
jammed
organized
winks
loser
tantal
unzipped
dane
lashed
rac
lec
##ista
stupidity
kicks
teenagers
budge
promptly
hind
doorkno
acts
console
highlight
emptiness
blankly
##going
vibrator
anxiously
shriek
disapproval
##idian
yearning
darkly
holden
braid
brightened
crowds
paths
latter
amongst
tennis
gypsy
nude
crimes
recru
lowers
croaked
independent
dimitri
oly
zipped
reson
pasta
ledge
interfere
paranoid
ic
asse
crave
colorado
millions
divine
murdoch
taunted
grill
peach
tragedy
jaelyn
rented
##ugged
tequ
smar
brat
cramped
reassurance
shatter
momma
uncover
crosses
unden
savored
nurs
communicate
bern
cem
##linn
thumped
thumping
anonym
indec
cudd
splin
jaylinn
kassie
##ffe
##ja
##asive
##rol
##estic
slashed
quilt
##atedly
talents
connecting
texting
documents
degrees
##iques
chiseled
15
##hole
upt
altered
scaring
snaked
assail
importantly
battling
diesel
reunion
olymp
tequila
bail
sock
chart
alison
underc
grandchild
generation
alicia
thief
envision
sickening
trails
ariyal
blinks
scheme
pairs
vinnie
##orters
##ela
forcefully
devastated
12
##corn
##bird
traces
workers
purr
ecl
contrary
deliberate
viktor
ip
##rice
prox
addy
punishing
candid
inhale
stallion
cradle
dispos
ushered
therapist
doorknob
fetch
jed
relative
awoke
condem
modest
flavor
accurate
navel
##ga
##tr
clark
devina
stupidly
advanced
beams
##cr
##pent
cringe
earning
smallest
evapor
ideal
exhale
splash
roxy
volunteered
beers
resignation
ordering
providing
girlfriends
technology
descend
patterns
pixy
gruffly
luscious
##sen
shak
coord
attent
bouquet
keith
infer
clothed
squeezes
apologizing
hoarsely
bobbed
slicing
grudging
##ortion
willed
elves
depending
sternly
temporarily
enveloped
##fic
knit
visits
studies
disappoint
finnie
scrambling
vegetables
nursery
dub
goat
alle
gettin
##oses
patrons
destined
bandage
popcorn
trickled
western
gnaw
jeez
##yers
##iner
webs
nev
performed
corr
classroom
morgana
facade
afterwards
absorb
container
weeping
dungeon
sane
livie
cancel
starved
applic
angles
tying
glitter
caitlin
tro
wither
bled
##aneous
invaded
blend
risks
politics
grandpa
semes
tablet
elevators
companies
saintcrow
inherited
bureau
lull
tipping
##iche
##anter
noir
bridget
slanted
management
enticing
belongings
massaged
squeak
lyd
ivory
##ensively
explored
wins
agrees
blinded
donov
princip
writhed
investigator
shrink
hysterical
smoldering
##osity
hitch
capacity
reverend
loneliness
aggrav
austin
iced
##ii
##kind
thia
deliciously
licks
transferred
##ani
hangs
husk
scholar
ollie
mascara
fathom
##stage
rosa
tran
spoil
darn
sharpened
balanced
diving
frequently
unfast
printed
irony
boxer
spreads
hooded
kaylee
pursue
nois
grated
harpy
ouch
stephanie
cert
linc
vial
##vant
flora
idi
judd
opera
eternal
aiming
russell
aur
fuss
##uge
##imity
coiled
craz
wraith
##play
sensible
picturing
torin
kyrie
torturing
donovan
gaston
topped
##enna
##storm
shaw
arts
mercil
mortals
virginia
jayne
frigid
bewildered
merciless
##ethe
outta
##urned
##igning
swings
heartache
visitor
bossy
rowan
##burst
bened
##ingly
unfor
plac
twe
thinkin
steered
duff
mortain
rebu
librarian
contemplated
mirrored
scarcely
sandwiches
dna
spont
crist
monkey
countertop
restaurants
bryson
sacred
rehears
stacks
deed
snack
careless
blackmail
yells
pearls
holidays
fooled
gaining
lacked
##nn
##gon
##enance
##urg
boiling
flops
caref
strongest
mckenzie
negle
lazily
crisis
cornered
rene
topp
legged
poster
beatrice
weakened
nico
sinks
cabinets
kidnapping
overlooking
baffled
tah
vag
whined
##roc
plag
bruce
que
nibbling
balled
fuel
established
anchor
melody
handcuff
sultry
twenties
cri
erud
chast
smeared
dew
##wny
warmer
responsibilities
rebell
rays
critical
##asher
mead
##roe
brides
supported
raf
halluc
idly
romain
siren
##rical
unmo
active
reflect
robin
embraced
leaping
unlock
suspended
erudite
ticking
vile
tod
##itable
##ulent
coin
trunks
scents
glen
wavered
skilled
minister
monica
despised
gerald
venture
dough
unste
asses
relatives
##cede
info
grandson
reinfor
agonizing
dense
##etery
##angled
realised
harness
commands
investigate
archit
departure
paddle
mobile
encouragement
cunning
kiz
tinted
##erving
carries
barking
evie
winds
panther
unfolded
squeal
referred
rewarded
forefinger
cemetery
unsteady
taunt
seared
gravity
##ormal
rests
treacher
muster
planes
warmly
histor
depended
hmmm
exploding
erupt
haunting
brent
seraph
sixth
speeding
nymph
restrained
recovery
disorient
disgr
typed
patron
checks
heights
bulge
cafeter
architect
kizira
##asbeth
standards
jackass
defl
sunr
ellasbeth
obsidian
nursing
wyoming
snickered
semester
##ua
##bid
deke
wavy
saliv
nervousness
cheerfully
stammered
races
##nan
##mic
##jad
andar
rey
theresa
amjad
darkening
mornings
insight
palp
unfold
objects
tomato
hammered
tucker
ingrid
cafeteria
numer
tet
##ciously
##tale
dose
##izer
hearth
tread
incon
barefoot
collins
centered
rainbow
difficulty
unwanted
flawless
administr
rehab
dewayne
carlo
##moil
softening
conserv
conditions
separating
declaration
turmoil
praise
bronze
carefree
cum
hazy
whirling
abig
leigh
bless
##uliar
##pses
distaste
discip
gracefully
valerie
peculiar
dougal
unnecessary
arian
daw
ves
##arazz
##urous
lillian
shards
firsthand
clapping
paparazz
commander
development
shimmered
intimidated
illuminated
lantern
valet
vice
zo
##mering
##tly
##inations
sheen
##stal
boomed
flown
blackness
parlor
tugs
stabbing
rotten
abigail
rank
expense
toned
actor
swallows
dominant
consideration
hostage
dismay
churned
unbelievably
##encies
fus
rejo
neon
clave
darkest
meets
guarding
ribbons
goof
stere
##riers
blooded
emptied
favors
responds
inhaling
tormented
basketball
tiptoes
rival
sated
##nut
##reen
##icity
##amon
sple
dislike
compart
morrie
recl
understands
presley
importance
lawyers
delicately
produce
dodge
coughing
pors
##alia
##atement
slay
drakk
murmuring
affairs
illness
discovery
contentment
vehicles
sculpted
20
hic
sailing
tales
tightens
obt
futile
cellar
latch
boarding
statues
##leness
##inished
heeled
##icit
clas
lookin
policy
recovering
bands
paparazzi
cir
rides
haven
##ctic
##rossed
impending
denny
opponent
settles
machines
epic
clementine
ransom
peeling
seeping
nora
bowls
gingerly
astonished
bin
##gthe
carr
retired
lays
karissa
mingled
halloween
cinn
ebon
tidy
ster
copper
monroe
sneer
contemplating
briggs
ralphie
gil
perpet
decad
##rence
supporting
davis
transition
prisoners
reassured
averted
benjy
disconnected
porsche
boil
evenly
twinkling
mund
mercedes
drying
katrina
maintained
episode
leveled
raine
population
smirks
clawing
rowdy
rattle
manipulate
emphasis
vaughn
bak
##zil
debr
poke
strick
approved
loosely
brynna
humiliating
hawk
eclip
proximity
underest
naomi
booked
glares
weighing
hilarious
lash
lamps
mun
pall
rumpled
handw
swirl
metall
##phic
furrow
rippling
philos
confirmation
chor
tons
worker
kristen
washington
sirens
avenue
confronted
cinnamon
inse
unse
scoop
reporters
charms
harris
sweats
vanilla
dramatically
shadowhunter
smarter
##uation
rely
moral
jeweled
chandel
telepath
scandal
jand
jap
mated
##cut
##icism
thanking
steer
airpl
##nox
silvery
costs
lacking
supreme
irrational
splend
jandj
kacey
##vable
unra
caller
##mented
keeper
mush
entryway
mau
slash
peripher
sorted
jerks
encl
angela
##ervations
shyly
proposition
aye
ding
gret
seer
brakes
danie
nonethe
swipe
leonora
athlet
nonetheless
spied
sket
laurel
madly
irises
warden
humiliated
rattling
khak
incapable
renewed
japan
baked
deer
impass
sexiest
ruffled
corb
excused
definition
heavenly
drakkar
indign
positively
radar
reluctance
smacking
planting
##dream
##imated
eyrien
brook
manif
cance
skidded
understatement
ignition
valid
shuffling
presentation
meaningful
michaela
concealed
assemb
ew
##front
heed
downed
flaring
turner
mindless
crappy
lifeless
attendant
tilts
##jack
stilet
chilling
rogue
composed
fingered
cattle
scares
smithie
babysit
spartan
eag
ooo
pac
yield
##eck
unnatural
matches
aph
powerless
ignited
engage
ellen
booze
unnerving
peanut
bile
mm
##lit
resume
incom
calf
medall
defending
dissolved
raspy
wistful
elf
##bra
andul
elite
collaps
blindfold
bulk
wiz
asa
conceded
differences
region
risking
princes
dipl
indulg
pipe
recommend
hottest
andulvar
##irls
goods
armchair
clears
vanity
bursts
prophe
eagerness
sheepish
fain
##bar
##rived
roamed
roaming
chem
watered
fey
addiction
coolly
trickle
daniela
aphrod
pumps
tumble
##por
reared
overpower
compelling
chinese
disappearance
proposed
bulging
empire
umb
##ypher
rearr
alli
daydream
reacting
stuffing
doubtful
dimmed
dips
ely
miam
outfits
pond
grazing
patrol
slams
##ambers
propose
rabbit
blatant
duffel
miami
nand
hek
rol
##ousy
##quo
halls
undress
vera
puls
frustrating
macon
electron
international
threads
maneuver
sculpt
numerous
dotted
jc
spaces
pla
howled
tristran
facial
executive
ferg
##arn
beads
myles
athe
##amic
spared
cope
attire
obnox
devotion
presum
bunched
celebrating
sincerely
gum
lance
roast
arlene
marvel
belatedly
instance
coursing
charging
musical
##ricted
addicted
draws
norma
jaws
pinching
tinged
vacant
wrench
battled
steely
freckles
##gher
enraged
tightness
neckline
terry
chapel
provoc
dragons
stalker
majority
luxen
scotland
fergus
cec
listed
raining
zander
plaid
untouched
nailed
stretches
keyboard
blurry
wept
sauc
handker
spins
quicker
rugged
highness
##derick
yelped
strictly
unpred
stockings
handkerchief
##oster
sul
pric
bubbled
uneven
sucker
wickedly
acquired
unpredict
wrought
##pants
curs
vika
carolina
bonus
maze
##adian
outburst
##ptic
##ocused
largest
sights
casimir
sprinted
nicer
reflex
clouded
eaves
tous
vain
signing
efficient
discovering
sniffing
bubbling
corporate
daze
hag
clive
blaming
slicked
prodded
betting
bloods
probing
parade
##losed
collided
brav
undressed
suitable
bowling
gregor
lecie
sunrise
mig
##nin
##sten
uncl
widely
petty
freshman
cruelt
ripe
withdra
district
dak
ashes
dol
sobered
ley
intr
##ulting
howl
##ouses
marissa
strung
breathy
daxton
cuddled
flattered
seduced
delightful
compromise
horrific
jalal
kurt
##itution
##istine
##apt
scab
immob
serene
horribly
smirking
platter
skeptical
tendrils
cc
teet
##phil
suppress
previously
robes
flexing
skimming
metallic
roo
##nde
drip
drapes
##prints
barriers
businessman
witnesses
pouted
scrunched
priceless
xypher
##pret
##ours
creaked
boyfriends
july
purposefully
wheeled
strangle
implied
slippers
rueful
circe
kerm
mick
maker
##arus
stuttered
##oped
decipher
waterfall
stripper
chatted
retreating
insulting
ranc
##hail
##pany
##isse
sew
trotted
##ucky
##berries
detached
tosses
pissing
dangled
selected
lynn
stricken
kermilla
dianna
refusal
ceo
spiral
accompany
projects
stifle
mikhail
compartment
##belt
ansel
notor
##ptions
disin
reduced
effic
alexander
admon
ingred
unleashed
dusk
fatigue
cath
dary
##iders
alarming
maya
decides
infant
hungrily
attacks
brooding
##tling
trisha
hardwood
##ucted
shovel
baring
madame
practicing
rapt
arguments
econ
budget
regularly
primitive
german
##uber
havin
upcoming
pretern
gloved
mature
consume
terse
uncom
apartments
penn
sidel
ripple
teachers
resembled
preternat
##umm
flies
freeing
subcons
disappears
lawson
misc
contracts
heightened
clarified
involvement
paws
delect
kiersten
cruelty
daryl
##overs
quad
momentum
regained
mortified
celina
debate
hurriedly
applause
indulge
apprehension
benedict
medallion
14
##sis
##inum
stitches
spank
contented
##ibble
consult
squinting
savannah
porcel
initially
lodged
haidar
ridden
##inqu
habits
##essions
wayne
excess
alexa
posted
turkey
designs
conceal
hayden
medication
leisurely
bidding
nephil
comin
margie
##bbles
tavern
donna
employer
shrill
pajama
astrid
molten
porcelain
cate
##eenth
##rance
stored
agitation
smear
trance
##ichi
embro
unbuck
opportun
tourist
cadeon
dyn
##mpt
rosy
causes
diso
##aila
katy
ambrose
laila
##bella
##fr
chores
retal
childish
lucia
paige
cheekbone
bellowed
circus
##uctions
transformation
lam
tainted
unpre
manuel
canop
sayin
prolong
businesses
polish
gabby
snarling
devilish
crouch
penetrated
alterants
##ek
carm
snakes
deter
alexion
scratches
cereal
authorities
explosive
strateg
ferocity
bumping
ome
yo
##say
stamped
bonded
##achlan
phill
interven
entit
hesitating
opposed
resolved
nicolai
maximus
artifacts
interrogation
accommodate
nephilim
##vol
##jecting
stunt
##amel
neomi
chambers
sporting
breh
smoky
thicker
experiences
boats
enthusiastic
dodged
salem
maneuvered
granddaughter
corrine
glenn
bloodl
delir
honored
comfortably
gestures
intricate
dots
jag
##onic
beaded
##igible
meanwhile
depressing
magnet
shielded
oblivion
dazzling
##lest
##urable
soak
##ilia
theme
plaster
righte
seatbelt
senseless
juices
poisoned
wyatt
devoured
intruder
lydia
cack
##ndo
watery
captiv
diandra
predic
network
scorching
coaxed
industry
ginny
dawson
unpredictable
dusted
##lli
shapes
##alls
##oret
remn
baggage
investment
inspired
linus
sneakers
cigarettes
zarah
piles
vines
##edy
##ndan
weaving
##agn
newf
relish
homecoming
badge
hotels
closeness
##ceptive
dealer
genetic
effortlessly
vibration
pavel
thirsty
chorus
mast
elias
typing
trek
encirc
epil
##tti
grunts
##roken
abne
##ulted
dayton
##osis
##phor
unwel
predatory
inspect
convenience
pronounced
indifferent
erratic
abnegation
rith
##engers
##state
orche
slaps
cany
pristine
enterpr
vicinity
squirming
mythos
vigor
essentially
delectable
gifted
thad
shark
gram
serum
awfully
hostile
extending
manicured
epilogue
##atah
shap
sputtered
roger
unhe
consort
indian
##inches
gentleness
milo
bruno
buffy
puffy
incredulously
haidee
trauma
17
##hou
##list
##inis
shave
abused
hoc
girly
edna
straighter
##scent
tripping
lesser
ruler
gloria
hekatah
austr
rimmed
##uously
glinted
behaved
silhou
jawline
##artha
bethy
scoot
urgently
miserably
ters
##yah
##onies
spew
twirling
assessing
##owering
submission
thickly
situated
motives
lovingly
falon
turquo
turquoise
eu
rice
##cat
##pit
##hele
nehele
rover
pricked
fox
morris
trapping
cape
##rieve
resisting
debated
spitting
bianca
handcuffs
newfound
cities
es
mull
mumble
martha
sass
tid
##drop
chop
spicy
roc
quer
grie
jeopard
donny
subjects
cherished
hoodie
brewing
briskly
seething
fib
##ups
overfl
sliver
twil
guid
opted
skipping
tryin
morg
##itcher
exclaim
breakup
defle
bloom
celebrity
subdued
jelly
falonar
corm
cove
plague
cann
graze
##oya
protocol
arrives
computers
##ential
alleg
##teenth
angrier
reflecting
rhys
barker
culture
brittany
andrus
##aculous
libby
overre
trimmed
wailed
wonders
waits
cram
deepening
miraculous
purposes
##anteed
triggered
guaranteed
motherfucker
atlanta
tranqu
kilt
pried
beel
whine
deity
poppy
crut
speakers
signaled
idle
lounging
wiggle
tackle
tantalizing
13
june
lum
rained
tiles
##hift
##gated
##atched
wrinkles
coursed
pleasantly
makeshift
solved
adamant
debating
hissing
spying
##ipe
elaine
appra
tragic
##plic
annivers
strewn
tuxed
diary
gowns
sinister
aggression
dedicated
shakily
twilight
dill
fates
beans
##section
colder
spotlight
obsess
tangling
production
predicted
execution
leverage
palpable
##eur
frat
slumber
gritting
cheers
dishe
assaulted
consent
collecting
strikes
geary
louisiana
takin
##othed
solic
hunk
recons
income
submiss
mentioning
melinda
coats
caresses
successfully
surrendered
overlooked
ornate
meadow
baking
raking
tame
vet
grump
littered
perimeter
pantry
crackling
stubbornly
astonishing
dizziness
##nap
##bes
mustang
paran
shirtless
pats
demonic
viking
miller
relieve
eb
##riting
sciss
goth
carnal
appalled
clitor
prophecy
dv
##dro
intu
clap
swooped
nighting
lighten
pains
interv
knocks
halting
haught
##irsty
associated
tactics
instrument
puckered
bowing
rees
##ifting
cheering
mags
patients
winston
torch
darice
packet
##coat
bloomed
martini
abbot
ruefully
uncontrollably
clueless
tersa
samp
wakes
##gantly
shoo
fry
soil
quin
tris
glinting
switching
crumbling
playboy
replacing
trucks
microw
laden
bunny
##iuml
opinions
pedest
corbin
obnoxious
##olly
overr
collective
punches
dena
definite
forceful
assumption
transf
mcbr
hauling
scruff
philip
jabbed
eclipse
tousled
stash
suave
bonds
propping
proced
perver
##umbered
easiest
harmed
billie
curtly
remarkable
volunteer
expanded
kinky
beverly
idiots
nandiuml
##itious
twinkle
caramel
##shy
throaty
burnt
##odes
splitting
conclusions
exhausting
sorceress
ot
pitcher
theat
alight
##ptuous
laurent
adela
apples
quieted
inserted
releases
issued
murders
##ova
imprisoned
pivoted
##frame
inability
##illance
intake
flaming
everyday
stillness
freezer
singer
bastian
revulsion
compete
surveillance
##ogany
mahogany
inconven
cormel
nightingale
30
raged
unrel
dex
afric
chess
harv
jersey
striped
thinned
courtney
hedge
alyssa
immortality
graduate
increasingly
auburn
decadent
wizard
lamb
goals
coherent
boiled
boards
##ilyn
elena
couches
draft
understandable
dreamy
mute
formid
garment
cease
integr
compliments
swearing
fueled
righteous
jak
##hill
shrew
scold
simmering
bush
defiance
readily
harb
struggles
tremors
deafening
ons
prone
drople
thrum
mira
creased
arousing
staggering
tiptoe
##rella
shhh
flann
embed
sprung
medb
savitar
steadying
dreaded
anonymous
bass
mit
pooled
sins
whee
slits
scour
##onda
humid
observation
thundered
swiveled
eer
hul
##life
lect
##ember
caves
bitches
depression
vanessa
masters
fatal
entertained
forbid
accusations
isolated
exterior
mundane
anniversary
hike
##eem
alf
##olic
serial
monitors
marker
boost
##grown
intriguing
wrestling
undoing
paralyzed
boulder
uneasily
kizzy
sample
wits
##bub
##agues
deft
coma
##proof
deals
detailed
##zebub
nipping
streaks
escapes
countenance
motioning
dishw
coaxing
grudgingly
diplom
beelzebub
unsc
sept
flips
voicemail
impr
commotion
##lets
treats
buttoned
mandy
wriggled
outdoor
legitimate
rehearsal
unmoving
formidable
jakob
fished
yach
frail
##rying
realizes
installed
sweeter
defensively
risen
towers
enclosed
flicks
suggestions
bryce
antony
jefferson
suitcases
peck
penetrating
novels
paranormal
lain
##uate
##cra
##adors
weed
handbag
bobbing
slope
##olation
applying
drac
boyish
geoff
album
bakery
fumbling
haste
nip
##abouts
rooted
arie
pod
##ampered
hallways
tux
gutt
bradley
solely
blissful
alterant
resembl
reconc
mcbride
##ught
clou
pris
relinqu
coffin
tangible
precision
glowered
bangs
ooh
spons
offs
harden
reservations
thrilling
stiffen
betraying
supportive
funds
shielding
fiber
sloppy
pledge
acquaintance
cripp
preternatural
clitoris
resemblance
bil
lung
sis
cluster
evenings
hopping
wedged
wipes
sufficient
juicy
sidest
scenery
inexplic
heartbreak
principal
vint
##uating
blues
tremend
reasoning
harbor
digger
typically
clipboard
microphone
plummet
lewis
zombie
bly
gurg
pots
taps
wires
posed
muddy
momentary
mirth
streams
chaise
intentionally
hawai
devouring
outrageous
chalk
##sively
toyed
stel
asc
forged
shaun
##ulative
ard
aches
cheered
##issance
eval
freaky
walkway
winner
danielle
mistaking
##rington
swims
beckoned
shredded
albe
##unction
worsh
smal
cans
##ggie
plead
##phones
deton
pools
anticipating
models
drums
claudine
replacement
undeniable
evaporated
disheveled
albeit
fiction
lis
lousy
##zied
##urdy
byp
vend
##resses
samuel
natured
gratefully
scrub
awaited
pirate
refreshing
canyon
emails
footing
syll
temps
guardians
passionately
harte
scoff
fanned
rustling
bluntly
gigantic
debris
kiev
nun
zak
##tens
tomas
youre
shroud
##ilton
chau
boone
bonding
secl
repul
coloring
viewed
crackled
mickey
electrical
inhab
##ivalent
karla
pursuit
privilege
filing
##avering
##fting
##gill
##ington
##acc
blister
voy
stosh
babbling
preparation
echoes
affectionate
unconsciously
buffet
calculating
mexican
opportunities
geez
pans
##war
doomed
shre
##abas
##andshy
hairy
cranky
interpret
ruins
rae
puffed
sprout
delivering
insisting
ventured
disagre
mish
##word
##woman
##iden
convert
unaff
scolded
##izable
salute
purely
wilson
awaiting
plagued
dakota
microwave
flannel
tys
trop
inject
prosec
##ruary
retort
quieter
define
devoid
rider
kyrin
february
severely
coyote
aristocr
blaed
adept
##inals
##oooo
##iry
clues
offensive
##bbery
sensit
payback
protector
wilder
solin
julianna
mystics
emphatically
associate
beeped
ducking
fooling
hiring
jame
pelt
bem
fract
isma
exert
scree
watering
perple
repay
evans
jackie
magically
protru
indie
severed
dania
gunshot
risky
separation
murderous
obliged
newspapers
mingling
lodge
infuriated
ariana
eerily
jamey
ismae
banter
##iations
tricked
reads
harp
classy
franklin
nuzzling
inspection
candlelight
cupcakes
andarion
canopy
gambling
nibble
##acking
betty
##ucks
runway
medichi
sweatpants
protests
darts
kenton
cupcake
##ede
mels
allerg
slaughter
scales
womb
##quate
corset
factor
greasy
extrav
stalk
pitiful
restraining
tissues
caffe
update
tensing
athletic
sardon
##ener
##veport
warlock
curvy
greatly
infected
schools
teams
tuned
gloom
hooks
transparent
airplane
shreveport
dome
fert
whiff
tramp
twined
##athon
wariness
assurance
triangle
protectively
packs
cocks
grimacing
surviving
generations
banished
faithful
priestess
comforted
adalynn
huskily
guttural
winking
##fact
##keep
soared
wanton
seating
cald
charmed
weaker
mischief
condes
frighten
beasts
rotting
entitled
blythe
lud
sturdy
##stream
##agar
assets
attach
homemade
stocked
kidnap
##inces
expectation
##ribution
gracious
beige
stut
compulsion
hunch
entwined
erased
scramble
paired
respectable
recalling
rammed
##pleasure
mourn
minimum
unconcer
shameless
merlotte
engulfed
euphor
dishwasher
24
gps
wasnt
maniac
scald
containing
surging
heartb
cran
horde
honed
strolling
pays
meds
filtered
martine
ceri
triumphant
riveted
handwriting
##paper
sailed
nove
##ulars
coating
bedding
##oln
grape
apolly
tablo
materialized
glimpsed
disoriented
tether
submissive
unaffected
hass
kip
pumm
##oner
slate
swamp
displeasure
phant
curry
wonderfully
menace
clearer
breakdown
passengers
pawn
duh
nudging
spanking
links
bicep
prying
ingredients
##hound
reserve
drill
shoves
minus
invasion
battery
extend
sprawling
inquired
mourning
plotting
smothered
unwelcome
##win
##eeps
howling
hardening
##bbly
crumb
privately
cruc
vintage
kidd
rak
##table
##alt
##rix
flur
jost
resident
silenced
triple
##ference
chattering
interruption
gauge
columns
lincoln
exting
trudged
hurled
edgy
samil
lunatic
blended
repeats
encomp
divided
tricky
cycle
16
caged
makin
##iors
##itating
##ays
##chamber
brid
##ffles
whereabouts
nightcl
marching
##quin
elements
harper
##bridge
cooling
titan
primary
steadied
beaumont
scrutiny
subsided
remnants
apollymi
sings
tummy
##ras
##fle
##tub
##heen
arena
manly
marred
delph
jendan
deput
majesty
disbelieving
stifling
embroid
predicament
zanes
halo
spas
plug
##thor
supple
insists
motive
reversed
sacrificed
atlas
impulsive
scurried
##leton
##ersed
##umsy
deception
warrant
##ixed
closure
fours
grounded
bathtub
husbands
thornt
rhonda
emerge
enthr
spectacle
wisely
smugly
manipulated
biker
consciously
conservative
tuxedo
november
bake
ein
fret
hut
hinges
sce
via
vault
##kill
haley
stating
alix
skies
jogging
##berg
tribe
native
formula
prevented
contemplate
selection
arrows
nonchalant
tiniest
havoc
umbrella
bour
mint
clumsy
loathing
robbed
shouldered
wafted
breach
##pring
roller
subtly
enjoyment
tickle
frenzied
nudge
greedily
dow
##ya
combed
heartless
interjected
watchful
##boat
daric
december
disconcer
unnot
vocal
screech
thornton
bombs
egy
##cee
##amy
allen
##opath
peas
##tegr
actors
drags
delusion
lucius
saroya
wheelchair
honorable
washcloth
seventh
represented
tatiana
vagina
egypt
feline
wagon
##orie
##amous
desirable
elastic
server
collars
stomping
recognizing
dominance
performing
dorian
website
cristina
mumbling
acres
scrolled
##ounding
doorframe
##cts
##anche
reprieve
natasha
solitude
sarila
acknowledging
housed
immortals
ferocious
emanating
categ
dillon
bully
tiled
aloof
spice
downwor
coal
scored
##asso
skir
beladors
chester
restlessly
intercom
glassy
burke
bothers
sandra
declined
sidra
improved
goog
deposited
essential
disintegr
embedded
hasty
wretched
##books
yourselves
unint
edging
experiments
renov
weston
##miah
jeremiah
thirties
powell
floral
alaska
hinted
##vial
ships
anita
abund
chore
whereas
stoic
shuts
signals
crude
spiraling
radj
penetrate
miniature
persuade
sizzling
vessel
sessions
inad
stale
orde
##istics
traded
mari
runes
interl
barren
##ologist
norther
truce
unwra
hostility
##handed
sheepishly
lani
misunderstanding
glamour
dudley
scholarship
guidance
kings
nub
rake
rushes
##tie
##rium
loaf
offend
sling
wail
sexier
shaheen
sergeant
toddler
infuriating
yas
##arations
##escri
herit
shira
##illes
awed
syring
circuit
radiant
styxx
wiggling
fiddled
kinc
tir
##held
stakes
##alling
##riages
lob
teens
plucking
aroma
woven
pleasing
braver
##bod
regretting
surviv
considerable
decorating
clarisse
appoint
anchored
stainless
tash
herd
##itary
beale
itch
spacious
grieving
glimmer
prog
paramed
pretense
refr
palmed
##lands
clenches
##hetically
writer
snatching
explanations
pondered
slithered
kincaid
##erting
looped
moss
wayde
jog
adore
interact
parall
stomp
feigned
favour
constru
persisted
bolts
tropical
dumping
jing
lup
nig
##store
##antial
outraged
noses
clattered
breathes
##vested
invading
decidedly
challenges
produc
salvage
bubba
executed
products
grandchildren
bows
##oons
##ilah
alliance
polly
twig
error
portia
vibrate
sensuality
pursuing
janice
melod
rinsed
suffocating
treacherous
northern
##fol
sheathed
itching
slices
disli
untied
##neys
sharper
flattering
fools
rena
equivalent
sedan
tempered
maintaining
wrecked
conjured
acutely
noisy
saliva
heritage
reign
isla
cod
arches
sweeps
expressed
cargo
salary
reveled
globe
unusually
toothbrush
piped
##gthened
subconscious
extravag
unconcerned
unnoticed
sash
tula
##fish
##isher
stacey
doom
lease
descent
resolute
crumble
accuse
##iency
ballet
garlic
cooled
potentially
interviews
frequent
distrust
uncovered
crib
dances
##eav
##ensed
##stered
willpower
hairline
endeav
bugs
skinned
charco
shadowy
kittens
restrain
glistened
fidgeted
solemnly
fame
##rate
##sters
booted
quizz
grunting
restored
trez
indo
brazil
maiden
unreason
unnerved
disrespect
nightclub
inadvert
renaissance
jigg
##mie
##encing
unpack
##oping
mugs
madele
insign
imaginary
footman
wedd
articles
fitz
faerie
involving
blooming
joshua
precar
automatic
brittle
chandelier
yacht
bible
kale
mounting
couldnt
mole
arse
snee
thrashing
seducing
scraw
meaningless
##etta
whistling
omort
dismissive
remarkably
odor
uri
toll
bends
stoop
nearing
clatter
overgrown
unchar
despise
bounded
maryse
ecstatic
biological
unleash
korbie
underside
involuntarily
pi
##mind
##tails
##yss
##atch
pert
phase
dryer
flights
goddammit
steward
pixie
scorched
spikes
queensland
indifference
ignorant
conspiracy
lyrics
bj
##kirt
##omen
abyss
slaver
willow
confided
##hens
elbowed
philosop
hans
##icious
##aders
chr
alist
spong
slaught
wavering
decre
reader
appearances
profit
attacker
camping
rumy
quarrel
qualified
sullen
mercen
emphasized
european
braydon
blaize
slurred
overpowering
##thorne
madeleine
alistair
sect
##stru
shimmer
seein
##icker
hose
wordlessly
endings
morphed
mikey
succession
investigating
kaiden
ramsey
marketing
insults
aliens
##weight
leonard
reappeared
unsettling
flurry
bm
gushed
nagging
itched
grudge
crinkled
indiana
splashing
propri
dismissing
molded
inheritance
disobe
shapesh
adelaide
caffeine
nigel
rats
##hake
##oys
##cor
##las
myri
bred
pros
foil
rune
confines
brock
promotion
solie
surfaced
introduction
employed
cigar
corridors
industri
discipline
charcoal
iam
stad
myk
noct
overse
manhood
expelled
wobbly
marathon
kindred
drivers
eleph
devin
iris
seriousness
bask
precaut
vacu
greece
knights
barbara
calculated
assessment
ordeal
cee
chi
convey
flitted
twinkled
expenses
matern
homeless
interaction
consisted
eastern
regal
branded
bathe
cooed
wearily
familiarity
conditioning
bricks
boldly
unreal
##kan
##eria
hare
static
##stool
whips
##urities
##pert
drool
rais
delores
leaked
leanne
merch
creation
awkwardness
furnishing
measures
sparking
select
tactic
veronique
outlined
immensely
rebuild
heartbroken
mykolas
dup
##ottle
asph
goble
clara
sem
flirty
trot
crust
sleepily
refuses
refuge
throttle
smoked
sprayed
reveling
screens
persistent
travels
decklan
thundering
supplied
royalty
illuminating
ignorance
clasping
chemical
offspring
perplexed
stadium
fudge
sizes
##laught
##post
##atile
justify
blaring
moretti
perce
hurric
impec
##atern
domestic
solar
capturing
division
companions
loosening
montana
fauc
kneading
unseen
onslaught
wig
##iades
##eries
##atics
wasn
liver
flushing
expans
haircut
gibb
fathers
factly
recoiled
maask
vanish
admir
obligation
predictable
comfy
##ficial
uriah
maaskab
derm
hatt
sided
ugl
##mers
##tor
##ication
anew
worm
unimp
dearest
booming
grilled
taltos
runner
monit
winters
syrup
maids
constricted
cords
mackenna
brennan
independence
unstable
disregard
goofy
impecc
osc
##pa
##hement
inching
##uten
##ghan
vehement
compens
yearned
dinners
hints
identified
banks
wiser
shockingly
whimpering
bodyguards
reeve
virtually
vigil
mantel
collapsing
lanc
pounce
vert
overall
sput
happiest
resented
reprim
chests
firefight
insin
puke
##ussion
requires
bodily
equation
arranging
labored
recording
cooperate
ripples
##naturally
powered
scissors
bmw
asphalt
reprimand
paces
tails
thw
butcher
leaking
seas
righted
whiskers
delilah
towns
urges
views
crop
holster
scrubbing
absorbing
pumpkin
droplets
weddings
hattie
edden
oops
suther
exists
bridal
implying
foreplay
legacy
lengths
fortunate
suggests
necessity
descending
presumably
september
gash
wager
##imented
blan
glides
attrib
fearing
furry
nakedness
belonging
hiking
observe
qualities
laser
achieved
bourbon
pes
tul
##uting
##stood
##aden
butto
loses
remy
angered
brotherhood
distra
fuckin
selene
strips
favorites
creak
texture
spelled
viciously
insanely
displaying
technique
gears
dumbf
expanding
restraints
motivation
nab
phen
chu
aftersh
carving
lightwood
prominent
pleasurable
##lod
leslie
systems
derrick
pixies
minimal
reverberated
bemused
jug
ridd
taped
##obs
##amin
fraud
##illen
gosh
scooping
hears
defiant
infat
burrowed
##brid
balloon
valued
memorized
cardboard
distraught
bucking
bisc
dre
winged
meld
chided
enlight
##ifies
grain
grades
disney
angling
accented
hangover
secretive
legally
stormy
stalling
hamilton
outdoors
prescri
appointments
gape
mare
##mble
##iat
scorn
muffin
contorted
perme
##ceptible
dominated
platinum
militia
cataliades
farewell
japanese
gou
kater
lashing
##van
chanting
polo
secre
partying
ranks
fearful
lieuten
palmer
properties
suckled
indef
instructor
attendance
fragrance
dilated
dag
fern
urian
##ends
##mall
##0s
anal
marilyn
comprehen
assert
workin
preservation
climbs
verb
bitchy
complied
defended
copies
heartbeats
targets
caveman
suspects
lorrie
shreds
announcing
enforce
khaki
shapeshif
##11
invested
bead
whining
timid
popp
##ensions
killers
confidently
burgu
destruct
digs
##choly
ruling
tendency
melancholy
expertly
hawthorne
screeching
barreled
envisioned
certific
phantom
jaden
rau
##ba
stashed
stony
delayed
missy
burrow
footage
forgiving
##anya
showering
appreciative
midair
cruz
johnson
diagn
nathaniel
dreadful
insistence
crouching
brutally
pipes
fredrik
citizens
burgundy
eug
gagged
##ounder
##athe
##itations
##icorn
unru
unatt
manny
fewer
whisked
disting
stepmother
centre
##lana
dund
tormenting
expertise
##seeing
uncontrollable
impassive
grumpy
furnishings
25
lops
spook
peers
serves
##phs
catast
coldness
christine
eats
colleagues
receipt
unwavering
dreading
bulb
dismissal
abbi
channels
tackled
fulfilled
negotiate
celeste
disapproving
participate
inquisitor
rooft
ceecee
hou
##atious
##eters
wholly
securing
behaving
metaph
incor
distressed
misses
layton
inflicted
masked
ahold
mainten
fifties
kenzie
maddening
goodbyes
intimidate
faux
scrutin
counselor
lopsided
dat
racked
##yll
herb
plowed
flop
poin
imperson
charred
patches
rocket
extensive
enjoyable
##licting
angelic
speeds
recorded
stairway
strawberries
pouting
seductively
toothp
sundress
jemma
whoosh
undercover
uncharacter
dumbfounded
dime
pew
si
wagg
##mary
##stop
withstand
soaring
chunks
albert
##igo
newborn
sites
bloodied
trepid
##spons
indignation
directing
braw
weekly
specter
panicking
encased
locals
dimin
victorian
portland
dusting
sneaky
velkan
crystals
ensuring
boredom
alcove
seethed
enhanced
electronic
ebony
inadvertently
maintenance
bamb
##backs
##acters
unicorn
prints
holder
lotion
characters
poorly
diaper
emerging
recipe
bristled
moo
allies
spag
demo
roommates
margar
pepp
strut
wallace
grease
knowingly
packages
responses
vibrations
psychotic
introductions
dismissively
flirted
gregory
obediently
blatantly
inferno
bravado
category
trepidation
21
cakes
##hop
welling
wrung
counters
torches
stylish
disappointing
clutches
shaving
otherworld
distractedly
rhythmic
atlante
nonchalantly
brinker
tasks
splintered
gor
##ufact
##rr
smash
wobbled
crumbled
cranked
bugged
sorting
memorize
balancing
furthermore
williams
cordova
scottish
scelt
pets
sate
wad
##ober
##put
ther
chord
##ryn
slot
manufact
##icks
cheesy
doorman
reservation
godf
batted
##nold
cupboards
conduct
splattered
testoster
judged
volatile
strangest
cherie
shrank
weaknesses
irrele
unbuttoning
##achers
substance
catalog
cynical
secluded
spaghett
hides
tac
anasso
gover
poetry
##akers
armrest
bedchamber
conte
relations
girlie
acquainted
barnabas
ultra
##amental
distinctly
sizzled
instruments
complaints
rebellion
stereo
enterprises
testosterone
apt
kathy
nood
wired
##matic
##chi
dislod
sentences
sensuous
dolls
possessiveness
processing
macho
ghostly
banana
stealth
drummed
zayn
heartbreaking
tribun
retirement
deflated
geoffrey
nass
##dling
##erves
tomb
shady
##amine
flap
muff
induced
sympt
jerky
departed
faked
superst
numbness
rustle
prickled
enthusiastically
dashboard
mechanism
lassiter
prescott
errand
aphrodite
otto
parallel
ald
gild
yasm
##onia
afghan
reminis
hotshot
patter
colleen
bottled
wilde
instinctive
##impy
virus
sinful
criminals
hooves
felicity
skew
scribbled
civilized
ipod
neglected
hurricane
spaghetti
vas
stann
meek
flanked
##angular
snot
##ceding
benches
rosemary
filming
respectful
marshmall
adoration
##burg
october
discreetly
rendered
yasmin
stannett
##uity
saus
grumbling
afterm
interference
retribution
monique
devious
lapping
committ
obliter
january
kentucky
syringe
dermot
irrelevant
tattered
##iably
chaste
##onel
enig
bos
tellin
snark
criss
relented
intert
humble
##mitt
growth
antics
viewing
shares
feature
boarded
holland
chaam
napkins
carnival
dissipated
advertising
reneg
notorious
hockey
tribunal
aftermath
00
agh
rambling
##oly
##opp
##oqu
##wise
##archy
##ilized
desider
perch
remembers
braided
punk
millenn
squarely
uncertainly
sylvie
lanie
cindy
religious
caldwell
industrial
dj
jur
toying
##itate
asia
seep
chees
guides
relishing
##ivable
functions
recoll
genes
bandages
##rona
spiritual
developing
bonfire
oughta
proclaimed
tutor
inventory
lapped
rips
##folded
##iti
logo
seize
scuff
saylor
behold
reliving
reliable
catac
mussed
batter
maura
bathrooms
medium
animated
warnings
hence
folk
blazer
partnership
bearings
dizzying
cheerleader
uptight
seraphina
dundee
sips
herbs
##ettle
anat
blog
unnaturally
feelin
##pton
nightsh
disord
perry
earshot
tresp
##entional
layered
limped
array
declare
snuggle
remarks
functioning
arcadian
overdrive
elders
prostitute
brooklyn
##kirts
ach
dashing
gel
lars
mi
mumbles
##function
##rah
finishes
untr
minions
throng
controls
sharon
considerably
shudders
materials
karl
complexion
insecurities
rummaged
kirk
spontaneous
bloodlust
22
yay
##mouth
notep
##usp
##igod
tract
marveled
##aza
stupor
whisky
ryon
investments
niklas
sniffled
acknowledgment
tubes
bouncer
dodging
puppies
deputy
gull
frames
leak
contracted
perky
hearted
evol
dealers
expressionless
groggy
genie
bruising
ricky
explodes
borys
hedden
crunch
abducted
aurora
bash
##mith
heft
##asis
logs
speared
slab
flinging
wills
hoisted
##othy
perked
reth
reclin
infilt
drawl
eighth
fixt
cherish
knuckle
##haven
symbols
scenarios
outskirts
infection
##craft
phenomen
xer
##dle
sparring
covet
groo
callous
lasting
soundly
barks
simulation
braids
##cco
approaches
thickened
savior
cowork
farmhouse
preventing
yelp
fundra
sideste
lieutenant
zoo
##ux
##mund
##ration
##ourage
washes
mell
shin
leopard
##raved
##ationally
marine
##ahan
partial
relished
confined
elegance
extension
sophom
tunic
decorations
straddle
priorities
translated
conquer
jutted
hustled
haughty
lancaster
sutherland
dax
yar
##num
##atiable
stains
nosy
flipp
bedtime
mayf
craned
nearness
squire
insatiable
speculation
foods
battlefield
publicity
adjo
introducing
##worthy
crunching
sundown
methods
nevada
condesce
faucet
kateri
secrecy
xerxes
ditched
kist
mashed
##wyn
##atos
rebo
quote
emilia
perks
aval
fortnum
postp
falcon
pads
ajax
ravenous
swatted
unsettled
reddened
disposal
zoomed
procedure
cable
gamble
reeled
##amation
weeds
##anthe
orphan
unmar
brus
slink
exposure
blackstone
##ieth
factory
##annie
locket
shuffle
filter
micha
debts
abandoning
appointed
significance
obscene
scientist
optimistic
aqu
broom
dain
laps
##cles
##mun
##ban
alluring
orch
charade
panthe
approx
espress
anti
melanthe
unfinished
publicly
michigan
posts
savings
weathered
lavish
errands
exhilarating
knitted
owning
relive
drooling
corre
corrupt
sunb
devices
annette
formally
exhaling
pours
tornado
versus
acquire
gravelly
survey
surveying
securely
arcane
ayden
deposit
photographers
horrifying
cosmo
ascended
vigorously
shrewd
nightshade
##ito
poem
lithe
elation
##berto
pharm
##shots
##ocaly
firelight
halle
thrashed
moods
audition
finality
volumes
tenth
helplessness
intellect
pursued
baw
pooling
whack
##urbed
shagg
socc
##pson
prolo
bloodline
broderick
invented
protectorate
equipped
latte
fragrant
spanked
lounged
association
shalan
hypnotic
application
reconsider
delphine
einar
bjorn
kisten
dainty
soccer
prologue
bount
null
##nier
chant
clown
hobby
imposing
##retion
##osition
lowest
grove
suburb
tasty
nicki
statements
mortification
upsetting
donned
surfing
andreas
##stein
reassuringly
kasar
sadiablo
obedience
insignific
jarring
ramb
hisses
framing
allows
loading
##istically
arielle
flim
glimm
peaks
probed
discern
cuddle
positioning
labeled
combust
##etti
shrieking
dishon
matthews
gaines
relentlessly
inexper
vito
acquaintances
jutting
manifest
##orette
cly
jets
##lines
##leigh
##adel
waver
amar
carla
darken
mornin
recess
lists
wedge
styled
milling
orient
trays
randy
appealed
dumbass
upwards
assassins
fidgeting
prettier
candidate
australia
aghast
drow
gour
ive
lub
##alty
spasm
blaster
brute
amen
wove
pervert
grapp
warring
hellhound
apocaly
incons
fighters
concussion
uncaring
towered
hats
immac
posters
bulky
companionship
spawn
miscar
tremendous
convertible
gilded
faking
sector
##cap
##isons
hamb
arson
flailing
caillen
dischar
comply
snoring
fres
defiantly
infamous
payche
approving
maxine
artists
uriel
constr
illusions
trickling
lemonade
durante
infinitely
tahoe
hawaii
shaggy
fades
lest
roused
##ois
##sels
roberto
blu
scattering
nightie
elusive
pastor
brazen
camar
emotionless
involves
observing
unhooked
savagely
contradict
unreasonable
dile
dwar
lidded
mase
ul
beet
spout
mang
adoring
snag
elegantly
summers
preparations
pillar
cassia
storms
hiked
creeps
jaymes
blasting
margot
hypnot
crammed
slaughtered
dilemm
jaymeson
000
ike
##eed
##iah
##aina
##ements
elan
elic
##ucc
kev
interstate
colony
baron
##uding
forebo
##locks
sleeps
countryside
chaotic
prickling
bailey
mockery
axe
hysterically
morgaine
chauffe
flimsy
foreboding
tagged
##lim
stitch
weave
coins
glac
reclaim
reasonably
pleasures
purring
harres
feist
signaling
calmer
cleaner
fairchild
candor
debut
amounts
operating
whimpers
conquest
reciproc
izabel
intrusion
captivated
cinc
sifted
tents
theft
whacked
reper
ares
muzzle
joins
animosity
crackers
dearly
yanna
currents
macha
skelet
ivan
industries
blossom
endearment
oscar
lime
zee
##bucks
##god
thri
##ldom
##icate
chow
##ria
alab
poll
##thren
ample
marika
brethren
nearer
billion
includes
courts
adorned
bustling
livid
mesmerizing
citizen
hambur
23
jec
##vation
##inates
##aso
##entric
lobe
swamped
morgue
barstool
fullness
larry
nonex
rounding
physique
storming
latin
snatches
cheryl
measuring
deemed
alphas
vineyard
waltz
mushroom
jecis
aal
jacked
wade
##iances
toxic
thats
mend
unth
##anges
inco
uncles
##boys
hangar
engles
merrick
solitary
nicest
irritably
whites
safest
ironically
tiptoed
misunderstood
implications
merlina
korw
rinse
eliminate
cuddling
olympus
committee
kara
wadd
hend
##ieces
rocco
smashing
grid
troops
prowled
amended
callahan
draping
retain
consolation
touchy
wrapper
sybella
salmon
crowe
relaxes
sickly
ridges
considerate
dustin
dyed
requests
ethere
rih
soothingly
snuggling
thudded
establishment
allev
unfastened
splendid
##asia
##idel
knack
##astrous
smit
cobb
glim
marqu
##oline
bloodshot
necks
factions
bellig
bleachers
petting
affirm
malice
organs
fabian
numbing
fanning
##aunting
barbec
transluc
virtue
festival
legendary
whirlwind
canceled
gibbons
houston
mayfair
garth
lather
##vian
shepher
loops
##indar
ampl
disastrous
##deus
drastic
barric
meticulous
deprived
##ifications
superv
blurt
exchanging
furnished
cropped
murdering
buds
stalls
multi
rodri
booty
surgeon
mahindar
wielding
ownership
adoption
sentimental
babysitter
overflowing
raegan
tirade
espresso
clyde
linking
##oard
##yield
weaken
sabb
agrona
mop
voiced
finch
phyll
doesnt
reasoned
burgers
capit
ceil
countries
advis
summoning
undressing
castald
tabs
peacefully
inhib
yawning
dumpster
mccoy
unbuckled
harpies
jit
ore
tanya
zac
##atis
reop
alan
unyield
facebook
handshake
disple
snide
pulses
banner
turt
prayers
conceived
feverish
announces
disgrunt
athena
atlantean
ceilings
tamp
##ders
##mal
starbucks
##azard
lucifer
murphy
chopping
torrent
basics
designated
heroine
pecs
terrific
wythe
reckon
homic
pronounce
wistfully
##volent
sassy
radje
condescending
unyielding
disgruntled
vre
beacon
myra
##icrous
decept
wars
decline
##gines
murky
weights
##parable
prickle
sheltered
significantly
envied
hopelessly
havily
trophy
ludicrous
insignificant
vreken
fated
fanc
pact
pablo
##nered
##of
##bul
##gent
theories
bean
chim
leila
intel
overc
cocon
plugged
engines
flapping
foam
cleans
conflicted
musky
barest
thumbed
kata
propelled
islands
teasingly
tinge
nonstop
##priately
tucks
beeping
accurately
intuition
disconcerting
pines
##nation
tori
lem
resid
persona
horr
password
harass
fend
presume
crease
memorizing
juan
freakin
##door
uniforms
insecure
improvement
achilles
dilemma
akin
mabel
tags
##hib
##atures
thie
hail
backstage
carmen
margin
eligible
adele
hops
anguished
seren
fearless
truths
batting
boxing
panels
vanishing
featured
possessively
donuts
preferably
##ridge
witnessing
keller
manipulating
glamorous
rafael
intervention
horrors
jas
lurch
potion
yummy
##hur
##master
##felt
##keys
frayed
demented
scam
snaking
cringing
asset
decency
drilled
edmund
refresh
blueblood
replayed
advances
flatten
magnetic
preference
boundary
forties
betrothed
nathanial
stubbornness
drifts
perspiration
dabbed
cocoon
nonexistent
jana
mister
poo
piling
pounced
##etrick
##eeee
suzy
clamp
overst
roby
blot
cloaked
amends
phoned
setup
##ivities
showers
sammy
cryptic
idris
verd
digital
facedown
marshal
employment
titles
mcketrick
rescuing
strapless
sundance
silhouette
robyn
taint
##aton
overpr
roles
seldom
scum
bets
restore
snowy
jessamine
divul
shrimp
mmmm
mechanical
blossomed
endearing
coupled
peripheral
stilettos
jagu
notepad
lacing
pouch
##card
##cers
##inction
##atisf
##etown
negl
flae
manual
amatis
peril
phob
horrid
privy
sprint
##vynn
scratchy
stationed
addressing
halter
sabot
bounces
boutique
queried
sardonic
downworld
yaslana
elephant
flaevynn
piqu
knick
quaint
elaina
pep
refined
passport
imaginable
caps
siri
overwhelm
confidential
prickly
beckoning
feathered
dubious
philosophy
blanched
certificate
ethereal
vae
##lance
##utions
abst
aging
unch
proves
##shad
crick
monot
entice
##maids
engrossed
casket
possessions
violated
sexuality
broadly
accountant
terminal
epit
clicks
bordered
alternate
tantrum
analyze
sustain
indignant
tranquil
deftly
translucent
ops
##aser
##imen
slugg
leftover
##phis
incess
accum
throes
paras
madman
batch
engaging
amazon
silverware
noticeable
pathway
dali
kait
jeffrey
occupy
carlos
ajar
crunard
barreling
attentive
toppled
orchestr
feisty
fane
jens
##orthy
stamp
reh
##ooq
sag
##orescent
chanted
sug
clans
justified
scut
veiled
swoop
swirls
helm
farooq
lunge
convict
artific
moody
jammer
admittedly
kneeled
sibling
psi
melts
steadfast
ravaged
bundled
fleeing
eavesdro
embroidered
cull
hue
jinn
##ocks
concede
cob
defect
probe
stele
##print
blackened
editor
personnel
uncanny
deadline
polar
katana
daemonar
hatch
dickhead
inhuman
remainder
westmore
trainer
swiping
grooms
monstrous
hometown
clammy
glimpses
catherine
lachlan
racks
##lorn
myr
##anton
##andro
arsen
gru
hardware
realms
lightened
questionable
landlord
paler
gutter
imminent
unfocused
sympath
exceptionally
barbie
covenant
puppet
gnawing
sterile
goblet
jor
##hor
sealing
quaking
warped
strayed
playground
pleases
defied
winona
fawn
bentley
lexis
yanks
##chers
processed
investigations
crooned
andrews
miraculously
crumbs
bony
wagged
hacked
bees
##oty
frying
##ussed
semb
ploy
##pering
relate
crab
distorted
throats
annual
bethany
unfur
nurt
mcdon
archway
resolution
overlook
inevitably
unstopp
fareed
navigate
rutledge
pacific
tersely
google
##aternity
dwarf
semblance
911
celt
##ww
##inarily
##erment
##ithe
abr
##anders
cocking
unsh
pos
telltale
heartfelt
demise
##zzles
autop
jeanine
financially
juncture
associates
fulfilling
fingernail
negotiations
josephina
bianchi
reappear
unwrapped
jury
kry
##gra
##west
handles
seizing
##ousing
grues
lloy
veered
disen
elong
corpses
invitations
straightfor
shutters
grigor
advise
willingness
dimensions
confirming
shayla
shells
deceit
mercs
##ohay
flaws
skittered
nassar
desiderius
disorder
lloyd
straightforward
gad
veter
vessa
##rums
hod
resil
suro
snacks
keva
hugo
##udes
highlights
sadistic
maf
assumptions
committing
rivers
bulged
shrieks
demonstrate
bewilderment
obstacle
ancestors
wraiths
dvd
sponge
sophomore
bounty
zohay
##hall
##gt
##pared
receded
##vermy
##acker
suction
belador
cleft
farmer
grizz
danvers
irate
drawings
expects
claymore
surrept
kimi
languages
sparse
scrubs
spectators
roxanne
sylvermy
involuntary
exertion
lobster
recliner
adjoining
zohayd
sylvermyst
kres
lured
vary
##owness
##abled
wringing
repro
retta
hotly
skylynn
belts
villagers
operations
scowls
aspir
ducks
cannon
unstoppable
##yi
##onents
hacking
stations
notices
##roit
couldn
##rable
sled
calla
morbid
floored
accounting
invinc
param
trio
subway
concerning
hateful
affecting
zoey
instruction
complications
competing
sacrifices
mckays
ricoc
boulders
enthralled
progressed
constructed
vehemently
jav
kettle
##uu
hagg
##enting
exuber
##iffe
slos
manages
trump
skimpy
drily
crowding
##iori
wineglass
##vieve
mentor
witty
jimmie
fantasized
aspen
educated
whoos
cascaded
atlantis
allergic
bosom
mcdonald
dhem
luth
ola
pont
pomp
##hap
##chen
hefted
##lete
outr
comic
grapes
menus
planner
continent
buries
wildcat
anticipate
esteem
harmony
ferru
tapest
edwards
productive
indecision
##ndez
podium
scalding
disliked
extravagant
deceptively
gruesome
dah
gamb
tand
shiori
uphol
stillwater
interpre
sorab
incent
detected
grayhaven
ryssa
locations
fielding
existing
expressive
gauze
bronzed
substantial
dependent
fiddling
unprepared
kirsty
lanna
oval
pasted
##ho
##cus
##owered
nola
alm
alerted
compact
##ancer
adoles
camps
admits
cuffed
owes
tourn
gallu
sidney
augusta
amidst
enchanted
architecture
immobile
sausage
luthvian
era
jars
##bud
##hero
fringe
##illion
cham
##owned
litter
remod
##ucle
##spond
delaine
discl
madam
sickened
flats
fisting
rebel
shaven
##ippy
kells
stressful
jacobs
agonized
pyram
implication
eagle
arose
ecc
vip
##bable
##iator
##rof
abusive
chimes
aline
blair
##lfax
colfax
slashing
quipped
twirl
##ahk
lasts
##sweet
tabletop
trait
jackets
finely
lucid
##ccio
selfless
summons
expectant
tracker
provoke
tawny
underwater
acquis
navarre
crunched
sizzle
transported
dwelling
aspects
genevieve
hicc
worshipped
verbally
correspond
##idelity
ferruccio
cd
sifting
wards
##helf
reagan
##agra
slump
prover
talia
soror
discard
infused
monthly
splat
generosity
bounds
embracing
carton
arab
rattles
communicating
hayll
illumination
reinforce
mishka
vacuum
destructive
context
dhemlan
olaf
100
bere
dwind
##dress
##yan
inky
##semble
libid
backtr
##arten
oracles
##ressive
carelessly
hugh
demure
forgave
bloke
physician
volunt
predators
alcoholic
implant
fenella
escalated
##ventil
kalil
withdrawn
chauffeur
westmoreland
gadget
cider
nucle
xcor
##oir
##lement
##acent
aboard
lend
levit
loken
downfall
unem
##ortions
hover
##ondition
morals
consulting
exploration
speck
##ussions
innue
modeling
objective
pigs
adventures
tsked
aristo
hyperventil
succumbed
obsessive
swimsuit
codes
muffins
symptoms
nation
##pd
neur
##aux
congre
hobb
##ensitive
wrinkle
impen
courses
defy
lively
domain
captor
weirdly
proposing
bookshelf
suggestive
##vette
rhodes
curtsy
technical
achingly
paulie
dangers
programmed
hazard
brunch
frosting
treasured
shalador
nymphs
encircled
thieves
jaguar
invincible
dice
jaz
mails
ping
##dog
##hee
##ester
reel
backdrop
clinked
cliche
##esting
unim
glaze
nightly
##bean
residents
retro
barrington
vampir
chopped
auntie
betroth
##walks
membership
benjamin
telepathy
paranoia
accelerated
allegiance
transfixed
korwahk
rant
##eer
##sions
##ih
##jud
clamping
rogers
pref
##ourse
underlying
hurl
trev
squint
deadpan
sunken
doubting
narrows
solace
spraying
boob
superhero
villain
revved
inspecting
plainly
pisses
obligated
critic
assignments
bracelets
brimstone
neglig
cages
jaunt
##pse
##asco
##onne
haph
coping
advers
surly
waiters
consist
delbert
camis
petul
specialty
auto
vincen
mailbox
granny
blissfully
deris
addictive
enclave
indefin
haphazard
riled
zinn
##mere
##rating
##rament
##inously
outlet
chagr
coarse
foggy
pegged
##quer
reporting
chestnut
tablecloth
##ienced
counsel
sacrament
acquies
stackhouse
obligations
mingle
compromised
raspberry
conspirator
unforg
gretchen
piqued
eccentric
##lined
##ji
stap
rew
lipped
##abet
spasms
enters
headphones
willie
perceptive
snorts
rugs
demol
luann
##brother
duct
stuffy
creator
pillars
malory
porter
stalled
defenseless
gala
claudette
irrespons
groomed
regina
overtook
sequence
transportation
africa
shrouded
unruly
intertwined
wagging
##bear
##pad
##itals
seers
canal
caved
intersection
uncondition
stepbrother
shuttle
##helves
artwork
spends
pinpoint
antiqu
casser
bookshelves
accidental
witchlight
squealing
titian
operated
bellefle
unharmed
bailed
manipulation
climaxed
cliffs
wrestled
chirped
counseling
blistering
comprehension
rooftop
apocalypse
paycheck
castaldini
zinnia
lent
##cule
thumps
##itas
##road
overshad
loads
undert
luce
freeway
##version
bookstore
malicious
marcie
occurs
languid
reckoned
steeled
unbearably
apologetically
liberty
kneaded
rummaging
historical
enforcement
##hurst
sorority
fused
gren
pong
shrap
tending
twitches
glue
swarm
##izers
realistic
perv
apex
crossbow
responsive
idiotic
sources
farthest
initiation
encounters
frosted
gryphon
kamal
traumatic
brimming
scientists
sustained
withdrawing
highlighted
unfolding
admonished
sidelines
protruding
dowager
crissc
tractor
shrapnel
ae
##cake
whir
whoop
ashen
withhold
unac
mohab
aris
wayward
##ptu
caval
marriages
nothingness
cameo
assures
improm
confide
figur
louise
lena
teleport
protesting
ambitious
freaks
gravely
territories
borders
exquisitely
pyre
religion
mercenary
vincenzo
impromptu
wicker
##houses
##lier
##voc
##ometry
##etrable
##agin
##erser
cary
contag
elated
eloqu
compose
concession
brake
groped
groping
prized
miracles
fixated
innate
auditor
unwind
ambition
celebrated
ceremon
stools
flirtatious
maximum
analysis
tommaso
demonstration
ogling
infinite
delirious
inexplicable
barbecue
fainted
icing
jaded
poof
##net
##got
##varian
##ittle
whiz
whiche
welf
ungr
adri
wroth
sleigh
serpent
indent
insert
passive
feigning
sofas
alexi
brandr
bittersweet
buzzer
fairytale
mummy
irrevoc
outsider
##interested
lava
##heartedly
awards
fussing
##minded
larson
cobwe
nuclear
whichever
berser
hanc
##him
##uv
##cases
meand
upgr
loathed
scant
starve
##kshire
comparing
untie
monument
explor
edinger
pleasured
replaying
effing
darla
genet
narc
lunwyn
briefest
testament
senate
gutted
snowfl
vicar
threading
adriana
oblige
nether
scorp
persuasion
zeroed
unstead
rougher
cindere
ancestral
uninv
simpler
queasy
sculpture
anatomy
pantheon
libido
hancock
bung
hanger
ketch
nom
vyan
##sight
##pat
stitched
forlorn
trashed
glows
swo
doorj
perception
extric
coolness
blondie
thinner
sparkly
robot
producing
russia
fellowship
mathison
recomme
punctuated
rectangular
carrot
crutches
sacramento
welfare
fuming
pinches
tamed
vantage
##mina
##ben
##jay
flanders
##ninger
desks
warner
##answ
corral
lifel
cathed
relaxation
basin
scargill
juven
volcan
brilliantly
wardens
flinching
inspected
booths
applaud
fondly
##burgh
stamina
portraits
convulsed
cheerleaders
peephole
charts
exclaims
perverse
unrelenting
datab
brusque
reperc
cens
##mans
##ray
##orc
haines
ony
stip
hadnt
sagging
teases
flamed
somers
##ortment
props
##angel
##ggings
matte
##osc
menn
stranded
##scape
camilla
subl
favored
lapels
henninger
electra
nuzzle
initiate
salvation
launching
mimicked
seeds
wrestle
earnestly
leadership
permitted
maureen
cloudy
syllable
impenetrable
camisole
ketchup
gah
gagging
##stra
##ooke
boasted
scuffed
disem
resulted
simmered
bellamy
subjected
shooter
suggestively
scooting
ambush
cartoon
competitive
merciful
overhear
fledg
nauseous
vegetable
oozing
reddish
efficiently
voyeur
tabloids
alleviate
gly
pens
vaulted
##atra
nec
upro
overp
##ggled
endurance
believable
monk
eleon
##screen
panty
##brooke
width
scrum
profuse
midway
masks
pubic
begrud
containers
##agram
bridesmaid
delusional
poppet
noodles
grizzly
cia
dit
zage
beeline
alarms
clash
##agna
##estone
roars
##angling
drape
barron
indescri
considers
sensors
##laid
petrified
earthqu
##oleum
torturous
ferry
modesty
croak
inspiration
lasagna
scandalous
recruit
obtain
underestimate
bravery
lupine
catacombs
lubric
onyx
eleonore
zageo
hier
vind
##oufl
##isms
##orial
exceed
unab
plunder
##ansas
newcom
sora
invade
delved
trivial
lessen
camoufl
arron
psychiat
mcgre
origins
organize
conditioner
bondage
meltdown
sherridan
molding
skitt
incoherent
jensen
rumbles
##ndown
##essee
rendez
saxton
swerved
sidewalks
traits
detroit
##ogy
singed
sharks
malek
beginnings
millie
trembles
smartest
immature
spiraled
banish
professionally
tedious
pondering
tennessee
obedient
plucks
feeble
provocative
dynamic
skirted
scrawled
buttocks
eugene
unsteadily
tren
##nis
##entious
upbr
clustered
coaster
boast
##thal
contours
ember
hearty
software
lifeline
refilled
continually
trustworthy
captivity
cashmere
fistful
ladvarian
tempo
suckling
venice
coachman
bustle
manipulative
bribe
horizont
gnar
dissolve
shackles
infectious
racer
reynold
stiletto
withdrawal
paramedics
approximately
juvenile
mennah
cin
oasis
##avers
inade
##alation
##roph
##usible
clink
dejected
slime
manning
quince
poign
afar
scope
prank
wafting
joan
rapped
registr
unclen
discount
escorting
brightness
sprinkled
donnie
costumes
drumming
felipe
kristina
interrupts
indulged
aliyah
accompanying
skeptically
gilbert
efficiency
intervene
euphoria
gourmet
shepherd
rodrigo
betrothal
cinderella
doorjamb
sublime
dys
hm
kra
rift
rache
##lash
##tion
spiders
marveling
raid
musk
warms
infle
collin
winery
inclination
midday
viola
cowboys
facilities
sleeveless
##tta
triumphantly
juliette
chalice
##leneck
fletch
gritty
hounds
assembled
chubby
sabbath
contagious
kall
pensive
##utable
stages
iso
getaway
coil
##fts
cheery
eloy
endlessly
breec
rung
confuse
awaken
accidents
burd
burly
springing
gender
forthcoming
leech
##alya
titans
liesl
venue
competent
velvety
periods
kayden
exceptional
exclus
civilization
terrain
motivated
stimulation
chastised
reinforced
scabb
mafia
ced
nook
pau
pits
yer
##mill
mephis
##aman
degr
leta
painkill
rundown
broch
shaded
hesitates
stiffening
##ippi
broadway
mcl
videos
loretta
busting
skeleton
fantasizing
linda
kilmor
thudding
shamelessly
crucial
verdict
baker
hars
jp
nigg
rags
tum
##main
##mouthed
haun
sheik
##imony
fray
sails
abortion
unansw
amate
realise
drooped
sweets
truthful
cheeky
skyline
alexis
mortgage
proportions
##balls
dye
majestic
appease
loren
corporation
fetched
vocab
squatted
akri
patronizing
elyssa
econom
harvard
auditorium
repercussions
upbringing
isobel
kilmorgan
cone
fences
##hr
thre
##aments
##ryl
aricles
needless
gotcha
carib
skidding
bedpost
breck
pasture
fuller
preserve
wishful
blending
morton
preferring
psychopath
ferr
ambros
reverently
persist
examination
federal
sorely
stewart
puffs
hysteria
academic
culpr
oozed
prettiest
premises
quincey
bing
dand
sord
rejecting
atrium
leggings
almond
unav
flask
byr
poles
swoon
willy
wailing
imb
relied
faraway
mustache
topics
patric
enjoys
subsequ
struct
escorts
sadist
dennis
antid
antiques
portfol
chocolates
shapely
##ervant
gryphons
adventurous
flexible
stanford
goatee
sponsor
sidestepped
cincinn
displeased
incentive
rendezvous
caribbean
bick
fay
ick
mesh
token
##itan
##itutes
reiter
chipped
##rique
ensemble
trading
matted
deepen
squaw
parks
mississ
lunchtime
crackle
celib
banister
banquet
foolishly
distractions
fevered
diversion
festivities
geek
uneasiness
metaphor
mangled
downworlders
mcgregor
byrne
gush
iphone
krel
rails
##just
##oni
##otected
shard
leashed
enqu
stills
perk
snooping
colon
coloss
lube
artistic
spirited
stability
rubble
americ
shyness
housing
revis
bubbly
ruthlessly
danii
unzip
dilig
cushioned
adequate
flourish
##keeping
expansive
pointy
mississippi
krelis
lanky
##ghe
heater
clogged
##olate
fines
strum
wallpaper
distantly
regrou
natalya
##ignon
limping
faults
divide
hollered
clarify
saturated
sidled
feds
powd
indulging
removes
envious
spurred
sorcerer
mercilessly
economy
harem
catastrop
snarky
rethink
cobblest
bellefleur
unaccept
cathedral
fiend
lax
##rised
##stones
fris
frit
conve
spooked
plumb
prejud
floorboards
mustaph
indisc
furt
feud
shocks
filth
faintest
##hammer
psychology
dutifully
humorless
operator
quitting
appliances
uniformed
chooses
devastation
steamy
tolerated
shirley
wielded
emanated
phillip
integrity
relinquish
plummeted
sections
perceived
enlighten
smitten
threesome
cincinnati
unacceptable
mustapha
delt
eub
##wide
heave
##alo
forge
shri
soles
wheat
aligned
enrique
grumble
scots
prest
twining
##ahna
snip
assortment
kinderg
straightens
lineage
spotting
wetter
billowing
bandaged
ahhh
numbly
fierc
dampened
apollites
fluorescent
surrendering
janet
distinctive
dedication
updated
insecurity
smothering
conjure
scruffy
bambi
inexperienced
casserole
sordid
dork
jum
kel
lens
##iary
ongoing
##etor
ascan
##icians
anus
##ilize
claps
exits
smacks
quell
posing
swarmed
primed
comeback
disl
leftovers
decked
install
bloodstream
quickie
edith
transmit
elevated
reflexes
internship
ensured
sherbrooke
slimy
intrude
redheaded
interfering
cascade
dictate
mong
pining
##horn
##hent
##atable
herald
##ldon
shined
outd
##unky
overload
prisc
marque
steaks
##oli
warred
decap
refill
refocused
conco
discretion
troubling
extract
healy
birthright
mortmain
textbook
lingers
courtroom
blurring
injected
writhe
unshed
reverence
gloomy
credits
turf
cartw
inspector
romanov
lamely
factionless
babysitting
unravel
luminous
zakar
breeches
ascanio
priscilla
##oking
onions
onstage
mew
##hers
welt
##ieval
##inkable
##ggling
emitted
graves
wracked
barred
hourglass
choir
bats
specimen
##syl
riders
antsy
illustr
dominate
lengthy
crawford
falter
describing
vacated
operate
tendencies
intoxicated
cascading
bumper
##agaria
governess
turtleneck
myrtle
lark
toen
##uro
weaved
nostal
moreau
disrupt
##olis
cleo
barged
completion
parch
##loch
trusts
streaking
duel
blindfolded
donut
authent
logically
graveyard
poisoning
longingly
conveniently
mimicking
nakita
##aaaa
apprehensive
unprotected
tartarus
fulbrook
condemned
unheard
permeated
irresponsible
profusely
jr
mul
rio
##faced
shab
wouldnt
##elia
exiting
exped
madelyn
girth
askavi
greets
freezes
burner
medal
medieval
davie
sweaters
richards
proportion
vibes
funding
broadcast
assistants
lazarus
lurked
specifics
thugs
lanterns
immaculate
kallista
ambrosia
antidote
dix
yi
##wick
##onis
forc
livin
shipped
downs
flute
adonis
##uccess
wrinkling
institution
silencing
tights
powerfully
harvey
##lette
worriedly
bleached
weariness
bastien
provoked
donate
scraps
celebrities
crystall
dulled
tacky
translate
legends
rampant
confronting
eldest
catering
wilderness
duplic
fundraiser
haunches
gaunt
zipping
##ionn
leck
sported
evergre
callused
daytime
givin
whisk
morph
conflicting
incoming
askin
charon
paved
petted
utmost
autogra
hybrid
unsuccess
reverie
grassy
squares
decorate
padding
dialing
hedged
shimmied
pouty
jacqu
nephews
cosmet
gnawed
aggravated
phillips
endeavor
spooky
toothpaste
satell
hefty
fionn
gushing
laces
maps
ost
##raine
itchy
sphin
##thought
##ggles
peaches
wright
actively
flock
##aterial
bestowed
baggy
ghaste
losses
gardener
objection
unloaded
maple
knightly
borderline
obstacles
kieran
ipad
pedestal
ascension
kiddo
brawl
ghastek
paren
##mah
memo
clang
##unc
sperm
twit
contra
graphic
bugging
secondly
traps
##udges
replay
symph
thickness
johara
entranced
sparkles
diapers
cooperation
fervor
tapered
programs
persuasive
richer
plausible
artificial
diseng
uninvited
200
oy
winces
##bour
##iour
##wife
##acies
asyl
dozed
knif
spies
##ulary
deple
slouched
mankind
projected
strat
assessed
colonel
sleepless
dealings
bathrobe
relevant
exhales
complimented
tearloch
squeals
ambled
literal
pissy
randomly
imperative
nonchalance
spears
scurrying
converted
underestimated
rearranged
samples
hulking
favourite
maternal
coworkers
jazz
kle
kart
pampered
tidal
##lia
##fare
##allister
soren
chit
glower
##active
hoist
holed
snore
snuff
opener
impot
angst
pastry
visc
##helmina
scrapes
turret
techniques
##flowers
unload
christophe
##sticks
pedal
persuaded
prowling
bernie
attentions
haggard
porn
##yle
bea
##ima
relying
leandro
##uned
brunt
comical
flounder
katagaria
superficial
determinedly
respective
psyche
latisha
volu
apollite
wilhelmina
poisonous
whistles
inflict
formality
hypot
axel
rituals
demonstrated
unpacked
indulgent
theatre
nocturn
unthinkable
overprot
voluntarily
recommended
scabbard
dine
##uva
##wear
input
asian
lions
outing
eyrie
smugg
flan
marky
lastly
crump
assu
stayner
dreamily
heaviness
submer
crev
appreciating
suffice
affections
tipsy
occupants
consequence
imogenia
disconnect
absentminded
gawking
tomatoes
telepathic
jeopardy
unscathed
sprouted
impeccable
##vania
aldani
mellow
lorenzo
aure
dc
dum
kath
tally
voted
zano
##rative
##few
##urrent
sod
clums
ronda
unpl
slop
pren
##thouse
##izations
##olored
peaked
joanna
residual
studded
cork
lowe
regener
petra
blooms
filtering
cardigan
respects
ignores
villages
pitching
francesco
targeted
oui
etiqu
hawks
judgmental
racking
empathy
substitute
dingy
manifested
enigmatic
eavesdropping
indefinitely
vocabulary
asylum
etiquette
aka
lumber
lumbered
pies
uch
vise
zara
##aric
reiss
##ande
preamble
wells
##ichael
tougher
courthouse
listing
passions
sensor
annith
gasoline
norman
antagon
replying
pureblood
noncom
ferv
affectionately
concealing
elliott
tolerance
aggressively
enveloping
beliefs
individuals
enhance
fractured
ricoche
pyramid
il
rally
vix
vapor
wiry
##bound
##ighty
outc
abide
altering
offending
flags
scathing
cael
remedy
curfew
##awed
##oyed
reminders
luckiest
garments
advancing
balth
pierc
declaring
wisps
displays
execute
sherman
juno
dorms
deceiving
elabor
breeding
fenris
sketches
hamburger
almighty
unanswered
yikes
cagin
fizz
oat
rins
wag
toasted
##isp
##onal
##itiously
docks
leaps
##aby
robbery
##istan
##ifiable
gris
glum
prud
payments
brightest
flecks
strengthened
creaking
donor
soci
presenting
vibrates
occurrence
platonic
dangle
multip
greeks
buffalo
spoonful
maneuvering
exaggerating
schedules
sympathetically
rebellious
cunningham
myriad
epitome
uchben
piercings
gurn
jb
latt
mire
##ardo
assuring
enduring
ruse
explicit
entity
jackal
firebird
shuttered
ignite
appropriately
stripes
checkout
weakening
balm
ahh
groupies
windowsill
unbl
fangt
martial
dunno
carpeted
ominously
vastly
quarterback
gargoyles
sorceri
awakening
rasping
bluffing
scolding
culprit
bom
##uk
##uzz
##cage
##cence
##jar
toed
##anim
shag
ish
spain
deja
arctic
disarr
seriffe
startle
airis
kitchens
mirabelle
urban
worthwhile
penc
##coon
pinky
physics
cluttered
johanna
ticks
joyous
hosting
investigators
thunderous
ninja
shrinking
territorial
gulping
brutus
gloriously
communicated
gossiping
toiletries
##falls
tati
ireland
##hyd
lanes
mantle
scientific
eliminated
zombies
dolph
teetering
coconut
unabashed
gnarled
portfolio
fangtasia
fisher
nim
pint
##ugs
##dal
##bly
##oust
shines
nemes
allure
skint
reloc
flopping
evoked
edible
greens
regards
businesslike
peters
owing
memorial
effortless
##odor
hyd
nikolas
behaviour
tapes
shelby
mysteries
unlocking
revolution
stereoty
pulsating
masturb
disagreed
afghanistan
##gthen
dale
eddy
jumble
##ylyn
##xual
befriend
clancy
spits
unqu
headaches
guild
starters
marge
walsh
skot
compat
tonic
unto
crashes
huddle
impart
impaled
##cedented
eases
##loaded
branding
avylyn
baton
gunfire
fems
classmates
swears
cowgirl
turtle
humiliate
whims
flavored
elementary
erupts
disgrace
indescribable
voluptuous
erected
ko
nay
tumb
vu
##aith
##arch
##itative
rend
overth
loins
roasted
oracle
unhing
dell
##apid
##vedere
caj
nightfall
foley
mars
desolate
helpfully
belvedere
##uca
slew
##umbo
boyd
lujay
detour
##bras
camila
townse
suspense
gentled
mastered
superman
dominating
alecia
meaningfully
cordelia
contractions
seaf
swells
##aunch
customary
holbrook
roberts
##worth
graciously
derrik
masculinity
implac
negotiating
traumat
lewd
exhibition
reyna
telepathically
suburban
##rophob
lujayn
doused
##eks
##uper
##atus
stump
exuded
howe
maram
softens
parr
pretentious
greer
lowly
layout
blueberry
burgl
detention
duvet
mercer
folders
purposeful
initiated
##azzled
derision
fondness
bikes
divergent
unprecedented
carmichael
solicitor
inhabit
stutter
vertical
recesses
##hibited
sluggish
surreptitiously
kresley
kartane
noncommitt
sjo
tic
tresses
##mat
##fn
##job
##lley
bev
chort
blanca
byes
imitation
reserves
softest
barrage
hurtled
raving
messes
nerd
wildfire
cube
penalty
scarves
##strong
unwitting
##ography
ribcage
waitresses
hamish
scarlett
reconn
azmah
carrots
reflexively
catholic
indoor
prosper
recollection
##bearing
colossal
kindergarten
parchment
skintight
sjofn
dild
jahn
pest
viny
waded
##oom
##dad
##gal
##hemer
meow
clipping
overtime
##estion
smudged
dez
thanatos
##ello
hog
volley
crank
cleav
repairs
siljar
olds
barbe
igniting
cami
claust
easygoing
wildest
mispl
##guarded
undying
appreciatively
operative
journ
linens
sacrificing
paddy
sternum
undercurrent
inconvenience
spasmed
survivor
biscuits
kellerman
americans
catastrophe
bim
dinged
gim
jumbled
##chel
##will
##stri
whores
forfe
doe
isak
chime
chival
carrier
##bey
surm
crue
keaton
tye
musty
magdal
saluted
searches
##meal
cassian
audacity
unworthy
objections
brilliance
##flower
impressions
cubicle
deceived
requirements
elemental
repaired
blossoms
winsol
athene
patterned
outrun
mclachlan
overprotective
nemesis
vinyl
claustrophob
cowering
doo
hinting
ott
pav
vot
##dar
##lishing
##pen
##imat
staining
##inder
##abe
unused
della
quart
posh
amity
takeout
embo
jock
belted
phall
warr
cray
kisser
helluva
airy
patsy
brag
singular
thickening
extracted
hundredth
butts
chickens
diantha
tigers
circumstance
michele
deceased
quirk
compassionate
obscured
resource
alicante
cuddles
upturned
supremely
oooh
humidity
fixture
arsenal
adolescent
irrevocably
cleavage
pector
##matched
##pot
shun
deeds
glowering
amara
moms
nighttime
skating
finer
##fulness
mats
brenda
courte
treading
harassing
mutil
coffeep
ringed
viable
cuz
directors
agreeable
ultras
hoop
soapy
attorneys
slutty
traitorous
exhibit
greta
wheezed
avalanche
innuendo
delta
wreat
zep
##press
##atical
##ooo
knitting
chili
##riens
likewise
eyriens
timer
cobal
##igans
##ellar
##asses
marina
lightheaded
satan
lottie
traitors
inval
besee
readying
fastest
balloons
limply
testify
energo
leeza
psychological
precip
ambass
sync
vivianna
rudely
questioningly
oxford
snicker
transpired
indulgence
uncommon
overreacting
imprint
phenomenal
exclusively
toenails
##bourne
cobalt
dived
eard
lenses
nam
##nished
##isions
##utor
stout
chron
conting
roderick
bras
flab
##aha
satchel
easter
misgu
testimony
equals
vividly
principle
mckenna
banker
ensla
restrict
barton
bustled
alternating
conquered
pirro
wriggling
clingy
isolation
blandly
shawl
bridesmaids
sidelong
prisma
abundance
impersonal
cobwebs
bingo
finesse
zephy
avenge
jin
rusted
oncoming
frog
chattered
clamps
##abilities
##aga
uno
argh
hurtling
suppressing
funn
bagel
pudding
paneled
values
errant
masses
policeman
flashy
investors
##cript
fiasco
organic
jolting
expressing
politician
lethar
reeked
clinical
wriggle
detectives
overseas
prescription
raum
skittish
registration
amateur
ferrari
coffeepot
rouse
##orth
inherent
whiny
chasm
leb
##abol
bode
##icky
grotes
gruber
watson
finance
repressed
lighthouse
runaway
hummer
correction
confid
purses
entirety
triad
footprints
fastening
##iliation
memorable
earthy
milky
aunts
virile
fuzz
psychometry
chaf
waning
unholy
hooker
ephemer
ultimat
bonnie
karma
philadel
registering
liaison
cowardly
journalist
friggin
thorns
marvelous
tethered
##struck
baskets
juanita
serenity
bereft
symphony
misguided
philadelph
bidd
cay
dank
nd
ng
yannah
##bee
##icable
loll
coer
grating
compressed
reset
instig
##iffed
rubb
listens
concub
infinity
lessened
mistr
eighteenth
conduc
victorious
unborn
horseback
greetings
organizing
ninth
interviewed
disguised
cavernous
suicidal
mounds
furrows
consultant
grieve
refrain
gullible
resilient
trench
reynolds
forcibly
gurney
aversion
##gyn
forked
butted
outn
abn
tends
roiling
blab
dea
slumping
flakes
scatter
prelim
##thood
surp
perd
earring
quickening
lucinda
missions
infirm
payne
garter
domination
towed
captors
angelia
pinkie
potted
generated
magnitude
##string
socially
sneaked
lusty
sniffling
banked
universal
rustic
strategic
##tinent
reviewed
forefront
perpetual
reconcile
slavery
incessant
lifelong
harsher
patricia
unblinking
26
dives
hone
kair
kern
nieces
pork
zig
assed
smudge
cogn
sears
wond
fingering
adapt
incar
prote
annih
picky
maur
oppressive
magician
afternoons
healers
mcallister
strangling
fashionable
intentional
vladimir
stunningly
claremont
vomiting
hormonal
sailor
incapac
crutch
egyptian
monitoring
nabbed
aftershave
chagrin
misplaced
ultrasound
philadelphia
kairos
annihil
daunting
eros
kael
lina
ti
zella
##zies
stellar
##ala
wouldn
handi
overh
rooting
blithe
unguarded
holo
##berth
budding
angular
floss
winded
cutest
cutberth
##scale
engraved
opponents
streetlights
brownie
julianne
hollows
kendra
attendants
rustled
tremulous
treasures
nazar
convulsing
ascender
privileged
exhilaration
purrs
cedar
disarray
wondrous
incarcer
fuse
fumble
rita
sill
##hope
hah
##imos
##urals
##irth
##about
roving
##ulter
##ineering
trink
llison
amiss
trendy
evac
busied
purity
synd
tuition
fucker
narrowly
brownies
unearth
lexy
films
contractor
seasons
professors
requirement
functional
emphasize
tobac
youthful
updates
unforgiving
bloodshed
harbored
attachment
infatuation
inhibitions
tournament
proverb
oatmeal
cower
sift
begs
##ayne
revers
##urances
sola
##ilot
noel
anyways
moping
prices
honda
callagan
marlene
relayed
morrison
treason
##spread
distrib
colliding
trials
liege
sharpening
cocktails
scarier
utility
rumored
gwend
bartend
saints
bolting
resemble
stemmed
dictated
converse
carnage
historic
treadmill
fussed
sewing
varying
unimag
prefers
necrom
plumbing
handiwork
paternity
sic
tes
##iage
##erina
shes
staked
lilla
anyhow
brack
flair
flailed
graces
carp
##ggers
elven
resched
graff
bloodth
##ibal
recy
##atelyn
##spective
strappy
harold
spoiling
duffle
conversational
wetting
embl
pushy
##ritten
bulls
attackers
donation
peeved
exams
sourly
sinew
boneless
kai
glittery
##after
clientele
criticism
intruded
gait
passageway
hottie
orchestra
godfrey
petulant
earthquake
eubanks
grotesque
cows
noose
##inery
##amer
upscale
abbey
backdoor
suede
downhill
ener
comedy
marla
crate
attuned
damning
interce
columb
pastries
shitting
dreamscape
protectiveness
domineering
bleach
hospitals
cashier
hipp
obsessing
unsusp
wickedness
ensued
qualify
prickles
borne
bargaining
intruding
wreckage
envelopes
puzzlement
dusky
stimulating
hallucination
sensitivity
kalea
millennia
horizontal
##sylvania
gwendolyn
27
wann
yor
##liest
##mia
##bows
##aven
##ti
##wina
##isiac
##asters
##anth
##roads
goggles
manoh
appar
endang
reprod
wallow
edwina
inscri
billions
brokenly
pinpr
heaves
possessing
hyde
travelled
goddesses
eternally
foliage
renting
cheesebur
aisles
volunteers
translation
spurt
markings
undeniably
aphrodisiac
prolonged
krystal
shabby
seafood
ephemeral
tobacco
28
dort
dair
estr
kah
rg
##mart
##yd
stoned
whome
abhor
overbearing
quant
grime
rightful
marley
talons
skul
crane
worldwide
crypt
avid
suffic
buckets
electrif
neighboring
volition
stirs
ronny
princesses
accomplishment
quirks
spiky
mourned
pancake
fetish
aubrey
pennsylvania
dexter
repulsed
repulsive
extinguished
quizzical
precarious
precariously
sputtering
orchestrated
journals
whomever
humbled
jia
janna
moth
##eau
stagger
stooped
asap
sap
outwe
clips
clashed
unann
lett
goody
opa
snoo
##sham
##neil
closets
followers
ashleigh
##guard
norse
pulp
buyer
smartass
##hetor
rotated
researching
royally
channeling
alternately
impulsively
yogurt
auras
cecil
strategically
reesee
precautions
coveted
overstuffed
satellite
unsuspecting
jannalynn
unannounced
aquar
bff
dio
gaun
rhetor
vand
##staking
##vere
ange
##ioned
frazzled
timed
##areth
arum
flapped
poetic
carve
waitin
painstaking
##ateral
terra
burg
detach
extre
ashtr
advant
classified
faeries
diminished
admirable
confirms
accessories
sundays
sixties
spectrum
retrieving
frosty
lilies
vegetarian
scrolling
douchebag
spontaneously
omelet
african
posse
database
poignant
emblaz
energet
45
hoof
naming
##sons
##haw
clucked
##unct
headline
slavers
flit
beforehand
prodding
guff
##emption
##eryon
elvis
##ilde
openmouthed
baden
monog
##arsity
bellow
pickle
stretcher
bookcase
petey
embers
lockers
keypad
kyler
milking
unbal
portals
guiltily
cadence
banned
sinfully
clarke
gallop
gavan
inspiring
##lihood
puffing
tatianna
inquiring
khakis
clouding
injection
fertility
merchand
margarita
rinsing
bloodthirsty
dortak
gauntle
bio
cuc
cpd
dapp
een
geryon
katelyn
uk
verm
varsity
wench
##sby
##iative
hectic
##anas
##anov
stanton
dovie
nebras
chucked
unkind
##ddles
stilling
carc
desma
finances
##ibu
##ibi
bragging
ignites
petition
thinning
malibu
witchcraft
labels
lustful
pageant
rustanov
brutality
inquiry
seams
steele
scotia
pledged
motherfucking
furrowing
gothic
ugliness
belligerent
whooshed
matteo
lettuce
opaque
advantages
nebraska
50
wage
wont
shehab
##illac
intoned
clattering
blacked
slug
##apa
quotes
scaled
lookout
underm
vost
contacting
compul
wring
breached
##aws
barit
recre
fallout
namely
squel
replica
watchin
cooks
marklin
sprinting
antib
spelling
harmon
cadillac
vacations
turb
contrite
hillside
dismal
spatula
lindsay
stanhope
culinary
prowess
dissipate
enchant
optimism
aggravating
clasps
jeopardize
inconvenient
shapeshifter
jurgen
kaitlin
pompous
##ghened
unimaginable
emblazoned
bans
dool
kaga
nour
nita
rated
##dri
##inator
##sea
webb
marj
marig
peppers
finals
damaging
apol
##spell
charger
squaring
squashed
breaker
schoolgirl
counterp
verify
flatter
meddling
sandal
meli
jumpy
donated
moonlit
buckling
curts
snarls
eyeliner
nudges
hoops
lilac
skillet
crafts
saddened
mechanic
dissolving
whoops
germany
resolutely
cheesec
snowflakes
inadequate
aquarium
##nail
##icuous
##chool
deimos
afterlife
bedspread
helle
barr
recited
confessing
reduce
parap
prompting
deathly
darrin
mailed
emptying
lapse
basking
rainy
adamantly
clockwork
donkey
discussions
irritate
settlement
lycc
quivers
charmion
decisive
flowery
purchases
congratulate
shoreline
unspe
gooey
reunited
bristling
microsc
gleefully
exterm
alleged
retaliation
deflect
unpacking
trespassing
jittery
fervently
hight
ibra
ks
lorn
mather
rv
ranger
##chet
##vil
##eden
bef
stinking
fors
shaping
##rode
rogues
movin
mocha
combing
manila
procl
ammun
wordless
careers
newer
bitching
lightweight
satara
incarn
accents
regulars
burge
desktop
woodard
cleanup
lawrence
brainw
pocketed
labia
punishments
nuance
linoleum
await
jacobi
tsk
escalating
mantra
diplomatic
loafers
twigs
chrome
sceltie
javier
concoction
doolittle
ibrahim
ammunition
29
rall
rationally
xire
##pour
##icting
lilin
shamed
frilly
weaver
overboard
opal
fogged
mayhap
peg
resulting
caret
mathes
sorcery
coral
##spe
catap
schm
honors
fingerprints
hangers
merged
orderly
informing
illicit
##iko
adams
issuing
marta
majik
debra
unshe
affects
dampness
decorative
dispens
gentlemanly
dorothy
ceramic
flavors
virtual
withered
slayer
periphery
dixon
jinx
yorkshire
baritone
hellequin
xirena
faze
lak
thug
heinous
receding
likelihood
howls
##irect
switches
##ptial
amnes
carpent
bedded
ads
##shire
babbled
entourage
redemption
##oyant
##ushi
##arais
malevolent
masquer
allowance
flashback
respectfully
succulent
##ettes
ratty
sobering
overtake
schemes
unconv
representative
neglect
inexplicably
unattract
vasili
acquisition
antiquities
marigold
apolonia
gareth
riff
##marais
stings
##verty
##ursion
sakes
##arts
blared
coc
coffe
poverty
scoops
marin
disk
desmarais
helene
##azer
resounding
##berty
chested
simmer
pleasuring
freight
landen
puberty
settee
solving
angelique
supermod
utens
immunity
rebelled
unfazed
animalistic
accessible
literature
competitors
scouts
ingen
assholes
mockingly
huffs
ingrained
lynx
tinker
subdue
cheerleading
cocoa
premature
indignantly
lectures
draca
adepts
precaution
scrutinized
diminish
marshmallows
cleansing
subsequent
unhinged
dual
ole
##lay
##pin
##isance
inked
aske
shan
shipping
nond
backhanded
teary
timbre
eyesight
sewn
brady
hairst
stoked
morose
retained
bushy
mustard
hitching
insol
burial
schon
honky
duville
despond
merjack
blondes
crescent
stiffness
injust
stalks
hollowed
##cheeks
banking
extends
croiss
crews
gulps
gauging
kerrick
delete
vomited
athlete
accusingly
crested
refreshed
contribute
applications
incompre
harvest
firefighter
diagnosed
moore
otherworldly
magdalene
coffees
askew
boud
vene
##oire
##rome
##race
##you
##vious
##orable
bender
##ainable
##agyi
##inement
manhand
sommers
wald
hobbled
callin
morgen
##aternal
coron
confisc
calories
nero
fasten
speculative
garrison
eyeballs
daniels
veranda
midsection
tuna
adjacent
targon
machinery
flutters
shameful
references
customs
succeeding
celestial
revolving
initials
maman
assembly
##azaar
miscarriage
camouflage
azmahar
cruelly
ottoman
manohar
angell
au
nast
os
pung
sushi
##mated
##yana
thrived
hess
##itudes
##omet
bearded
liana
##ami
soar
sappy
clinking
lol
loans
unrec
slain
graced
canada
expend
marines
elana
joints
lightening
##rette
floyd
dematerial
wronged
concier
insensitive
chaper
##ricting
spooning
builds
escap
convicted
##recting
cabins
##annon
flyer
creases
##iki
kickass
cruiser
workshop
westin
internally
dispose
authoritative
roberta
lawns
dazzled
episodes
craziness
daydreaming
naturedly
yarwood
drowsy
hiccu
##oscope
newcomer
bickering
mistrust
intercepted
angelline
pungent
kens
qt
yuck
##care
##first
##xie
##inos
heron
begg
shedding
##etary
fruits
##terior
chass
intro
spices
oral
oranges
swagger
carted
disad
drone
lottery
sweetcheeks
jeannie
dariana
gunning
wildness
wildflowers
ridic
profits
digest
procession
feeds
solidly
birthdays
intensifying
reverent
reverted
wispy
ratche
taxes
frigging
dignified
overdue
treachery
shooed
survivors
uncharacteristically
waggled
phyllida
dildo
proverbial
sufficiently
eenli
morgenster
##bot
##bri
##fires
##itory
leav
sparing
##ffect
snapp
evade
foremost
mists
sixteenth
gunned
billi
fleet
judar
teammates
presentable
blowjob
##ployed
photographed
breadth
conceive
atlantic
officials
removal
flirtation
impervious
rifles
##borne
astounded
dharran
recruited
reclining
splendor
hassan
unimpressed
fiddle
fails
##nuts
##bil
##bare
##rane
##orlder
soggy
##rock
backbone
##uled
boise
proth
wobble
disqu
skys
emper
keg
imply
respite
redec
controll
chancell
connell
countess
gunshots
threatens
supervis
colleague
immig
bearable
otherworlder
globes
threadbare
chewie
enormity
meaty
bravely
penetration
bombarded
horizons
berth
strolls
abduction
sketchbook
inferior
saucer
vendor
##atisfied
elongated
overpowered
disengaged
enslaved
cierra
kody
oison
##ogn
##uch
##mel
##phing
##xx
##erring
onward
##allo
clump
##oodle
loath
spaced
##ulity
slanting
slowness
wobbling
foe
mayhem
tongued
surfer
cured
drooping
incensed
delve
firespell
footmen
payroll
townhouse
rocker
ethon
informs
bowels
massac
estates
primarily
lyla
qualms
synch
accordingly
gymn
photography
montmouth
marisol
imperfect
divert
mccorm
slyly
duration
hustle
resonated
socket
hallucinating
philosoph
unheal
morrissey
jostled
reminiscent
divulge
sugary
interpreted
zephyra
amnesia
unattractive
concierge
31
zen
zahn
##human
##rates
##with
##rels
hermes
exce
seiz
premon
prided
hoy
maturity
bloodst
incidents
delving
braxton
shortcake
ballerina
weightless
incredulity
malach
buttoning
violation
unbre
gardening
separately
diallo
corded
matchmaking
wisp
crock
bulbs
nudity
bordering
rabbits
inkling
hysterics
jabbing
appetizers
gnome
vitals
imprisonment
smoldered
##gthening
aristocratic
uncharacteristic
depleted
absentmindedly
prothvar
chancellor
zahnin
ils
kw
##lon
##fo
##asse
beaches
##idious
dojo
nob
abom
roiled
deacon
bolder
chel
armen
relay
standoff
huns
droll
retail
recuper
forens
parched
promisc
defying
horace
sung
schooled
synda
camper
graying
cupid
misj
lordship
owl
innkeeper
hospitality
intends
drugging
prophet
bosses
judy
squeaky
avert
galloping
mystical
aimlessly
multitude
daniil
brig
proceedings
unhappiness
baldur
flares
novelty
motorcycles
executives
fulfillment
cackled
spewing
crippled
disagreement
euphoric
unintell
##bodied
groove
oregon
overcame
sabotage
reproach
bungal
tumult
outnumbered
infirmary
mccormick
bicy
oily
tiber
##gating
outcast
upbeat
uphold
extern
orph
enam
slou
trac
chet
skate
contraction
warlocks
keepin
mathem
floats
playin
objected
monsie
coverage
##heads
dreamt
presumed
practices
undet
suites
grimy
lengthened
trackers
suffused
maine
bounding
henri
scrawny
temperatures
dios
siph
faltering
rivera
dawning
rhythmically
jolts
zeal
##working
mimic
exclamation
interrogate
shamus
skiing
candidates
sterling
perverted
distinguished
renegade
ulterior
grueling
celtic
ungrate
dysfunction
barbeque
blithely
monsieur
bah
cess
macy
nee
oiled
##look
##wall
##jured
##arsed
##imore
stowed
sulf
logged
dehyd
boath
grumbles
peac
untouch
cramp
charis
discou
subside
darren
maim
greenhouse
convention
idol
strippers
fleur
browns
recognizable
strengths
midriff
cracker
innocuous
rapier
costas
boardroom
##aulting
ghou
dispute
explosions
graduating
forbidding
##offs
grooming
twitchy
accusatory
anchoring
methodically
obscure
analyzing
granddad
aksel
insects
miguel
thrummed
bombshell
disintegrated
sneeze
monitored
jugular
shapeshifters
burrowing
discharged
autopilot
sledge
tandem
uproar
slopes
cheesecake
hunsacker
boathouse
bane
pax
szil
##zel
##otto
##urried
shannon
anapa
handgun
blanked
pliant
bog
scores
opulent
perusal
secondary
humour
shitload
catered
chancey
eighties
erasing
isabeau
smoothness
lexius
##oda
digits
sleeper
flickers
titus
unhurried
initiative
##immel
lizard
cubes
praised
dazedly
junkie
tendril
withering
administrative
reclined
snotty
flattening
jorval
tapestry
##manship
regroup
viscount
leavin
paxan
szilagyi
gaps
keel
vult
vases
##neck
##gro
thalia
halves
athens
ante
mojo
maroon
##olitan
belied
##uces
impish
courting
aww
wallowing
mushy
lucrative
parental
recoil
rocketed
formation
cockpit
encro
treatments
musicians
balt
unequ
observant
tangles
whitt
arouse
debau
vulgar
identification
afforded
squirrel
fragments
intrigue
racket
priests
lawsuit
oversize
scheming
limitations
accommodating
waltzed
highlighting
rearrange
bypassed
fertile
jingle
impotent
unwittingly
merchandise
morgenstern
unhealthy
ilsa
40
awn
bapt
yum
##ugn
##burn
##wes
##erver
heire
##ongh
washer
##icia
##icolored
liability
fraser
nosed
units
howard
slant
##blem
append
decanter
drilling
rupert
respecting
deli
reds
parish
collateral
imagin
harming
##peare
footfalls
pench
eventual
weighted
guesthouse
preferable
unfl
labs
chatty
shakespeare
nuisance
##rolling
accentuated
warns
stockton
jabs
diverted
atticus
rectify
taunts
yielded
deterior
intervals
encompassing
riddled
orphanage
halleigh
vindict
reiterated
powdered
ultimatum
ashtray
ungrateful
heiress
fax
##bread
##bags
##vard
tote
##aro
##arin
onlook
meager
shushed
abl
worms
swish
swarming
chevy
untangled
partway
gravy
attracting
slows
sunscreen
fees
soull
affir
ghast
targyn
daisies
squeaking
stature
thompson
inspire
pleasantries
fluids
emerges
politeness
communications
alphabet
rejects
overheated
negotiation
saddled
abandonment
huffing
museums
participated
astute
erratically
crazier
administrator
chandeliers
vrekener
compatible
emperor
untouchable
hull
tacked
##eight
##nies
##finn
##yards
##erable
onero
##imeters
staunch
anto
align
lois
roved
coiling
slinging
canine
willis
mouthwater
hash
touche
pressured
hurtful
crafted
completing
funky
relegated
creates
misinter
transaction
keyed
innocents
unbidden
immersed
scoots
instruct
initiates
kristoff
hamper
calculations
civilian
berries
kerry
jarred
shackled
proclaim
misunderstand
superiority
simplest
sulking
contentedly
scoured
meekly
unmarked
thriving
hendrick
hodge
disclosure
pencils
bimbo
rubbish
syndrome
marjorie
penchant
oneroi
font
pores
sall
sans
##nce
##tu
##vo
##erb
##aderie
notified
agape
knowin
##agus
loathe
slather
afterthought
evasive
cornel
laughable
accost
shits
delusions
magister
musings
concoc
patty
hargate
feign
devote
hungover
irides
engor
paneling
sharpness
billowed
flattery
encr
malefic
testicles
tingly
electrified
tentacles
lovesick
zachary
investigated
##aunted
dismounted
selfishness
stacking
adjustment
jokingly
alcee
biology
galax
hypoc
quirky
intruders
ornery
augustine
barrels
rehearsed
uninhibited
jala
icu
rapture
spewed
tabloid
singsong
melodram
dagfinn
flippant
camaraderie
hierarchy
painkillers
brecken
balthazaar
athenea
ghastly
dully
fumes
pucker
rimmel
hec
##enzies
beheld
rewind
reggie
##alus
##ieux
chunky
##ando
plop
slunk
thoughtless
muck
talbot
##aval
repugn
ministr
retract
edin
squash
childlike
funnel
choppy
huss
depri
misfort
undulating
dimp
preferences
varo
##deness
mackenzies
nyx
raymond
ramire
stefano
trashy
alleyway
feverishly
nauseating
empath
kuj
nashville
dentist
indecent
tweaked
tidbit
disobey
trotting
chemicals
meticulously
unfurled
haphazardly
adriang
clumsily
ambassador
rallied
unbreakable
sulfur
fusion
##yrin
##wart
begu
beading
mege
##stan
reinc
##usters
exile
preceded
goodwill
##olved
peggy
friendships
impre
drips
talker
meter
flooring
deprec
petal
sandpaper
propelling
clutter
jamming
tempest
unfathom
labyrin
lusting
varied
millionth
holler
inebri
experts
deranged
femininity
traditions
emeralds
balding
overturned
vengeful
salesman
reviewing
taser
navigated
snugly
sockets
sculptures
retaliate
thaddeus
mulling
appraising
pummeled
infatuated
submerged
unrecogn
edinburgh
kujoo
megeara
labyrinth
35
##hires
##iyah
##oro
##arity
hera
##lda
doggie
uphe
chaz
lei
##eremon
handic
handmade
##oodoo
exorc
smoo
unad
user
cav
capped
marrow
contracting
##iseum
repet
reposition
hues
imposed
coliseum
barbed
invention
invari
ranking
unceremon
nibbles
##orno
lunche
gentler
informal
breastbone
specialist
provinces
difficulties
tabby
radius
wheeler
lesb
solidified
tanks
courageous
rams
multicolored
jacuzz
livi
resembling
nauseated
outrageously
pawing
fluffed
unleashing
astley
disturbance
hacker
unnecessarily
enchanting
contradiction
rancher
bloodlines
hassle
vampiric
monumental
volcano
welts
zigz
##ranean
chelsea
encrusted
reincarn
invariably
caging
oaks
rave
voodoo
##hm
##fig
herbal
inane
##imon
##antes
kneed
##rov
agnes
headfirst
muddled
##elli
starlin
endowed
buys
seraf
morsel
squints
cutter
indigo
spotless
mismatched
noticeably
pottery
roughness
impossibility
rebound
audi
franka
ghoul
primly
dispatch
occupation
cyrus
##pherson
mysteriously
popularity
heirs
deleted
surgical
skepticism
rampage
tribes
slithering
rendering
rafters
saucy
excessive
astonishingly
thrumming
compensate
lightwoods
bawling
harassment
##buds
reinforcements
##patrick
inflection
vixen
eardrums
kaelas
ramirez
impregn
nips
pher
pimp
rere
tavi
##tons
theoret
##oral
inanna
stumbles
##urred
##illo
leland
looping
intoler
roddy
wholes
quiz
##dder
starry
amond
underg
woe
skated
contam
emailed
resided
resorted
resuming
tonk
godmother
retic
##ivided
uncur
purge
collision
##ouncing
artfully
sprinkling
erad
misgiving
mirroring
kyr
michel
opposition
wolfish
succinct
murderers
harmonic
dampen
corrects
complication
lyle
loyalties
dispatched
developments
dissu
blasts
gerry
fondling
congrats
mistresses
shalott
encouragingly
skittering
dimensional
kirby
kalam
dubiously
unfasten
inseparable
incompet
intervened
inhabited
propriety
seaside
peppered
chords
marshmallow
obliterated
constrict
monotone
traumatized
##ulterated
injustice
##western
engorged
ministrations
bau
cac
ebbed
fes
lakes
rakes
sizing
tarm
##birth
##kick
hailed
reent
##adays
##eeb
noc
chave
##eston
spree
nowadays
canned
disse
hairbrush
grazes
strains
soundlessly
relived
hellish
implo
minivan
evilly
excursion
wholeheartedly
spoons
danica
baths
picket
packets
booking
malone
province
bunnies
mixer
commenting
gloating
conditioned
stressing
baiting
stocky
hastened
fledged
shredding
exercises
kessar
announcer
handcuffed
roughened
##market
collapses
lumines
crippling
scoffs
rakken
jiggled
dislodge
alabama
barricade
sloshed
derisive
authentic
phallus
courteous
lollip
unbalanced
soulless
misfortune
jacuzzi
pherom
tarmac
chavez
aids
eir
han
lasc
##hart
##nest
##eros
##itzer
dozing
outstanding
alum
blizz
coals
moot
enl
trains
marring
##enson
drizzle
barge
##phies
##speth
airborne
paragra
patri
insuff
harc
daed
darlene
exceptions
puddles
undivided
bullied
casts
weirdness
brands
##iker
published
utters
juke
irritable
settings
unexpl
gallant
rotating
decisively
negotiated
cravings
revelations
pandemon
phrases
##ariah
bachelorette
keenly
dilapid
shala
inquisitive
administration
insect
postpone
crickets
overshadowed
flabberg
bartenders
energetic
turbulent
baltimore
maleficium
kalamack
sired
onion
forks
shush
downcast
brom
vehem
undergar
surges
earpiece
founded
blacks
incrim
covert
##orsaken
missile
coffeemaker
ringlets
artic
weirdo
fortun
wheeling
sniffs
fabrics
zachariah
buzzes
gems
similarities
activated
beeps
pige
kilter
frequency
accuracy
summit
profoundly
descendants
teetered
decreed
pesky
melded
freshen
eliciting
kragger
tumbler
pavil
ablaze
iridescent
unfathomable
daedalus
vehemence
faul
thunk
hapa
##omer
beady
staged
shied
frick
moll
##istical
grilling
##thorn
projecting
prude
elspeth
pebbles
compel
untamed
straying
wrang
homey
keke
gio
lighthearted
spooned
tenuous
preschool
markers
tiredly
undies
strengthen
malfunction
mica
masterpiece
nursed
delighting
cordial
holliday
steeling
interviewing
liza
unconsciousness
implored
unzipping
beefy
freckled
intricately
championship
vials
dewy
hiccup
recommendation
cecily
imprinted
scuttled
upholstered
explorer
psychiatrist
enquired
electrifying
unadulterated
kansas
whil
reined
deird
ark
##ortant
ammo
emmy
snare
snorting
hells
servers
kindling
corps
incub
napping
detector
collared
election
harried
griff
##alsa
extinction
puking
fairness
creativity
penance
##anners
thumbing
stylist
opposing
courtes
campbell
audio
rhin
debacle
scanner
teeny
buttery
dunois
krista
swipes
transferring
crispin
awaits
199
bristol
cynth
gleeful
simplicity
placid
unraveling
plaque
gorgon
prejudice
parenting
shunned
unoffic
lasciv
whilst
deirdre
dir
jotted
tamped
##rator
##fus
##pool
mement
##alcul
whatcha
##chairs
ros
unass
headlines
##igious
flows
manus
swel
swished
betsy
mule
##nings
hardship
emil
intercept
ruffling
farce
kingly
susceptible
stupidest
earliest
aha
flashlights
motto
tickles
tuning
instantaneous
joyful
ambitions
global
bankrupt
requesting
gossamer
mythological
gratifying
deceive
homesick
lofty
austen
tribute
##marks
dudes
grieved
prosecutor
refrained
unforgivable
meandered
furtive
stratford
carcass
dimpled
dilapidated
ej
mak
salsa
tint
##uire
##ndi
sheila
##othel
novit
chiff
alibi
brothel
manne
caked
marlow
disabled
comprised
warp
mindlessly
wracking
kinder
##ibs
incense
entangled
complement
squab
promoted
freel
unco
puncture
salter
pett
thumbnail
antise
rainbows
construct
thinly
supervision
sedate
psychics
humorous
tracey
wilkins
loosens
drummer
bustier
remarried
gauzy
imperious
veronika
participating
sapphires
accelerator
splintering
condemn
skirting
indoors
unimportant
attributes
rauc
reboots
skeletal
skeletons
accumulated
culligan
aspirin
hyperventilating
maurice
flabbergasted
achy
dummy
rife
tyson
##ko
##joyed
##orating
stave
dogged
friv
##illating
chom
spor
plaza
flank
flaps
flitting
poly
dispar
steamed
resign
##bbering
decree
bugger
motherly
minx
drab
demp
consistent
busily
awash
broach
kingston
discom
detested
commenced
bagged
smelly
mermaid
erm
tasteful
mortifying
wolfe
vincet
travelling
statistics
engineer
rickety
quarry
##erva
unloading
granola
pitying
carpeting
grinds
stretchy
heroic
annoyingly
dormant
perfected
ravens
reece
kerr
playfulness
interfered
nefar
sultan
gawk
bridges
pharmacy
grenade
narciss
fierceness
implacable
gauntlet
cucumber
ghouls
luncheon
ejac
frivol
gaming
pagan
raul
zing
##sce
##hi
##uer
##dale
##fax
##ndous
##itous
##ights
chops
allig
overjoyed
timber
##akably
capp
calloused
emits
##uckers
jovial
pertinent
apprent
lightness
silas
paste
infidelity
inscr
bellorie
largely
striving
bunching
unfaith
crawls
suckle
camped
varn
harshness
gloat
hookup
politicians
unknowing
volunteering
resentful
khary
richest
aggravation
australian
intuitive
relinquished
distinguish
godforsaken
chimney
unconditional
scorpion
sociopath
rhetorical
##hawk
gilly
ii
nag
ply
vor
yvette
zu
herond
reigned
##uridge
hadn
##ppe
goaded
ageless
oversee
unfriend
mos
comr
vella
doorways
##azy
adul
assailed
ohio
druridge
famished
placement
damsel
tyr
brotherly
regaining
replen
##plate
fucks
fairfax
urine
classical
bleary
cabot
tallest
incline
cresce
casshorn
storefront
investing
resistant
diane
furnace
engineering
carts
farmers
speeches
obeying
pecc
lizbeth
##hhh
octave
brewed
josephine
cultiv
exaggeration
borrowing
predictably
cautioned
resonance
disposition
migraine
vendors
craning
maternity
glacial
amplified
homicide
unclenched
kathryn
unintelligible
blizzard
nefarious
bain
jest
pigg
sie
wages
##lies
##bad
##isation
belf
##still
whooped
asmo
savy
##rob
chiding
alston
clair
blunder
smel
smattering
arced
moreover
managers
##ileen
grits
scans
##ortex
partition
snowing
endanger
okada
minion
##ailable
airline
accounted
besotted
magstrom
clearance
inducing
sentry
grandk
synt
forgo
advoc
stepsister
conducted
splinter
commando
##boarding
commentary
majorette
mega
fearsome
fantasize
imploring
desserts
imperceptible
unlucky
outsiders
uninjured
mamm
lulled
unraveled
mulled
overreacted
executioner
gurgling
nuns
noctorno
impeccably
glimmering
inhabitants
onlookers
unrecognizable
unceremoniously
chiffon
inscrutable
eri
lag
lint
nailing
rieux
siber
tinkling
##bumps
toaster
hesham
rearing
##rogen
chanced
overrated
headrest
manacles
goodies
takeover
footh
##olph
adoc
##moor
interject
gazebo
charmer
broker
refoc
continuous
funk
thrash
lunging
amaze
##ologically
recognizes
embell
frustrations
fleshy
styl
maslen
kyros
##vinced
deliveries
rubies
tarp
orgasmic
teacup
northrup
jayla
epip
thoughtfulness
emphasizing
rivulet
astounding
unconvinced
elinor
blindsided
reflective
enclosure
electronics
supervising
arabic
eloquent
applauded
perdition
unearthly
antibiot
hussan
pj
pse
tiara
##fuck
##anned
##escent
levered
clank
##abitch
thereby
robbing
roland
copp
scon
scampered
preced
##ddling
guise
marital
hardy
heartily
apost
babble
charitable
childbirth
discourage
tribal
beneficial
##maas
bathy
ethics
thicket
salads
despicable
ridin
undes
owens
##cox
gathers
musician
personalities
milly
accepts
learns
provoking
orgy
ambushed
fateful
knotting
thunderstorm
spanned
crisply
flowered
goosebumps
florist
revolting
rasps
rectangle
contradicted
contributed
omega
lisi
##escript
paramedic
dreary
grappling
parameters
congregation
claustrophobic
carpets
nondescript
incomprehens
nobility
hecate
marlowe
dempsey
pseud
bam
fow
fumed
lament
zan
##ugr
##bu
##face
##pits
##enia
inno
stint
##illot
chipper
sums
alerting
blushes
moons
plow
plaint
boister
acrid
trinity
preacher
steals
contend
##shmi
hurling
draugr
evor
recrim
##iences
polishing
formulate
narmer
exhalation
condol
splashes
judges
populated
##osti
wanders
##ionaires
faceless
seasoned
##eroom
kimberly
coughs
pedic
##unders
monstro
keris
ushering
accommodations
sustenance
chirping
topple
vessels
reconsid
demolished
fritz
noncommittal
votan
lakshmi
hoyt
misjudged
vindictive
serafina
antiseptic
bathymaas
aide
hq
koh
pore
ranting
siding
##vantage
hern
herded
beak
##stro
reven
##iries
nell
nott
chitch
##venir
downing
ensc
scrying
premi
rightfully
##adeus
disill
embe
##olm
realtor
mindy
demar
incant
charise
planks
readers
severing
crossroads
darryl
narinda
souvenir
merger
informant
firmness
foreheads
angelina
masoch
notebooks
renowned
electroc
psychologist
breezed
ramming
emergencies
raggedly
lumpy
improving
incidentally
pilots
pistols
manicure
extraordinarily
dabbing
interpretation
trampled
myriam
rambled
mushrooms
genetics
mongrel
cosmetics
skoti
surmised
pinpricks
supervisor
mouthwatering
cacoph
enscon
aiko
luring
pinged
##lave
##fired
##orah
##orph
nekk
ifs
roped
coaching
unarmed
seals
pokes
scoring
imbal
amadeus
restricted
wonderland
quicken
##ivoc
farms
buses
benlo
foresee
infested
drinker
irked
drawstring
bottomless
mede
oddest
savvy
unevent
regretful
masking
snowball
celino
lesley
cowered
aria
glock
chaosti
ensuing
contrasted
complicate
dismayed
ramrod
seventies
docile
occupying
arabella
contemplation
scribbling
martinis
kilpatrick
stammer
festive
absurdly
culm
advertis
hindsight
binoc
cackle
alfred
sensitized
peasant
wannabe
unspeakable
disadvantage
charisma
galaxy
pavilion
crescendo
asmodeus
nekkid
32
pisc
sere
sss
ull
##othes
stately
##alina
buts
theres
lolled
spiced
downside
unke
seaw
slitted
comed
mans
prepped
##ptured
exponent
makeover
hovers
remi
adap
crass
stupe
girlish
workday
blackm
rudeness
understated
##entionally
reclaimed
catar
batman
latex
crows
panicky
pretends
ants
profitable
affl
illino
styles
seniors
portable
knockout
audibly
injure
sanction
mcgill
improv
mandatory
praetor
illuminate
bargained
clamoring
pirates
rejoined
obtained
eaglen
ardu
producer
pierson
hanson
diagnosis
spouting
ditto
warranted
premonition
enamored
melodramatic
disillusion
illinois
mapped
pard
tagging
##bred
##rain
##rition
##gien
##arf
youtu
stater
withheld
weas
neva
sunda
plank
plains
acre
quake
twine
prospective
cheaper
taliyah
emory
pea
##lington
##lesh
sleazy
barging
evaded
probation
monop
benign
meeta
shitless
squish
deference
horre
brawny
readied
murray
shrubs
trixie
dreamer
wines
grope
circulation
boxed
suspension
groupie
surfaces
debil
inhales
unsaid
dutch
furnan
increases
pitied
crops
linley
insistently
rigidly
ramifications
spectator
dorada
balducc
arcad
pineview
fleece
recipes
sequined
sequins
hackles
beverage
submitted
rossi
olympic
cathbad
vigilant
strutted
alabaster
abstract
niggling
crevice
aurel
protein
cheeseburger
seizure
awning
pheromones
chitchat
benloise
youtube
aa
iii
ov
pd
##fied
##erently
##amins
nect
##cend
##lful
braces
booms
swal
callias
skank
mays
finley
decomp
##mos
fathered
puss
startles
sleepover
halfhearted
delaying
distinction
topless
discord
chokes
doubly
mait
greenery
maxwell
deserving
bases
mediter
charleston
savag
romantically
courtship
ranging
kenji
identifying
dunstan
bleeds
addresses
versa
nuzzles
sidetr
researched
hedges
necklaces
pearly
##naturals
conceited
lorna
pentagram
companionable
toothy
influenced
tackling
restlessness
sorcerers
rivaled
astride
steepled
escalate
venomous
azure
liberal
privileges
twentieth
navigating
prowl
placate
magnetism
interlude
disrespectful
sneezed
renegades
orchard
pontiff
correspondence
contraption
nameless
unsheathed
bungalow
external
ensconced
binoculars
nectar
mediterranean
erupting
gore
hitches
rer
tiring
##far
##xy
##vale
tohr
thai
thrive
##eton
staking
##icomb
fron
isle
loped
spand
unap
armies
guer
guine
##oling
##arkened
snipp
hellhole
##ordie
recite
hums
##pha
strapping
sleepin
brighten
lieu
misread
balked
supernaturals
dicks
temperament
fervent
nuances
tonya
explosives
bouncers
omari
emphatic
##otchy
wyndi
proceeds
teleported
compromising
sophistication
implicit
chirp
##jacket
sulk
lynnette
dynam
captivating
scouring
disobeyed
hallevar
elicited
homicidal
undertone
structures
prudent
curtsied
whitticomb
upheaval
emilio
coppery
piscary
ullah
unkempt
unapologet
benson
dined
fick
rump
rural
##uddy
thy
##llis
ingram
inmates
##eta
##etted
notify
smudges
##inks
##apolis
waxed
disent
##bele
tryst
pebble
pebbled
putrid
adores
sno
womanly
plex
assimil
hurries
bloodred
blackberry
eyeful
wrapar
patent
luken
sensei
singe
studs
checkered
wildlife
peterson
constricting
nicolas
richly
massages
magnified
equil
##ippers
avoidance
overweight
marti
examines
trainers
professionals
acquiring
dismant
cybele
felines
hypocr
illegit
obscuring
inquiries
revolved
ornaments
interrogated
boule
adoptive
devastatingly
##birds
disposable
querida
##drops
wheezing
syllables
protruded
quizzically
thwarted
persistence
restrictions
utensils
massacre
sledgehammer
aluminum
incomprehensible
wraparound
hypocrite
barth
lanced
oz
tress
ulf
##bury
##inence
heh
hepha
##aya
##amar
notions
theyd
conley
orbit
cheater
clogging
firms
contains
gravit
courier
assisted
attired
holdings
tyrant
corny
##owski
distressing
##ceptions
fullest
hara
##plant
bellows
honked
smoother
presid
absol
conventional
cooing
ordinarily
##coats
katra
grouchy
weirdest
unending
suitors
rennes
filters
observer
unfeeling
hygien
unsur
recorder
assisting
floods
titled
randolf
gearing
soreness
berta
lifetimes
haymore
purchasing
bartending
oakley
absurdity
canteen
enforcer
kneels
toppling
pallor
dvds
evaluation
worshipping
residential
unintentionally
aftershocks
incorrect
reboot
adversary
conspiratorial
aeh
unsuccessfully
ricocheted
forfeit
preliminary
caretaker
##racelli
sporad
maitre
cyl
rousing
yah
##wire
##heast
##atters
##seen
fornier
shucked
atlan
anest
necked
##rig
handmaid
loit
sphere
unacc
##apest
nevermore
armpits
mademo
amdar
marbles
disarming
breather
##tended
snagging
##sha
girard
crushes
retracted
##osaur
quickest
ruffle
farah
consens
dads
laynie
feasted
groveling
humanly
grays
wooded
##annies
normalcy
shocker
lexus
donoh
latching
reflections
numbered
##elessly
matchmaker
identities
operatives
budapest
squirted
shrunk
heroin
calculation
newlyw
hopelessness
dungeons
countertops
provocation
dracula
ascertain
fretting
brazilian
millennium
batteries
aqua
intellectual
hypnotized
lathered
swooning
shriveled
flanking
glumly
discouraged
raucous
unfaithful
grandkids
blackmailing
spandex
atlanna
amdarh
boned
dibs
rookie
vying
whale
dolor
fruity
##omew
leering
alanna
conlan
overrode
spills
coils
coppers
ungod
slats
poses
swath
explet
caro
##olomew
matrim
assorted
attracelli
endarkened
lightbul
talkative
##umbly
##renthal
rufus
##ixol
askance
bested
highland
##gins
mirage
sorta
ringer
streetl
casinos
handedly
balk
filmed
violin
peacemaker
portr
mentaf
changeling
investigative
arrogantly
cigars
enthused
branston
interruptions
gratification
losers
unrepent
trademark
lacer
vegetation
methodical
vitamins
seamst
scurry
achievement
ummm
coloured
condemnation
coordinates
trophies
placating
strategies
unscrew
bypass
pansy
cranberry
encompassed
analogy
glimmered
prestigious
beseeching
recyc
microscope
supermodel
peccavi
condolences
catarina
mcgillic
bartholomew
ulfr
mademoiselle
donohue
mentafixol
dac
gidd
paternal
##non
##jah
##heus
##ndip
##orked
##lding
stacc
##lyps
wharf
livel
##ams
chiss
rosen
deodor
mannered
quaked
poise
carouse
caust
joc
cougar
##shift
cramping
stayin
paints
ruddy
hotness
deluded
redder
##gerald
indist
showc
uncrossed
diners
doubling
suspecting
panes
merrily
alexia
sarong
broader
tamar
nugg
enslave
dialogue
selfishly
adjusts
bindings
influential
janitor
mercifully
covens
prospects
snickers
lacybourne
documentary
peels
resurrect
coordinated
smearing
overrun
lungful
fitzgerald
conquests
vrekeners
exuberant
gadgets
grisly
estranged
matheson
inebriated
cacophony
serendip
equilib
aehrenthal
mcgillicuddy
staccato
cau
ditching
misted
nagged
pou
pag
tard
##hara
##cond
##mort
##oto
##urer
atone
saves
blames
mosa
plight
slums
quill
calyps
##ggies
skips
desolation
pastel
walled
maguire
highs
fireflies
sensory
groot
polka
torrie
forgets
solutions
locating
milla
millionaire
geordie
generic
taill
##eyed
viral
estes
unsna
socialize
dispel
designers
nastya
omigod
kidnapper
shirtslee
scorned
bouts
spectacularly
sailors
fetching
blessedly
scrolls
boomer
mikal
prostitutes
vitality
mamita
reverberating
provocatively
alarmingly
deliriously
maniacal
spasming
chrissy
tulpa
unavailable
icky
extremes
lyccan
unequivoc
ramsden
misgivings
unfriendly
boisterous
arcadians
ungodly
equilibrium
calypso
dmit
hann
loner
pom
pere
ponies
tanger
##era
tox
anders
##orated
##ometer
##idi
##leto
##imating
docked
lilt
shim
##rians
blanks
##ulus
coaches
disfig
mouthpiece
sniper
crates
believer
plaything
confer
confinement
delong
wrappers
grovel
doubtfully
brighton
pups
valhall
misbe
commitments
copied
instructors
nuptial
mortality
handfuls
bulletproof
myths
ravish
acknowledgement
fountains
coyly
astron
sandwiched
resurrected
rearranging
esper
tiptoeing
reconciliation
detonated
choreogra
crisscross
begrudging
sphinx
lesbian
kohl
premiere
uneventful
illegitimate
dmitri
42
bong
dented
ebb
fad
gill
tenses
vortex
wimp
##pm
topping
recede
##icum
lique
anom
nobles
chil
backlash
clause
##estones
orb
headset
quip
scumb
swooping
ames
underage
momentous
##onto
ohmy
standstill
treoir
corks
entailed
##ceptibly
figment
default
fireman
bragged
businessmen
commune
palming
bookcases
misle
frogs
flyers
vanqu
possesses
screws
opposites
postcard
existent
facet
shoveling
inflamed
rodie
spiteful
bikers
lamplight
albums
ferociously
participant
clambered
citrus
swivel
squatting
engulfing
##barah
pedestrians
sardonically
scuffle
evolved
yarbarah
affirmative
knickers
nocturnal
jukebox
undergarments
lascivious
monstrosity
savagery
chissolm
36
ayer
iow
ira
omb
pm
pas
rile
yale
##nor
##crap
##vall
herve
##iman
ati
abject
clanged
clumps
unop
unbe
unident
unbrid
offhand
commod
poet
swap
waffles
hoot
amie
##olos
##osecond
untangle
lightest
satiny
implement
secondhand
##ibule
barf
barista
accidently
broc
passages
mutt
hungered
specially
conversationally
depraved
wakefield
macaul
uttering
creeped
fueling
diagon
unwise
damnedest
combine
dalry
inept
##ismatic
versions
cradles
disposed
rotation
##aroni
pecked
skulls
rewards
kadence
ornament
experimenting
vestibule
abduct
feasting
representing
actresses
trolls
nanosecond
noisily
elys
hagne
otherworlders
slinky
retrospect
crisscrossed
conveyed
charonte
assuage
necromancer
painstakingly
burgeoning
carpenter
controller
concocted
exponentially
fickle
hephaest
delongpre
valhalla
macaulay
bale
eater
egot
nyn
##dam
##rast
##pipe
##was
##inas
##inately
##utical
##irie
nox
chugged
##eland
##aceutical
robber
blad
uninter
uninterested
deidra
enabled
slum
switzer
armchairs
##issions
##assy
peed
##quets
assurances
drills
gior
draper
blackthorn
pasty
consulted
metro
corin
traver
traff
brocc
cataly
caliber
kidney
harassed
lunches
crowed
cues
streetlight
limbo
testy
##ambles
filip
sniffle
napa
rigged
etion
heroes
programming
##itarian
ravishing
buffer
briar
glossed
bumpy
chanel
altitude
vigorous
fencing
vinegar
punctured
suffocate
unforget
havenhurst
eavesdrop
lecturing
jostling
jingled
helmets
cobblestone
knifed
burglar
surpassed
reschedule
graffiti
mammoth
stateroom
unopened
unbridled
switzerland
broccoli
gory
gulf
ib
sutton
va
vader
##gments
##isle
liars
##outhing
##ilted
goading
leve
clanging
##estine
spattered
##ulu
sludge
##angles
##ggle
disinterested
walnut
firstborn
phrix
matas
cramps
homeland
toug
sittin
hunts
sexist
colbie
barring
tablets
entail
calms
patched
discont
discrim
sensually
protects
puny
garner
sprite
medics
spluttered
balustr
suitably
masse
mottled
mentions
sneering
necessities
bryant
tunes
tango
blanketed
delights
##ottie
descriptions
mcpherson
offerings
gyrating
galloped
nylon
##aunchy
dumbly
dumbstruck
kaye
arresting
karin
percentage
dormitory
prairie
flawed
martyr
cultured
rivals
convulsively
gawked
dental
airplanes
saucers
encircling
apprais
bridle
firefighters
aptitude
revisit
frisbee
funniest
tesoro
billiards
horrendous
iowa
hephaestus
giorgio
dard
eileen
jh
kite
kost
##sin
##bol
receptive
shagging
soiled
backst
intensive
##auding
conception
thereof
blistered
downpour
unapp
unseeing
lettin
shoulda
caw
caz
disowned
perish
careening
curv
recapt
invig
paraded
dina
camel
mistreat
ballistic
weakest
browneyed
basil
bulldo
bowen
macneil
generously
stunted
indicator
reverting
manageable
nyk
mystified
consummate
northwest
isaiah
tendons
alys
wyvern
lasher
scribe
nineteenth
laboratory
riches
administer
blessings
pallet
##bodies
##folk
grooves
pharmaceutical
phyllis
residue
trevayne
figuratively
fledgling
fledglings
abnormal
synchron
frivolous
boulevard
deodorant
hannibal
bladder
browneyedgirl
brib
eek
gers
pike
sways
uber
vann
##sman
##oes
##core
##game
##eties
liken
weir
suds
clings
spind
teard
everett
##umple
seizes
semic
flore
##achable
hoard
##aho
##hesis
crinkling
crumple
asserted
drains
gib
morrow
worldly
wrongs
coverlet
patti
thrones
severity
merits
petr
erot
alexand
lockley
surrounds
featuring
buckles
ticklish
deborah
bayport
tailgate
ensn
plunked
holstered
##ologue
accomplice
balconies
crowned
stilted
unrequ
expands
kasen
fundamental
scalpel
##ennes
spearing
skimmer
blossoming
handyman
contribution
anonymity
principles
tranq
eww
lectured
produces
producers
stealthily
approvingly
cavalier
whizzed
berserker
censure
sheikh
disloy
cocaine
peacock
vultures
luminescent
herondale
ohmygod
catalyst
dardennes
cents
doting
fazed
gist
mice
ness
rior
vista
wiring
##eza
##lied
ines
wha
sopping
goons
justine
spiel
smut
unob
brimmed
##ifier
disarmed
loveless
eluded
realising
drastically
shopped
standin
mines
tylen
redo
redee
##moral
readjust
dinosaur
battering
conniving
markets
cabeza
hugely
lockdown
affixed
nicu
specialized
macaroni
provides
propel
masterful
purest
fifteenth
decoration
chews
##astein
ventures
granting
bronco
##aaa
wooing
cocooned
bunkhouse
excruciatingly
splinters
unclasped
sampled
wadded
marginally
brochure
jumoke
precipice
conducting
apparition
kensington
lollipop
synthetic
riora
tylenol
fidelity
hick
rains
xed
zones
zoned
##some
##uh
##idences
stow
upstanding
##iless
abroad
##rag
bluish
arbit
flint
flings
bystand
aflo
##ourt
cheet
printer
##actic
muffle
starvation
workah
silences
impose
retr
monkeys
monologue
humping
inciner
charismatic
catty
elected
sentries
choker
grogg
claus
connie
coolest
comforts
lapel
deprive
fitness
billboard
wearin
olives
stiffens
prophes
cruising
portions
destroyer
latent
knowledgeable
hosted
lovese
birdie
stealthy
archives
paden
ramona
formerly
impulses
selecting
toyota
pigtails
quirking
guarantees
198
hummingbird
keening
transforming
nutrition
dharo
sumptuous
prettily
clementia
mischievously
pulser
intrusive
lunges
tremendously
inconsp
withholding
ceremonies
detachment
dissuade
unassuming
epiph
##build
carousel
shimmy
unforgettable
afloat
bix
dottie
founder
kinsley
kastein
rach
zary
##not
##bab
##vana
thaw
##owel
dope
shins
atom
wend
unpert
enlar
boon
arom
artery
slipper
quits
rightly
##assion
starg
starring
nightstal
skis
finale
realities
lighted
##ordinate
throbs
defer
lug
julio
lineup
camden
pinn
caption
honeyed
malena
equaled
campfire
temperamental
weaponry
langford
averting
cheri
languidly
exploit
fluke
wreak
warlords
intimidation
carlisle
neighborhoods
calculus
sauntering
khal
railroad
analyst
plopping
startlingly
spiderwe
preoccupation
stems
commissioned
outwardly
yielding
bloodsucker
notoriously
disobed
gurgled
hawaiian
stuttering
fixtures
exuberance
paula
celibate
turrets
resourceful
confiscated
manuscript
mosqu
innov
weirder
zarya
cen
gia
karm
oc
ory
##isd
mended
liable
shank
sooth
slater
quoted
##actory
armoire
runners
##osy
blackout
blackma
edition
deluge
squirt
parcel
damnation
continuously
schooling
##boats
landens
salve
especial
crowbar
climate
magnol
kicker
grasps
##glow
boardwalk
kenna
cloudless
sells
tours
crosby
accords
targeting
pizzas
dispassion
wilma
etude
foolishness
straws
spiking
maneuvers
coincident
spurts
demonstrating
chefs
dotting
resurfaced
peanuts
raccoon
presumptuous
mournful
fernando
jurisd
reciprocate
reopen
scrumpt
cartwhe
nimble
masquerade
sommersgate
sconces
egotistical
alexandria
unrequited
blackmailed
cadd
icon
milled
sut
von
vee
wading
##cs
##lady
##gically
##tone
behead
onboard
outgoing
abiding
##riz
##riere
alias
clusters
lolling
##esta
spunk
timidly
coving
arise
flounced
veer
swiss
swoops
##ections
longtime
teller
voicing
steph
minding
assaulting
runnin
retiring
treble
windy
showdown
paolo
commend
preserved
meditation
cameraman
affinity
regretfully
visitation
provisions
fortified
arilyn
brynn
adorably
moistened
ventil
##blown
governor
pelted
raluca
demean
assailant
nicolette
doughnut
andarions
debrief
silhouetted
chopsticks
renovated
renovations
mercenaries
rebuilding
sputter
disneyland
receipts
capitulation
cavalry
burdens
diligently
contingent
disquiet
deprecating
rivulets
incantation
coppersmith
unperturbed
jurisdiction
covington
eons
ione
miffed
raunchy
##ech
##bank
##ndent
heaped
shenan
##stery
atv
##ilian
abusing
leer
leery
lecher
##unked
conster
congress
unerring
headlong
slu
##ems
percy
##shaw
hurdle
satiated
blackwood
raft
jacking
planets
regions
defuse
harr
viscer
centers
sightseeing
idling
##ilians
panned
futures
risa
listener
gabran
bloated
reveals
banded
pope
milton
henley
picturesque
tamsin
tailor
archangel
drugstore
wilted
##clothes
crispy
lounger
derriere
##breaker
berating
imperceptibly
landscaping
inquire
outlining
liberally
undersh
coupling
harbour
fictional
pummeling
interactions
manufactured
orientation
drows
upholstery
extricate
crystalline
##animous
veneer
hendricks
breckenridge
paragraph
faulty
dirk
imbalance
inescap
khalil
500
bib
fenced
tippy
yv
##oft
##mple
##riment
##gi
##erals
hab
##utive
##kel
notwith
##ilizing
goad
excel
coby
seag
mopped
compton
pointer
trish
twink
afterglow
starlight
##osexual
surro
##ava
smiley
playpen
trend
hump
consul
correcting
edg
folly
covertly
daft
##brids
benevolent
domed
flecked
weighty
digit
spellbound
trailers
diva
dividing
hybrids
unwound
marsha
tarnished
dampening
carolson
shoveled
rotted
navang
royston
degener
seedy
nakam
bachelors
chalked
amulets
bummer
disdainful
commercials
suffocated
haunts
doughnuts
handwritten
fainting
ranching
procedures
harboring
melodic
sashayed
kaleid
reopened
refreshments
discarding
dwindled
ceremonial
evergreens
unquestion
bidder
##driver
reread
incriminating
dalrymple
appraisal
pinnacle
scrumptious
consternation
undershirt
eup
feen
kow
kum
ss
vat
##omeness
##imation
stero
whats
##iler
leveling
looph
cobbled
coales
unity
rightness
vex
waffle
marx
elicit
jolly
hairdress
realisation
hub
probable
besp
magick
indirect
infern
inflicting
insub
seaton
##entyre
sentenced
trifle
##inski
balling
garbled
soulful
urs
tallentyre
colorless
gatherings
supports
numbed
maryland
nonpl
diabol
delightfully
gallon
randolph
routines
boner
smugness
hayllian
sectional
fondle
forbear
congratulated
subtlety
measurements
prag
frighteningly
rifled
journalists
trouser
195
overdose
confessions
nichol
representatives
exhibited
restrooms
exhilarated
tweed
architectural
roasting
subconsciously
smears
essentials
gouge
thermal
unmarried
##angelo
celibacy
autograph
columbia
brainwashed
chaperone
unknowingly
balustrade
notwithstanding
eiff
gq
jot
nit
nere
ogre
pim
wets
woof
##dust
##bath
##yst
##heim
inund
##aco
fraught
chate
##rail
cland
wors
lope
mog
plotted
quoting
griev
armani
amore
carver
cahill
underfoot
marve
partake
apprehe
relo
openings
sawdust
morphing
stragg
factors
cutl
redness
ranked
refute
patrolling
disco
##lov
collide
dinan
honking
grandeur
pickles
specul
brightening
ringtone
miscon
splaying
sandstone
richie
scariest
digby
brylee
writes
falco
prediction
roofs
rhyme
heatedly
nuh
mentality
lurching
scouting
lorena
wiggles
ravaging
oversight
spurted
outlines
experimental
cynicism
kinks
accomplishments
swatting
tartly
paralysis
montgomerys
##mobile
lulling
tweak
distasteful
slayers
sketched
serenely
titanic
crusty
biscuit
margaritas
avalon
grappled
advisor
lemons
##andez
concubine
flossie
vandal
articulate
debilitating
serendipity
shenanigans
eiffel
95
gomes
kl
lagar
mouthing
pane
ranged
vents
zapped
##rants
##tles
##hena
##esar
dolly
isis
##rigan
exult
teal
roster
brite
aristed
##aporate
quaid
prepping
priti
armpit
hooted
##ksahna
marl
##ruck
joel
perused
appalling
sideboard
yearn
fatherhood
intersp
evaporate
invites
excusing
catc
louie
christy
laved
ellery
cleanly
mids
rebels
latches
sevarin
touring
cordell
bruiser
instructs
shipley
randal
conclude
judgement
trashcan
felicia
invisibility
gratified
saunter
overtaking
exercising
snickering
outlook
sailboat
recipient
motivations
stroller
avenging
paralyzing
gypsies
dictator
peeping
bernard
hallucinations
prolonging
scalded
progression
perturbed
decrepit
democr
infiltrate
hellhounds
reciprocated
fancied
dahksahna
hobbs
dairy
sandalwood
philosophical
excelled
hernandez
taillights
likeness
epiphany
clandestine
aristedes
cds
dood
dame
fanged
lusted
mj
maud
potions
ration
tus
vouch
wiles
##rir
##wich
##jug
##inine
##inness
heals
##asi
herding
wham
rekind
shing
atroc
notches
chur
chignon
##estock
blip
moles
plung
arno
glutton
fodder
daycare
##rowing
partied
drat
workplace
reciting
##ocation
mural
furthe
chopper
tenants
symm
waistcoat
viagra
fleming
embassy
castles
davidoff
digested
milks
sneers
robust
grandmothers
roni
cooperative
tensely
oriented
shipment
revive
lyc
essay
britain
triggers
livestock
calculate
saunters
rationalize
obscen
tutoring
bleakly
addicts
rummage
ogle
zooming
cancelled
uncompl
deflected
aristocrat
grapev
buttock
pronouncement
janaan
knickkn
nurturing
marquez
nostalgia
pectoral
endangered
banshee
hairstyle
tiberi
##grove
apostolos
sidetracked
unsnapped
loveseat
feenix
plunges
furthest
douse
jig
kov
mink
tuss
wilt
##ef
##hana
##die
##enie
##onna
lending
##ongru
##oured
swan
##ptive
prissy
armful
carstairs
housekeeping
minisk
minnes
##neum
farrah
pasts
evanger
incongru
trav
##ipsing
squires
insidious
furs
burnished
crossfire
annul
gashes
mistleto
subjug
totes
valiantly
captives
melon
dominion
##strained
hatchet
sedative
estimate
materialize
decorum
clarification
logistics
lyin
wilcox
seventeenth
pearson
drummond
forkful
mythical
boldness
healthier
gaudy
sauna
uniquely
coincidences
seamlessly
ascend
prowler
fathomless
canceling
plummeting
gurgle
ardor
perceive
compensation
thwart
carvings
karaoke
unconditionally
reconnect
trinkets
draperies
briarwood
mistletoe
bant
dion
dunk
jumbo
nations
pneum
sot
ssh
sanche
votes
##hard
##crew
##flesh
##10
##inently
hemor
inert
inaud
stumped
##star
##icial
forging
lionel
orbs
unite
twang
##thon
carrington
snob
earbuds
buick
gianna
probability
edu
invo
visor
circulating
experimented
cleanse
urn
sharpen
##zzzz
petrov
sprinkles
firmer
##uctive
parka
buyers
sticker
hench
unwrap
ferall
revert
champions
casualties
credibility
devilishly
accessory
gearshift
appeased
saturdays
professionalism
bouncy
adjustments
shimmery
venturo
pouts
bribed
adopting
francois
bewitched
wealthiest
unlit
unmistakably
tsavi
feely
gusto
chirps
enforcers
alleys
immobilized
hunkered
override
voyage
extinguish
admirers
infiltrated
phobos
jaunty
genetically
cartwright
invalid
hippie
unconventional
snappy
bloodstained
hypocrit
succinctly
mosquito
chateau
cutlery
bona
canted
fiss
noooo
sizable
upped
xander
##cation
##ioc
##wit
##hecked
##atio
##isi
hewn
heidi
bevy
##stock
##seys
##alone
fru
fringes
##ppin
isnt
##ardeen
alge
agencies
##abre
spel
spouse
enge
slivers
flaunt
scy
vending
pricking
takeoff
dished
emad
firstly
ado
kissy
shoppers
hunky
sexiness
playroom
mete
para
regent
readiness
businesswoman
mutually
workings
conversing
speculating
##elley
cleaners
puzzling
merth
condens
splits
raindrops
romans
iceberg
mainland
blurting
##kae
rhage
higgins
celebratory
bayou
forests
departing
contempor
lykae
##hells
mythology
devourer
alternated
hammo
establishing
berry
appetites
reek
teeming
khardeen
197
dependable
escalade
hustling
peachy
robinson
miscalcul
discharge
autopsy
aspirations
backtracked
scantily
somerset
floundering
dappled
despondent
croissant
ratcheted
repugnant
beguiling
mosaic
nynia
euphem
kumar
hairdresser
mogul
miniskirt
hemorr
algebra
cowed
cusp
gam
jamb
mow
oils
pitted
poodle
yon
yarn
##ok
##cies
##gular
##wining
##ju
hev
##enos
beater
itiner
##urbs
frizzy
##rophic
##roun
goon
leered
aloft
agility
exoner
overcoat
##estruct
seelie
combo
query
scroun
##that
guinness
immo
ameth
carbon
skirm
peretti
strongh
matron
pleads
keisha
impet
kindest
dribbled
morrigan
ruffles
awoken
##udgy
##tones
parole
topaz
indestruct
showcase
purg
braeden
capabilities
extras
idaho
strife
splatter
goner
affront
appreciates
niche
superb
superhuman
supermarket
jameson
viviana
unflin
peeks
relieving
kenya
volvo
flutes
buttercup
breezy
bananas
referee
socializing
fluent
clanking
fondled
perfumed
overhearing
symbolic
mccall
mechanics
railings
analyzed
fenrir
azura
lydie
fussy
daydreams
hulsey
pummel
tulip
tacos
bashful
exceedingly
evergreen
honeys
intolerable
incompetent
insufferable
unsurpr
corkscrew
herveaux
brocade
caddaric
visceral
seagull
nonplussed
amethyst
stronghold
indestructible
unflinching
34
bc
bion
cuss
cinches
kelley
nas
niles
##course
##lou
##mies
##mount
heaping
##lectic
##icut
doses
##urie
##enta
sodden
sovere
backfired
lovin
spouses
deities
flinches
canon
glady
starter
carriages
opul
talamas
adject
crinkle
frontal
minib
##osa
colonies
corvette
raves
burle
fender
rosewood
weekday
windowless
suburbs
dieu
husked
greenwich
laurie
futility
affron
delicacy
bowled
leathers
macabre
malt
tailed
violate
costing
entrances
mcd
persian
versed
glorified
hammers
cypress
rewarding
skillfully
unrestrained
berna
appetizer
plasma
bouquets
fetal
vineyards
swiveling
rebuilt
rivalry
cursory
overflowed
##keepers
insinuating
reprimanded
catastrophic
postponed
thrift
jumper
oyster
embold
compulsive
kwan
dehydrated
accosted
adulthood
fowler
weasel
scumbag
uncomplicated
sanchez
talamasca
affronted
banners
ere
omit
rages
toad
aspar
fringed
abalone
clued
##elf
exerting
##asting
spines
anyplace
movers
plume
evened
quo
quasi
##nderland
cloying
armand
cair
##wness
##ahs
finery
perc
philly
assent
quicksand
squished
deformed
stomps
shortcom
batuk
groused
broadened
beatings
accountable
credential
eclectic
knuckled
terrorist
etc
starkly
branched
connects
embarrassingly
recklessly
sorrows
beware
pupil
pineapp
liberating
whirlpool
crazily
panthers
rejoin
perpetually
sidestep
extingu
embroidery
downworlder
melding
dishonest
dwindling
whirring
brochures
economic
avylyns
townsend
ngak
incapacitated
proclamation
imaginings
repositioned
festering
emmylou
advocate
hygiene
asparagus
gale
inderland
nord
nana
ointment
omen
omission
pts
poul
rite
yow
##nard
##lot
##pieces
##inia
hermit
inbox
haft
##eto
revered
soy
neander
exem
conceding
##estruck
brash
enlist
enunc
poisons
marius
emt
##rowth
soundproof
newbie
reacqu
painter
beauties
whiteboard
spock
##otional
granda
sonof
shading
laving
##enex
##cod
compliance
generate
donations
##hetical
observations
buns
bunches
whitew
combinations
ruben
celebrations
dispat
##afraid
moistur
paddled
connecticut
congratulating
bombard
collector
irregular
flexes
achieving
ushers
procre
drenching
novice
hilarity
prostitution
resurrection
kalosis
stinks
reyhana
dwarfed
veterin
consistently
derisively
lubricant
hoisting
lethargy
hiccupped
mannequin
belford
pseudo
workaholic
surrogate
minnesota
shortcomings
poulson
fide
gated
kish
waned
##riona
##pical
##warm
##ituted
wast
##etto
stank
meems
whoring
whines
friss
saira
unjust
unafraid
enrolled
boggling
slush
flamb
acoust
grotto
users
armory
armored
armband
litany
mayan
putty
##ancies
appius
sidekick
decay
oklah
giants
intermitt
hots
barter
recal
redjacket
reform
paxton
##ogical
julius
smokes
signatures
woodsy
studios
wipers
balmy
smartphone
duster
raping
feedback
estimated
nonno
malley
assuredly
##hews
cherries
virginal
adrianna
exploits
ratheus
wrecking
alternatives
asshat
lindstrom
sprays
kingdoms
nonsens
hormone
conspicuous
uncontrolled
diseases
pangs
supers
permits
caterer
spartans
spreadshe
tweaking
disciplined
scabs
dynasty
##volence
overriding
minuscule
overseer
semin
unattached
kevster
ostent
kleenex
##daddy
chivalry
overhang
outweighed
forensic
dysfunctional
fronted
portrayed
nuptials
##bolt
florence
groggily
diabolical
oklahoma
oe
oats
sr
taming
urow
vans
##fy
##gley
##wilde
##inna
[...]
