{"<s>":0,"<pad>":1,"</s>":2,"<unk>":3,"<mask>":4,"!":5,"\"":6,"#":7,"$":8,"%":9,"&":10,"'":11,"(":12,")":13,"*":14,"+":15,",":16,"-":17,".":18,"/":19,"0":20,"1":21,"2":22,"3":23,"4":24,"5":25,"6":26,"7":27,"8":28,"9":29,":":30,";":31,"<":32,"=":33,">":34,"?":35,"@":36,"A":37,"B":38,"C":39,"D":40,"E":41,"F":42,"G":43,"H":44,"I":45,"J":46,"K":47,"L":48,"M":49,"N":50,"O":51,"P":52,"Q":53,"R":54,"S":55,"T":56,"U":57,"V":58,"W":59,"X":60,"Y":61,"Z":62,"[":63,"\\":64,"]":65,"^":66,"_":67,"`":68,"a":69,"b":70,"c":71,"d":72,"e":73,"f":74,"g":75,"h":76,"i":77,"j":78,"k":79,"l":80,"m":81,"n":82,"o":83,"p":84,"q":85,"r":86,"s":87,"t":88,"u":89,"v":90,"w":91,"x":92,"y":93,"z":94,"{":95,"|":96,"}":97,"~":98,"¡":99,"¢":100,"£":101,"¤":102,"¥":103,"¦":104,"§":105,"¨":106,"©":107,"ª":108,"«":109,"¬":110,"®":111,"¯":112,"°":113,"±":114,"²":115,"³":116,"´":117,"µ":118,"¶":119,"·":120,"¸":121,"¹":122,"º":123,"»":124,"¼":125,"½":126,"¾":127,"¿":128,"À":129,"Á":130,"Â":131,"Ã":132,"Ä":133,"Å":134,"Æ":135,"Ç":136,"È":137,"É":138,"Ê":139,"Ë":140,"Ì":141,"Í":142,"Î":143,"Ï":144,"Ð":145,"Ñ":146,"Ò":147,"Ó":148,"Ô":149,"Õ":150,"Ö":151,"×":152,"Ø":153,"Ù":154,"Ú":155,"Û":156,"Ü":157,"Ý":158,"Þ":159,"ß":160,"à":161,"á":162,"â":163,"ã":164,"ä":165,"å":166,"æ":167,"ç":168,"è":169,"é":170,"ê":171,"ë":172,"ì":173,"í":174,"î":175,"ï":176,"ð":177,"ñ":178,"ò":179,"ó":180,"ô":181,"õ":182,"ö":183,"÷":184,"ø":185,"ù":186,"ú":187,"û":188,"ü":189,"ý":190,"þ":191,"ÿ":192,"Ā":193,"ā":194,"Ă":195,"ă":196,"Ą":197,"ą":198,"Ć":199,"ć":200,"Ĉ":201,"ĉ":202,"Ċ":203,"ċ":204,"Č":205,"č":206,"Ď":207,"ď":208,"Đ":209,"đ":210,"Ē":211,"ē":212,"Ĕ":213,"ĕ":214,"Ė":215,"ė":216,"Ę":217,"ę":218,"Ě":219,"ě":220,"Ĝ":221,"ĝ":222,"Ğ":223,"ğ":224,"Ġ":225,"ġ":226,"Ģ":227,"ģ":228,"Ĥ":229,"ĥ":230,"Ħ":231,"ħ":232,"Ĩ":233,"ĩ":234,"Ī":235,"ī":236,"Ĭ":237,"ĭ":238,"Į":239,"į":240,"İ":241,"ı":242,"Ĳ":243,"ĳ":244,"Ĵ":245,"ĵ":246,"Ķ":247,"ķ":248,"ĸ":249,"Ĺ":250,"ĺ":251,"Ļ":252,"ļ":253,"Ľ":254,"ľ":255,"Ŀ":256,"ŀ":257,"Ł":258,"ł":259,"Ń":260,"he":261,"Ġt":262,"Ġa":263,"Ġ.":264,"in":265,"Ġs":266,"Ġw":267,"Ġ,":268,"ou":269,"ed":270,"Ġ'":271,"Ġh":272,"Ġthe":273,"Ġm":274,"re":275,"Ġb":276,"Ġi":277,"nd":278,"Ġo":279,"ing":280,"Ġhe":281,"Ġto":282,"er":283,"Ġf":284,"Ġc":285,"at":286,"Ġd":287,"Ġn":288,"Ġl":289,"is":290,"``":291,"Ġ''":292,"as":293,"Ġth":294,"en":295,"Ġand":296,"ll":297,"an":298,"on":299,"Ġp":300,"or":301,"it":302,"ar":303,"Ġg":304,"Ġy":305,"es":306,"Ġin":307,"Ġof":308,"Ġher":309,"Ġha":310,"Ġyou":311,"om":312,"ow":313,"Ġbe":314,"Ġwas":315,"Ġe":316,"id":317,"ot":318,"ld":319,"le":320,"ac":321,"gh":322,"ve":323,"Ġhis":324,"im":325,"st":326,"Ġon":327,"et":328,"'t":329,"ly":330,"Ġst":331,"Ġit":332,"ay":333,"Ġthat":334,"Ġme":335,"ut":336,"Ġshe":337,"Ġmy":338,"Ġu":339,"ver":340,"Ġ?":341,"Ġk":342,"ic":343,"out":344,"Ġwh":345,"Ġr":346,"se":347,"Ġre":348,"Ġas":349,"ad":350,"ould":351,"ght":352,"ith":353,"oo":354,"al":355,"Ġwe":356,"Ġwith":357,"Ġfor":358,"ke":359,"Ġdo":360,"Ġhim":361,"ir":362,"Ġli":363,"ent":364,"Ġhad":365,"the":366,"ur":367,"Ġat":368,"Ġsh":369,"Ġan":370,"am":371,"Ġj":372,"all":373,"ion":374,"ee":375,"she":376,"ked":377,"ight":378,"Ġfr":379,"ant":380,"pp":381,"Ġne":382,"ch":383,"her":384,"Ġbut":385,"ack":386,"Ġsa":387,"ro":388,"Ġso":389,"ter":390,"Ġkn":391,"ain":392,"Ġnot":393,"Ġout":394,"th":395,"ore":396,"ce":397,"Ġup":398,"and":399,"ust":400,"il":401,"ill":402,"Ġdid":403,"Ġwhat":404,"Ġhave":405,"rou":406,"king":407,"ome":408,"ie":409,"Ġgo":410,"one":411,"Ġab":412,"Ġis":413,"ec":414,"Ġcould":415,"to":416,"Ġwhe":417,"Ġsaid":418,"Ġback":419,"ard":420,"un":421,"Ġthis":422,"ri":423,"Ġle":424,"Ġno":425,"Ġfrom":426,"Ġwould":427,"ab":428,"au":429,"Ġloo":430,"Ġch":431,"ted":432,"ind":433,"own":434,"Ġlike":435,"Ġwant":436,"Ġsu":437,"Ġall":438,"ss":439,"Ġal":440,"ag":441,"Ġag":442,"ess":443,"el":444,"Ġv":445,"Ġcl":446,"Ġwere":447,"Ġhand":448,"hed":449,"ake":450,"Ġinto":451,"Ġabout":452,"Ġknow":453,"ood":454,"Ġwor":455,"ace":456,"Ġif":457,"Ġtr":458,"Ġjust":459,"hing":460,"ally":461,"Ġone":462,"ide":463,"ast":464,"Ġex":465,"if":466,"Ġover":467,"Ġey":468,"us":469,"ck":470,"qu":471,"Ġcon":472,"ell":473,"Ġyour":474,"Ġwhen":475,"Ġlo":476,"way":477,"Ġsp":478,"Ġbeen":479,"art":480,"Ġany":481,"ven":482,"Ġget":483,"very":484,"Ġthey":485,"our":486,"ul":487,"Ġro":488,"ate":489,"Ġagain":490,"Ġdown":491,"ong":492,"lf":493,"ers":494,"Ġsee":495,"Ġbl":496,"Ġtim":497,"Ġbr":498,"Ġgr":499,"um":500,"Ġeyes":501,"Ġsm":502,"Ġtoo":503,"are":504,"ap":505,"op":506,"Ġthem":507,"Ġse":508,"Ġoff":509,"Ġun":510,"we":511,"Ġde":512,"est":513,"Ġthere":514,"Ġor":515,"Ġpl":516,"round":517,"ice":518,"Ġmo":519,"ist":520,"ous":521,"ame":522,"Ġco":523,"ink":524,"Ġare":525,"Ġhead":526,"Ġthen":527,"Ġbo":528,"Ġtime":529,"sed":530,"urn":531,"ew":532,"Ġ``":533,"Ġar":534,"ting":535,"ig":536,"ull":537,"Ġwho":538,"Ġthou":539,"other":540,"pped":541,"ine":542,"ation":543,"ry":544,"ive":545,"Ġmore":546,"self":547,"Ġcom":548,"..":549,"Ġsome":550,"Ġsl":551,"Ġ...":552,"Ġfl":553,"but":554,"fore":555,"Ġman":556,"ved":557,"Ġhow":558,"Ġgoing":559,"ick":560,"Ġway":561,"Ġac":562,"ile":563,"Ġaround":564,"ear":565,"led":566,"ge":567,"Ġthan":568,"Ġqu":569,"ving":570,"ak":571,"nder":572,"Ġnow":573,"Ġpo":574,"ra":575,"Ġbefore":576,"Ġneed":577,"Ġeven":578,"Ġcan":579,"ound":580,"Ġby":581,"Ġsc":582,"ther":583,"Ġsay":584,"reat":585,"ps":586,"fe":587,"ire":588,"ure":589,"Ġpre":590,"ade":591,"Ġevery":592,"eel":593,"Ġen":594,"Ġbec":595,"em":596,"ause":597,"Ġ!":598,"Ġright":599,"omet":600,"Ġtw":601,"ered":602,"thing":603,"dd":604,"Ġthink":605,"Ġhere":606,"ort":607,"ave":608,"Ġshould":609,"Ġfeel":610,"rough":611,"Ġlet":612,"Ġgl":613,"Ġlook":614,"ft":615,"Ġthought":616,"Ġthrough":617,"Ġturn":618,"Ġlooked":619,"Ġthing":620,"Ġface":621,"Ġaway":622,"Ġnever":623,"Ġaf":624,"Ġus":625,"Ġother":626,"Ġonly":627,"pt":628,"act":629,"Ġpro":630,"omething":631,"dy":632,"ose":633,"eep":634,"Ġche":635,"Ġbet":636,"Ġpr":637,"you":638,"tle":639,"ened":640,"ect":641,"Ġmu":642,"wh":643,"Ġgood":644,"Ġdoor":645,"Ġexp":646,"Ġwill":647,"aking":648,"his":649,"Ġknew":650,"Ġwanted":651,"Ġarm":652,"ite":653,"Ġmade":654,"te":655,"Ġstill":656,"Ġgot":657,"nt":658,"Ġlong":659,"Ġtheir":660,"Ġsomething":661,"iz":662,"Ġbecause":663,"Ġgu":664,"ass":665,"be":666,"ol":667,"ward":668,"ched":669,"iss":670,"able":671,"ue":672,"ang":673,"Ġasked":674,"ach":675,"ated":676,"Ġmuch":677,"ff":678,"Ġtell":679,"Ġstar":680,"Ġmake":681,"Ġhands":682,"Ġwa":683,"Ġwat":684,"Ġim":685,"ough":686,"ip":687,"Ġroom":688,"ious":689,"Ġpull":690,"Ġlit":691,"elt":692,"ble":693,"ady":694,"ity":695,"whe":696,"Ġtake":697,"Ġop":698,"ance":699,"Ġhapp":700,"ress":701,"wn":702,"age":703,"os":704,"ather":705,"my":706,"ning":707,"ies":708,"Ġfelt":709,"Ġmom":710,"Ġfir":711,"Ġcar":712,"ks":713,"Ġafter":714,"ried":715,"Ġcall":716,"Ġagainst":717,"oice":718,"Ġnight":719,"ct":720,"ase":721,"ah":722,"Ġlittle":723,"Ġunder":724,"Ġam":725,"med":726,"Ġwhy":727,"ree":728,"Ġwo":729,"Ġwhere":730,"ying":731,"ment":732,"Ġday":733,"Ġcome":734,"side":735,"sh":736,"Ġrem":737,"air":738,"de":739,"ark":740,"ru":741,"Ġfo":742,"Ġwal":743,"Ġdis":744,"Ġtal":745,"Ġbody":746,"Ġte":747,"Ġtook":748,"Ġlove":749,"Ġste":750,"ty":751,"Ġsure":752,"Ġho":753,"Ġca":754,"Ġtwo":755,"ath":756,"so":757,"ond":758,"Ġhard":759,"Ġbed":760,"ne":761,"Ġwom":762,"Ġreally":763,"Ġwell":764,"gg":765,"ily":766,"Ġvoice":767,"Ġcont":768,"Ġsk":769,"oth":770,"Ġour":771,"az":772,"Ġfirst":773,"Ġturned":774,"no":775,"uck":776,"ich":777,"get":778,"Ġbreat":779,"Ġhel":780,"row":781,"Ġtold":782,"Ġdes":783,"ple":784,"Ġlife":785,"that":786,"Ġsw":787,"Ġem":788,"Ġpe":789,"ling":790,"outh":791,"Ġel":792,"Ġword":793,"Ġlau":794,"ied":795,"ned":796,"Ġreal":797,"av":798,"Ġdr":799,"Ġput":800,"Ġanything":801,"ber":802,"anc":803,"Ġfing":804,"Ġhair":805,"ia":806,"Ġlast":807,"ook":808,"Ġmouth":809,"pl":810,"**":811,"Ġsec":812,"Ġmar":813,"til":814,"Ġpart":815,"they":816,"ears":817,"Ġsur":818,"per":819,"Ġbeing":820,"sp":821,"Ġwait":822,"ouse":823,"ince":824,"Ġcame":825,"Ġever":826,"ise":827,"Ġenough":828,"Ġbel":829,"Ġfin":830,"Ġmoment":831,"Ġhelp":832,"iend":833,"Ġstr":834,"Ġwr":835,"Ġph":836,"ild":837,"ful":838,"Ġwhile":839,"ence":840,"Ġwent":841,"Ġwar":842,"Ġanother":843,"xt":844,"Ġbeh":845,"Ġapp":846,"Ġad":847,"Ġown":848,"Ġside":849,"ail":850,"ens":851,"Ġcou":852,"Ġuntil":853,"ont":854,"ves":855,"Ġleft":856,"igh":857,"ching":858,"ross":859,"aybe":860,"Ġarms":861,"Ġjo":862,"ways":863,"Ġlips":864,"Ġfind":865,"Ġcr":866,"uc":867,"Ġper":868,"Ġmind":869,"ans":870,"Ġcare":871,"Ġhas":872,"Ġear":873,"Ġkeep":874,"Ġheart":875,"Ġdoes":876,"for":877,"Ġvery":878,"Ġwoman":879,"Ġfew":880,"les":881,"when":882,"Ġthings":883,"Ġmat":884,"mo":885,"Ġgir":886,"Ġnothing":887,"ish":888,"Ġbehind":889,"hes":890,"Ġmight":891,"Ġhouse":892,"there":893,"Ġsound":894,"Ġsmile":895,"Ġcur":896,"Ġinside":897,"ub":898,"Ġfe":899,"Ġnew":900,"Ġsn":901,"ane":902,"ner":903,"Ġyes":904,"Ġpulled":905,"Ġatt":906,"Ġalways":907,"owed":908,"Ġdec":909,"ople":910,"what":911,"Ġhome":912,"ared":913,"gan":914,"Ġass":915,"ween":916,"ions":917,"Ġcle":918,"Ġrel":919,"Ġopen":920,"ren":921,"Ġtoward":922,"Ġton":923,"Ġkiss":924,"Ġset":925,"amp":926,"Ġend":927,"Ġmyself":928,"Ġtou":929,"Ġbetween":930,"Ġdark":931,"ower":932,"Ġsmil":933,"not":934,"ian":935,"Ġsaw":936,"then":937,"Ġgive":938,"kay":939,"osed":940,"Ġhold":941,"ating":942,"Ġgirl":943,"ep":944,"Ġbreath":945,"ness":946,"Ġboth":947,"Ġpeople":948,"Ġthough":949,"Ġple":950,"Ġeverything":951,"ool":952,"dded":953,"Ġnext":954,"int":955,"bed":956,"Ġfront":957,"Ġfriend":958,"ud":959,"Ġthose":960,"Ġent":961,"Ġsho":962,"Ġmother":963,"Ġke":964,"Ġtrying":965,"sw":966,"up":967,"Ġswe":968,"Ġdeep":969,"Ġsit":970,"Ġhur":971,"ream":972,"Ġgave":973,"Ġwork":974,"Ġplace":975,"Ġbetter":976,"Ġfam":977,"pping":978,"Ġbit":979,"Ġrest":980,"ready":981,"Ġgi":982,"rew":983,"Ġact":984,"Ġ-":985,"gether":986,"Ġsat":987,"Ġlooking":988,"ier":989,"Ġdone":990,"Ġwhich":991,"Ġlight":992,"ually":993,"Ġansw":994,"most":995,"Ġalready":996,"Ġfather":997,"Ġhimself":998,"Ġsame":999,"Ġdoing":1000,"Ġwords":1001,"Ġwithout":1002,"Ġrun":1003,"pr":1004,"Ġmin":1005,"Ġherself":1006,"Ġsince":1007,"Ġtogether":1008,"Ġhop":1009,"aught":1010,"this":1011,"Ġbu":1012,"ason":1013,"Ġstand":1014,"ys":1015,"Ġsomeone":1016,"Ġokay":1017,"Ġstarted":1018,"Ġfingers":1019,"ret":1020,"Ġsil":1021,"Ġstop":1022,"Ġmean":1023,"Ġsle":1024,"cked":1025,"less":1026,"Ġchest":1027,"ord":1028,"ushe":1029,"Ġwhis":1030,"Ġfound":1031,"Ġelse":1032,"Ġ;":1033,"Ġkind":1034,"gs":1035,"Ġbre":1036,"how":1037,"ably":1038,"Ġhell":1039,"ory":1040,"Ġstay":1041,"Ġmost":1042,"cl":1043,"Ġneeded":1044,"Ġsoft":1045,"Ġhu":1046,"aw":1047,"Ġheard":1048,"Ġfeeling":1049,"Ġreac":1050,"ax":1051,"Ġsecond":1052,"irt":1053,"ised":1054,"Ġonce":1055,"ten":1056,"Ġang":1057,"ank":1058,"Ġclose":1059,"Ġbelie":1060,"Ġsto":1061,"Ġimp":1062,"Ġdri":1063,"Ġhear":1064,"Ġkill":1065,"issed":1066,"Ġpain":1067,"rent":1068,"Ġdro":1069,"Ġtried":1070,"Ġinst":1071,"Ġacross":1072,"ert":1073,"co":1074,"Ġcour":1075,"Ġwalked":1076,"Ġgaz":1077,"aned":1078,"red":1079,"ured":1080,"ized":1081,"Ġheld":1082,"ib":1083,"ange":1084,"ushed":1085,"Ġeach":1086,"Ġspe":1087,"Ġflo":1088,"lo":1089,"Ġz":1090,"Ġser":1091,"Ġfar":1092,"Ġyears":1093,"ump":1094,"icked":1095,"ict":1096,"ung":1097,"Ġwonder":1098,"ater":1099,"ever":1100,"ary":1101,"ix":1102,"ash":1103,"iv":1104,"Ġtalk":1105,"inking":1106,"Ġret":1107,"Ġtight":1108,"ek":1109,"eah":1110,"Ġmor":1111,"Ġalmost":1112,"Ġoh":1113,"Ġminut":1114,"Ġlot":1115,"Ġold":1116,"Ġphone":1117,"day":1118,"ale":1119,"Ġquick":1120,"Ġnodded":1121,"ons":1122,"umb":1123,"Ġblood":1124,"Ġseemed":1125,"aut":1126,"Ġsmiled":1127,"Ġshook":1128,"Ġsor":1129,"ible":1130,"Ġbad":1131,"ced":1132,"tered":1133,"Ġstart":1134,"Ġbig":1135,"Ġmoved":1136,"Ġplay":1137,"gn":1138,"Ġdam":1139,"Ġleave":1140,"Ġremem":1141,"Ġpress":1142,"Ġunderst":1143,"Ġsex":1144,"ipped":1145,"akes":1146,"Ġmove":1147,"Ġblack":1148,"Ġsmall":1149,"ention":1150,"Ġfamily":1151,"Ġstood":1152,"Ġgetting":1153,"Ġtable":1154,"Ġskin":1155,"room":1156,"ike":1157,"Ġpast":1158,"ither":1159,"ial":1160,"ully":1161,"eth":1162,"Ġmaking":1163,"Ġmaybe":1164,"Ġdem":1165,"Ġide":1166,"Ġhurt":1167,"Ġbar":1168,"by":1169,"Ġslow":1170,"ush":1171,"Ġseen":1172,"Ġhot":1173,"Ġclos":1174,"Ġgone":1175,"Ġneck":1176,"Ġgaze":1177,"ently":1178,"with":1179,"Ġquest":1180,"ering":1181,"Ġfeet":1182,"bably":1183,"Ġeas":1184,"Ġmine":1185,"Ġdif":1186,"aring":1187,"Ġsig":1188,"ately":1189,"Ġfloor":1190,"Ġgrab":1191,"gged":1192,"Ġyeah":1193,"do":1194,"iet":1195,"erson":1196,"Ġbab":1197,"Ġhum":1198,"ows":1199,"ished":1200,"Ġcomp":1201,"Ġwind":1202,"Ġmon":1203,"Ġbeaut":1204,"Ġcor":1205,"now":1206,"ected":1207,"Ġob":1208,"Ġgod":1209,"aced":1210,"Ġed":1211,"Ġsorry":1212,"Ġwall":1213,"Ġap":1214,"Ġsim":1215,"Ġbrother":1216,"Ġsupp":1217,"Ġhour":1218,"Ġworld":1219,"Ġmet":1220,"af":1221,"Ġint":1222,"Ġbus":1223,"ense":1224,"Ġreached":1225,"fect":1226,"Ġidea":1227,"Ġgrin":1228,"che":1229,"Ġbest":1230,"Ġsqu":1231,"Ġsays":1232,"ained":1233,"Ġfall":1234,"Ġair":1235,"Ġfoll":1236,"Ġleast":1237,"Ġanyone":1238,"Ġask":1239,"Ġsurpr":1240,"Ġprobably":1241,"Ġmeet":1242,"pe":1243,"Ġresp":1244,"ined":1245,"vers":1246,"Ġbelieve":1247,"Ġyet":1248,"Ġthree":1249,"Ġhappened":1250,"Ġcoming":1251,"Ġcalled":1252,"Ġfact":1253,"Ġnear":1254,"iness":1255,"iously":1256,"ton":1257,"Ġname":1258,"ips":1259,"Ġtaking":1260,"Ġcons":1261,"Ġmen":1262,"Ġlaugh":1263,"owing":1264,"Ġev":1265,"Ġconf":1266,"Ġposs":1267,"Ġreason":1268,"Ġopened":1269,"Ġdress":1270,"Ġwhisp":1271,"Ġshoulder":1272,"Ġthro":1273,"Ġmust":1274,"Ġinv":1275,"app":1276,"Ġsleep":1277,"orm":1278,"Ġcourse":1279,"Ġstopped":1280,"Ġfinally":1281,"Ġaw":1282,"Ġbro":1283,"Ġkept":1284,"Ġres":1285,"Ġlif":1286,"Ġsoon":1287,"ged":1288,"Ġfore":1289,"where":1290,"Ġacc":1291,"Ġlater":1292,"ghed":1293,"used":1294,"ening":1295,"Ġperson":1296,"Ġty":1297,"Ġra":1298,"just":1299,"Ġmorning":1300,"arent":1301,"na":1302,"Ġwrong":1303,"ead":1304,"Ġben":1305,"Ġclosed":1306,"Ġalso":1307,"Ġused":1308,"Ġhit":1309,"uff":1310,"vered":1311,"ister":1312,"ual":1313,"Ġhaving":1314,"Ġeye":1315,"Ġlegs":1316,"Ġroll":1317,"Ġexpl":1318,"dden":1319,"Ġdad":1320,"Ġguy":1321,"Ġhalf":1322,"Ġlaughed":1323,"Ġdist":1324,"Ġthinking":1325,"Ġcol":1326,"Ġchild":1327,"ided":1328,"Ġtouch":1329,"Ġready":1330,"Ġcomple":1331,"sit":1332,"Ġmatter":1333,"gue":1334,"Ġchar":1335,"Ġunderstand":1336,"cept":1337,"Ġalone":1338,"Ġmany":1339,"br":1340,"ief":1341,"ms":1342,"Ġcut":1343,"Ġalong":1344,"Ġtop":1345,"Ġran":1346,"Ġreturn":1347,"mit":1348,"idd":1349,"Ġvamp":1350,"Ġglanc":1351,"Ġforward":1352,"Ġdel":1353,"Ġslid":1354,"iful":1355,"fully":1356,"aken":1357,"Ġwatched":1358,"ph":1359,"Ġwater":1360,"Ġfine":1361,"Ġred":1362,"after":1363,"Ġgreat":1364,"Ġdiffe":1365,"ize":1366,"Ġwhispered":1367,"Ġable":1368,"ors":1369,"rest":1370,"Ġpar":1371,"Ġpret":1372,"Ġplan":1373,"Ġprom":1374,"Ġstared":1375,"Ġsuch":1376,"raw":1377,"bo":1378,"Ġtalking":1379,"Ġexact":1380,"oney":1381,"ny":1382,"der":1383,"Ġpoint":1384,"Ġits":1385,"Ġvampire":1386,"Ġhigh":1387,"gin":1388,"ction":1389,"Ġtry":1390,"Ġonto":1391,"Ġsweet":1392,"Ġfight":1393,"Ġbaby":1394,"Ġthroat":1395,"Ġprot":1396,"Ġremember":1397,"Ġ:":1398,"Ġcat":1399,"Ġpleas":1400,"Ġwarm":1401,"Ġmeant":1402,"Ġhappy":1403,"Ġbeautiful":1404,"asp":1405,"Ġlist":1406,"Ġinte":1407,"eks":1408,"Ġperfect":1409,"ings":1410,"Ġgre":1411,"Ġquiet":1412,"fort":1413,"Ġmus":1414,"Ġshit":1415,"Ġpretty":1416,"Ġtre":1417,"maybe":1418,"Ġloved":1419,"Ġleaned":1420,"Ġclear":1421,"Ġbegan":1422,"Ġdou":1423,"Ġactually":1424,"Ġanswer":1425,"Ġes":1426,"head":1427,"ically":1428,"airs":1429,"illed":1430,"Ġcomplete":1431,"Ġna":1432,"Ġmag":1433,"Ġdays":1434,"Ġquestion":1435,"Ġfull":1436,"Ġcontin":1437,"Ġtonight":1438,"Ġkit":1439,"Ġter":1440,"Ġcaught":1441,"Ġlow":1442,"Ġcal":1443,"Ġje":1444,"uth":1445,"ife":1446,"Ġminutes":1447,"ger":1448,"Ġbare":1449,"Ġsudden":1450,"apped":1451,"ical":1452,"Ġfig":1453,"Ġrealized":1454,"Ġwhole":1455,"Ġguess":1456,"gr":1457,"aving":1458,"Ġpower":1459,"Ġago":1460,"Ġbreak":1461,"Ġref":1462,"Ġeither":1463,"Ġboy":1464,"Ġmiss":1465,"go":1466,"mor":1467,"Ġglass":1468,"Ġexactly":1469,"jo":1470,"Ġshif":1471,"Ġstra":1472,"Ġshow":1473,"even":1474,"fin":1475,"Ġbes":1476,"Ġinter":1477,"ertain":1478,"Ġexc":1479,"Ġfre":1480,"Ġinc":1481,"Ġthese":1482,"Ġeveryone":1483,"Ġfun":1484,"Ġjack":1485,"Ġkissed":1486,"Ġsister":1487,"Ġshoulders":1488,"Ġquickly":1489,"Ġdire":1490,"why":1491,"Ġfire":1492,"Ġreg":1493,"ression":1494,"ides":1495,"aid":1496,"more":1497,"Ġwalk":1498,"Ġlost":1499,"Ġkid":1500,"Ġtimes":1501,"Ġins":1502,"let":1503,"Ġdeal":1504,"son":1505,"ued":1506,"Ġdifferent":1507,"Ġpur":1508,"Ġhall":1509,"Ġwhite":1510,"Ġpat":1511,"Ġwaiting":1512,"ken":1513,"Ġslowly":1514,"Ġstep":1515,"Ġhor":1516,"Ġpass":1517,"Ġstraight":1518,"Ġdead":1519,"Ġstom":1520,"Ġstanding":1521,"Ġglanced":1522,"Ġentire":1523,"Ġcold":1524,"Ġbur":1525,"cer":1526,"Ġtaken":1527,"Ġread":1528,"Ġdet":1529,"Ġcoll":1530,"ored":1531,"mm":1532,"Ġfriends":1533,"Ġfell":1534,"Ġnice":1535,"Ġmur":1536,"cle":1537,"any":1538,"Ġhope":1539,"Ġlifted":1540,"Ġtongue":1541,"vel":1542,"oun":1543,"zy":1544,"Ġdamn":1545,"Ġimag":1546,"ien":1547,"Ġthr":1548,"Ġdin":1549,"Ġfree":1550,"chen":1551,"ming":1552,"Ġstrong":1553,"Ġjob":1554,"Ġvis":1555,"Ġcloser":1556,"Ġbot":1557,"Ġlay":1558,"Ġgrabbed":1559,"Ġspo":1560,"ply":1561,"Ġrepl":1562,"Ġshut":1563,"Ġshru":1564,"nding":1565,"Ġholding":1566,"Ġseat":1567,"fr":1568,"Ġcra":1569,"rought":1570,"Ġcontro":1571,"aged":1572,"Ġkitchen":1573,"Ġclot":1574,"uring":1575,"apter":1576,"Ġmess":1577,"Ġpushed":1578,"Ġmonth":1579,"Ġwatching":1580,"Ġbusiness":1581,"Ġuse":1582,"Ġshirt":1583,"Ġblue":1584,"Ġshot":1585,"Ġshort":1586,"Ġbring":1587,"Ġfur":1588,"enty":1589,"eared":1590,"Ġapart":1591,"ired":1592,"Ġlooks":1593,"oud":1594,"Ġbrought":1595,"Ġsch":1596,"cess":1597,"cent":1598,"Ġtrust":1599,"Ġchair":1600,"Ġstepped":1601,"Ġthank":1602,"Ġpant":1603,"Ġele":1604,"ock":1605,"Ġsense":1606,"aps":1607,"Ġplease":1608,"Ġhar":1609,"anged":1610,"Ġoutside":1611,"like":1612,"read":1613,"Ġhers":1614,"Ġattention":1615,"Ġsent":1616,"chapter":1617,"Ġwatch":1618,"Ġsun":1619,"Ġstomach":1620,"Ġer":1621,"Ġchance":1622,"Ġwomen":1623,"Ġcry":1624,"ited":1625,"Ġdisapp":1626,"every":1627,"Ġground":1628,"acked":1629,"Ġhours":1630,"ult":1631,"Ġdream":1632,"lt":1633,"Ġwra":1634,"bing":1635,"ased":1636,"Ġtri":1637,"anger":1638,"inted":1639,"Ġrub":1640,"Ġchange":1641,"ze":1642,"Ġcheek":1643,"Ġmr":1644,"Ġliving":1645,"Ġconsid":1646,"Ġwin":1647,"ures":1648,"Ġsens":1649,"Ġexpression":1650,"Ġdropped":1651,"otion":1652,"Ġsaying":1653,"Ġsitting":1654,"Ġoffice":1655,"isted":1656,"bec":1657,"Ġmut":1658,"Ġparent":1659,"ging":1660,"Ġwhatever":1661,"Ġhung":1662,"Ġlonger":1663,"Ġfour":1664,"iver":1665,"Ġknown":1666,"Ġfinger":1667,"Ġtruth":1668,"ters":1669,"Ġbeside":1670,"Ġluc":1671,"Ġtrue":1672,"io":1673,"Ġyoun":1674,"Ġmoney":1675,"Ġcoun":1676,"ially":1677,"Ġgro":1678,"Ġcompletely":1679,"ets":1680,"Ġless":1681,"Ġinterest":1682,"Ġleaving":1683,"Ġcontrol":1684,"ations":1685,"Ġgiven":1686,"Ġmad":1687,"Ġbag":1688,"Ġschool":1689,"Ġgiving":1690,"Ġburn":1691,"ina":1692,"ents":1693,"Ġtoday":1694,"Ġcomm":1695,"Ġpressed":1696,"Ġcertain":1697,"Ġlu":1698,"ison":1699,"Ġfrown":1700,"cking":1701,"assed":1702,"Ġign":1703,"antly":1704,"Ġstro":1705,"Ġline":1706,"Ġscream":1707,"Ġgri":1708,"Ġhun":1709,"Ġtears":1710,"sing":1711,"ape":1712,"Ġmoving":1713,"nded":1714,"Ġten":1715,"lly":1716,"iding":1717,"Ġsmo":1718,"orn":1719,"Ġland":1720,"oh":1721,"Ġslight":1722,"ime":1723,"ird":1724,"ik":1725,"Ġproble":1726,"Ġlar":1727,"Ġrunning":1728,"Ġpal":1729,"Ġdecided":1730,"Ġpres":1731,"Ġdoub":1732,"ship":1733,"Ġparents":1734,"Ġtem":1735,"Ġworry":1736,"Ġbuild":1737,"Ġsafe":1738,"Ġlive":1739,"com":1740,"Ġhon":1741,"Ġsuddenly":1742,"Ġweek":1743,"Ġru":1744,"Ġbene":1745,"ins":1746,"Ġknowing":1747,"though":1748,"Ġcir":1749,"Ġfoot":1750,"ushing":1751,"Ġenjo":1752,"Ġcross":1753,"Ġclothes":1754,"Ġhuman":1755,"Ġwindow":1756,"Ġmay":1757,"Ġbegin":1758,"Ġav":1759,"iced":1760,"Ġteeth":1761,"Ġheav":1762,"ky":1763,"Ġcoff":1764,"Ġlear":1765,"ees":1766,"Ġda":1767,"Ġliked":1768,"Ġobv":1769,"Ġdrink":1770,"Ġworking":1771,"Ġson":1772,"rist":1773,"ought":1774,"Ġstre":1775,"Ġinstead":1776,"Ġfast":1777,"Ġgrand":1778,"Ġgrow":1779,"Ġcouple":1780,"Ġdeath":1781,"Ġpict":1782,"Ġrolled":1783,"yed":1784,"Ġfear":1785,"Ġpol":1786,"Ġremind":1787,"Ġsupposed":1788,"Ġfollowed":1789,"Ġner":1790,"ches":1791,"Ġfive":1792,"ames":1793,"use":1794,"bl":1795,"Ġpie":1796,"ma":1797,"Ġjump":1798,"ular":1799,"iff":1800,"action":1801,"Ġcap":1802,"cy":1803,"aster":1804,"Ġyourself":1805,"Ġpay":1806,"Ġsighed":1807,"Ġpri":1808,"Ġadmit":1809,"veral":1810,"Ġbath":1811,"Ġbedroom":1812,"aused":1813,"Ġsy":1814,"man":1815,"iny":1816,"Ġsing":1817,"Ġpleasure":1818,"Ġforg":1819,"ount":1820,"ashed":1821,"ley":1822,"acing":1823,"Ġhappen":1824,"Ġsam":1825,"Ġcoffee":1826,"Ġseeing":1827,"Ġrose":1828,"Ġwaist":1829,"Ġyear":1830,"Ġhips":1831,"Ġtelling":1832,"me":1833,"Ġrec":1834,"ci":1835,"Ġtor":1836,"Ġsky":1837,"Ġmakes":1838,"Ġadd":1839,"Ġdinner":1840,"Ġsoftly":1841,"Ġ*":1842,"Ġdrive":1843,"ove":1844,"Ġsub":1845,"Ġspeak":1846,"Ġfilled":1847,"gth":1848,"een":1849,"ition":1850,"Ġpap":1851,"Ġeff":1852,"Ġmist":1853,"ility":1854,"els":1855,"raid":1856,"Ġlip":1857,"Ġabs":1858,"Ġtown":1859,"unch":1860,"its":1861,"Ġconvers":1862,"col":1863,"Ġwife":1864,"Ġdev":1865,"Ġwrapped":1866,"ement":1867,"Ġind":1868,"anie":1869,"Ġsign":1870,"Ġshrugged":1871,"Ġworked":1872,"Ġprotect":1873,"Ġappro":1874,"ising":1875,"Ġdraw":1876,"Ġfoc":1877,"Ġedge":1878,"og":1879,"ror":1880,"Ġhang":1881,"Ġlate":1882,"upid":1883,"Ġbat":1884,"Ġbarely":1885,"Ġstru":1886,"Ġknees":1887,"ject":1888,"Ġthoughts":1889,"Ġcontinued":1890,"Ġpulling":1891,"Ġmonths":1892,"Ġve":1893,"Ġdesk":1894,"Ġstaring":1895,"Ġmir":1896,"Ġesc":1897,"some":1898,"Ġjer":1899,"Ġpicked":1900,"Ġguys":1901,"Ġeasy":1902,"Ġce":1903,"unt":1904,"Ġsix":1905,"old":1906,"Ġwide":1907,"Ġir":1908,"Ġcent":1909,"Ġquite":1910,"pted":1911,"Ġanymore":1912,"Ġafraid":1913,"Ġreco":1914,"ates":1915,"was":1916,"ilt":1917,"Ġseveral":1918,"medi":1919,"cc":1920,"Ġcase":1921,"form":1922,"Ġyoung":1923,"Ġsecret":1924,"Ġwearing":1925,"Ġtouched":1926,"Ġsmell":1927,"Ġanyway":1928,"Ġmem":1929,"because":1930,"Ġsquee":1931,"Ġtone":1932,"Ġminute":1933,"Ġbeneath":1934,"ute":1935,"Ġthanks":1936,"Ġdemand":1937,"Ġguard":1938,"Ġbox":1939,"Ġsurprised":1940,"Ġnearly":1941,"Ġanswered":1942,"itely":1943,"Ġlarge":1944,"elle":1945,"Ġstuff":1946,"als":1947,"Ġtu":1948,"Ġraised":1949,"Ġshar":1950,"Ġlead":1951,"ony":1952,"ots":1953,"la":1954,"Ġwaited":1955,"did":1956,"Ġrele":1957,"Ġcorner":1958,"ield":1959,"Ġpick":1960,"Ġsort":1961,"icking":1962,"Ġball":1963,"Ġchanged":1964,"Ġgirls":1965,"Ġhey":1966,"light":1967,"Ġwalking":1968,"Ġstupid":1969,"ces":1970,"pec":1971,"Ġtwenty":1972,"Ġrep":1973,"ery":1974,"Ġconversation":1975,"Ġscr":1976,"Ġreplied":1977,"ience":1978,"Ġform":1979,"Ġeat":1980,"of":1981,"Ġluck":1982,"Ġdisc":1983,"aces":1984,"Ġseem":1985,"ara":1986,"irty":1987,"imes":1988,"Ġspec":1989,"Ġweeks":1990,"Ġimmedi":1991,"Ġzane":1992,"Ġjaw":1993,"Ġposit":1994,"Ġnar":1995,"Ġdrag":1996,"Ġsilence":1997,"Ġtrou":1998,"Ġcam":1999,"well":2000,"Ġsad":2001,"Ġgrinned":2002,"Ġrather":2003,"ding":2004,"vin":2005,"Ġdoubt":2006,"Ġgently":2007,"Ġcla":2008,"aughter":2009,"Ġgen":2010,"Ġext":2011,"Ġexper":2012,"lex":2013,"yes":2014,"Ġpossible":2015,"Ġspoke":2016,"Ġheat":2017,"Ġthick":2018,"Ġspent":2019,"Ġhus":2020,"Ġeng":2021,"Ġthigh":2022,"Ġswall":2023,"Ġloud":2024,"Ġreturned":2025,"Ġring":2026,"Ġrelation":2027,"pecially":2028,"Ġbright":2029,"Ġchin":2030,"iew":2031,"Ġdanger":2032,"Ġsounded":2033,"Ġcrazy":2034,"Ġjul":2035,"Ġrock":2036,"ex":2037,"Ġfigure":2038,"Ġproblem":2039,"Ġwet":2040,"Ġmurm":2041,"Ġdie":2042,"aning":2043,"Ġgotten":2044,"tom":2045,"Ġagre":2046,"Ġsurprise":2047,"Ġyell":2048,"lan":2049,"Ġconn":2050,"Ġpassed":2051,"ili":2052,"Ġgasp":2053,"Ġempt":2054,"Ġfood":2055,"ator":2056,"Ġcho":2057,"Ġcool":2058,"iddle":2059,"ident":2060,"Ġshad":2061,"itch":2062,"band":2063,"Ġthrow":2064,"Ġbathroom":2065,"rie":2066,"aled":2067,"uss":2068,"Ġnarrow":2069,"Ġwed":2070,"Ġsight":2071,"Ġcrow":2072,"Ġothers":2073,"ipp":2074,"aining":2075,"Ġnorm":2076,"Ġsear":2077,"amed":2078,"Ġconcer":2079,"Ġforget":2080,"Ġmuttered":2081,"Ġwondered":2082,"Ġhesit":2083,"aped":2084,"Ġnat":2085,"Ġfinished":2086,"Ġnose":2087,"Ġopp":2088,"umbled":2089,"ift":2090,"Ġsimply":2091,"Ġsusp":2092,"ign":2093,"Ġglad":2094,"ric":2095,"Ġdu":2096,"Ġrelax":2097,"Ġbeat":2098,"Ġgreen":2099,"Ġdemon":2100,"gu":2101,"than":2102,"su":2103,"Ġden":2104,"Ġmiddle":2105,"ails":2106,"Ġclim":2107,"finitely":2108,"Ġ)":2109,"Ġtast":2110,"Ġpock":2111,"Ġwants":2112,"inst":2113,"Ġmarried":2114,"Ġturning":2115,"Ġsigh":2116,"Ġknows":2117,"Ġworried":2118,"Ġbecome":2119,"Ġimport":2120,"come":2121,"Ġimmediately":2122,"Ġnoticed":2123,"Ġid":2124,"Ġarri":2125,"morrow":2126,"Ġcount":2127,"Ġtomorrow":2128,"Ġpromise":2129,"Ġslightly":2130,"Ġfav":2131,"Ġletting":2132,"Ġspot":2133,"Ġsal":2134,"zed":2135,"Ġsel":2136,"Ġangry":2137,"att":2138,"Ġstud":2139,"Ġwood":2140,"oul":2141,"Ġdrew":2142,"land":2143,"Ġserious":2144,"arr":2145,"Ġgun":2146,"Ġreach":2147,"Ġabove":2148,"Ġbroke":2149,"ometimes":2150,"cles":2151,"Ġbuilding":2152,"Ġanger":2153,"right":2154,"Ġkilled":2155,"Ġlie":2156,"Ġmention":2157,"ones":2158,"Ġheavy":2159,"Ġcomfort":2160,"Ġleg":2161,"Ġgold":2162,"Ġwish":2163,"Ġheaded":2164,"Ġexpected":2165,"Ġstri":2166,"rif":2167,"Ġsnapped":2168,"Ġbother":2169,"wor":2170,"Ġcalm":2171,"ision":2172,"Ġhate":2173,"Ġparty":2174,"haps":2175,"Ġtoss":2176,"Ġdaughter":2177,"oring":2178,"Ġworse":2179,"Ġdar":2180,"Ġsett":2181,"Ġcheeks":2182,"Ġlap":2183,"ists":2184,"Ġstare":2185,"Ġcovered":2186,"ache":2187,"ively":2188,"Ġkids":2189,"Ġshout":2190,"Ġforced":2191,"Ġsitu":2192,"umber":2193,"Ġcreat":2194,"Ġgar":2195,"Ġthreat":2196,"Ġdesire":2197,"ains":2198,"Ġapartment":2199,"cing":2200,"Ġpan":2201,"Ġthrew":2202,"Ġcheck":2203,"Ġmeeting":2204,"Ġtiny":2205,"ctor":2206,"Ġfair":2207,"Ġjeans":2208,"Ġrelationship":2209,"Ġsteps":2210,"Ġadv":2211,"Ġdesper":2212,"Ġshower":2213,"Ġpointed":2214,"vous":2215,"Ġearl":2216,"Ġfem":2217,"Ġ(":2218,"Ġcrowd":2219,"Ġur":2220,"iting":2221,"Ġnod":2222,"Ġempty":2223,"Ġgent":2224,"bered":2225,"aded":2226,"unk":2227,"ipping":2228,"Ġchuck":2229,"lle":2230,"ines":2231,"aint":2232,"Ġpriv":2233,"Ġstreet":2234,"Ġgray":2235,"Ġdied":2236,"Ġmanaged":2237,"Ġwild":2238,"Ġwanting":2239,"ibly":2240,"teen":2241,"Ġsingle":2242,"Ġpack":2243,"Ġcover":2244,"Ġart":2245,"ann":2246,"Ġself":2247,"Ġadded":2248,"Ġamaz":2249,"ster":2250,"Ġhated":2251,"ucked":2252,"mb":2253,"ances":2254,"Ġfrowned":2255,"Ġspread":2256,"Ġled":2257,"sel":2258,"Ġquietly":2259,"Ġdefinitely":2260,"Ġimportant":2261,"Ġtot":2262,"Ġbook":2263,"Ġroad":2264,"iam":2265,"ha":2266,"Ġforce":2267,"Ġfavor":2268,"Ġbottom":2269,"Ġorder":2270,"once":2271,"Ġeyeb":2272,"aniel":2273,"Ġcouch":2274,"sy":2275,"Ġgame":2276,"ped":2277,"Ġhusband":2278,"Ġscent":2279,"Ġocc":2280,"lyn":2281,"Ġking":2282,"sts":2283,"Ġchildren":2284,"Ġwilling":2285,"Ġclass":2286,"Ġord":2287,"Ġfut":2288,"Ġsounds":2289,"Ġrespond":2290,"Ġseconds":2291,"Ġdirection":2292,"Ġstret":2293,"Ġcas":2294,"Ġsol":2295,"ient":2296,"ney":2297,"Ġpun":2298,"Ġduring":2299,"ndred":2300,"erg":2301,"Ġdest":2302,"oss":2303,"Ġstairs":2304,"Ġhonest":2305,"Ġsick":2306,"Ġlim":2307,"Ġlose":2308,"olog":2309,"Ġlying":2310,"Ġpaused":2311,"ments":2312,"Ġrid":2313,"erm":2314,"tw":2315,"Ġchrist":2316,"Ġglance":2317,"Ġdeser":2318,"Ġble":2319,"Ġstory":2320,"Ġtakes":2321,"Ġpract":2322,"ining":2323,"Ġian":2324,"Ġrealize":2325,"Ġexcept":2326,"ities":2327,"zz":2328,"Ġremembered":2329,"Ġnumber":2330,"set":2331,"iling":2332,"Ġsoul":2333,"Ġeyebrow":2334,"Ġasking":2335,"Ġmagic":2336,"ars":2337,"Ġcell":2338,"Ġsituation":2339,"ring":2340,"instead":2341,"Ġmeans":2342,"Ġspace":2343,"something":2344,"Ġchoice":2345,"Ġbroken":2346,"Ġcock":2347,"asm":2348,"before":2349,"Ġtrouble":2350,"aling":2351,"Ġcatch":2352,"Ġmer":2353,"Ġstrange":2354,"Ġdep":2355,"ailed":2356,"Ġsharp":2357,"udd":2358,"Ġslam":2359,"Ġsilent":2360,"Ġcounter":2361,"Ġhoping":2362,"Ġmil":2363,"Ġsuit":2364,"Ġlaughing":2365,"inked":2366,"Ġslipped":2367,"Ġrepe":2368,"Ġshaking":2369,"Ġfit":2370,"Ġfirm":2371,"Ġgentle":2372,"Ġlower":2373,"Ġhuge":2374,"Ġwid":2375,"ca":2376,"Ġwhisper":2377,"Ġcoo":2378,"asing":2379,"Ġworth":2380,"Ġcab":2381,"ucking":2382,"aff":2383,"Ġnaked":2384,"Ġkeeping":2385,"Ġmark":2386,"Ġnervous":2387,"Ġdate":2388,"Ġposition":2389,"Ġpants":2390,"Ġund":2391,"Ġcomes":2392,"Ġhide":2393,"fl":2394,"ope":2395,"Ġris":2396,"Ġpaper":2397,"ecting":2398,"Ġhundred":2399,"Ġma":2400,"Ġwedding":2401,"Ġweak":2402,"Ġinform":2403,"Ġmissed":2404,"Ġcompl":2405,"rying":2406,"esh":2407,"Ġsumm":2408,"igg":2409,"Ġclen":2410,"fer":2411,"Ġplaying":2412,"Ġclean":2413,"Ġcup":2414,"Ġforehead":2415,"Ġpen":2416,"Ġvampires":2417,"Ġpiece":2418,"Ġmurmured":2419,"Ġemotion":2420,"Ġtaste":2421,"Ġexpect":2422,"Ġclearly":2423,"Ġrecogn":2424,"ager":2425,"Ġtall":2426,"ls":2427,"ital":2428,"Ġforgot":2429,"Ġgrace":2430,"Ġsmiling":2431,"Ġcity":2432,"Ġtow":2433,"Ġmis":2434,"Ġbas":2435,"gging":2436,"Ġfuture":2437,"Ġlocked":2438,"Ġwithin":2439,"ices":2440,"rit":2441,"Ġsugg":2442,"ler":2443,"Ġlady":2444,"Ġprete":2445,"Ġcrossed":2446,"Ġpush":2447,"Ġfold":2448,"Ġexplain":2449,"Ġpound":2450,"Ġearlier":2451,"Ġann":2452,"Ġhandle":2453,"Ġagreed":2454,"orted":2455,"orge":2456,"Ġkno":2457,"Ġhoped":2458,"rian":2459,"Ġcond":2460,"Ġprep":2461,"Ġstate":2462,"Ġpill":2463,"cious":2464,"Ġtired":2465,"Ġethan":2466,"ract":2467,"body":2468,"ishing":2469,"Ġstrugg":2470,"Ġpicture":2471,"aked":2472,"Ġbreathing":2473,"Ġimagine":2474,"Ġbecame":2475,"Ġscared":2476,"Ġsof":2477,"Ġreve":2478,"Ġdoors":2479,"Ġash":2480,"Ġthumb":2481,"Ġquestions":2482,"Ġforever":2483,"Ġplaced":2484,"Ġshifted":2485,"Ġblank":2486,"Ġobviously":2487,"ination":2488,"Ġnews":2489,"Ġpocket":2490,"Ġsexy":2491,"Ġalive":2492,"Ġvict":2493,"Ġval":2494,"Ġfro":2495,"who":2496,"Ġtalked":2497,"Ġlock":2498,"ards":2499,"Ġfuck":2500,"had":2501,"Ġbrown":2502,"Ġbill":2503,"Ġtruck":2504,"Ġshake":2505,"sc":2506,"Ġflat":2507,"stairs":2508,"Ġearly":2509,"Ġpet":2510,"Ġstren":2511,"Ġappre":2512,"Ġassum":2513,"Ġemb":2514,"Ġinvol":2515,"Ġpin":2516,"Ġeight":2517,"Ġspend":2518,"Ġlived":2519,"Ġjumped":2520,"Ġfill":2521,"ior":2522,"ustr":2523,"isf":2524,"Ġwondering":2525,"Ġneeds":2526,"ho":2527,"Ġoffered":2528,"bs":2529,"Ġspl":2530,"Ġdirect":2531,"owers":2532,"Ġevening":2533,"Ġmax":2534,"ella":2535,"Ġpair":2536,"iliar":2537,"Ġappeared":2538,"Ġweight":2539,"Ġlisten":2540,"Ġdanc":2541,"pite":2542,"izing":2543,"Ġharder":2544,"Ġnormal":2545,"Ġlogan":2546,"osp":2547,"Ġfix":2548,"Ġmed":2549,"Ġsettled":2550,"ached":2551,"Ġstone":2552,"mar":2553,"Ġgon":2554,"tern":2555,"Ġbrief":2556,"yond":2557,"Ġespecially":2558,"Ġsomehow":2559,"Ġclub":2560,"ude":2561,"Ġpu":2562,"Ġblond":2563,"Ġdef":2564,"Ġinformation":2565,"Ġcolor":2566,"Ġshock":2567,"Ġcompany":2568,"Ġones":2569,"Ġbrain":2570,"str":2571,"Ġdom":2572,"rible":2573,"Ġsomewhere":2574,"olute":2575,"sure":2576,"Ġboo":2577,"tic":2578,"Ġstayed":2579,"tering":2580,"Ġdressed":2581,"Ġkissing":2582,"ev":2583,"ressed":2584,"oof":2585,"Ġvi":2586,"Ġavo":2587,"Ġfif":2588,"Ġsave":2589,"Ġblinked":2590,"Ġstrength":2591,"ested":2592,"here":2593,"Ġwore":2594,"Ġcried":2595,"Ġbusy":2596,"Ġoffer":2597,"Ġfly":2598,"Ġry":2599,"Ġview":2600,"Ġfocus":2601,"Ġfollow":2602,"Ġfigured":2603,"Ġcapt":2604,"Ġwip":2605,"acy":2606,"Ġfeelings":2607,"ray":2608,"Ġprof":2609,"rence":2610,"achel":2611,"which":2612,"imed":2613,"Ġwel":2614,"ulous":2615,"Ġmuscles":2616,"res":2617,"ene":2618,"Ġincl":2619,"Ġrelief":2620,"Ġputting":2621,"Ġdance":2622,"Ġallowed":2623,"Ġmale":2624,"Ġnick":2625,"Ġdry":2626,"Ġdistance":2627,"ault":2628,"Ġround":2629,"Ġnone":2630,"Ġwine":2631,"Ġcenter":2632,"Ġmemory":2633,"Ġsand":2634,"Ġswallowed":2635,"Ġbent":2636,"riage":2637,"Ġqueen":2638,"Ġunc":2639,"Ġlucky":2640,"reen":2641,"uct":2642,"Ġaware":2643,"Ġbull":2644,"Ġwound":2645,"still":2646,"Ġthrust":2647,"Ġshowed":2648,"Ġjake":2649,"Ġhanded":2650,"Ġlord":2651,"Ġcast":2652,"Ġbreast":2653,"noon":2654,"onse":2655,"bes":2656,"Ġasks":2657,"Ġhelped":2658,"god":2659,"Ġeasily":2660,"inn":2661,"Ġaside":2662,"inct":2663,"loo":2664,"Ġsend":2665,"Ġbeyond":2666,"otions":2667,"que":2668,"Ġbell":2669,"avid":2670,"Ġgather":2671,"Ġdeterm":2672,"Ġappreci":2673,"Ġseems":2674,"dam":2675,"Ġtru":2676,"Ġbeginning":2677,"Ġstu":2678,"loe":2679,"Ġpul":2680,"Ġeffort":2681,"Ġwalls":2682,"Ġcontact":2683,"Ġsometimes":2684,"yn":2685,"Ġtreat":2686,"Ġcirc":2687,"Ġdrop":2688,"Ġarea":2689,"zane":2690,"Ġunderstood":2691,"Ġthighs":2692,"Ġdelic":2693,"Ġdemanded":2694,"Ġshoved":2695,"Ġmirror":2696,"Ġahead":2697,"Ġgrip":2698,"Ġwear":2699,"ants":2700,"selves":2701,"Ġgrou":2702,"Ġsatisf":2703,"ific":2704,"only":2705,"Ġdiscuss":2706,"Ġwhether":2707,"idence":2708,"Ġbottle":2709,"Ġended":2710,"Ġafternoon":2711,"your":2712,"Ġpersonal":2713,"Ġride":2714,"Ġfil":2715,"ection":2716,"Ġphot":2717,"Ġdog":2718,"Ġpour":2719,"Ġver":2720,"Ġkisses":2721,"Ġresponse":2722,"Ġfalling":2723,"Ġodd":2724,"Ġflesh":2725,"Ġpink":2726,"Ġta":2727,"Ġconv":2728,"Ġluke":2729,"Ġshare":2730,"Ġyours":2731,"abeth":2732,"shirt":2733,"Ġusing":2734,"Ġgrew":2735,"nothing":2736,"Ġmusic":2737,"Ġpregn":2738,"Ġhunter":2739,"Ġsweat":2740,"Ġbelong":2741,"Ġattem":2742,"while":2743,"leep":2744,"ages":2745,"Ġcru":2746,"rac":2747,"Ġsurround":2748,"Ġattack":2749,"Ġcalling":2750,"usion":2751,"Ġmemor":2752,"Ġlaw":2753,"ises":2754,"Ġspecial":2755,"Ġgest":2756,"ession":2757,"Ġevent":2758,"Ġembarr":2759,"Ġpalm":2760,"Ġloc":2761,"Ġrequ":2762,"Ġlearned":2763,"Ġtwisted":2764,"Ġrubbed":2765,"Ġphys":2766,"Ġamazing":2767,"Ġears":2768,"Ġjen":2769,"time":2770,"Ġhosp":2771,"Ġsleeping":2772,"Ġgasped":2773,"Ġoften":2774,"Ġnotice":2775,"Ġcarefully":2776,"Ġfighting":2777,"Ġreminded":2778,"Ġmel":2779,"Ġcu":2780,"Ġabsolute":2781,"Ġsmooth":2782,"Ġbrushed":2783,"kes":2784,"ative":2785,"Ġvan":2786,"Ġenjoy":2787,"Ġbow":2788,"Ġbal":2789,"Ġgets":2790,"yle":2791,"Ġpath":2792,"iot":2793,"Ġfamiliar":2794,"Ġarrived":2795,"Ġgrim":2796,"Ġbitch":2797,"Ġmov":2798,"arently":2799,"shit":2800,"Ġdarkness":2801,"Ġolder":2802,"Ġnor":2803,"Ġboys":2804,"friend":2805,"Ġbite":2806,"Ġangel":2807,"Ġfrustr":2808,"ousand":2809,"astic":2810,"Ġstarting":2811,"Ġconst":2812,"Ġtightened":2813,"fast":2814,"Ġdangerous":2815,"Ġstore":2816,"Ġlives":2817,"Ġalex":2818,"Ġregret":2819,"Ġdrove":2820,"Ġice":2821,"Ġsilver":2822,"Ġweird":2823,"fic":2824,"Ġshoot":2825,"ierce":2826,"Ġtruly":2827,"Ġbir":2828,"Ġband":2829,"Ġserv":2830,"Ġrain":2831,"aves":2832,"Ġpushing":2833,"Ġfle":2834,"kend":2835,"Ġhospital":2836,"Ġell":2837,"cted":2838,"Ġprivate":2839,"Ġjerked":2840,"Ġpot":2841,"Ġtip":2842,"Ġseriously":2843,"arm":2844,"Ġperhaps":2845,"Ġelb":2846,"Ġgroaned":2847,"Ġearth":2848,"Ġusually":2849,"ses":2850,"ension":2851,"Ġmas":2852,"Ġfeels":2853,"Ġsimple":2854,"Ġnote":2855,"Ġcommand":2856,"Ġmid":2857,"Ġrough":2858,"Ġburst":2859,"Ġcurled":2860,"luc":2861,"Ġtrack":2862,"lic":2863,"Ġstiff":2864,"Ġtouching":2865,"Ġcre":2866,"Ġpale":2867,"Ġfurther":2868,"Ġsucked":2869,"Ġlaid":2870,"Ġstuck":2871,"Ġtrave":2872,"val":2873,"Ġsqueezed":2874,"Ġlights":2875,"Ġla":2876,"Ġrom":2877,"die":2878,"Ġsurv":2879,"Ġfemale":2880,"Ġcamer":2881,"Ġmass":2882,"ald":2883,"Ġexplained":2884,"Ġaccept":2885,"izabeth":2886,"Ġnarrowed":2887,"usted":2888,"Ġobvious":2889,"Ġheal":2890,"Ġleather":2891,"Ġcertainly":2892,"Ġdim":2893,"Ġcand":2894,"Ġincred":2895,"line":2896,"bled":2897,"con":2898,"Ġlaught":2899,"Ġbod":2900,"Ġthousand":2901,"Ġwake":2902,"Ġthin":2903,"Ġlaughter":2904,"Ġvisit":2905,"Ġhotel":2906,"Ġpartic":2907,"two":2908,"Ġpolice":2909,"Ġconsidered":2910,"asted":2911,"par":2912,"Ġlevel":2913,"Ġbreathe":2914,"Ġsar":2915,"Ġcop":2916,"Ġfool":2917,"Ġhoney":2918,"Ġtest":2919,"Ġwished":2920,"Ġdisco":2921,"Ġshoes":2922,"miss":2923,"Ġhanging":2924,"Ġreaction":2925,"please":2926,"Ġtotally":2927,"Ġtossed":2928,"Ġsav":2929,"Ġhallway":2930,"Ġasleep":2931,"Ġsoph":2932,"Ġwee":2933,"mer":2934,"Ġsword":2935,"Ġremained":2936,"cho":2937,"ote":2938,"imp":2939,"Ġinterested":2940,"Ġhappening":2941,"Ġenc":2942,"Ġtrans":2943,"Ġapolog":2944,"emon":2945,"Ġtear":2946,"Ġfresh":2947,"iled":2948,"rupt":2949,"Ġanywhere":2950,"Ġsuff":2951,"Ġsummer":2952,"Ġscar":2953,"Ġgrowled":2954,"Ġfunny":2955,"Ġmill":2956,"rid":2957,"Ġbirth":2958,"Ġmood":2959,"Ġrepeated":2960,"Ġsen":2961,"ural":2962,"oint":2963,"Ġstudy":2964,"Ġgroup":2965,"Ġpromised":2966,"Ġclenched":2967,"Ġkey":2968,"idden":2969,"Ġmatt":2970,"orgeous":2971,"from":2972,"can":2973,"Ġpowerful":2974,"Ġways":2975,"ker":2976,"Ġdaniel":2977,"oming":2978,"Ġfinish":2979,"Ġsuck":2980,"Ġanim":2981,"Ġopening":2982,"Ġjacket":2983,"Ġdiffic":2984,"Ġupon":2985,"Ġusual":2986,"Ġimposs":2987,"Ġdisappeared":2988,"Ġmotion":2989,"Ġsuper":2990,"Ġwarning":2991,"iana":2992,"andon":2993,"ries":2994,"Ġ1":2995,"Ġlikely":2996,"Ġignored":2997,"Ġperfectly":2998,"Ġmoments":2999,"Ġlunch":3000,"bel":3001,"Ġbeer":3002,"Ġgorgeous":3003,"umped":3004,"oc":3005,"pper":3006,"Ġexcuse":3007,"Ġappear":3008,"ana":3009,"Ġlowered":3010,"Ġdecision":3011,"allen":3012,"Ġcharl":3013,"Ġcareful":3014,"night":3015,"Ġbast":3016,"tr":3017,"urity":3018,"Ġgodd":3019,"Ġemotions":3020,"Ġbuy":3021,"Ġpulls":3022,"Ġill":3023,"Ġexperience":3024,"Ġgift":3025,"Ġcarried":3026,"would":3027,"anted":3028,"Ġintim":3029,"Ġlen":3030,"Ġcomfortable":3031,"Ġcleared":3032,"Ġage":3033,"roud":3034,"Ġtowards":3035,"Ġturns":3036,"Ġshouted":3037,"Ġbelieved":3038,"Ġbrothers":3039,"Ġupset":3040,"cla":3041,"Ġeric":3042,"Ġpub":3043,"without":3044,"Ġgener":3045,"since":3046,"gl":3047,"Ġentered":3048,"Ġfeat":3049,"Ġwarri":3050,"tense":3051,"ael":3052,"Ġinno":3053,"Ġmissing":3054,"Ġstick":3055,"ron":3056,"Ġtrail":3057,"Ġcrack":3058,"ics":3059,"Ġweap":3060,"Ġgoes":3061,"Ġmarry":3062,"finally":3063,"Ġrich":3064,"Ġdestro":3065,"Ġtremb":3066,"ges":3067,"Ġfavorite":3068,"comfort":3069,"Ġleaning":3070,"Ġcrying":3071,"Ġbrow":3072,"Ġpissed":3073,"fortun":3074,"Ġut":3075,"car":3076,"Ġproper":3077,"Ġbutton":3078,"Ġlearn":3079,"looking":3080,"Ġpark":3081,"ius":3082,"Ġbeauty":3083,"will":3084,"Ġmarriage":3085,"uce":3086,"Ġdriving":3087,"Ġhowever":3088,"Ġweekend":3089,"Ġagree":3090,"Ġplayed":3091,"Ġequ":3092,"Ġfinding":3093,"cher":3094,"vy":3095,"Ġdig":3096,"Ġwave":3097,"Ġfault":3098,"Ġthirty":3099,"Ġgigg":3100,"ico":3101,"Ġallow":3102,"Ġenerg":3103,"Ġdeeper":3104,"Ġchuckled":3105,"Ġstun":3106,"kin":3107,"ived":3108,"Ġconsider":3109,"Ġgut":3110,"Ġol":3111,"Ġwindows":3112,"ledge":3113,"Ġjud":3114,"Ġbelly":3115,"Ġtrent":3116,"Ġflash":3117,"Ġinstantly":3118,"ivered":3119,"Ġfocused":3120,"ashing":3121,"aur":3122,"Ġinvolved":3123,"Ġhea":3124,"Ġanno":3125,"hun":3126,"Ġrush":3127,"Ġreleased":3128,"Ġteam":3129,"des":3130,"jack":3131,"asy":3132,"unity":3133,"Ġchallen":3134,"Ġlift":3135,"Ġtext":3136,"Ġgab":3137,"Ġnoah":3138,"Ġbreathed":3139,"ancy":3140,"alous":3141,"Ġchase":3142,"Ġslammed":3143,"Ġdoctor":3144,"Ġconcern":3145,"Ġfought":3146,"Ġmemories":3147,"Ġlean":3148,"gie":3149,"Ġrefused":3150,"everything":3151,"Ġcoat":3152,"zen":3153,"Ġmort":3154,"Ġgage":3155,"Ġslept":3156,"Ġdifficult":3157,"Ġplanned":3158,"Ġrespons":3159,"Ġconfused":3160,"ug":3161,"Ġflashed":3162,"Ġpassion":3163,"Ġescape":3164,"oe":3165,"ser":3166,"oll":3167,"Ġtree":3168,"Ġdru":3169,"Ġpop":3170,"Ġenergy":3171,"Ġburned":3172,"Ġkat":3173,"Ġpresent":3174,"Ġinch":3175,"Ġlosing":3176,"Ġdoorway":3177,"Ġspell":3178,"Ġtightly":3179,"ounced":3180,"izz":3181,"Ġbra":3182,"Ġshared":3183,"Ġplans":3184,"Ġdavid":3185,"ston":3186,"sl":3187,"Ġprop":3188,"Ġalthough":3189,"Ġproud":3190,"Ġmrs":3191,"Ġpresence":3192,"Ġspeaking":3193,"Ġintense":3194,"Ġgrowing":3195,"besides":3196,"eric":3197,"Ġoffic":3198,"racted":3199,"Ġuncle":3200,"Ġtil":3201,"osh":3202,"Ġgives":3203,"Ġpossess":3204,"Ġheels":3205,"ded":3206,"Ġmessage":3207,"Ġscreamed":3208,"Ġwrist":3209,"Ġelev":3210,"Ġkicked":3211,"Ġsecurity":3212,"Ġuh":3213,"Ġswear":3214,"Ġpool":3215,"Ġhug":3216,"Ġconcerned":3217,"Ġmain":3218,"Ġfully":3219,"Ġsliding":3220,"aph":3221,"Ġparticular":3222,"Ġabsolutely":3223,"Ġbreakfast":3224,"Ġshudd":3225,"oy":3226,"Ġsmart":3227,"Ġcolt":3228,"Ġexcited":3229,"Ġyan":3230,"Ġprov":3231,"Ġimpossible":3232,"Ġadm":3233,"Ġviol":3234,"Ġscreen":3235,"Ġknife":3236,"Ġchloe":3237,"Ġbodies":3238,"under":3239,"Ġrestaur":3240,"using":3241,"Ġisab":3242,"Ġboyfriend":3243,"ified":3244,"Ġblind":3245,"Ġwaved":3246,"ibility":3247,"Ġkick":3248,"Ġmere":3249,"Ġfant":3250,"Ġworst":3251,"ste":3252,"ts":3253,"Ġwarmth":3254,"Ġfist":3255,"Ġpregnant":3256,"Ġsuc":3257,"Ġbattle":3258,"Ġstaying":3259,"Ġguest":3260,"Ġfaster":3261,"Ġhumans":3262,"another":3263,"stand":3264,"Ġshop":3265,"Ġpeace":3266,"hen":3267,"Ġsink":3268,"Ġknock":3269,"Ġmaster":3270,"Ġcolle":3271,"Ġstudied":3272,"Ġoppos":3273,"oose":3274,"Ġextra":3275,"ball":3276,"rod":3277,"Ġsides":3278,"icated":3279,"Ġrisk":3280,"rified":3281,"ading":3282,"Ġdesperate":3283,"bast":3284,"Ġcook":3285,"Ġunable":3286,"ubb":3287,"Ġmal":3288,"Ġneither":3289,"Ġtrees":3290,"ey":3291,"Ġwit":3292,"never":3293,"Ġsurf":3294,"hell":3295,"eding":3296,"mother":3297,"off":3298,"Ġmistake":3299,"Ġmot":3300,"itched":3301,"lfr":3302,"Ġacce":3303,"Ġtrip":3304,"Ġclut":3305,"Ġboss":3306,"Ġstorm":3307,"Ġblake":3308,"anging":3309,"thy":3310,"ris":3311,"Ġbeg":3312,"Ġsed":3313,"Ġsmir":3314,"Ġhorse":3315,"Ġling":3316,"Ġplaces":3317,"iving":3318,"Ġport":3319,"see":3320,"Ġhat":3321,"Ġarr":3322,"Ġwonderful":3323,"thank":3324,"Ġsubject":3325,"Ġstretched":3326,"Ġah":3327,"Ġordered":3328,"ives":3329,"Ġremo":3330,"Ġhandsome":3331,"Ġimm":3332,"Ġskirt":3333,"Ġdoll":3334,"Ġphoto":3335,"Ġmate":3336,"top":3337,"inging":3338,"Ġadmitted":3339,"ini":3340,"Ġjason":3341,"Ġpurp":3342,"Ġfa":3343,"Ġsoc":3344,"Ġsnow":3345,"Ġpurse":3346,"Ġlength":3347,"Ġinstinct":3348,"Ġcabin":3349,"mas":3350,"Ġcared":3351,"Ġrelaxed":3352,"lfriend":3353,"Ġknee":3354,"Ġrul":3355,"Ġdespite":3356,"Ġsteady":3357,"rem":3358,"Ġloose":3359,"Ġeffect":3360,"Ġeasier":3361,"aging":3362,"Ġjealous":3363,"Ġhungry":3364,"Ġnipp":3365,"Ġheading":3366,"Ġprin":3367,"Ġfollowing":3368,"Ġpossibly":3369,"Ġpaid":3370,"Ġmike":3371,"Ġhesitated":3372,"Ġplate":3373,"Ġbought":3374,"Ġvision":3375,"Ġmagn":3376,"Ġpressing":3377,"rel":3378,"Ġbelow":3379,"Ġcircle":3380,"hood":3381,"sam":3382,"Ġpor":3383,"Ġreaching":3384,"Ġfallen":3385,"itement":3386,"vent":3387,"good":3388,"ners":3389,"omed":3390,"Ġbear":3391,"Ġstor":3392,"ues":3393,"damn":3394,"Ġparking":3395,"Ġtype":3396,"Ġcontinue":3397,"Ġdreams":3398,"Ġow":3399,"Ġrece":3400,"Ġdefe":3401,"Ġthemselves":3402,"Ġbutt":3403,"Ġlou":3404,"board":3405,"fortunately":3406,"Ġspir":3407,"Ġdecide":3408,"Ġeager":3409,"Ġwelcome":3410,"Ġfucking":3411,"Ġecho":3412,"Ġorg":3413,"Ġhi":3414,"Ġlistening":3415,"Ġlad":3416,"da":3417,"Ġdear":3418,"Ġcass":3419,"Ġscrew":3420,"Ġdon":3421,"Ġsne":3422,"Ġflick":3423,"jul":3424,"Ġcash":3425,"Ġmovie":3426,"Ġbound":3427,"Ġclimbed":3428,"Ġment":3429,"Ġbreaking":3430,"idge":3431,"Ġglared":3432,"Ġclay":3433,"Ġcard":3434,"antic":3435,"Ġnoise":3436,"Ġfeatures":3437,"Ġcaused":3438,"Ġforgotten":3439,"agged":3440,"athan":3441,"Ġbrows":3442,"Ġunless":3443,"Ġbeach":3444,"Ġnur":3445,"terday":3446,"Ġshadow":3447,"Ġmoon":3448,"Ġdust":3449,"lin":3450,"Ġadam":3451,"cri":3452,"Ġboots":3453,"Ġimage":3454,"Ġexplo":3455,"Ġelizabeth":3456,"aming":3457,"Ġsimon":3458,"Ġdriver":3459,"Ġfab":3460,"Ġpanties":3461,"anda":3462,"Ġpanic":3463,"Ġopposite":3464,"dom":3465,"ordan":3466,"Ġslide":3467,"Ġtwice":3468,"Ġsuggest":3469,"Ġcraw":3470,"Ġmount":3471,"Ġdetermined":3472,"Ġburning":3473,"Ġhiding":3474,"Ġdiv":3475,"Ġblame":3476,"kward":3477,"Ġscow":3478,"Ġmetal":3479,"iona":3480,"Ġjon":3481,"Ġseven":3482,"rett":3483,"bastian":3484,"yal":3485,"Ġvo":3486,"Ġdare":3487,"pting":3488,"okay":3489,"iety":3490,"Ġgrasp":3491,"den":3492,"Ġcorre":3493,"Ġaccident":3494,"Ġinclud":3495,"Ġbastard":3496,"Ġnecess":3497,"Ġrushed":3498,"Ġinvest":3499,"Ġtab":3500,"Ġrestaurant":3501,"Ġthird":3502,"Ġtort":3503,"Ġeyebrows":3504,"illy":3505,"ob":3506,"Ġrelease":3507,"Ġshowing":3508,"Ġhardly":3509,"Ġpee":3510,"Ġcamp":3511,"Ġblow":3512,"Ġmia":3513,"Ġshocked":3514,"Ġwoke":3515,"Ġlovely":3516,"alk":3517,"Ġhello":3518,"Ġbuck":3519,"Ġprefer":3520,"Ġswung":3521,"Ġtension":3522,"Ġtugged":3523,"Ġprocess":3524,"Ġrad":3525,"ensive":3526,"Ġinde":3527,"Ġdrunk":3528,"Ġpublic":3529,"Ġforth":3530,"Ġgirlfriend":3531,"Ġcaress":3532,"Ġaunt":3533,"Ġlun":3534,"Ġuncomfort":3535,"Ġexcitement":3536,"isa":3537,"Ġantic":3538,"ency":3539,"Ġprince":3540,"Ġtender":3541,"Ġrachel":3542,"Ġrespect":3543,"gar":3544,"atic":3545,"Ġjase":3546,"Ġhearing":3547,"Ġlex":3548,"Ġbringing":3549,"ping":3550,"Ġblur":3551,"Ġcourt":3552,"Ġrib":3553,"Ġtrick":3554,"otte":3555,"lu":3556,"Ġtucked":3557,"Ġwidened":3558,"attered":3559,"Ġpsy":3560,"Ġvictor":3561,"Ġjoin":3562,"Ġcollege":3563,"Ġhint":3564,"iculous":3565,"Ġreply":3566,"Ġarched":3567,"Ġinf":3568,"Ġentr":3569,"Ġawkward":3570,"Ġge":3571,"Ġjace":3572,"play":3573,"Ġlat":3574,"wise":3575,"Ġvib":3576,"Ġbadly":3577,"Ġcomput":3578,"Ġdirty":3579,"Ġwolf":3580,"Ġexha":3581,"Ġpictures":3582,"Ġconsidering":3583,"Ġceiling":3584,"Ġsong":3585,"Ġgard":3586,"ashes":3587,"annah":3588,"Ġcream":3589,"Ġren":3590,"Ġdirectly":3591,"lec":3592,"Ġfield":3593,"Ġhelping":3594,"Ġdeeply":3595,"Ġtick":3596,"Ġpurpose":3597,"Ġjax":3598,"Ġimagined":3599,"Ġshall":3600,"Ġgolden":3601,"Ġhidden":3602,"Ġpressure":3603,"Ġlicked":3604,"ieved":3605,"Ġdragged":3606,"Ġfinal":3607,"Ġreading":3608,"Ġclaim":3609,"Ġyesterday":3610,"Ġwitch":3611,"Ġspark":3612,"Ġsending":3613,"case":3614,"hn":3615,"Ġopt":3616,"Ġtowel":3617,"Ġspeed":3618,"Ġchecked":3619,"Ġhuh":3620,"centr":3621,"Ġsupport":3622,"ka":3623,"Ġmix":3624,"Ġlightly":3625,"Ġtex":3626,"Ġbooks":3627,"ury":3628,"Ġurge":3629,"Ġhappens":3630,"Ġignore":3631,"Ġcalls":3632,"Ġexperien":3633,"itive":3634,"Ġrap":3635,"Ġinj":3636,"Ġaut":3637,"key":3638,"Ġconvin":3639,"house":3640,"Ġlab":3641,"Ġcomment":3642,"Ġdick":3643,"back":3644,"Ġinterru":3645,"Ġblo":3646,"Ġburied":3647,"Ġsepar":3648,"Ġhip":3649,"ills":3650,"Ġgreet":3651,"Ġtele":3652,"Ġentirely":3653,"Ġirrit":3654,"Ġpleased":3655,"Ġpoor":3656,"ford":3657,"Ġsensation":3658,"elia":3659,"Ġgrate":3660,"Ġopport":3661,"Ġpray":3662,"Ġyelled":3663,"Ġprepared":3664,"Ġvibr":3665,"zing":3666,"Ġaff":3667,"bye":3668,"work":3669,"father":3670,"Ġni":3671,"Ġelevator":3672,"Ġsearching":3673,"Ġmic":3674,"Ġshadows":3675,"Ġscene":3676,"Ġisland":3677,"lessly":3678,"Ġattempt":3679,"over":3680,"pro":3681,"Ġjew":3682,"ades":3683,"Ġ--":3684,"Ġfingert":3685,"Ġmentioned":3686,"tell":3687,"Ġcous":3688,"Ġspun":3689,"everyone":3690,"Ġevil":3691,"Ġmac":3692,"Ġconcentr":3693,"men":3694,"Ġwings":3695,"Ġfolded":3696,"Ġsexual":3697,"itude":3698,"Ġprove":3699,"Ġanticip":3700,"Ġfaint":3701,"Ġborn":3702,"those":3703,"Ġdeb":3704,"Ġpieces":3705,"ork":3706,"Ġchristmas":3707,"yeah":3708,"ait":3709,"inting":3710,"Ġvir":3711,"Ġhy":3712,"ama":3713,"aine":3714,"Ġtemper":3715,"Ġitself":3716,"Ġavoid":3717,"Ġsuspic":3718,"call":3719,"Ġrob":3720,"Ġrested":3721,"Ġgripped":3722,"Ġboard":3723,"nday":3724,"Ġrang":3725,"Ġloving":3726,"Ġarg":3727,"idding":3728,"Ġpractically":3729,"Ġhig":3730,"Ġspr":3731,"Ġexpecting":3732,"Ġresist":3733,"Ġsmiles":3734,"Ġkilling":3735,"Ġpretend":3736,"Ġcow":3737,"Ġunf":3738,"Ġtang":3739,"Ġexh":3740,"Ġtun":3741,"Ġluis":3742,"real":3743,"Ġcurrent":3744,"Ġaccom":3745,"aly":3746,"Ġpause":3747,"ago":3748,"aching":3749,"Ġanx":3750,"Ġexam":3751,"Ġwheel":3752,"Ġheaven":3753,"Ġcurt":3754,"vet":3755,"Ġthinks":3756,"reme":3757,"Ġslip":3758,"ils":3759,"Ġdemons":3760,"iolet":3761,"Ġridiculous":3762,"Ġhol":3763,"aul":3764,"Ġeating":3765,"oot":3766,"Ġknocked":3767,"ichael":3768,"ety":3769,"their":3770,"Ġteasing":3771,"Ġsin":3772,"Ġpure":3773,"Ġstab":3774,"rek":3775,"Ġhen":3776,"Ġapproached":3777,"pet":3778,"someone":3779,"Ġglare":3780,"Ġflew":3781,"could":3782,"although":3783,"Ġrare":3784,"Ġchick":3785,"Ġupstairs":3786,"Ġcloud":3787,"ausing":3788,"asion":3789,"Ġgrown":3790,"Ġbrand":3791,"roll":3792,"Ġlines":3793,"Ġspine":3794,"Ġdisg":3795,"Ġcree":3796,"Ġenem":3797,"ointment":3798,"Ġamong":3799,"Ġmoaned":3800,"Ġregard":3801,"Ġtilted":3802,"Ġest":3803,"Ġjam":3804,"yer":3805,"Ġprison":3806,"ids":3807,"Ġcomputer":3808,"iday":3809,"Ġcost":3810,"Ġtrist":3811,"Ġkate":3812,"Ġwrit":3813,"Ġaud":3814,"Ġexist":3815,"Ġstaff":3816,"aper":3817,"Ġappreciate":3818,"Ġwarned":3819,"Ġkeys":3820,"ague":3821,"Ġterrible":3822,"Ġfroze":3823,"Ġfifteen":3824,"whate":3825,"Ġvar":3826,"whatever":3827,"Ġjoined":3828,"Ġting":3829,"Ġthor":3830,"Ġfirmly":3831,"Ġjames":3832,"Ġcloset":3833,"Ġbase":3834,"Ġswept":3835,"irst":3836,"sm":3837,"Ġsha":3838,"Ġju":3839,"iley":3840,"Ġsolid":3841,"Ġinstant":3842,"Ġwand":3843,"Ġhist":3844,"Ġdouble":3845,"ume":3846,"Ġentrance":3847,"fit":3848,"Ġgle":3849,"Ġinteresting":3850,"Ġpost":3851,"Ġmostly":3852,"Ġreasons":3853,"Ġplanning":3854,"Ġblock":3855,"Ġsold":3856,"Ġbetray":3857,"Ġreality":3858,"Ġapparently":3859,"ern":3860,"stem":3861,"Ġrising":3862,"Ġguilt":3863,"Ġphysical":3864,"Ġfu":3865,"again":3866,"ighb":3867,"Ġbackward":3868,"view":3869,"heart":3870,"Ġeventually":3871,"ented":3872,"unted":3873,"Ġsip":3874,"Ġrecognized":3875,"bbing":3876,"Ġneighb":3877,"Ġvol":3878,"Ġshield":3879,"Ġdrawing":3880,"Ġhoo":3881,"Ġfang":3882,"Ġcrap":3883,"Ġawake":3884,"Ġenjoyed":3885,"Ġava":3886,"bers":3887,"Ġsoot":3888,"neath":3889,"Ġarou":3890,"ground":3891,"andra":3892,"Ġcountry":3893,"fuck":3894,"Ġfierce":3895,"Ġpillow":3896,"Ġrage":3897,"Ġemma":3898,"Ġharm":3899,"Ġglasses":3900,"hunter":3901,"Ġrum":3902,"Ġpad":3903,"Ġsystem":3904,"Ġclaire":3905,"Ġnumb":3906,"cil":3907,"Ġviv":3908,"Ġfright":3909,"Ġmaj":3910,"Ġdra":3911,"Ġchat":3912,"Ġdetails":3913,"Ġlanded":3914,"nat":3915,"Ġfort":3916,"Ġnon":3917,"Ġstir":3918,"Ġtatt":3919,"Ġlistened":3920,"Ġdrif":3921,"Ġcomb":3922,"Ġblanket":3923,"Ġidiot":3924,"rap":3925,"yet":3926,"ott":3927,"Ġdeserve":3928,"agger":3929,"Ġwrap":3930,"Ġfren":3931,"Ġsank":3932,"Ġliam":3933,"hy":3934,"Ġfrustration":3935,"ica":3936,"Ġflying":3937,"Ġhugged":3938,"Ġenjoying":3939,"Ġcarry":3940,"iant":3941,"Ġopportunity":3942,"Ġbitter":3943,"Ġinnocent":3944,"Ġsize":3945,"Ġflipped":3946,"Ġanswers":3947,"Ġbrush":3948,"bert":3949,"Ġthrowing":3950,"char":3951,"Ġdying":3952,"Ġsilently":3953,"Ġplane":3954,"Ġdelight":3955,"Ġsir":3956,"Ġclosing":3957,"sal":3958,"Ġknowledge":3959,"Ġcarrying":3960,"Ġere":3961,"Ġdancing":3962,"Ġfury":3963,"bby":3964,"Ġpoured":3965,"Ġdamned":3966,"ider":3967,"Ġlust":3968,"Ġjulian":3969,"Ġstream":3970,"Ġclit":3971,"Ġproblems":3972,"whel":3973,"Ġmeaning":3974,"ounce":3975,"Ġlied":3976,"Ġelect":3977,"Ġrubbing":3978,"Ġuncomfortable":3979,"anned":3980,"uries":3981,"too":3982,"eless":3983,"Ġwiped":3984,"Ġunderneath":3985,"Ġtattoo":3986,"Ġmovement":3987,"Ġbuilt":3988,"Ġgods":3989,"ille":3990,"ira":3991,"Ġsean":3992,"Ġnights":3993,"perhaps":3994,"esus":3995,"Ġshiver":3996,"'s":3997,"Ġscreaming":3998,"oned":3999,"ese":4000,"ique":4001,"formed":4002,"Ġfaded":4003,"Ġlibr":4004,"Ġbelt":4005,"Ġrolling":4006,"Ġinh":4007,"Ġmiles":4008,"Ġlack":4009,"acher":4010,"Ġjoy":4011,"Ġscrat":4012,"Ġtea":4013,"Ġdaemon":4014,"Ġgrandmother":4015,"Ġwhenever":4016,"Ġcollar":4017,"Ġexch":4018,"Ġyork":4019,"Ġatte":4020,"Ġconvince":4021,"Ġmuscle":4022,"Ġshift":4023,"especially":4024,"Ġdisappear":4025,"Ġballs":4026,"Ġx":4027,"Ġstroked":4028,"Ġsetting":4029,"ante":4030,"Ġclaw":4031,"Ġpride":4032,"Ġfer":4033,"ola":4034,"Ġstruck":4035,"Ġgrateful":4036,"Ġum":4037,"arily":4038,"Ġcommit":4039,"Ġsuppose":4040,"Ġrecord":4041,"Ġsuccess":4042,"hand":4043,"Ġsurface":4044,"five":4045,"Ġsuggested":4046,"Ġbroad":4047,"Ġnine":4048,"Ġplenty":4049,"Ġcurse":4050,"Ġharsh":4051,"Ġripped":4052,"Ġflight":4053,"Ġsan":4054,"Ġkee":4055,"Ġwaves":4056,"four":4057,"Ġhonor":4058,"Ġslee":4059,"ayne":4060,"aen":4061,"Ġvill":4062,"Ġcute":4063,"Ġyanked":4064,"yl":4065,"Ġheads":4066,"Ġorgasm":4067,"Ġnipple":4068,"port":4069,"Ġpace":4070,"aenelle":4071,"Ġutter":4072,"Ġcurious":4073,"Ġtar":4074,"ats":4075,"Ġsilk":4076,"Ġoverwhel":4077,"Ġintrod":4078,"Ġtie":4079,"Ġsqueeze":4080,"Ġnate":4081,"bit":4082,"Ġflowers":4083,"Ġembarrass":4084,"Ġnic":4085,"Ġdrinking":4086,"Ġtristan":4087,"Ġrelieved":4088,"Ġpsych":4089,"Ġtwist":4090,"aping":4091,"Ġamount":4092,"Ġsaved":4093,"Ġteased":4094,"Ġease":4095,"azed":4096,"Ġcause":4097,"Ġassumed":4098,"Ġpalms":4099,"Ġlee":4100,"Ġpit":4101,"umbling":4102,"igned":4103,"eled":4104,"Ġporch":4105,"Ġfists":4106,"ution":4107,"eline":4108,"rog":4109,"ivar":4110,"mr":4111,"Ġacting":4112,"Ġspin":4113,"Ġprod":4114,"mom":4115,"Ġstage":4116,"Ġtv":4117,"Ġtense":4118,"Ġsnar":4119,"Ġwarrior":4120,"Ġaffect":4121,"Ġgathered":4122,"Ġya":4123,"Ġabrupt":4124,"Ġrooms":4125,"isy":4126,"Ġextreme":4127,"Ġdownstairs":4128,"sudden":4129,"Ġelbow":4130,"Ġpounding":4131,"issa":4132,"Ġbecoming":4133,"Ġjoe":4134,"Ġfal":4135,"Ġability":4136,"Ġaction":4137,"Ġbeast":4138,"ios":4139,"Ġstruggled":4140,"Ġemer":4141,"vering":4142,"Ġlace":4143,"Ġobl":4144,"Ġstraightened":4145,"Ġdeli":4146,"Ġgroan":4147,"Ġbeth":4148,"Ġbesides":4149,"Ġfaces":4150,"Ġsmelled":4151,"Ġinsisted":4152,"Ġjohn":4153,"Ġbirthday":4154,"suddenly":4155,"Ġdating":4156,"Ġchoose":4157,"Ġdescri":4158,"Ġeverywhere":4159,"Ġbloody":4160,"Ġloss":4161,"Ġremain":4162,"ilar":4163,"Ġvic":4164,"Ġsque":4165,"Ġpowers":4166,"Ġinterrupted":4167,"Ġrules":4168,"irled":4169,"mp":4170,"Ġank":4171,"Ġyounger":4172,"agg":4173,"Ġhurried":4174,"Ġremoved":4175,"Ġfaced":4176,"Ġbacked":4177,"ument":4178,"Ġsearch":4179,"Ġcole":4180,"Ġhigher":4181,"have":4182,"Ġlifting":4183,"Ġconnection":4184,"Ġflut":4185,"Ġhole":4186,"Ġstarts":4187,"ki":4188,"anna":4189,"taking":4190,"Ġempl":4191,"Ġchocol":4192,"Ġglow":4193,"Ġstronger":4194,"Ġreass":4195,"shall":4196,"Ġrese":4197,"Ġfingertips":4198,"Ġlake":4199,"nds":4200,"Ġsaf":4201,"Ġhistory":4202,"Ġrefle":4203,"sue":4204,"Ġsurrounded":4205,"Ġpopped":4206,"Ġassist":4207,"until":4208,"Ġblade":4209,"Ġfurn":4210,"emma":4211,"turn":4212,"Ġconfusion":4213,"Ġfabric":4214,"Ġforgive":4215,"Ġhorrible":4216,"Ġchallenge":4217,"Ġlucien":4218,"Ġsuspected":4219,"cus":4220,"Ġprotest":4221,"Ġnecessary":4222,"Ġprincess":4223,"aden":4224,"rey":4225,"Ġbeating":4226,"Ġbigger":4227,"Ġintended":4228,"Ġswift":4229,"Ġdamp":4230,"Ġcupped":4231,"Ġpred":4232,"len":4233,"Ġcovers":4234,"Ġgarden":4235,"both":4236,"Ġdifference":4237,"Ġmach":4238,"exp":4239,"idy":4240,"Ġintens":4241,"Ġhonestly":4242,"Ġdeserved":4243,"Ġsnorted":4244,"Ġstopping":4245,"wood":4246,"ppy":4247,"Ġdesperately":4248,"mare":4249,"Ġjess":4250,"Ġsell":4251,"Ġembr":4252,"hu":4253,"***":4254,"Ġresting":4255,"Ġsac":4256,"Ġincre":4257,"del":4258,"Ġfrank":4259,"Ġsebastian":4260,"Ġdut":4261,"lebr":4262,"Ġabandon":4263,"Ġmart":4264,"pless":4265,"Ġanimal":4266,"Ġivy":4267,"uced":4268,"Ġdelicious":4269,"dr":4270,"Ġroof":4271,"Ġpainful":4272,"ask":4273,"Ġcharge":4274,"ilities":4275,"ivers":4276,"icing":4277,"Ġloves":4278,"Ġwhose":4279,"Ġsplit":4280,"Ġshape":4281,"velop":4282,"Ġsofa":4283,"ilty":4284,"Ġleaves":4285,"Ġparked":4286,"Ġdirt":4287,"Ġintent":4288,"Ġsniff":4289,"Ġmillion":4290,"Ġhost":4291,"bbed":4292,"raction":4293,"Ġstunned":4294,"Ġtrembling":4295,"Ġtour":4296,"erial":4297,"ously":4298,"Ġvul":4299,"Ġbones":4300,"Ġwhit":4301,"Ġjosh":4302,"Ġcust":4303,"Ġspoken":4304,"Ġdug":4305,"ias":4306,"Ġnowhere":4307,"Ġstation":4308,"Ġinsane":4309,"Ġcelebr":4310,"Ġconvinced":4311,"Ġaccepted":4312,"iest":4313,"Ġrise":4314,"eeling":4315,"Ġhorror":4316,"Ġargue":4317,"mission":4318,"Ġglo":4319,"Ġmatch":4320,"Ġdecl":4321,"asha":4322,"Ġnatural":4323,"hol":4324,"Ġnightmare":4325,"iment":4326,"sometimes":4327,"Ġfailed":4328,"itation":4329,"boy":4330,"Ġstal":4331,"Ġstat":4332,"Ġident":4333,"Ġteen":4334,"Ġhissed":4335,"Ġguards":4336,"Ġdy":4337,"udson":4338,"Ġwicked":4339,"Ġderek":4340,"Ġjordan":4341,"Ġdiscovered":4342,"Ġdomin":4343,"Ġeve":4344,"Ġguilty":4345,"Ġweapon":4346,"Ġcousin":4347,"Ġoccur":4348,"Ġwes":4349,"Ġpulse":4350,"Ġryan":4351,"ailing":4352,"Ġmaterial":4353,"Ġsettle":4354,"alton":4355,"Ġkidding":4356,"Ġconfir":4357,"ethan":4358,"Ġworks":4359,"asty":4360,"antage":4361,"Ġlungs":4362,"Ġmary":4363,"Ġswim":4364,"Ġbru":4365,"Ġgrave":4366,"essa":4367,"Ġdrawn":4368,"Ġtied":4369,"Ġpunish":4370,"Ġliqu":4371,"sa":4372,"Ġack":4373,"Ġclock":4374,"Ġmurder":4375,"yx":4376,"otic":4377,"Ġtore":4378,"itted":4379,"ples":4380,"Ġlover":4381,"Ġinvestig":4382,"Ġsensed":4383,"Ġinstru":4384,"Ġamuse":4385,"bling":4386,"Ġgrass":4387,"iven":4388,"logan":4389,"Ġtent":4390,"Ġpers":4391,"Ġholl":4392,"Ġparted":4393,"Ġinches":4394,"sion":4395,"except":4396,"Ġnik":4397,"Ġsnat":4398,"Ġexperienced":4399,"Ġdan":4400,"Ġpapers":4401,"Ġchocolate":4402,"bie":4403,"Ġjoke":4404,"three":4405,"Ġthrown":4406,"Ġupper":4407,"Ġoccasion":4408,"Ġsecrets":4409,"Ġflood":4410,"Ġadjust":4411,"Ġgown":4412,"eron":4413,"Ġdisplay":4414,"Ġrafe":4415,"Ġai":4416,"Ġdaddy":4417,"Ġembarrassed":4418,"illing":4419,"blood":4420,"Ġcheer":4421,"umps":4422,"urch":4423,"Ġfacing":4424,"hold":4425,"wen":4426,"ational":4427,"Ġcapable":4428,"Ġlibrary":4429,"Ġate":4430,"Ġboat":4431,"Ġmoan":4432,"Ġconc":4433,"Ġlang":4434,"ushes":4435,"Ġspending":4436,"Ġhenry":4437,"got":4438,"Ġjet":4439,"Ġfreaking":4440,"wear":4441,"cul":4442,"Ġclary":4443,"Ġmeal":4444,"Ġsweetheart":4445,"Ġnods":4446,"Ġamused":4447,"Ġblew":4448,"Ġacknow":4449,"Ġsake":4450,"Ġtells":4451,"Ġsquare":4452,"mon":4453,"Ġresponded":4454,"Ġmanage":4455,"lish":4456,"osing":4457,"Ġrecognize":4458,"Ġfeed":4459,"Ġtoes":4460,"Ġshakes":4461,"Ġori":4462,"Ġheavily":4463,"Ġsmoke":4464,"shed":4465,"Ġvulner":4466,"Ġache":4467,"Ġassured":4468,"Ġshifter":4469,"Ġgy":4470,"Ġshorts":4471,"Ġservice":4472,"Ġsurvive":4473,"Ġbride":4474,"ette":4475,"aky":4476,"Ġpartner":4477,"sec":4478,"Ġsour":4479,"Ġoffering":4480,"ective":4481,"etan":4482,"rick":4483,"Ġoce":4484,"Ġwash":4485,"ubborn":4486,"elve":4487,"Ġemploy":4488,"Ġtech":4489,"por":4490,"ndon":4491,"lled":4492,"Ġforcing":4493,"Ġvac":4494,"Ġnails":4495,"Ġwhispers":4496,"Ġdeny":4497,"Ġhurry":4498,"Ġcreated":4499,"Ġchic":4500,"Ġalec":4501,"Ġshivered":4502,"cam":4503,"Ġengine":4504,"ium":4505,"min":4506,"asure":4507,"ference":4508,"Ġcausing":4509,"Ġunderstanding":4510,"Ġfilling":4511,"Ġpicking":4512,"Ġchamp":4513,"Ġtrailed":4514,"Ġwooden":4515,"Ġshrug":4516,"Ġrecall":4517,"Ġrow":4518,"Ġdining":4519,"Ġinner":4520,"Ġsurprising":4521,"umping":4522,"Ġwoods":4523,"Ġyellow":4524,"icle":4525,"essed":4526,"asc":4527,"amped":4528,"Ġgas":4529,"Ġenter":4530,"nick":4531,"ication":4532,"Ġwow":4533,"Ġriver":4534,"Ġshade":4535,"Ġsenses":4536,"daniel":4537,"Ġcontract":4538,"Ġimpat":4539,"Ġgho":4540,"Ġstrang":4541,"Ġwon":4542,"Ġsheets":4543,"Ġwest":4544,"beat":4545,"Ġbudd":4546,"Ġhumor":4547,"Ġtit":4548,"Ġcursed":4549,"Ġpier":4550,"Ġreact":4551,"Ġaccount":4552,"ointed":4553,"Ġrobe":4554,"Ġwrists":4555,"year":4556,"Ġtrain":4557,"Ġcommon":4558,"down":4559,"Ġ2":4560,"Ġrace":4561,"Ġhappiness":4562,"Ġcred":4563,"vor":4564,"Ġbree":4565,"ora":4566,"Ġchose":4567,"Ġawful":4568,"Ġbothered":4569,"Ġnature":4570,"Ġgesture":4571,"Ġexhausted":4572,"Ġintern":4573,"Ġcasual":4574,"Ġdisgust":4575,"Ġamusement":4576,"Ġsafety":4577,"enz":4578,"Ġlondon":4579,"Ġheight":4580,"Ġbutter":4581,"Ġbreasts":4582,"dad":4583,"Ġmerely":4584,"Ġlone":4585,"Ġhurting":4586,"Ġraw":4587,"Ġlikes":4588,"Ġworn":4589,"Ġmck":4590,"Ġdropping":4591,"iper":4592,"Ġprec":4593,"Ġotherwise":4594,"Ġiron":4595,"Ġocean":4596,"Ġwitness":4597,"Ġerection":4598,"expected":4599,"Ġban":4600,"Ġbags":4601,"Ġreport":4602,"Ġblink":4603,"Ġsched":4604,"Ġterrified":4605,"Ġladies":4606,"Ġcallum":4607,"Ġstubborn":4608,"mist":4609,"becca":4610,"Ġfixed":4611,"Ġletter":4612,"Ġleading":4613,"Ġmumbled":4614,"ires":4615,"cons":4616,"ashion":4617,"Ġparis":4618,"Ġpaying":4619,"Ġincluding":4620,"Ġnearby":4621,"une":4622,"Ġcovering":4623,"Ġgiant":4624,"iction":4625,"uine":4626,"Ġsteel":4627,"Ġexte":4628,"Ġmakeup":4629,"Ġslapped":4630,"iger":4631,"Ġnap":4632,"Ġframe":4633,"Ġannounced":4634,"Ġms":4635,"Ġbabe":4636,"Ġnerves":4637,"Ġdecor":4638,"rop":4639,"Ġcorrect":4640,"Ġgoddam":4641,"Ġevidence":4642,"Ġblonde":4643,"Ġfat":4644,"Ġtotal":4645,"Ġgrandfather":4646,"Ġcars":4647,"Ġignoring":4648,"Ġsatisfaction":4649,"apping":4650,"aud":4651,"ivia":4652,"Ġship":4653,"Ġholds":4654,"coming":4655,"Ġgate":4656,"Ġadvantage":4657,"eredith":4658,"Ġstartled":4659,"Ġholly":4660,"Ġgarage":4661,"Ġstranger":4662,"Ġexplan":4663,"ception":4664,"Ġrule":4665,"gage":4666,"acks":4667,"Ġgoddess":4668,"Ġparts":4669,"Ġchain":4670,"Ġlucy":4671,"Ġtur":4672,"Ġtaught":4673,"ism":4674,"Ġsea":4675,"vision":4676,"Ġcharlotte":4677,"Ġviolet":4678,"Ġswallow":4679,"Ġbriefly":4680,"Ġune":4681,"despite":4682,"cks":4683,"Ġdistracted":4684,"Ġbone":4685,"Ġlily":4686,"Ġpassing":4687,"gress":4688,"osen":4689,"Ġshel":4690,"po":4691,"Ġrhy":4692,"Ġopin":4693,"Ġchairs":4694,"Ġeased":4695,"Ġshame":4696,"Ġmichael":4697,"Ġstands":4698,"Ġhelpless":4699,"Ġgrinning":4700,"Ġjackson":4701,"sim":4702,"asped":4703,"Ġfreed":4704,"Ġbank":4705,"Ġchurch":4706,"Ġoper":4707,"Ġsisters":4708,"Ġdylan":4709,"Ġcord":4710,"ura":4711,"Ġdi":4712,"Ġgabe":4713,"Ġskyla":4714,"lder":4715,"ization":4716,"Ġtwelve":4717,"Ġjerk":4718,"Ġstatement":4719,"elled":4720,"Ġclue":4721,"vern":4722,"Ġleans":4723,"Ġgrabbing":4724,"Ġtrusted":4725,"Ġpotent":4726,"Ġgenuine":4727,"Ġdriveway":4728,"Ġtasted":4729,"aze":4730,"Ġchosen":4731,"Ġsounding":4732,"enger":4733,"Ġant":4734,"gest":4735,"Ġreluct":4736,"Ġdamien":4737,"Ġgames":4738,"place":4739,"Ġarrange":4740,"Ġobject":4741,"Ġthreatened":4742,"Ġanticipation":4743,"Ġdozen":4744,"Ġdawn":4745,"Ġlangu":4746,"Ġzoe":4747,"Ġmembers":4748,"ify":4749,"Ġcolin":4750,"Ġflushed":4751,"being":4752,"Ġaddress":4753,"Ġsearched":4754,"Ġbay":4755,"Ġchicago":4756,"Ġincredible":4757,"Ġescaped":4758,"inger":4759,"ben":4760,"jen":4761,"Ġfac":4762,"Ġwis":4763,"Ġwashed":4764,"Ġsway":4765,"ule":4766,"Ġcrew":4767,"Ġabby":4768,"Ġmajor":4769,"Ġunlo":4770,"max":4771,"Ġsofia":4772,"Ġgazed":4773,"Ġbowl":4774,"Ġissue":4775,"Ġquit":4776,"Ġcutting":4777,"lord":4778,"esome":4779,"Ġprofession":4780,"Ġwilliam":4781,"Ġstroke":4782,"Ġmoves":4783,"Ġtail":4784,"Ġmattress":4785,"tt":4786,"rose":4787,"Ġquar":4788,"Ġpossibility":4789,"Ġsooner":4790,"Ġthread":4791,"stal":4792,"Ġwinked":4793,"Ġdrifted":4794,"Ġdamage":4795,"Ġstumbled":4796,"Ġvel":4797,"Ġbul":4798,"Ġcreature":4799,"Ġsatur":4800,"Ġlexi":4801,"Ġstories":4802,"Ġcurve":4803,"Ġwrapping":4804,"Ġcooper":4805,"Ġappe":4806,"Ġclothing":4807,"Ġgall":4808,"Ġtraining":4809,"Ġpatted":4810,"Ġamy":4811,"Ġcharlie":4812,"grace":4813,"Ġhart":4814,"imm":4815,"Ġcher":4816,"iently":4817,"dding":4818,"Ġgrad":4819,"Ġshy":4820,"Ġsensitive":4821,"atically":4822,"ceed":4823,"Ġjour":4824,"Ġabruptly":4825,"Ġorigin":4826,"Ġbehav":4827,"Ġanswering":4828,"anor":4829,"Ġdepe":4830,"Ġaccess":4831,"asper":4832,"Ġfangs":4833,"Ġtray":4834,"Ġguessed":4835,"Ġbunch":4836,"Ġhous":4837,"kn":4838,"Ġfasc":4839,"Ġdevil":4840,"look":4841,"Ġvin":4842,"Ġstars":4843,"Ġmc":4844,"avin":4845,"Ġflin":4846,"Ġunexpected":4847,"Ġspirit":4848,"Ġtables":4849,"Ġbelonged":4850,"Ġprev":4851,"Ġdipped":4852,"Ġcamera":4853,"Ġtipped":4854,"Ġcatching":4855,"Ġphotogr":4856,"Ġvirgin":4857,"add":4858,"Ġameric":4859,"ral":4860,"Ġcracked":4861,"Ġtorn":4862,"Ġsuite":4863,"Ġlog":4864,"beth":4865,"Ġfake":4866,"gly":4867,"Ġtrapped":4868,"Ġdrinks":4869,"Ġwalks":4870,"Ġconfident":4871,"Ġspring":4872,"Ġhitting":4873,"Ġgrowl":4874,"Ġsophia":4875,"Ġmorgan":4876,"ulf":4877,"bet":4878,"isab":4879,"Ġbrill":4880,"Ġsarc":4881,"Ġstrand":4882,"Ġaching":4883,"Ġplastic":4884,"Ġraise":4885,"Ġbrushing":4886,"Ġhalfway":4887,"first":4888,"Ġheated":4889,"ature":4890,"Ġcha":4891,"Ġrhyth":4892,"about":4893,"jake":4894,"Ġchoked":4895,"Ġrip":4896,"Ġjaenelle":4897,"Ġlies":4898,"umble":4899,"Ġechoed":4900,"Ġstroking":4901,"Ġdestroy":4902,"Ġattract":4903,"claimed":4904,"Ġneighbor":4905,"Ġwaste":4906,"Ġconnor":4907,"Ġalarm":4908,"Ġdisbel":4909,"Ġwishing":4910,"umn":4911,"Ġfurious":4912,"Ġriding":4913,"unfortunately":4914,"Ġmusc":4915,"mad":4916,"Ġpainting":4917,"slow":4918,"ran":4919,"Ġpractice":4920,"Ġvanished":4921,"Ġshopping":4922,"Ġguests":4923,"oted":4924,"Ġglancing":4925,"Ġemotional":4926,"Ġscram":4927,"Ġwritten":4928,"acle":4929,"Ġugly":4930,"Ġbella":4931,"Ġstrip":4932,"bre":4933,"Ġward":4934,"apparently":4935,"Ġtarget":4936,"Ġvers":4937,"Ġchecking":4938,"Ġresc":4939,"Ġregular":4940,"Ġenemy":4941,"Ġwan":4942,"Ġnames":4943,"Ġforty":4944,"ieve":4945,"Ġtighter":4946,"ival":4947,"Ġstair":4948,"Ġpage":4949,"Ġrhythm":4950,"Ġyard":4951,"Ġing":4952,"Ġisabella":4953,"Ġmason":4954,"Ġeyel":4955,"uit":4956,"Ġstated":4957,"Ġinvited":4958,"Ġfreak":4959,"Ġbegging":4960,"irl":4961,"Ġobs":4962,"Ġforest":4963,"Ġfarm":4964,"ales":4965,"Ġloudly":4966,"Ġbird":4967,"Ġdread":4968,"Ġsymp":4969,"Ġresponsible":4970,"Ġhors":4971,"people":4972,"Ġbalance":4973,"ugg":4974,"Ġsilly":4975,"Ġetern":4976,"Ġracing":4977,"Ġcollap":4978,"Ġsocial":4979,"Ġsweep":4980,"Ġunderwear":4981,"Ġsmoot":4982,"Ġchew":4983,"Ġchanging":4984,"Ġtensed":4985,"Ġconnected":4986,"Ġamb":4987,"Ġfate":4988,"ena":4989,"iture":4990,"Ġissu":4991,"Ġpockets":4992,"Ġram":4993,"Ġmental":4994,"Ġafford":4995,"Ġconstant":4996,"Ġpa":4997,"umed":4998,"Ġlick":4999,"alle":5000,"Ġclar":5001,"Ġrev":5002,"lor":5003,"Ġactions":5004,"Ġnurse":5005,"Ġfrench":5006,"Ġtub":5007,"Ġrout":5008,"iosity":5009,"Ġsteal":5010,"Ġcontr":5011,"Ġencour":5012,"Ġveins":5013,"Ġunw":5014,"Ġmyst":5015,"aired":5016,"Ġsnap":5017,"Ġfarther":5018,"Ġhood":5019,"Ġproject":5020,"Ġspar":5021,"ado":5022,"Ġshuddered":5023,"Ġclaimed":5024,"Ġraced":5025,"Ġcircum":5026,"uction":5027,"adia":5028,"Ġcale":5029,"Ġmountain":5030,"Ġbored":5031,"Ġquinn":5032,"Ġdepart":5033,"Ġtan":5034,"Ġnobody":5035,"Ġorders":5036,"omas":5037,"Ġkim":5038,"Ġalco":5039,"Ġfurniture":5040,"Ġaid":5041,"Ġnope":5042,"Ġsatisfied":5043,"ij":5044,"Ġjim":5045,"gard":5046,"Ġpile":5047,"Ġpunch":5048,"Ġari":5049,"Ġfifty":5050,"Ġarch":5051,"Ġmattered":5052,"clock":5053,"Ġexplanation":5054,"lee":5055,"Ġapologize":5056,"Ġembrace":5057,"Ġsheet":5058,"Ġintimate":5059,"iance":5060,"Ġextremely":5061,"imin":5062,"Ġtravel":5063,"Ġbullshit":5064,"Ġnamed":5065,"Ġresult":5066,"Ġgestured":5067,"Ġgarrett":5068,"Ġbuzz":5069,"Ġmall":5070,"ences":5071,"Ġbegged":5072,"Ġlaughs":5073,"hetic":5074,"Ġstrode":5075,"Ġtechn":5076,"Ġflames":5077,"Ġexpensive":5078,"Ġdisappointed":5079,"Ġsucking":5080,"oph":5081,"walk":5082,"Ġhal":5083,"hal":5084,"Ġcompan":5085,"spect":5086,"Ġflicked":5087,"Ġglit":5088,"Ġindeed":5089,"ases":5090,"Ġstepping":5091,"know":5092,"pre":5093,"Ġken":5094,"Ġreturning":5095,"Ġdrug":5096,"urs":5097,"Ġadvice":5098,"Ġromantic":5099,"Ġwinced":5100,"Ġcareer":5101,"mat":5102,"Ġknuck":5103,"Ġbroo":5104,"Ġattend":5105,"Ġrand":5106,"Ġvoices":5107,"Ġhannah":5108,"erie":5109,"Ġheartbeat":5110,"Ġdumb":5111,"unched":5112,"Ġclo":5113,"Ġnormally":5114,"Ġdun":5115,"iring":5116,"inding":5117,"Ġzach":5118,"Ġtough":5119,"Ġdelicate":5120,"Ġelbows":5121,"Ġcompet":5122,"Ġshooting":5123,"Ġrode":5124,"however":5125,"Ġrestr":5126,"Ġstall":5127,"Ġtraced":5128,"Ġhunger":5129,"Ġlux":5130,"cr":5131,"sil":5132,"Ġven":5133,"Ġdistur":5134,"Ġbehavior":5135,"Ġknot":5136,"Ġcenturies":5137,"je":5138,"rib":5139,"agr":5140,"ients":5141,"Ġteach":5142,"inkled":5143,"quis":5144,"Ġcouncil":5145,"Ġsaturday":5146,"Ġpointing":5147,"Ġranch":5148,"Ġcro":5149,"Ġwhom":5150,"Ġplain":5151,"Ġlayne":5152,"Ġweapons":5153,"Ġcustom":5154,"book":5155,"Ġchill":5156,"Ġlocal":5157,"Ġdeliber":5158,"Ġfriday":5159,"enzie":5160,"Ġlin":5161,"uts":5162,"Ġorgan":5163,"Ġimpress":5164,"agement":5165,"Ġhook":5166,"Ġproperty":5167,"Ġcomfor":5168,"ele":5169,"tail":5170,"Ġpizz":5171,"ila":5172,"Ġneeding":5173,"Ġopinion":5174,"Ġintention":5175,"Ġruin":5176,"Ġbud":5177,"Ġterms":5178,"Ġron":5179,"Ġnu":5180,"Ġcore":5181,"Ġchuckle":5182,"Ġtrace":5183,"Ġrequest":5184,"Ġfed":5185,"steps":5186,"ancesca":5187,"Ġhappily":5188,"Ġattacked":5189,"Ġmatters":5190,"Ġinfl":5191,"Ġissues":5192,"Ġwithd":5193,"Ġstiffened":5194,"Ġjesus":5195,"Ġgrief":5196,"Ġassume":5197,"shine":5198,"Ġallowing":5199,"Ġcontem":5200,"Ġbackground":5201,"Ġintensity":5202,"oop":5203,"trent":5204,"ayed":5205,"Ġjared":5206,"Ġsugar":5207,"Ġprotection":5208,"Ġbreaths":5209,"Ġtapped":5210,"Ġslipping":5211,"Ġshifters":5212,"Ġcocked":5213,"Ġawesome":5214,"Ġremembering":5215,"Ġsharply":5216,"Ġdigging":5217,"Ġinsist":5218,"Ġkeeps":5219,"Ġcuriosity":5220,"Ġdarling":5221,"slowly":5222,"Ġlately":5223,"Ġdisappointment":5224,"lace":5225,"Ġdrown":5226,"Ġvulnerable":5227,"Ġtorture":5228,"ality":5229,"Ġlots":5230,"Ġsquir":5231,"Ġfeared":5232,"Ġvictim":5233,"Ġruns":5234,"Ġprecious":5235,"Ġapproach":5236,"Ġbridge":5237,"dar":5238,"athy":5239,"Ġinit":5240,"Ġclimb":5241,"take":5242,"Ġwhoever":5243,"Ġcondom":5244,"orrow":5245,"Ġrig":5246,"Ġhaul":5247,"Ġowe":5248,"Ġjane":5249,"Ġincredibly":5250,"Ġconfidence":5251,"idly":5252,"Ġpeered":5253,"Ġgrimaced":5254,"Ġhorses":5255,"Ġhudson":5256,"lynn":5257,"Ġstruggling":5258,"Ġcrad":5259,"Ġdeck":5260,"Ġunlike":5261,"Ġsharing":5262,"Ġeleg":5263,"Ġprice":5264,"Ġserved":5265,"somehow":5266,"aire":5267,"Ġimpl":5268,"Ġtemple":5269,"Ġfaith":5270,"Ġmassive":5271,"cell":5272,"Ġloyal":5273,"Ġannoyed":5274,"Ġformed":5275,"Ġmack":5276,"arch":5277,"Ġvalent":5278,"Ġgoodbye":5279,"Ġagreement":5280,"probably":5281,"ended":5282,"Ġliter":5283,"Ġmarcus":5284,"Ġlucivar":5285,"tears":5286,"really":5287,"Ġmonster":5288,"Ġtreated":5289,"ham":5290,"Ġdivor":5291,"Ġwhipped":5292,"Ġprim":5293,"Ġexposed":5294,"Ġsurely":5295,"Ġcredit":5296,"wo":5297,"anced":5298,"Ġsophie":5299,"Ġgiggled":5300,"Ġfail":5301,"Ġpurple":5302,"iamond":5303,"Ġliquid":5304,"Ġbelle":5305,"Ġunh":5306,"ienna":5307,"Ġjenks":5308,"Ġribs":5309,"Ġrocked":5310,"istic":5311,"Ġnorth":5312,"end":5313,"Ġshown":5314,"Ġdrank":5315,"Ġdue":5316,"chase":5317,"Ġriley":5318,"hus":5319,"aron":5320,"Ġpacked":5321,"kee":5322,"Ġglimp":5323,"Ġdeclan":5324,"Ġcurved":5325,"Ġdaisy":5326,"Ġghost":5327,"Ġdesp":5328,"Ġretreat":5329,"Ġcig":5330,"Ġscru":5331,"Ġlanding":5332,"ander":5333,"Ġstudying":5334,"Ġcarpet":5335,"Ġdealing":5336,"Ġegg":5337,"Ġcameron":5338,"anning":5339,"Ġstreets":5340,"Ġpiss":5341,"Ġcircumst":5342,"Ġscare":5343,"gram":5344,"Ġdepth":5345,"Ġsib":5346,"colt":5347,"Ġemily":5348,"standing":5349,"Ġspotted":5350,"kat":5351,"Ġbreeze":5352,"Ġshove":5353,"Ġmidnight":5354,"Ġeyed":5355,"Ġholy":5356,"Ġnud":5357,"Ġfrozen":5358,"Ġhector":5359,"Ġjol":5360,"Ġfired":5361,"Ġyep":5362,"pan":5363,"Ġcave":5364,"ollen":5365,"Ġwren":5366,"Ġdagger":5367,"Ġrome":5368,"does":5369,"Ġsweater":5370,"cient":5371,"nel":5372,"Ġpretending":5373,"Ġvincent":5374,"Ġtam":5375,"Ġcurls":5376,"Ġcircles":5377,"Ġoccurred":5378,"Ġarrog":5379,"Ġswore":5380,"Ġveh":5381,"Ġscowled":5382,"Ġdisp":5383,"Ġjulie":5384,"Ġhill":5385,"Ġgwen":5386,"Ġcart":5387,"Ġenglish":5388,"Ġglowing":5389,"Ġobser":5390,"Ġurg":5391,"Ġshining":5392,"ores":5393,"Ġcontent":5394,"Ġmember":5395,"Ġbegun":5396,"Ġtrained":5397,"Ġdisbelief":5398,"Ġrealizing":5399,"ording":5400,"Ġdiamond":5401,"olves":5402,"Ġencoun":5403,"Ġsacrif":5404,"inary":5405,"ona":5406,"Ġbrilliant":5407,"haired":5408,"ole":5409,"Ġwinter":5410,"bell":5411,"Ġfish":5412,"Ġnathan":5413,"agne":5414,"Ġdollars":5415,"met":5416,"Ġbiggest":5417,"irling":5418,"jam":5419,"Ġdrawer":5420,"Ġthunder":5421,"Ġruined":5422,"Ġdragging":5423,"inc":5424,"Ġwrite":5425,"Ġky":5426,"Ġlaz":5427,"Ġaffection":5428,"Ġbarn":5429,"Ġfalls":5430,"Ġpoints":5431,"luck":5432,"phone":5433,"ooped":5434,"these":5435,"Ġunt":5436,"Ġacted":5437,"Ġcake":5438,"Ġleap":5439,"Ġswollen":5440,"mag":5441,"Ġslo":5442,"Ġdoubted":5443,"gre":5444,"Ġconcl":5445,"Ġbart":5446,"Ġdism":5447,"Ġsimilar":5448,"Ġjewel":5449,"Ġterrit":5450,"iod":5451,"town":5452,"Ġult":5453,"Ġseeming":5454,"Ġprick":5455,"Ġreplaced":5456,"Ġdevelop":5457,"Ġjamie":5458,"Ġplat":5459,"Ġinformed":5460,"Ġmisty":5461,"Ġreceived":5462,"apes":5463,"Ġends":5464,"Ġkiller":5465,"alex":5466,"Ġvictoria":5467,"fall":5468,"Ġsunday":5469,"Ġspee":5470,"Ġslowed":5471,"Ġevents":5472,"Ġmask":5473,"Ġdude":5474,"Ġadult":5475,"Ġdesce":5476,"Ġfile":5477,"itor":5478,"Ġmagaz":5479,"Ġmiser":5480,"Ġimmort":5481,"cass":5482,"ulation":5483,"apers":5484,"Ġolivia":5485,"Ġattached":5486,"luke":5487,"py":5488,"va":5489,"Ġmeredith":5490,"Ġnotes":5491,"Ġgoin":5492,"Ġrevealing":5493,"Ġpizza":5494,"inged":5495,"Ġcourage":5496,"Ġdemanding":5497,"Ġrick":5498,"none":5499,"Ġpinned":5500,"Ġshr":5501,"Ġrecently":5502,"sur":5503,"Ġcrou":5504,"Ġowned":5505,"Ġfriendly":5506,"Ġsmirk":5507,"rier":5508,"Ġmelted":5509,"Ġancient":5510,"Ġfol":5511,"Ġreaches":5512,"Ġprofessional":5513,"lit":5514,"inated":5515,"Ġacqu":5516,"Ġcorrid":5517,"ika":5518,"Ġsuspect":5519,"Ġcondition":5520,"atively":5521,"arse":5522,"Ġmaggie":5523,"Ġimpression":5524,"Ġchampagne":5525,"Ġrever":5526,"ideon":5527,"Ġcharming":5528,"Ġelectric":5529,"each":5530,"Ġargument":5531,"Ġbike":5532,"anne":5533,"Ġanna":5534,"Ġtend":5535,"Ġvillage":5536,"keep":5537,"Ġscary":5538,"Ġexploded":5539,"Ġunb":5540,"Ġreser":5541,"tles":5542,"Ġcharm":5543,"Ġalcohol":5544,"omb":5545,"liam":5546,"Ġandre":5547,"Ġtyp":5548,"Ġkane":5549,"noah":5550,"Ġbuddy":5551,"Ġknuckles":5552,"part":5553,"Ġappearance":5554,"Ġenorm":5555,"gy":5556,"Ġcards":5557,"Ġnerve":5558,"Ġbiting":5559,"Ġrot":5560,"hard":5561,"Ġmuff":5562,"Ġhuff":5563,"Ġrust":5564,"Ġshrie":5565,"Ġpaint":5566,"ett":5567,"Ġdestroyed":5568,"Ġpossessed":5569,"Ġaccent":5570,"Ġorange":5571,"Ġevan":5572,"Ġhesitation":5573,"sky":5574,"Ġhalt":5575,"Ġmarshall":5576,"Ġsnarled":5577,"Ġclosely":5578,"Ġtrembled":5579,"Ġclutched":5580,"aker":5581,"ket":5582,"nate":5583,"Ġpunched":5584,"Ġaim":5585,"Ġfinn":5586,"Ġdanced":5587,"Ġflex":5588,"Ġlined":5589,"Ġweather":5590,"Ġbench":5591,"Ġjulia":5592,"Ġwarriors":5593,"Ġscen":5594,"Ġsid":5595,"Ġbond":5596,"zzled":5597,"Ġwink":5598,"Ġoption":5599,"Ġtiger":5600,"Ġfootsteps":5601,"Ġsaving":5602,"Ġvague":5603,"Ġconner":5604,"Ġnin":5605,"seeing":5606,"'m":5607,"Ġrushing":5608,"aret":5609,"Ġsouth":5610,"Ġhouses":5611,"Ġtran":5612,"should":5613,"Ġpounded":5614,"uous":5615,"Ġsensual":5616,"sie":5617,"hin":5618,"anny":5619,"Ġcage":5620,"mate":5621,"anting":5622,"azing":5623,"Ġwil":5624,"Ġgritted":5625,"Ġfootball":5626,"Ġduty":5627,"Ġremote":5628,"Ġglances":5629,"Ġexit":5630,"Ġpoison":5631,"ubble":5632,"unged":5633,"Ġmission":5634,"Ġexistence":5635,"Ġnoted":5636,"charl":5637,"Ġloos":5638,"mel":5639,"Ġgym":5640,"cur":5641,"Ġfrustrated":5642,"Ġeddie":5643,"Ġairport":5644,"Ġimages":5645,"Ġinvitation":5646,"Ġagent":5647,"Ġtraff":5648,"Ġcallie":5649,"Ġsurre":5650,"Ġeighteen":5651,"Ġdang":5652,"Ġreception":5653,"Ġcrystal":5654,"Ġdiss":5655,"ems":5656,"Ġcaut":5657,"Ġhooked":5658,"Ġattractive":5659,"Ġbleeding":5660,"gas":5661,"Ġtips":5662,"riate":5663,"anges":5664,"Ġsandw":5665,"od":5666,"thanks":5667,"Ġvelvet":5668,"eyed":5669,"Ġshaft":5670,"Ġached":5671,"Ġkinds":5672,"Ġcommun":5673,"Ġshifting":5674,"omes":5675,"Ġparticularly":5676,"Ġsits":5677,"Ġtelevision":5678,"Ġmckay":5679,"Ġlashes":5680,"Ġexclaimed":5681,"Ġdial":5682,"Ġdesign":5683,"Ġstress":5684,"Ġlobby":5685,"Ġstole":5686,"Ġtank":5687,"orts":5688,"Ġterror":5689,"Ġstyle":5690,"Ġspeech":5691,"Ġmovements":5692,"renna":5693,"Ġwhitney":5694,"izzy":5695,"Ġoccup":5696,"Ġok":5697,"Ġmachine":5698,"law":5699,"Ġcircumstances":5700,"Ġanton":5701,"Ġimpressed":5702,"Ġhumili":5703,"Ġpity":5704,"Ġswing":5705,"ability":5706,"Ġbuttons":5707,"aham":5708,"Ġbabies":5709,"urance":5710,"Ġactiv":5711,"long":5712,"ption":5713,"Ġstretch":5714,"Ġnav":5715,"Ġscrewed":5716,"ader":5717,"Ġspect":5718,"Ġador":5719,"Ġwriting":5720,"Ġfashion":5721,"christ":5722,"xy":5723,"Ġweal":5724,"lad":5725,"Ġdalton":5726,"Ġmaid":5727,"Ġsab":5728,"neither":5729,"Ġcris":5730,"Ġtug":5731,"Ġassistant":5732,"Ġoliver":5733,"Ġneat":5734,"asmine":5735,"Ġskills":5736,"oria":5737,"Ġjudge":5738,"Ġdogs":5739,"Ġinterview":5740,"fan":5741,"Ġstack":5742,"Ġconscious":5743,"Ġseth":5744,"Ġthrilled":5745,"sey":5746,"Ġpassenger":5747,"acter":5748,"Ġreveal":5749,"Ġlur":5750,"Ġstern":5751,"ierney":5752,"jon":5753,"Ġvide":5754,"Ġvarious":5755,"elly":5756,"Ġtangled":5757,"Ġrarely":5758,"Ġauth":5759,"vat":5760,"Ġsidewalk":5761,"Ġdetail":5762,"pack":5763,"Ġhandful":5764,"Ġcorners":5765,"gab":5766,"Ġcel":5767,"Ġperiod":5768,"Ġpainted":5769,"Ġmurd":5770,"Ġbegins":5771,"Ġformer":5772,"Ġideas":5773,"nor":5774,"Ġnina":5775,"Ġripp":5776,"Ġmanner":5777,"Ġrude":5778,"Ġdrugs":5779,"Ġchris":5780,"Ġsevent":5781,"Ġlanguage":5782,"Ġbon":5783,"Ġgoss":5784,"Ġwhist":5785,"Ġamelia":5786,"Ġopens":5787,"Ġstops":5788,"amber":5789,"Ġoutfit":5790,"Ġeleven":5791,"jected":5792,"Ġnasty":5793,"Ġdrops":5794,"Ġselfish":5795,"Ġdarted":5796,"Ġutterly":5797,"Ġunus":5798,"Ġdoc":5799,"Ġexpress":5800,"Ġcarol":5801,"Ġzack":5802,"Ġfrightened":5803,"imate":5804,"Ġshay":5805,"lau":5806,"Ġrole":5807,"Ġcurl":5808,"Ġsarah":5809,"Ġgear":5810,"Ġarmy":5811,"Ġversion":5812,"isions":5813,"Ġtwin":5814,"Ġgraham":5815,"ember":5816,"Ġthroughout":5817,"Ġuncertain":5818,"Ġsunshine":5819,"Ġentertain":5820,"Ġduke":5821,"Ġtraffic":5822,"Ġcot":5823,"Ġpaul":5824,"Ġmeat":5825,"Ġfamil":5826,"Ġthreatening":5827,"Ġspinning":5828,"Ġtask":5829,"Ġhid":5830,"li":5831,"Ġfriendship":5832,"Ġlouder":5833,"Ġsigns":5834,"Ġhired":5835,"Ġpleasant":5836,"Ġess":5837,"ators":5838,"Ġgripping":5839,"Ġknocking":5840,"Ġcruel":5841,"etr":5842,"Ġrory":5843,"mi":5844,"Ġattitude":5845,"Ġauthor":5846,"foot":5847,"Ġpreferred":5848,"dev":5849,"Ġkatie":5850,"cal":5851,"Ġwaitress":5852,"Ġhank":5853,"Ġupward":5854,"ilet":5855,"Ġproof":5856,"Ġdrum":5857,"Ġsadness":5858,"Ġcastle":5859,"making":5860,"Ġseated":5861,"Ġextended":5862,"Ġep":5863,"Ġhmm":5864,"Ġdarkened":5865,"Ġmarble":5866,"Ġdistant":5867,"riel":5868,"Ġprevious":5869,"vert":5870,"Ġbooth":5871,"Ġclient":5872,"Ġexplos":5873,"Ġmortal":5874,"hope":5875,"Ġserve":5876,"Ġstrike":5877,"daemon":5878,"Ġsneak":5879,"Ġpony":5880,"ctions":5881,"chell":5882,"Ġfreedom":5883,"Ġgul":5884,"urally":5885,"Ġpierce":5886,"Ġflared":5887,"Ġstark":5888,"bon":5889,"Ġobe":5890,"Ġthorough":5891,"Ġabandoned":5892,"heron":5893,"Ġhunt":5894,"venge":5895,"Ġslick":5896,"Ġfairy":5897,"Ġprivacy":5898,"claire":5899,"Ġswiftly":5900,"Ġschedule":5901,"soon":5902,"Ġcoach":5903,"mike":5904,"vict":5905,"itting":5906,"Ġplacing":5907,"Ġkyle":5908,"Ġacheron":5909,"Ġscanned":5910,"Ġmixed":5911,"Ġrent":5912,"Ġglimpse":5913,"Ġexchange":5914,"Ġhunters":5915,"gen":5916,"Ġblast":5917,"Ġbread":5918,"Ġrefer":5919,"Ġnib":5920,"lying":5921,"Ġuncons":5922,"Ġloun":5923,"Ġanxious":5924,"Ġfan":5925,"bone":5926,"Ġhamm":5927,"Ġpolite":5928,"Ġspare":5929,"bur":5930,"give":5931,"Ġboun":5932,"Ġperman":5933,"kyrian":5934,"gal":5935,"turning":5936,"Ġspilled":5937,"Ġintell":5938,"ita":5939,"Ġcomplicated":5940,"Ġsmaller":5941,"Ġly":5942,"Ġtrash":5943,"Ġchicken":5944,"Ġclung":5945,"chloe":5946,"Ġdreamed":5947,"Ġec":5948,"Ġbullet":5949,"cellent":5950,"Ġboring":5951,"Ġshaky":5952,"Ġarousal":5953,"Ġdull":5954,"Ġrear":5955,"luis":5956,"mac":5957,"Ġperform":5958,"Ġsoothing":5959,"Ġenormous":5960,"lar":5961,"esday":5962,"Ġheather":5963,"Ġswell":5964,"giving":5965,"Ġrat":5966,"Ġalley":5967,"Ġtease":5968,"Ġcaleb":5969,"Ġsore":5970,"Ġexhaled":5971,"allas":5972,"Ġtrevor":5973,"guing":5974,"Ġsheer":5975,"jace":5976,"Ġleo":5977,"Ġphysically":5978,"Ġbrut":5979,"bi":5980,"iated":5981,"Ġeternity":5982,"Ġnecklace":5983,"Ġfantasy":5984,"Ġblush":5985,"Ġjeff":5986,"Ġcasually":5987,"Ġaccompl":5988,"Ġkicking":5989,"Ġtorment":5990,"Ġhero":5991,"Ġfork":5992,"Ġwry":5993,"Ġsmirked":5994,"knowing":5995,"Ġcontain":5996,"Ġcollapsed":5997,"Ġavail":5998,"Ġsoftened":5999,"Ġpatience":6000,"Ġemerg":6001,"Ġlingering":6002,"Ġmaint":6003,"Ġsunlight":6004,"Ġflu":6005,"Ġmit":6006,"Ġpunishment":6007,"fire":6008,"thew":6009,"Ġprogram":6010,"Ġgeor":6011,"Ġexisted":6012,"appy":6013,"six":6014,"Ġdish":6015,"Ġhurts":6016,"Ġprotective":6017,"Ġisabelle":6018,"Ġgran":6019,"Ġprecise":6020,"Ġarrest":6021,"Ġwarn":6022,"Ġraising":6023,"Ġcrawled":6024,"Ġalice":6025,"Ġleader":6026,"nic":6027,"icole":6028,"Ġmonday":6029,"unting":6030,"Ġedges":6031,"Ġphotos":6032,"Ġfoolish":6033,"Ġfamilies":6034,"Ġhoarse":6035,"Ġcleaned":6036,"Ġsqueezing":6037,"Ġmovies":6038,"husi":6039,"Ġthrobbing":6040,"Ġmagnus":6041,"ollo":6042,"Ġcaptain":6043,"Ġliterally":6044,"cel":6045,"Ġrevealed":6046,"stop":6047,"Ġstyx":6048,"Ġprevent":6049,"ava":6050,"gra":6051,"Ġsnatched":6052,"Ġjonas":6053,"nal":6054,"arest":6055,"Ġlaptop":6056,"Ġautom":6057,"Ġplanted":6058,"Ġclosest":6059,"surely":6060,"things":6061,"Ġheel":6062,"Ġsnugg":6063,"Ġwigg":6064,"Ġcheese":6065,"Ġsomet":6066,"Ġbraced":6067,"Ġbrit":6068,"Ġsees":6069,"Ġcode":6070,"Ġlifet":6071,"ridan":6072,"Ġbik":6073,"iers":6074,"Ġremove":6075,"Ġankles":6076,"orting":6077,"Ġflip":6078,"Ġstruggle":6079,"Ġgradu":6080,"swe":6081,"immed":6082,"Ġletters":6083,"Ġlearning":6084,"Ġcorridor":6085,"Ġslap":6086,"Ġlets":6087,"Ġsixteen":6088,"Ġchristian":6089,"Ġgoddamn":6090,"Ġupright":6091,"Ġsurrounding":6092,"ruction":6093,"Ġclearing":6094,"Ġbrandon":6095,"Ġpanting":6096,"Ġgain":6097,"Ġhabit":6098,"jax":6099,"Ġinvis":6100,"Ġvegas":6101,"Ġtugging":6102,"world":6103,"ament":6104,"Ġunif":6105,"plus":6106,"Ġsurve":6107,"Ġpropped":6108,"Ġpillows":6109,"Ġratt":6110,"Ġslave":6111,"Ġpretended":6112,"Ġsurrender":6113,"Ġstool":6114,"Ġfancy":6115,"icate":6116,"Ġgrumbled":6117,"rachel":6118,"soph":6119,"Ġcrush":6120,"Ġpattern":6121,"Ġsentence":6122,"Ġbolt":6123,"Ġmug":6124,"Ġoverwhelming":6125,"cat":6126,"Ġstuffed":6127,"Ġbust":6128,"Ġcolors":6129,"Ġtossing":6130,"Ġclaws":6131,"Ġcerem":6132,"Ġpeter":6133,"viously":6134,"Ġconce":6135,"gment":6136,"vation":6137,"Ġcarson":6138,"Ġragged":6139,"amps":6140,"ancing":6141,"Ġteacher":6142,"Ġhealthy":6143,"erc":6144,"Ġdart":6145,"Ġtalent":6146,"Ġgeneral":6147,"00":6148,"Ġgentleman":6149,"Ġnervously":6150,"Ġpolit":6151,"Ġlocation":6152,"Ġcassidy":6153,"Ġmelt":6154,"Ġcaring":6155,"Ġtony":6156,"Ġrefuse":6157,"wal":6158,"Ġourselves":6159,"lights":6160,"mark":6161,"Ġfiona":6162,"Ġanimals":6163,"Ġsaetan":6164,"Ġafterward":6165,"Ġlonely":6166,"eness":6167,"aline":6168,"julian":6169,"Ġtrem":6170,"Ġny":6171,"Ġexcellent":6172,"ano":6173,"Ġryder":6174,"Ġwre":6175,"Ġdetermination":6176,"either":6177,"Ġfog":6178,"Ġenthusi":6179,"last":6180,"Ġsmug":6181,"love":6182,"Ġmarket":6183,"Ġavoiding":6184,"Ġgossip":6185,"sor":6186,"Ġdriven":6187,"Ġdiscover":6188,"iveness":6189,"Ġfeather":6190,"Ġbothering":6191,"Ġresol":6192,"Ġtempor":6193,"Ġbasket":6194,"tal":6195,"Ġchanges":6196,"Ġinsp":6197,"Ġpreston":6198,"obviously":6199,"nda":6200,"icating":6201,"Ġmult":6202,"Ġdrained":6203,"Ġsole":6204,"Ġstilled":6205,"Ġboxes":6206,"iev":6207,"Ġske":6208,"Ġeaten":6209,"Ġterritory":6210,"Ġrebecca":6211,"Ġcleaning":6212,"anything":6213,"Ġclan":6214,"Ġlonging":6215,"Ġdelivered":6216,"Ġringing":6217,"Ġcreate":6218,"Ġcops":6219,"ixt":6220,"Ġrings":6221,"Ġexec":6222,"Ġmeg":6223,"asses":6224,"Ġdraped":6225,"Ġcrime":6226,"Ġstunning":6227,"dec":6228,"Ġpec":6229,"Ġwhim":6230,"Ġbrace":6231,"ipe":6232,"Ġmail":6233,"remy":6234,"Ġspray":6235,"rage":6236,"Ġtom":6237,"Ġstraw":6238,"Ġelegant":6239,"illa":6240,"Ġabsor":6241,"ino":6242,"Ġagony":6243,"Ġrope":6244,"Ġofficer":6245,"Ġdressing":6246,"Ġsmoothed":6247,"Ġtrigg":6248,"Ġviolent":6249,"eral":6250,"Ġnodding":6251,"Ġflower":6252,"Ġflashing":6253,"azz":6254,"Ġrequired":6255,"Ġinnoc":6256,"Ġscoot":6257,"Ġarranged":6258,"Ġais":6259,"together":6260,"Ġsociety":6261,"Ġtoast":6262,"Ġclicked":6263,"Ġbars":6264,"david":6265,"say":6266,"made":6267,"Ġspan":6268,"olen":6269,"Ġjenny":6270,"Ġcommanded":6271,"Ġbrave":6272,"Ġjumping":6273,"Ġowed":6274,"ships":6275,"Ġmarks":6276,"Ġweakness":6277,"hea":6278,"Ġpermission":6279,"Ġbrick":6280,"Ġearn":6281,"Ġted":6282,"Ġtwins":6283,"clay":6284,"Ġcooking":6285,"Ġwandered":6286,"Ġcaptured":6287,"Ġstalked":6288,"Ġmoist":6289,"Ġboot":6290,"yce":6291,"Ġginger":6292,"Ġending":6293,"Ġgrandma":6294,"Ġpositive":6295,"eight":6296,"Ġtrap":6297,"Ġclasses":6298,"Ġgreeted":6299,"arted":6300,"Ġroared":6301,"Ġexpert":6302,"vie":6303,"Ġpent":6304,"Ġmercy":6305,"Ġnumbers":6306,"Ġreput":6307,"Ġvehicle":6308,"dge":6309,"almost":6310,"Ġlesson":6311,"har":6312,"Ġbowed":6313,"prom":6314,"Ġbeck":6315,"sequ":6316,"Ġshattered":6317,"Ġgrunted":6318,"Ġvalentine":6319,"aste":6320,"Ġscars":6321,"cont":6322,"rell":6323,"Ġlicking":6324,"Ġputs":6325,"Ġsyn":6326,"icted":6327,"Ġwrote":6328,"Ġprotecting":6329,"Ġdeclared":6330,"Ġisa":6331,"Ġadrian":6332,"Ġmotor":6333,"Ġray":6334,"Ġworrying":6335,"Ġdeliver":6336,"Ġirritated":6337,"Ġspite":6338,"Ġkend":6339,"Ġnadia":6340,"cony":6341,"Ġtwitched":6342,"Ġwhiskey":6343,"agging":6344,"Ġsomewhat":6345,"Ġproved":6346,"Ġsuffer":6347,"Ġhollow":6348,"uing":6349,"Ġstolen":6350,"Ġmiserable":6351,"Ġshoving":6352,"Ġpouring":6353,"Ġbliss":6354,"Ġreflection":6355,"Ġlifetime":6356,"Ġgrocer":6357,"Ġbalcony":6358,"Ġalert":6359,"ulate":6360,"holy":6361,"Ġcara":6362,"Ġvent":6363,"Ġseason":6364,"Ġdismiss":6365,"Ġactual":6366,"Ġowner":6367,"Ġthumbs":6368,"Ġembarrassment":6369,"Ġsettling":6370,"mail":6371,"essing":6372,"Ġreminder":6373,"sar":6374,"Ġstead":6375,"Ġpotential":6376,"Ġvideo":6377,"Ġpout":6378,"Ġjoking":6379,"Ġlawyer":6380,"Ġsource":6381,"Ġfridge":6382,"Ġtraveled":6383,"Ġscrambled":6384,"Ġretrie":6385,"Ġsienna":6386,"Ġemph":6387,"velope":6388,"Ġresponsibility":6389,"Ġinvisible":6390,"Ġshimm":6391,"Ġamber":6392,"Ġrocks":6393,"zzy":6394,"Ġpushes":6395,"Ġweb":6396,"Ġenvelope":6397,"Ġbreathless":6398,"Ġhunting":6399,"Ġwhispering":6400,"Ġrounded":6401,"Ġspike":6402,"Ġmanip":6403,"Ġwipe":6404,"Ġwaking":6405,"Ġbacks":6406,"Ġdecent":6407,"renaline":6408,"Ġlightning":6409,"Ġcalmly":6410,"Ġresearch":6411,"vatore":6412,"Ġconstantly":6413,"think":6414,"Ġmatching":6415,"Ġpregnancy":6416,"Ġjealousy":6417,"Ġconcentrate":6418,"Ġsleeve":6419,"Ġdeliberately":6420,"ooked":6421,"Ġfrancesca":6422,"were":6423,"Ġdrake":6424,"lies":6425,"uses":6426,"Ġsmack":6427,"Ġmod":6428,"Ġestate":6429,"rily":6430,"Ġfurrow":6431,"Ġtwisting":6432,"Ġjail":6433,"Ġmiranda":6434,"Ġrocky":6435,"Ġducked":6436,"isto":6437,"Ġcrash":6438,"simon":6439,"Ġwise":6440,"Ġbubb":6441,"Ġsally":6442,"Ġlore":6443,"Ġrealm":6444,"Ġpercent":6445,"Ġstripped":6446,"Ġsurvived":6447,"Ġsection":6448,"Ġhealing":6449,"Ġmuscular":6450,"Ġsideways":6451,"Ġcurves":6452,"Ġsecure":6453,"Ġattracted":6454,"Ġacknowled":6455,"Ġfond":6456,"Ġhesitate":6457,"Ġstirred":6458,"Ġcontempl":6459,"ielle":6460,"Ġseparate":6461,"otch":6462,"Ġstock":6463,"Ġarrive":6464,"Ġrandom":6465,"alie":6466,"Ġcircled":6467,"attering":6468,"Ġwaving":6469,"Ġswitch":6470,"Ġyawn":6471,"Ġcub":6472,"Ġoblig":6473,"armed":6474,"bal":6475,"Ġjustice":6476,"Ġdishes":6477,"Ġseats":6478,"Ġwounds":6479,"Ġbryn":6480,"ians":6481,"Ġfence":6482,"Ġbuildings":6483,"zzle":6484,"Ġdaim":6485,"Ġet":6486,"clary":6487,"Ġrigid":6488,"Ġavailable":6489,"step":6490,"Ġchildhood":6491,"Ġwhirled":6492,"tonight":6493,"Ġdepartment":6494,"rifying":6495,"Ġlump":6496,"Ġmyth":6497,"Ġfrag":6498,"Ġrepeat":6499,"Ġapr":6500,"Ġcrashed":6501,"Ġtempted":6502,"bar":6503,"itar":6504,"Ġhay":6505,"lling":6506,"ani":6507,"through":6508,"dis":6509,"mia":6510,"Ġpainfully":6511,"Ġnest":6512,"Ġtap":6513,"Ġshuff":6514,"having":6515,"Ġslamming":6516,"Ġpuff":6517,"Ġglaring":6518,"Ġclimax":6519,"Ġcrowded":6520,"Ġtoe":6521,"Ġintellig":6522,"Ġsurge":6523,"Ġphotograph":6524,"Ġbrian":6525,"Ġpalace":6526,"Ġinjured":6527,"Ġlimbs":6528,"Ġpear":6529,"orter":6530,"aney":6531,"eling":6532,"Ġmoonlight":6533,"Ġunusual":6534,"rer":6535,"Ġfears":6536,"Ġka":6537,"Ġwarlord":6538,"iable":6539,"Ġtessa":6540,"Ġbun":6541,"Ġblushed":6542,"Ġsmith":6543,"Ġprotected":6544,"olai":6545,"Ġthomas":6546,"Ġanytime":6547,"Ġdistract":6548,"Ġcush":6549,"Ġunsure":6550,"put":6551,"Ġdecisions":6552,"Ġpsychic":6553,"itable":6554,"Ġgathering":6555,"Ġanxiety":6556,"always":6557,"orne":6558,"ulling":6559,"Ġstrained":6560,"Ġmentally":6561,"Ġgree":6562,"uming":6563,"kate":6564,"Ġwashing":6565,"Ġintend":6566,"Ġlucas":6567,"Ġvivian":6568,"Ġisaac":6569,"Ġstradd":6570,"Ġdryly":6571,"Ġankle":6572,"Ġslender":6573,"Ġcharacter":6574,"Ġger":6575,"Ġsigned":6576,"Ġgavin":6577,"Ġexasper":6578,"clear":6579,"Ġyelling":6580,"Ġinsides":6581,"Ġdivorce":6582,"Ġicy":6583,"Ġpow":6584,"Ġmaddie":6585,"Ġlarger":6586,"Ġreminding":6587,"Ġstif":6588,"Ġflush":6589,"bles":6590,"ibilities":6591,"iverse":6592,"Ġbord":6593,"assie":6594,"Ġfemin":6595,"Ġstudents":6596,"Ġcreatures":6597,"tor":6598,"Ġremaining":6599,"Ġcloth":6600,"Ġtyler":6601,"Ġcotton":6602,"jess":6603,"jase":6604,"yard":6605,"ifer":6606,"Ġmara":6607,"power":6608,"Ġroth":6609,"Ġmane":6610,"gray":6611,"Ġinterrupt":6612,"Ġecst":6613,"icy":6614,"Ġuniform":6615,"mes":6616,"Ġrocking":6617,"Ġbuying":6618,"Ġgideon":6619,"aks":6620,"Ġshots":6621,"Ġflowed":6622,"Ġaver":6623,"shot":6624,"Ġhighly":6625,"Ġspreading":6626,"Ġcompanion":6627,"Ġmild":6628,"ads":6629,"Ġpil":6630,"Ġintimid":6631,"elizabeth":6632,"Ġangle":6633,"Ġdripping":6634,"Ġchoices":6635,"Ġannoying":6636,"Ġrevenge":6637,"Ġconnect":6638,"inge":6639,"Ġsob":6640,"clair":6641,"colored":6642,"Ġclouds":6643,"Ġapprop":6644,"Ġcy":6645,"Ġswitched":6646,"Ġconfirmed":6647,"Ġreputation":6648,"rina":6649,"Ġbend":6650,"Ġmap":6651,"Ġcarter":6652,"Ġtorso":6653,"Ġapology":6654,"eter":6655,"Ġceremony":6656,"Ġfruit":6657,"Ġchains":6658,"Ġleads":6659,"Ġfel":6660,"Ġhardened":6661,"berry":6662,"Ġsurreal":6663,"Ġdiscussion":6664,"Ġfantastic":6665,"Ġdresser":6666,"Ġgiggle":6667,"Ġemergency":6668,"Ġaston":6669,"Ġnewsp":6670,"otted":6671,"Ġprogress":6672,"Ġremar":6673,"ipper":6674,"Ġrescue":6675,"make":6676,"Ġwing":6677,"itary":6678,"uman":6679,"Ġplates":6680,"emis":6681,"Ġdram":6682,"Ġguessing":6683,"iforn":6684,"Ġattempted":6685,"Ġdante":6686,"amy":6687,"Ġknelt":6688,"Ġspat":6689,"Ġfireplace":6690,"Ġlawn":6691,"Ġrolls":6692,"Ġmace":6693,"Ġduc":6694,"Ġshed":6695,"Ġflow":6696,"Ġdefense":6697,"Ġstares":6698,"Ġmotioned":6699,"blake":6700,"Ġshows":6701,"Ġseduct":6702,"Ġvacation":6703,"vis":6704,"Ġmegan":6705,"ahn":6706,"Ġmilk":6707,"Ġtransp":6708,"Ġsticking":6709,"Ġskull":6710,"stone":6711,"Ġclients":6712,"Ġphil":6713,"Ġerotic":6714,"Ġhaw":6715,"Ġerr":6716,"ndy":6717,"Ġara":6718,"olo":6719,"Ġglor":6720,"Ġformal":6721,"run":6722,"Ġaisle":6723,"Ġemerged":6724,"Ġder":6725,"sean":6726,"Ġunconscious":6727,"Ġsuspicious":6728,"Ġlink":6729,"vere":6730,"Ġbran":6731,"Ġscout":6732,"Ġwrath":6733,"Ġinsult":6734,"life":6735,"Ġhanding":6736,"Ġcaliforn":6737,"Ġclutching":6738,"dle":6739,"norm":6740,"agon":6741,"Ġcurling":6742,"Ġchances":6743,"issy":6744,"Ġdrama":6745,"Ġmarked":6746,"Ġexciting":6747,"Ġsinging":6748,"Ġmascul":6749,"Ġhatred":6750,"Ġwhore":6751,"Ġally":6752,"Ġque":6753,"Ġfourth":6754,"Ġengaged":6755,"Ġnet":6756,"ero":6757,"Ġtrunk":6758,"Ġshouting":6759,"Ġplanet":6760,"oning":6761,"rol":6762,"Ġfantas":6763,"Ġoptions":6764,"Ġcrushed":6765,"irteen":6766,"Ġprovide":6767,"atory":6768,"van":6769,"Ġsara":6770,"Ġsuitcase":6771,"resh":6772,"Ġlamp":6773,"Ġtrad":6774,"Ġaaron":6775,"Ġtempt":6776,"Ġseparated":6777,"Ġsoap":6778,"usive":6779,"Ġviolence":6780,"wait":6781,"Ġcries":6782,"ulated":6783,"Ġdistraction":6784,"known":6785,"Ġamerican":6786,"wat":6787,"Ġmmm":6788,"Ġguar":6789,"blue":6790,"Ġscowl":6791,"Ġponytail":6792,"Ġhaz":6793,"Ġuniverse":6794,"black":6795,"Ġmodel":6796,"Ġstretching":6797,"Ġannoy":6798,"Ġhem":6799,"ints":6800,"Ġcompared":6801,"Ġmessed":6802,"Ġkendall":6803,"iece":6804,"Ġscoff":6805,"Ġze":6806,"Ġneighborhood":6807,"Ġbold":6808,"Ġhealth":6809,"Ġpropos":6810,"Ġdefend":6811,"Ġach":6812,"Ġneg":6813,"Ġcaressed":6814,"Ġlatest":6815,"Ġendless":6816,"uded":6817,"Ġmessages":6818,"Ġcalifornia":6819,"Ġamazed":6820,"Ġbomb":6821,"Ġbrings":6822,"enses":6823,"Ġquestioning":6824,"veled":6825,"Ġleah":6826,"Ġslumped":6827,"Ġmyster":6828,"Ġpinched":6829,"ressing":6830,"Ġsets":6831,"Ġtightening":6832,"Ġcain":6833,"Ġalph":6834,"great":6835,"ussy":6836,"Ġinhaled":6837,"Ġsant":6838,"Ġfae":6839,"Ġvig":6840,"umph":6841,"Ġexhaust":6842,"Ġbetrayed":6843,"Ġflowing":6844,"Ġshudder":6845,"Ġknight":6846,"Ġrealization":6847,"Ġhopes":6848,"hess":6849,"Ġpatient":6850,"ns":6851,"inating":6852,"etch":6853,"Ġrate":6854,"itional":6855,"Ġprovided":6856,"Ġtuck":6857,"Ġford":6858,"Ġshiny":6859,"Ġought":6860,"Ġsmacked":6861,"Ġeyelids":6862,"Ġarrogant":6863,"Ġcrown":6864,"Ġtearing":6865,"Ġshell":6866,"ifting":6867,"Ġattraction":6868,"hot":6869,"Ġofficial":6870,"Ġwherever":6871,"Ġoverwhelmed":6872,"Ġclamped":6873,"Ġdated":6874,"Ġdove":6875,"Ġdrift":6876,"Ġashamed":6877,"Ġdumped":6878,"ites":6879,"hel":6880,"next":6881,"Ġassure":6882,"Ġmadison":6883,"Ġreward":6884,"Ġmagnific":6885,"Ġsting":6886,"auses":6887,"Ġtouches":6888,"omeday":6889,"Ġroyal":6890,"Ġimpro":6891,"jason":6892,"ouch":6893,"unless":6894,"Ġlaying":6895,"Ġincreased":6896,"Ġeggs":6897,"feeling":6898,"Ġentry":6899,"Ġreapers":6900,"ribut":6901,"Ġandrew":6902,"acon":6903,"Ġflir":6904,"Ġinvite":6905,"Ġpathetic":6906,"Ġcrawl":6907,"rum":6908,"Ġtherap":6909,"Ġadrenaline":6910,"Ġkidna":6911,"Ġ3":6912,"Ġnostr":6913,"Ġflooded":6914,"Ġwildly":6915,"vi":6916,"Ġclick":6917,"Ġgrins":6918,"Ġsinking":6919,"Ġnightstand":6920,"Ġaccording":6921,"Ġfrost":6922,"Ġargued":6923,"und":6924,"itching":6925,"Ġparker":6926,"remember":6927,"sized":6928,"Ġforb":6929,"Ġfamous":6930,"hh":6931,"Ġequally":6932,"Ġimpact":6933,"Ġfourteen":6934,"Ġruss":6935,"beh":6936,"Ġspit":6937,"trust":6938,"Ġmagazine":6939,"Ġapproval":6940,"Ġtilt":6941,"Ġbang":6942,"Ġviper":6943,"iqu":6944,"rete":6945,"Ġdared":6946,"Ġjasmine":6947,"Ġprompted":6948,"Ġfinanc":6949,"insley":6950,"icles":6951,"Ġparties":6952,"Ġseries":6953,"Ġvisible":6954,"Ġcookies":6955,"water":6956,"Ġconsequ":6957,"Ġskill":6958,"ijah":6959,"idget":6960,"Ġaly":6961,"Ġtries":6962,"Ġalexandra":6963,"Ġciv":6964,"Ġmoder":6965,"Ġnearest":6966,"nedy":6967,"Ġdip":6968,"Ġadding":6969,"away":6970,"Ġsung":6971,"Ġjules":6972,"Ġcandle":6973,"Ġseventeen":6974,"Ġruth":6975,"Ġappointment":6976,"yson":6977,"Ġmitchell":6978,"Ġdorm":6979,"moving":6980,"Ġbury":6981,"Ġstefan":6982,"Ġmagical":6983,"going":6984,"Ġimagining":6985,"Ġdevast":6986,"Ġduchess":6987,"Ġclasped":6988,"Ġbasement":6989,"hon":6990,"Ġhopefully":6991,"tled":6992,"Ġtoilet":6993,"itions":6994,"uri":6995,"Ġfluttered":6996,"wr":6997,"Ġreaper":6998,"Ġwarmed":6999,"Ġcontinues":7000,"Ġflickered":7001,"stick":7002,"Ġroar":7003,"Ġhorrified":7004,"Ġhusky":7005,"Ġoriginal":7006,"alled":7007,"Ġflame":7008,"Ġshortly":7009,"Ġcrossing":7010,"Ġmisery":7011,"Ġshrugs":7012,"Ġscreams":7013,"Ġwaiter":7014,"Ġexchanged":7015,"behind":7016,"Ġwrinkled":7017,"Ġobliv":7018,"tery":7019,"soci":7020,"Ġchaos":7021,"Ġpackage":7022,"Ġimmortal":7023,"Ġtopic":7024,"Ġtracks":7025,"sorry":7026,"wes":7027,"Ġbob":7028,"glas":7029,"Ġaroused":7030,"Ġstring":7031,"Ġpenetr":7032,"Ġgeorge":7033,"idra":7034,"Ġaltern":7035,"Ġimagination":7036,"ribly":7037,"Ġdried":7038,"Ġborrow":7039,"Ġexquis":7040,"avier":7041,"headed":7042,"Ġcups":7043,"Ġowen":7044,"Ġaloud":7045,"Ġnostrils":7046,"Ġsull":7047,"osie":7048,"Ġtunnel":7049,"Ġacknowledge":7050,"Ġnuts":7051,"ops":7052,"Ġcarved":7053,"Ġswinging":7054,"Ġmenu":7055,"Ġclimbing":7056,"cut":7057,"Ġpages":7058,"Ġassoci":7059,"Ġrod":7060,"Ġcommunity":7061,"Ġcolby":7062,"Ġcurrently":7063,"antically":7064,"Ġflung":7065,"Ġcandy":7066,"Ġenemies":7067,"Ġthirteen":7068,"Ġintri":7069,"Ġstephen":7070,"guer":7071,"Ġflinched":7072,"Ġfairly":7073,"Ġaffair":7074,"Ġgloves":7075,"Ġmystery":7076,"Ġmock":7077,"Ġdee":7078,"Ġpresses":7079,"Ġchann":7080,"Ġsatin":7081,"Ġconference":7082,"Ġgrey":7083,"Ġpaced":7084,"Ġjean":7085,"Ġchief":7086,"Ġthoughtful":7087,"atherine":7088,"Ġcrept":7089,"Ġgrat":7090,"Ġbuff":7091,"guard":7092,"Ġslightest":7093,"Ġrichard":7094,"Ġlifts":7095,"guerite":7096,"Ġstagg":7097,"Ġperf":7098,"Ġkevin":7099,"Ġfrowning":7100,"Ġsloane":7101,"Ġcuff":7102,"Ġregister":7103,"Ġcurtain":7104,"Ġgreed":7105,"hael":7106,"Ġprepare":7107,"Ġtooth":7108,"Ġradio":7109,"hett":7110,"ulations":7111,"ookie":7112,"Ġsuffered":7113,"Ġincluded":7114,"kno":7115,"idently":7116,"alice":7117,"Ġapollo":7118,"Ġfuneral":7119,"Ġbarte":7120,"don":7121,"uary":7122,"Ġwy":7123,"Ġregan":7124,"Ġatl":7125,"today":7126,"Ġscattered":7127,"Ġsteering":7128,"Ġrefusing":7129,"Ġsought":7130,"Ġerin":7131,"mrs":7132,"Ġjun":7133,"Ġquiver":7134,"Ġfloors":7135,"Ġmountains":7136,"Ġjuice":7137,"Ġmeasure":7138,"riff":7139,"Ġsucks":7140,"Ġliz":7141,"Ġdepths":7142,"kim":7143,"Ġrecent":7144,"Ġsandwich":7145,"Ġlor":7146,"orate":7147,"Ġprior":7148,"domen":7149,"Ġsou":7150,"Ġstrap":7151,"Ġdesperation":7152,"Ġmales":7153,"Ġstaircase":7154,"Ġtierney":7155,"othaire":7156,"Ġsilky":7157,"Ġtransfer":7158,"Ġsipped":7159,"Ġappl":7160,"Ġjobs":7161,"Ġreject":7162,"Ġsuffering":7163,"Ġwitches":7164,"Ġindy":7165,"Ġcharged":7166,"Ġpanicked":7167,"Ġrab":7168,"Ġcomplex":7169,"Ġwiping":7170,"Ġcrouched":7171,"Ġmarrying":7172,"Ġinflu":7173,"Ġmile":7174,"arms":7175,"Ġhaunted":7176,"Ġkar":7177,"button":7178,"Ġsighs":7179,"Ġroughly":7180,"Ġspraw":7181,"Ġbounced":7182,"aying":7183,"rafe":7184,"Ġcrashing":7185,"Ġpounds":7186,"arette":7187,"iped":7188,"covered":7189,"Ġthrone":7190,"ront":7191,"Ġvlad":7192,"Ġconven":7193,"Ġexception":7194,"Ġsire":7195,"Ġsliced":7196,"Ġmatthew":7197,"Ġincident":7198,"Ġmedical":7199,"Ġelle":7200,"Ġconcrete":7201,"bones":7202,"Ġoverhead":7203,"Ġcalvin":7204,"word":7205,"Ġgal":7206,"Ġfoyer":7207,"Ġembarrassing":7208,"istered":7209,"ige":7210,"Ġfloating":7211,"Ġconsumed":7212,"Ġautumn":7213,"Ġsacrifice":7214,"Ġtraveling":7215,"Ġaudience":7216,"Ġmelanie":7217,"clearly":7218,"josh":7219,"itha":7220,"ceeded":7221,"ories":7222,"Ġcreating":7223,"Ġblurted":7224,"Ġcigarette":7225,"lasses":7226,"Ġasp":7227,"Ġliar":7228,"Ġmansion":7229,"Ġadop":7230,"Ġguns":7231,"william":7232,"Ġchoo":7233,"Ġhits":7234,"mary":7235,"Ġwhimp":7236,"Ġseeking":7237,"Ġjac":7238,"Ġimpul":7239,"Ġprofess":7240,"Ġarguing":7241,"Ġconfront":7242,"Ġellis":7243,"Ġevalle":7244,"Ġdiego":7245,"Ġcomforting":7246,"wolf":7247,"Ġkay":7248,"Ġbarked":7249,"Ġgrasped":7250,"silence":7251,"Ġgoal":7252,"Ġcompliment":7253,"Ġpreparing":7254,"Ġavoided":7255,"ology":7256,"Ġinclined":7257,"Ġroman":7258,"Ġsuccessful":7259,"Ġfeminine":7260,"inte":7261,"rigg":7262,"Ġalter":7263,"Ġjudgment":7264,"Ġexplode":7265,"Ġrapidly":7266,"natural":7267,"Ġstrate":7268,"Ġtrailer":7269,"Ġdefeat":7270,"Ġmallory":7271,"Ġmatched":7272,"event":7273,"Ġimpatient":7274,"Ġfeb":7275,"Ġdallas":7276,"Ġarrow":7277,"Ġfalse":7278,"Ġpussy":7279,"ainted":7280,"Ġappears":7281,"Ġexplore":7282,"Ġappreciated":7283,"Ġthousands":7284,"Ġinstincts":7285,"Ġmama":7286,"ari":7287,"osure":7288,"Ġremark":7289,"Ġharley":7290,"Ġsubtle":7291,"Ġroutine":7292,"Ġnicole":7293,"Ġreck":7294,"Ġspoon":7295,"Ġnaught":7296,"child":7297,"olas":7298,"hunters":7299,"Ġunlocked":7300,"Ġainsley":7301,"Ġcraved":7302,"hart":7303,"Ġmackenzie":7304,"Ġappropriate":7305,"Ġplus":7306,"umpled":7307,"Ġhundreds":7308,"Ġthorne":7309,"Ġintroduced":7310,"iate":7311,"Ġkelly":7312,"Ġdesert":7313,"Ġmasculine":7314,"mic":7315,"Ġaura":7316,"Ġdoin":7317,"itute":7318,"Ġguided":7319,"Ġtax":7320,"ada":7321,"Ġjourney":7322,"Ġrailing":7323,"assion":7324,"Ġmiracle":7325,"Ġapple":7326,"ighing":7327,"Ġtaut":7328,"ardon":7329,"Ġloaded":7330,"Ġcollect":7331,"ivan":7332,"Ġsouls":7333,"Ġtack":7334,"Ġprotested":7335,"Ġinstinctively":7336,"low":7337,"Ġdevour":7338,"Ġstrands":7339,"war":7340,"Ġreb":7341,"Ġsalt":7342,"jordan":7343,"Ġcliff":7344,"Ġgrunt":7345,"Ġbasically":7346,"Ġscratch":7347,"rena":7348,"Ġfrey":7349,"Ġgrabs":7350,"Ġreplace":7351,"Ġreluctantly":7352,"keeper":7353,"gers":7354,"Ġcrit":7355,"Ġhoriz":7356,"Ġdusty":7357,"Ġlazy":7358,"jesus":7359,"Ġstil":7360,"rien":7361,"Ġsomebody":7362,"Ġcuts":7363,"Ġspecific":7364,"Ġtro":7365,"Ġslim":7366,"Ġgloss":7367,"Ġdeadly":7368,"cause":7369,"Ġcowboy":7370,"oke":7371,"Ġgrac":7372,"Ġgrant":7373,"Ġpoked":7374,"Ġwary":7375,"alian":7376,"Ġdistinct":7377,"Ġindul":7378,"Ġfiles":7379,"aries":7380,"Ġcongr":7381,"Ġholiday":7382,"gree":7383,"Ġlingered":7384,"Ġsympathy":7385,"Ġlegal":7386,"Ġhealed":7387,"Ġsher":7388,"Ġdece":7389,"Ġbottles":7390,"Ġlimp":7391,"Ġillum":7392,"Ġswimming":7393,"uh":7394,"Ġsons":7395,"Ġapproaching":7396,"Ġmuffled":7397,"tre":7398,"Ġmurdered":7399,"jared":7400,"Ġhearts":7401,"Ġverity":7402,"Ġcombination":7403,"Ġsweeping":7404,"actually":7405,"Ġvast":7406,"Ġsnake":7407,"grand":7408,"Ġmodern":7409,"atter":7410,"Ġgoodness":7411,"Ġfinds":7412,"Ġbrightly":7413,"Ġgreeting":7414,"Ġthrill":7415,"Ġstrokes":7416,"Ġsafely":7417,"Ġboxers":7418,"Ġscratched":7419,"Ġimpressive":7420,"Ġfolks":7421,"tin":7422,"seat":7423,"Ġinev":7424,"Ġcounted":7425,"Ġservants":7426,"Ġdescribe":7427,"eve":7428,"Ġslice":7429,"Ġsmells":7430,"Ġhopped":7431,"victoria":7432,"wom":7433,"Ġmont":7434,"Ġcharity":7435,"Ġdragon":7436,"Ġsurprisingly":7437,"isabella":7438,"Ġmagnificent":7439,"essert":7440,"Ġtoy":7441,"Ġcott":7442,"Ġfrantic":7443,"Ġwider":7444,"Ġrobert":7445,"Ġtriumph":7446,"Ġvance":7447,"izes":7448,"Ġrasp":7449,"avis":7450,"Ġdor":7451,"Ġnix":7452,"Ġescort":7453,"Ġadjusted":7454,"Ġtoler":7455,"Ġblowing":7456,"Ġmaria":7457,"Ġdetective":7458,"Ġmouths":7459,"Ġwallet":7460,"Ġpacing":7461,"lings":7462,"aware":7463,"Ġdirections":7464,"Ġsniffed":7465,"Ġslides":7466,"Ġdominic":7467,"said":7468,"Ġalright":7469,"Ġmanager":7470,"cture":7471,"Ġbarg":7472,"Ġadvent":7473,"Ġsunglasses":7474,"Ġfi":7475,"Ġham":7476,"dox":7477,"Ġsignific":7478,"Ġaffected":7479,"Ġfragile":7480,"Ġclapped":7481,"Ġfemales":7482,"Ġsomeday":7483,"Ġeast":7484,"Ġirre":7485,"Ġbee":7486,"Ġsuv":7487,"Ġstrangely":7488,"Ġtortured":7489,"Ġsmoothly":7490,"Ġcron":7491,"Ġearned":7492,"Ġstabbed":7493,"xie":7494,"eds":7495,"Ġfade":7496,"Ġchurn":7497,"Ġcrimin":7498,"Ġdarker":7499,"Ġannounce":7500,"Ġreassuring":7501,"Ġwolves":7502,"spe":7503,"charlotte":7504,"Ġoil":7505,"Ġpave":7506,"jenks":7507,"arre":7508,"Ġitems":7509,"unte":7510,"Ġblouse":7511,"Ġgruff":7512,"Ġglory":7513,"pulling":7514,"Ġbenny":7515,"Ġirritation":7516,"Ġwithdrew":7517,"Ġbartender":7518,"Ġaeron":7519,"Ġmeas":7520,"Ġguide":7521,"Ġforearm":7522,"abby":7523,"ounted":7524,"Ġuseless":7525,"Ġdessert":7526,"Ġinn":7527,"Ġemerald":7528,"Ġcudd":7529,"Ġbrun":7530,"Ġcampus":7531,"Ġwraps":7532,"Ġproperly":7533,"Ġoverhe":7534,"Ġlighting":7535,"Ġfulf":7536,"Ġbeam":7537,"Ġtrade":7538,"Ġunbutton":7539,"Ġdirected":7540,"olded":7541,"Ġstudio":7542,"alec":7543,"Ġshore":7544,"ula":7545,"Ġvolunte":7546,"nie":7547,"Ġlisa":7548,"Ġgifts":7549,"Ġjewelry":7550,"Ġblinking":7551,"Ġrelationships":7552,"Ġworries":7553,"white":7554,"Ġdammit":7555,"hannah":7556,"zoe":7557,"Ġwhip":7558,"lexi":7559,"Ġengagement":7560,"Ġfolds":7561,"Ġadorable":7562,"free":7563,"nec":7564,"Ġhau":7565,"aches":7566,"Ġjill":7567,"Ġquir":7568,"Ġtrey":7569,"sin":7570,"Ġqual":7571,"Ġhugging":7572,"Ġaccus":7573,"Ġautomatically":7574,"violet":7575,"wow":7576,"Ġstew":7577,"Ġreyes":7578,"Ġassh":7579,"Ġfloated":7580,"Ġplayer":7581,"Ġforming":7582,"Ġurged":7583,"Ġjonathan":7584,"rous":7585,"Ġcurtains":7586,"Ġink":7587,"etri":7588,"Ġunknown":7589,"Ġknox":7590,"Ġprecisely":7591,"Ġgroom":7592,"Ġsaint":7593,"Ġbacking":7594,"Ġstealing":7595,"Ġdreaming":7596,"bro":7597,"fight":7598,"Ġhire":7599,"ogen":7600,"Ġlas":7601,"several":7602,"Ġsele":7603,"Ġinviting":7604,"inside":7605,"Ġunfortunately":7606,"Ġflirt":7607,"shaking":7608,"seven":7609,"adam":7610,"Ġmessy":7611,"isc":7612,"iration":7613,"Ġfallon":7614,"believ":7615,"Ġchamber":7616,"ox":7617,"Ġsurged":7618,"cameron":7619,"Ġdescended":7620,"Ġjay":7621,"Ġcontrolled":7622,"deep":7623,"zanne":7624,"Ġdarius":7625,"Ġsuspicion":7626,"Ġinstructions":7627,"Ġmistress":7628,"Ġstudent":7629,"Ġclayton":7630,"Ġpleading":7631,"Ġnatalie":7632,"Ġbreaks":7633,"Ġtaller":7634,"Ġcurb":7635,"Ġzipper":7636,"Ġfiercely":7637,"michael":7638,"aldar":7639,"Ġcabinet":7640,"Ġbrooke":7641,"Ġtrait":7642,"Ġcheap":7643,"wild":7644,"Ġpix":7645,"Ġgrayson":7646,"Ġpeeked":7647,"Ġshallow":7648,"Ġtara":7649,"Ġrack":7650,"Ġsoaked":7651,"topher":7652,"Ġbackseat":7653,"Ġsweetie":7654,"Ġcommitted":7655,"'d":7656,"Ġsuits":7657,"Ġlauren":7658,"Ġsincere":7659,"Ġcoop":7660,"Ġremains":7661,"Ġswirling":7662,"Ġbol":7663,"james":7664,"Ġperfection":7665,"Ġjustin":7666,"arek":7667,"Ġreplies":7668,"Ġpolitely":7669,"Ġmum":7670,"astically":7671,"Ġsleeves":7672,"fun":7673,"Ġbenefit":7674,"layne":7675,"oes":7676,"Ġcelia":7677,"Ġripping":7678,"aren":7679,"Ġtwitch":7680,"Ġsworn":7681,"Ġcalcul":7682,"Ġquarter":7683,"cara":7684,"Ġbice":7685,"Ġstable":7686,"Ġrav":7687,"lock":7688,"Ġpromises":7689,"Ġsalad":7690,"dark":7691,"Ġnikki":7692,"Ġenv":7693,"Ġexpand":7694,"anyway":7695,"Ġpriest":7696,"Ġmurmur":7697,"Ġgenerous":7698,"Ġthoroughly":7699,"Ġbi":7700,"Ġfeeding":7701,"Ġdaily":7702,"hip":7703,"Ġlaken":7704,"andre":7705,"Ġmud":7706,"Ġrequire":7707,"Ġuneasy":7708,"Ġloyalty":7709,"Ġconsequences":7710,"Ġofficially":7711,"Ġtheory":7712,"Ġstake":7713,"Ġrasped":7714,"Ġdresses":7715,"Ġcongrat":7716,"Ġexcl":7717,"Ġgenuinely":7718,"var":7719,"Ġequal":7720,"urt":7721,"Ġfortune":7722,"Ġconfirm":7723,"Ġmaneu":7724,"Ġheadache":7725,"Ġpuppy":7726,"Ġnipples":7727,"Ġannoyance":7728,"Ġpolished":7729,"Ġsalvatore":7730,"Ġdomini":7731,"olyn":7732,"Ġcough":7733,"esse":7734,"Ġspill":7735,"Ġcaroline":7736,"anton":7737,"rob":7738,"Ġchasing":7739,"Ġcarl":7740,"Ġintently":7741,"bry":7742,"Ġhast":7743,"Ġglowed":7744,"Ġintroduce":7745,"sav":7746,"ooled":7747,"Ġefforts":7748,"Ġskipped":7749,"Ġcorrected":7750,"Ġstatus":7751,"leaning":7752,"Ġsale":7753,"Ġguardian":7754,"Ġprayed":7755,"Ġmicah":7756,"Ġjeremy":7757,"Ġsymb":7758,"Ġfranc":7759,"Ġcontained":7760,"ville":7761,"etic":7762,"Ġassign":7763,"Ġromance":7764,"saetan":7765,"lucien":7766,"Ġhyp":7767,"Ġronin":7768,"Ġtemporary":7769,"Ġawe":7770,"Ġsonia":7771,"Ġblankets":7772,"Ġthrusting":7773,"Ġfrantically":7774,"Ġscor":7775,"Ġnapkin":7776,"Ġfingern":7777,"Ġvicious":7778,"better":7779,"eventually":7780,"uish":7781,"helle":7782,"inda":7783,"Ġhovering":7784,"Ġkeely":7785,"Ġroses":7786,"Ġdeepened":7787,"Ġhighway":7788,"Ġgovern":7789,"Ġpartners":7790,"Ġecstasy":7791,"Ġterm":7792,"Ġodds":7793,"Ġblocked":7794,"itated":7795,"Ġsheridan":7796,"Ġsports":7797,"udge":7798,"Ġlandon":7799,"lucivar":7800,"Ġgabriel":7801,"Ġsheep":7802,"Ġbrutal":7803,"fucking":7804,"Ġming":7805,"Ġexplosion":7806,"Ġwhimper":7807,"dged":7808,"Ġswirled":7809,"Ġliking":7810,"ifully":7811,"Ġoffers":7812,"Ġdarcy":7813,"Ġbubble":7814,"outhed":7815,"Ġscre":7816,"Ġlect":7817,"Ġwasted":7818,"Ġminds":7819,"Ġbelieving":7820,"Ġawareness":7821,"Ġcronus":7822,"enix":7823,"riger":7824,"Ġspilling":7825,"Ġreacted":7826,"Ġindicated":7827,"Ġrecover":7828,"Ġproduct":7829,"nik":7830,"Ġdave":7831,"Ġjones":7832,"Ġscott":7833,"getting":7834,"strom":7835,"elling":7836,"Ġcoast":7837,"Ġhovered":7838,"ishly":7839,"Ġskye":7840,"Ġsavage":7841,"Ġpermanent":7842,"Ġbackpack":7843,"Ġhelps":7844,"Ġcringed":7845,"Ġpersonally":7846,"ryker":7847,"Ġwounded":7848,"Ġfinancial":7849,"nifer":7850,"Ġinher":7851,"ivy":7852,"Ġrefriger":7853,"Ġpicks":7854,"pa":7855,"Ġtad":7856,"Ġimpr":7857,"Ġtighten":7858,"Ġcraft":7859,"Ġcoward":7860,"Ġregarded":7861,"Ġmolly":7862,"Ġdealt":7863,"Ġrepres":7864,"Ġthrusts":7865,"second":7866,"dalton":7867,"field":7868,"Ġlia":7869,"Ġanybody":7870,"Ġsnuggled":7871,"Ġsymbol":7872,"Ġshred":7873,"Ġestab":7874,"mind":7875,"Ġsquinted":7876,"Ġlayla":7877,"Ġhauled":7878,"ae":7879,"Ġpig":7880,"verance":7881,"Ġgazing":7882,"Ġbetrayal":7883,"xed":7884,"Ġtate":7885,"Ġmand":7886,"Ġbased":7887,"Ġitalian":7888,"Ġintentions":7889,"trist":7890,"Ġtiss":7891,"Ġshocking":7892,"Ġfunction":7893,"aphne":7894,"Ġcloak":7895,"Ġsang":7896,"Ġhaze":7897,"Ġjab":7898,"Ġdisaster":7899,"Ġnaturally":7900,"Ġbranch":7901,"Ġdancer":7902,"Ġcandace":7903,"Ġfurrowed":7904,"Ġdefin":7905,"Ġregardless":7906,"Ġgaped":7907,"verity":7908,"Ġrit":7909,"ulating":7910,"Ġensure":7911,"Ġcarriage":7912,"perfect":7913,"Ġmini":7914,"Ġexquisite":7915,"Ġsnapping":7916,"Ġforeign":7917,"ienne":7918,"cide":7919,"Ġgleaming":7920,"Ġped":7921,"Ġprey":7922,"Ġmysterious":7923,"talk":7924,"Ġfever":7925,"racting":7926,"Ġlacey":7927,"Ġsom":7928,"Ġdates":7929,"Ġedward":7930,"Ġsleepy":7931,"Ġstomped":7932,"Ġnudged":7933,"Ġbert":7934,"uel":7935,"Ġbald":7936,"Ġlasted":7937,"Ġbites":7938,"Ġtipto":7939,"thankfully":7940,"iron":7941,"Ġperched":7942,"Ġshoe":7943,"Ġvalky":7944,"Ġemphas":7945,"thirty":7946,"Ġcountered":7947,"ierra":7948,"Ġcorn":7949,"Ġterrifying":7950,"Ġlocks":7951,"Ġmim":7952,"Ġtalon":7953,"Ġtact":7954,"Ġsite":7955,"Ġlush":7956,"Ġmoans":7957,"Ġpossession":7958,"Ġwinning":7959,"Ġnightmares":7960,"sum":7961,"Ġsevere":7962,"Ġblocks":7963,"Ġvaguely":7964,"Ġlil":7965,"ixture":7966,"Ġflaw":7967,"Ġjoining":7968,"Ġcupping":7969,"Ġjonah":7970,"Ġcottage":7971,"Ġacade":7972,"Ġoddly":7973,"Ġpiercing":7974,"Ġflirting":7975,"thur":7976,"ctors":7977,"Ġinvolve":7978,"ggy":7979,"Ġcreek":7980,"Ġcautiously":7981,"Ġlaced":7982,"Ġprent":7983,"Ġcares":7984,"Ġdenied":7985,"Ġcameras":7986,"Ġprentice":7987,"Ġgemma":7988,"Ġlovers":7989,"Ġappet":7990,"Ġdouglas":7991,"Ġsanct":7992,"Ġnewspaper":7993,"Ġsookie":7994,"Ġbark":7995,"Ġnegot":7996,"Ġsped":7997,"Ġoffended":7998,"Ġhyster":7999,"Ġsoldiers":8000,"holding":8001,"Ġoccupied":8002,"Ġcivil":8003,"Ġlic":8004,"sebastian":8005,"Ġblunt":8006,"isk":8007,"Ġabilities":8008,"Ġclaud":8009,"Ġvisited":8010,"Ġheaved":8011,"Ġsparkling":8012,"Ġseductive":8013,"fits":8014,"Ġshane":8015,"Ġsorts":8016,"Ġbracelet":8017,"Ġartemis":8018,"Ġwishes":8019,"Ġscooted":8020,"ags":8021,"Ġfinishing":8022,"Ġdelighted":8023,"Ġsarcasm":8024,"storm":8025,"Ġencounter":8026,"Ġgau":8027,"Ġarc":8028,"Ġtasting":8029,"Ġbills":8030,"Ġnoticing":8031,"Ġclare":8032,"moon":8033,"Ġcrisp":8034,"uch":8035,"hew":8036,"Ġscooped":8037,"Ġeleanor":8038,"Ġmerc":8039,"Ġpenthouse":8040,"Ġcrim":8041,"Ġgasping":8042,"Ġtape":8043,"Ġstung":8044,"Ġchip":8045,"Ġmilitary":8046,"Ġworthy":8047,"Ġtremble":8048,"Ġnaughty":8049,"bella":8050,"Ġdash":8051,"Ġkrist":8052,"Ġcarly":8053,"Ġsensations":8054,"Ġtexted":8055,"Ġ4":8056,"Ġmeth":8057,"reaching":8058,"Ġskip":8059,"Ġintru":8060,"Ġmirr":8061,"Ġscarlet":8062,"arel":8063,"Ġflare":8064,"Ġcontinuing":8065,"Ġmistakes":8066,"Ġille":8067,"Ġstates":8068,"Ġdegree":8069,"Ġcoven":8070,"Ġjoked":8071,"Ġkil":8072,"Ġflor":8073,"Ġpersonality":8074,"angel":8075,"Ġamanda":8076,"Ġdistr":8077,"Ġdarlin":8078,"Ġassuming":8079,"Ġdump":8080,"Ġlid":8081,"Ġsyl":8082,"Ġchewed":8083,"rain":8084,"Ġraven":8085,"Ġrein":8086,"Ġblocking":8087,"uther":8088,"need":8089,"Ġaccepting":8090,"Ġinjuries":8091,"Ġinternet":8092,"Ġtanner":8093,"Ġtrigger":8094,"Ġ5":8095,"Ġclipped":8096,"Ġrelent":8097,"Ġmonst":8098,"huh":8099,"zar":8100,"Ġcontents":8101,"Ġeduc":8102,"Ġfrequ":8103,"Ġdifferently":8104,"conscious":8105,"Ġtypical":8106,"gor":8107,"ifying":8108,"morgan":8109,"Ġscoffed":8110,"tling":8111,"Ġrefrigerator":8112,"Ġhappier":8113,"Ġtits":8114,"Ġmommy":8115,"Ġguarant":8116,"Ġanya":8117,"Ġmocking":8118,"Ġburns":8119,"Ġfier":8120,"Ġelder":8121,"ndry":8122,"amiliar":8123,"Ġarrival":8124,"Ġfrightening":8125,"helen":8126,"robe":8127,"Ġclenching":8128,"Ġvictory":8129,"Ġtrailing":8130,"Ġframed":8131,"Ġsweetly":8132,"ending":8133,"Ġcer":8134,"Ġentering":8135,"Ġabsence":8136,"Ġellie":8137,"Ġmeetings":8138,"seriously":8139,"Ġrange":8140,"colin":8141,"Ġhazel":8142,"ounded":8143,"Ġdiscussing":8144,"Ġpra":8145,"Ġarrangement":8146,"Ġbearing":8147,"Ġcoax":8148,"akable":8149,"Ġpopular":8150,"Ġrecalled":8151,"graham":8152,"Ġbeau":8153,"jackson":8154,"Ġadmire":8155,"unlike":8156,"Ġsibyl":8157,"dou":8158,"zens":8159,"Ġbending":8160,"Ġfled":8161,"box":8162,"Ġhandled":8163,"Ġdesigned":8164,"Ġtitle":8165,"Ġglorious":8166,"Ġclinging":8167,"Ġretorted":8168,"Ġregistered":8169,"Ġq":8170,"imil":8171,"Ġmedic":8172,"Ġspots":8173,"Ġsleek":8174,"girl":8175,"list":8176,"Ġbrew":8177,"Ġyel":8178,"estly":8179,"gues":8180,"ody":8181,"Ġniall":8182,"occ":8183,"Ġlighter":8184,"Ġcatcher":8185,"Ġgargo":8186,"Ġbump":8187,"aylor":8188,"entin":8189,"Ġsaun":8190,"Ġdesired":8191,"Ġdeciding":8192,"Ġprofile":8193,"Ġella":8194,"gabe":8195,"hey":8196,"Ġmex":8197,"Ġsentin":8198,"Ġcrimson":8199,"aiting":8200,"anches":8201,"Ġsurroundings":8202,"Ġrumors":8203,"Ġbouncing":8204,"Ġraked":8205,"Ġjessie":8206,"Ġwealth":8207,"Ġmotorcy":8208,"ali":8209,"Ġnovel":8210,"ucing":8211,"retched":8212,"door":8213,"Ġsweaty":8214,"Ġlaunched":8215,"sitting":8216,"ooling":8217,"Ġplant":8218,"inkling":8219,"nobody":8220,"Ġrelated":8221,"Ġmurmurs":8222,"claim":8223,"Ġiv":8224,"Ġrif":8225,"Ġinsul":8226,"Ġhuffed":8227,"cole":8228,"Ġoccasionally":8229,"half":8230,"Ġjosie":8231,"dylan":8232,"mod":8233,"Ġbeaten":8234,"Ġwillingly":8235,"Ġfreaked":8236,"gun":8237,"Ġbeard":8238,"Ġstrolled":8239,"Ġportal":8240,"Ġexecut":8241,"Ġmes":8242,"iter":8243,"Ġscroll":8244,"Ġsenior":8245,"Ġcassie":8246,"Ġteenager":8247,"Ġwhimpered":8248,"Ġpumping":8249,"Ġblades":8250,"Ġvalkyrie":8251,"Ġdaring":8252,"Ġoutrage":8253,"Ġcatches":8254,"Ġhonesty":8255,"Ġprofessor":8256,"oenix":8257,"Ġleaped":8258,"Ġkitten":8259,"Ġdiscussed":8260,"tristan":8261,"face":8262,"Ġjose":8263,"Ġerup":8264,"pat":8265,"esy":8266,"Ġshelf":8267,"Ġjade":8268,"Ġsocks":8269,"Ġglist":8270,"cheres":8271,"Ġdisgusted":8272,"crap":8273,"zes":8274,"acles":8275,"Ġfilm":8276,"Ġgeorgie":8277,"acc":8278,"antha":8279,"Ġgreater":8280,"Ġcandles":8281,"Ġbaseball":8282,"lah":8283,"Ġsev":8284,"Ġpictured":8285,"Ġlocated":8286,"Ġaimed":8287,"Ġconversations":8288,"Ġstriking":8289,"Ġelab":8290,"Ġgrounds":8291,"Ġcounting":8292,"Ġcaressing":8293,"ai":8294,"new":8295,"Ġswayed":8296,"sers":8297,"chan":8298,"Ġsober":8299,"Ġsupplies":8300,"lay":8301,"Ġshelter":8302,"Ġber":8303,"Ġanch":8304,"ounds":8305,"Ġvisiting":8306,"Ġtuesday":8307,"Ġsolution":8308,"Ġpersu":8309,"Ġstrangers":8310,"Ġjan":8311,"Ġmerit":8312,"Ġgrocery":8313,"Ġalpha":8314,"eting":8315,"alley":8316,"Ġdisappearing":8317,"Ġgang":8318,"Ġfreezing":8319,"Ġmartin":8320,"closing":8321,"Ġshutting":8322,"Ġwreck":8323,"Ġbore":8324,"Ġsteam":8325,"gil":8326,"enne":8327,"thorne":8328,"Ġveget":8329,"spo":8330,"Ġclever":8331,"Ġdiscon":8332,"Ġequip":8333,"Ġonline":8334,"Ġload":8335,"Ġstove":8336,"Ġcolton":8337,"ei":8338,"gia":8339,"ta":8340,"Ġdazed":8341,"Ġinjury":8342,"Ġhopeful":8343,"Ġpassionate":8344,"Ġemployees":8345,"Ġdecorated":8346,"Ġounce":8347,"Ġpitch":8348,"uttered":8349,"Ġscraped":8350,"Ġcapture":8351,"ification":8352,"pier":8353,"Ġdiana":8354,"Ġnause":8355,"Ġego":8356,"shes":8357,"Ġplayful":8358,"Ġinterior":8359,"Ġtracing":8360,"Ġsecretary":8361,"between":8362,"Ġandrea":8363,"Ġsorrow":8364,"Ġninet":8365,"Ġexplaining":8366,"Ġpaperwork":8367,"Ġpraying":8368,"Ġgreek":8369,"filled":8370,"mont":8371,"Ġemail":8372,"Ġtreatment":8373,"Ġcelebrate":8374,"Ġresults":8375,"Ġleapt":8376,"Ġrational":8377,"Ġshone":8378,"Ġneut":8379,"Ġbron":8380,"Ġgrade":8381,"Ġunique":8382,"sweet":8383,"Ġbiz":8384,"Ġcaden":8385,"Ġcraving":8386,"Ġbikini":8387,"pret":8388,"trying":8389,"Ġaccidentally":8390,"Ġjewels":8391,"Ġleague":8392,"Ġslipp":8393,"within":8394,"Ġmedia":8395,"Ġreferring":8396,"zzed":8397,"Ġroyce":8398,"Ġdaylight":8399,"Ġpossessive":8400,"Ġwerewolf":8401,"Ġmarched":8402,"Ġfading":8403,"Ġweep":8404,"Ġscal":8405,"pend":8406,"Ġaccused":8407,"Ġlimo":8408,"Ġsuggestion":8409,"Ġseek":8410,"Ġunbeliev":8411,"Ġemerson":8412,"Ġshowered":8413,"Ġfucked":8414,"Ġinvestigation":8415,"celyn":8416,"Ġexerc":8417,"Ġblown":8418,"Ġbarrier":8419,"Ġticket":8420,"Ġbruises":8421,"rich":8422,"hearted":8423,"Ġresent":8424,"Ġhomes":8425,"rene":8426,"omi":8427,"uments":8428,"Ġprospect":8429,"udging":8430,"Ġ9":8431,"Ġnail":8432,"Ġstarving":8433,"lucky":8434,"Ġbared":8435,"oms":8436,"Ġwhoa":8437,"Ġlaundry":8438,"smiling":8439,"Ġfrankie":8440,"Ġequipment":8441,"Ġgig":8442,"Ġquality":8443,"gued":8444,"ench":8445,"Ġangrily":8446,"iffany":8447,"Ġimmediate":8448,"misty":8449,"Ġjolt":8450,"Ġtee":8451,"Ġplunged":8452,"luckily":8453,"Ġremarked":8454,"Ġdizzy":8455,"Ġgrinding":8456,"Ġunivers":8457,"Ġfund":8458,"Ġdrifting":8459,"mn":8460,"Ġguitar":8461,"ipher":8462,"Ġsoftness":8463,"Ġindust":8464,"pes":8465,"athed":8466,"Ġshrieked":8467,"Ġrevel":8468,"Ġchand":8469,"Ġelijah":8470,"Ġsweetness":8471,"yton":8472,"Ġpaw":8473,"Ġbuzzed":8474,"such":8475,"Ġappeal":8476,"Ġfascinated":8477,"acted":8478,"Ġhiss":8479,"Ġcompre":8480,"Ġtrusting":8481,"Ġpacking":8482,"Ġrestless":8483,"Ġdisappro":8484,"Ġrelaxing":8485,"Ġreflected":8486,"Ġunhappy":8487,"sab":8488,"Ġpained":8489,"green":8490,"Ġawhile":8491,"Ġnape":8492,"Ġbedside":8493,"Ġeyeing":8494,"agers":8495,"Ġmotel":8496,"Ġlothaire":8497,"ishment":8498,"Ġresisted":8499,"may":8500,"thias":8501,"Ġcoinc":8502,"Ġdrawled":8503,"Ġdemands":8504,"normally":8505,"aa":8506,"kind":8507,"Ġblazing":8508,"Ġvalue":8509,"fact":8510,"Ġtheo":8511,"kell":8512,"Ġhelmet":8513,"Ġcounts":8514,"huinn":8515,"Ġjournal":8516,"Ġglittering":8517,"far":8518,"eez":8519,"Ġbund":8520,"Ġruby":8521,"Ġchoke":8522,"willing":8523,"Ġbrooks":8524,"Ġreleasing":8525,"inic":8526,"Ġeur":8527,"ooper":8528,"Ġsus":8529,"earing":8530,"Ġrecovered":8531,"Ġneighbors":8532,"Ġcradled":8533,"Ġwrest":8534,"Ġoak":8535,"Ġtattoos":8536,"Ġcommitment":8537,"Ġscenar":8538,"Ġsometime":8539,"cra":8540,"Ġcult":8541,"Ġduck":8542,"Ġattempting":8543,"Ġstaffan":8544,"Ġenvelop":8545,"Ġlethal":8546,"Ġelliot":8547,"sive":8548,"Ġga":8549,"dri":8550,"win":8551,"Ġeverybody":8552,"Ġlandsc":8553,"Ġtower":8554,"Ġcrooked":8555,"Ġphotograp":8556,"Ġrattled":8557,"pain":8558,"viv":8559,"Ġsession":8560,"Ġgleam":8561,"Ġmaintain":8562,"Ġbumps":8563,"Ġgam":8564,"ida":8565,"Ġsignal":8566,"Ġours":8567,"Ġcreepy":8568,"Ġidentity":8569,"Ġgn":8570,"Ġfellow":8571,"twenty":8572,"Ġqueens":8573,"Ġpam":8574,"adogan":8575,"whether":8576,"Ġchoking":8577,"geor":8578,"mates":8579,"Ġarcher":8580,"ieving":8581,"Ġeden":8582,"Ġkingdom":8583,"Ġemotionally":8584,"Ġfocusing":8585,"Ġservant":8586,"lucy":8587,"Ġincreasing":8588,"Ġinevitable":8589,"Ġraz":8590,"ums":8591,"Ġassass":8592,"Ġgreatest":8593,"Ġstatue":8594,"Ġmob":8595,"Ġeagerly":8596,"surpr":8597,"Ġware":8598,"Ġseized":8599,"Ġlessons":8600,"Ġguarantee":8601,"hab":8602,"sat":8603,"Ġflicker":8604,"Ġlounge":8605,"rad":8606,"icient":8607,"Ġdesig":8608,"Ġseemingly":8609,"tam":8610,"enth":8611,"Ġtones":8612,"Ġgallery":8613,"acular":8614,"Ġabdomen":8615,"Ġneatly":8616,"stay":8617,"Ġbackyard":8618,"Ġlege":8619,"Ġmadness":8620,"Ġtempting":8621,"Ġdialed":8622,"Ġscalp":8623,"Ġheir":8624,"usually":8625,"Ġpatio":8626,"Ġtemples":8627,"Ġpositioned":8628,"dro":8629,"jim":8630,"Ġnah":8631,"Ġpump":8632,"thinking":8633,"Ġflipping":8634,"Ġquestioned":8635,"Ġordinary":8636,"Ġasshole":8637,"Ġhating":8638,"Ġinward":8639,"Ġexagger":8640,"Ġwiden":8641,"Ġconvincing":8642,"Ġwitnessed":8643,"Ġseed":8644,"Ġfluff":8645,"Ġgazes":8646,"Ġzero":8647,"Ġfrancis":8648,"Ġticked":8649,"rebecca":8650,"Ġens":8651,"Ġmuse":8652,"Ġartist":8653,"Ġbasic":8654,"Ġpierced":8655,"Ġenthusiasm":8656,"Ġinnocence":8657,"Ġlunged":8658,"Ġnoelle":8659,"jonas":8660,"Ġarrested":8661,"bb":8662,"Ġaggress":8663,"iple":8664,"Ġnak":8665,"Ġdecades":8666,"Ġskinny":8667,"Ġbizarre":8668,"ware":8669,"asant":8670,"ayna":8671,"Ġslit":8672,"Ġreasonable":8673,"Ġpatch":8674,"Ġshades":8675,"Ġthankful":8676,"Ġengland":8677,"isabelle":8678,"abbing":8679,"Ġcuriously":8680,"Ġballroom":8681,"Ġsparks":8682,"quar":8683,"Ġdeserves":8684,"Ġkin":8685,"Ġclasp":8686,"Ġhelen":8687,"Ġburden":8688,"yenne":8689,"Ġtumbled":8690,"Ġteaching":8691,"Ġsofie":8692,"mason":8693,"nine":8694,"point":8695,"Ġgry":8696,"Ġslacks":8697,"broo":8698,"Ġdoubts":8699,"Ġdenying":8700,"Ġclench":8701,"Ġpotat":8702,"Ġintimacy":8703,"fly":8704,"cha":8705,"Ġstraining":8706,"Ġpassage":8707,"Ġcamille":8708,"Ġundo":8709,"Ġconcentrated":8710,"later":8711,"nice":8712,"Ġpauses":8713,"Ġlocking":8714,"suit":8715,"Ġresolve":8716,"Ġmotions":8717,"chief":8718,"Ġali":8719,"Ġdisgu":8720,"Ġbits":8721,"Ġlocker":8722,"marshall":8723,"Ġtapping":8724,"Ġadmired":8725,"Ġsoldier":8726,"Ġserving":8727,"Ġcolored":8728,"Ġmutter":8729,"Ġdespair":8730,"Ġjerking":8731,"Ġpup":8732,"Ġchips":8733,"Ġdevyn":8734,"cassidy":8735,"Ġsobs":8736,"colm":8737,"Ġsentinel":8738,"idual":8739,"adie":8740,"Ġmomentarily":8741,"Ġgryph":8742,"Ġjar":8743,"Ġsensing":8744,"Ġsullivan":8745,"nes":8746,"Ġnep":8747,"Ġbranches":8748,"Ġcolo":8749,"Ġcircling":8750,"rom":8751,"Ġalt":8752,"Ġlayer":8753,"breat":8754,"Ġgoose":8755,"Ġoffense":8756,"Ġregretted":8757,"Ġloosened":8758,"Ġdiner":8759,"Ġwaistband":8760,"Ġindication":8761,"Ġcentury":8762,"Ġbrandt":8763,"jaenelle":8764,"Ġcue":8765,"Ġdomen":8766,"Ġscarf":8767,"Ġgovernment":8768,"beaut":8769,"Ġdisag":8770,"Ġnewly":8771,"Ġtops":8772,"styx":8773,"Ġdozens":8774,"Ġgroin":8775,"Ġevelyn":8776,"Ġdomenico":8777,"bow":8778,"mall":8779,"name":8780,"Ġcadogan":8781,"Ġstones":8782,"Ġnoises":8783,"sha":8784,"Ġcloses":8785,"Ġforgetting":8786,"Ġschedul":8787,"Ġoblivious":8788,"much":8789,"Ġlame":8790,"Ġvik":8791,"comed":8792,"Ġabsently":8793,"bad":8794,"roth":8795,"umbles":8796,"Ġdangling":8797,"Ġperfume":8798,"kane":8799,"oved":8800,"Ġpleaded":8801,"rielle":8802,"Ġsprang":8803,"Ġstained":8804,"Ġscul":8805,"ologet":8806,"faced":8807,"Ġmixture":8808,"Ġstance":8809,"Ġrash":8810,"Ġbraden":8811,"Ġgratitude":8812,"Ġpersp":8813,"iffe":8814,"Ġcases":8815,"flies":8816,"Ġbertie":8817,"Ġmethod":8818,"abelle":8819,"Ġaccur":8820,"Ġincredulous":8821,"Ġdisturbing":8822,"Ġtiming":8823,"Ġvariety":8824,"Ġtant":8825,"Ġchapter":8826,"Ġsadly":8827,"Ġcaf":8828,"Ġphr":8829,"Ġkinda":8830,"Ġobsc":8831,"Ġprize":8832,"Ġstormed":8833,"Ġinfluence":8834,"Ġpel":8835,"sex":8836,"rock":8837,"Ġunle":8838,"Ġmold":8839,"Ġartif":8840,"Ġcustomers":8841,"care":8842,"arer":8843,"Ġimper":8844,"Ġhalted":8845,"Ġheck":8846,"Ġsaff":8847,"Ġsche":8848,"joe":8849,"Ġmadeline":8850,"cience":8851,"Ġlowering":8852,"Ġcopy":8853,"Ġhates":8854,"Ġdele":8855,"Ġshifts":8856,"Ġlucian":8857,"Ġdevon":8858,"Ġgarb":8859,"Ġwandering":8860,"Ġspectacular":8861,"Ġacknowledged":8862,"Ġlane":8863,"Ġpic":8864,"conf":8865,"Ġauthority":8866,"Ġerupted":8867,"itches":8868,"arian":8869,"riley":8870,"Ġdean":8871,"Ġthanked":8872,"xton":8873,"Ġduncan":8874,"Ġflexed":8875,"Ġsucc":8876,"Ġclip":8877,"Ġbargain":8878,"Ġbeamed":8879,"Ġpeaceful":8880,"Ġcousins":8881,"Ġsizz":8882,"Ġnoble":8883,"istr":8884,"Ġinqu":8885,"unks":8886,"quinn":8887,"Ġapparent":8888,"harr":8889,"umes":8890,"Ġsnick":8891,"Ġinitial":8892,"control":8893,"Ġtaylor":8894,"Ġliv":8895,"thought":8896,"Ġkeira":8897,"Ġpurch":8898,"Ġsanctuary":8899,"Ġtat":8900,"Ġcharles":8901,"carson":8902,"Ġshivering":8903,"Ġsympat":8904,"Ġurgent":8905,"oon":8906,"Ġunz":8907,"Ġemp":8908,"Ġmarguerite":8909,"Ġstrict":8910,"Ġcompassion":8911,"Ġcalmed":8912,"Ġstaggered":8913,"Ġchased":8914,"olved":8915,"Ġhumming":8916,"Ġmaddy":8917,"Ġclaiming":8918,"Ġreluctant":8919,"Ġmour":8920,"Ġmechan":8921,"Ġdoctors":8922,"ables":8923,"Ġflashlight":8924,"Ġtemperature":8925,"Ġtingling":8926,"Ġstam":8927,"Ġovercome":8928,"Ġstreaming":8929,"Ġstray":8930,"Ġindepend":8931,"Ġrestraint":8932,"hor":8933,"Ġsheriff":8934,"Ġdowntown":8935,"Ġobey":8936,"Ġkidnapped":8937,"Ġhorizon":8938,"Ġeurope":8939,"Ġunre":8940,"Ġcomments":8941,"Ġcelest":8942,"Ġessence":8943,"reshold":8944,"Ġcriminal":8945,"Ġfingernails":8946,"Ġedgard":8947,"Ġeva":8948,"Ġseattle":8949,"Ġsaffi":8950,"Ġrue":8951,"Ġshitty":8952,"Ġthreshold":8953,"Ġpudd":8954,"Ġstride":8955,"Ġpossibilities":8956,"Ġrecon":8957,"Ġdescribed":8958,"Ġmotorcycle":8959,"Ġbutler":8960,"Ġabb":8961,"aude":8962,"Ġalien":8963,"ours":8964,"Ġridge":8965,"Ġnephew":8966,"Ġlam":8967,"leen":8968,"Ġages":8969,"Ġvom":8970,"Ġroommate":8971,"Ġcrushing":8972,"Ġfreeze":8973,"Ġjennifer":8974,"Ġemployee":8975,"pher":8976,"enced":8977,"Ġphoenix":8978,"Ġcollection":8979,"Ġnicola":8980,"Ġelectricity":8981,"wind":8982,"emily":8983,"Ġprisoner":8984,"Ġselling":8985,"Ġbacon":8986,"Ġflynn":8987,"Ġnoon":8988,"otherwise":8989,"Ġpulsing":8990,"callum":8991,"Ġbruised":8992,"Ġnavy":8993,"Ġbasis":8994,"Ġaccompan":8995,"Ġkimber":8996,"atives":8997,"Ġded":8998,"Ġanne":8999,"dammit":9000,"Ġbirds":9001,"iago":9002,"mir":9003,"Ġtel":9004,"Ġsly":9005,"arded":9006,"Ġvalley":9007,"Ġcavern":9008,"Ġexample":9009,"Ġnuzzled":9010,"Ġconsciousness":9011,"Ġfuss":9012,"Ġassault":9013,"Ġelement":9014,"Ġreminds":9015,"Ġdisgusting":9016,"Ġlogic":9017,"during":9018,"sus":9019,"Ġfount":9020,"Ġdies":9021,"Ġdrain":9022,"Ġadds":9023,"Ġconclusion":9024,"Ġraging":9025,"Ġlila":9026,"Ġserena":9027,"Ġslack":9028,"Ġzone":9029,"Ġhotter":9030,"Ġguarded":9031,"Ġmerry":9032,"spoken":9033,"fear":9034,"imer":9035,"Ġslips":9036,"Ġoldest":9037,"Ġterribly":9038,"Ġfabulous":9039,"Ġpeeled":9040,"Ġgates":9041,"Ġhailey":9042,"Ġbeep":9043,"ustered":9044,"rowing":9045,"Ġtrial":9046,"Ġrug":9047,"ionaire":9048,"Ġpeek":9049,"Ġtemptation":9050,"bill":9051,"oting":9052,"Ġoverly":9053,"Ġcomplain":9054,"Ġannie":9055,"Ġdesigner":9056,"fted":9057,"Ġavery":9058,"Ġlicense":9059,"Ġsealed":9060,"Ġlonged":9061,"Ġbucket":9062,"Ġshelves":9063,"Ġwryly":9064,"Ġhorm":9065,"Ġmarch":9066,"Ġdramatic":9067,"Ġsprawled":9068,"hmm":9069,"hem":9070,"inity":9071,"Ġtheater":9072,"chal":9073,"Ġprow":9074,"Ġbachel":9075,"Ġjeep":9076,"Ġresort":9077,"Ġshirts":9078,"Ġwelcomed":9079,"Ġgulped":9080,"Ġintox":9081,"Ġtingle":9082,"Ġmuscled":9083,"Ġroute":9084,"pierre":9085,"ooping":9086,"Ġcafe":9087,"anyone":9088,"Ġillusion":9089,"Ġcontrast":9090,"Ġvenge":9091,"Ġwiggled":9092,"Ġsissy":9093,"Ġexposing":9094,"Ġpartially":9095,"Ġwarren":9096,"ocks":9097,"Ġsecretly":9098,"Ġtenderness":9099,"Ġsanity":9100,"iating":9101,"Ġade":9102,"Ġsasha":9103,"Ġlion":9104,"Ġcheating":9105,"Ġtesting":9106,"Ġdismissed":9107,"race":9108,"ulet":9109,"Ġtucking":9110,"Ġyouth":9111,"Ġplas":9112,"ighed":9113,"ties":9114,"Ġfisted":9115,"Ġdashed":9116,"iments":9117,"Ġgranted":9118,"Ġactivity":9119,"cast":9120,"cooper":9121,"fold":9122,"allie":9123,"Ġendelle":9124,"iano":9125,"Ġperformance":9126,"Ġneutral":9127,"Ġhills":9128,"Ġbein":9129,"Ġregin":9130,"Ġexited":9131,"ainsley":9132,"Ġechoing":9133,"keeping":9134,"unable":9135,"Ġunst":9136,"Ġbeloved":9137,"Ġcaptive":9138,"Ġseduce":9139,"Ġcherry":9140,"Ġgargoyle":9141,"aration":9142,"iles":9143,"usions":9144,"Ġendure":9145,"Ġmistaken":9146,"Ġgrimace":9147,"Ġambul":9148,"Ġritual":9149,"Ġartifact":9150,"lined":9151,"ram":9152,"Ġbelongs":9153,"Ġmelting":9154,"Ġsoothe":9155,"Ġbelief":9156,"Ġtrousers":9157,"declan":9158,"Ġlan":9159,"ceded":9160,"Ġfitting":9161,"Ġflutter":9162,"Ġproposal":9163,"regard":9164,"iser":9165,"Ġslung":9166,"Ġamerica":9167,"watching":9168,"Ġexhaustion":9169,"Ġrail":9170,"ursday":9171,"Ġluxury":9172,"Ġblows":9173,"Ġbraid":9174,"Ġpron":9175,"Ġunderground":9176,"Ġpeering":9177,"therefore":9178,"urd":9179,"Ġbri":9180,"Ġpumped":9181,"Ġvirt":9182,"sof":9183,"Ġlimit":9184,"Ġpuzzled":9185,"darcy":9186,"Ġwealthy":9187,"Ġhastily":9188,"kar":9189,"aci":9190,"ifically":9191,"Ġdownward":9192,"bride":9193,"mma":9194,"Ġrapid":9195,"Ġinstructed":9196,"Ġushe":9197,"Ġraphael":9198,"Ġtechnically":9199,"Ġfantasies":9200,"Ġchoosing":9201,"inkle":9202,"Ġstella":9203,"acey":9204,"Ġwatches":9205,"Ġwoken":9206,"Ġgroans":9207,"mend":9208,"Ġsoup":9209,"eyes":9210,"seth":9211,"Ġblamed":9212,"Ġamusing":9213,"Ġwarily":9214,"Ġhudd":9215,"Ġsubst":9216,"Ġlexie":9217,"Ġye":9218,"Ġkindness":9219,"Ġshouts":9220,"garrett":9221,"Ġstirring":9222,"oops":9223,"evalle":9224,"hest":9225,"Ġgross":9226,"Ġgained":9227,"Ġplayfully":9228,"Ġfacts":9229,"bias":9230,"ssa":9231,"Ġbrad":9232,"onsense":9233,"Ġvictims":9234,"Ġnineteen":9235,"Ġpursed":9236,"Ġvisions":9237,"Ġnothin":9238,"Ġpole":9239,"Ġmaddox":9240,"Ġlipstick":9241,"Ġsinclair":9242,"Ġgravel":9243,"Ġpine":9244,"Ġconsp":9245,"ishop":9246,"Ġfolding":9247,"Ġspells":9248,"handed":9249,"mort":9250,"Ġrico":9251,"Ġanaly":9252,"Ġlimited":9253,"Ġ19":9254,"Ġteenage":9255,"Ġillegal":9256,"Ġtill":9257,"Ġruff":9258,"Ġdefensive":9259,"ummy":9260,"Ġunaware":9261,"Ġdoorbell":9262,"Ġmating":9263,"Ġchallenged":9264,"Ġplatform":9265,"Ġpanc":9266,"Ġbrisk":9267,"erted":9268,"Ġdat":9269,"Ġdil":9270,"lei":9271,"Ġheadboard":9272,"Ġneedle":9273,"colby":9274,"Ġviolently":9275,"Ġbucks":9276,"Ġbackwards":9277,"Ġsquealed":9278,"hire":9279,"Ġsafer":9280,"Ġplants":9281,"Ġdemetri":9282,"Ġashley":9283,"Ġnykyrian":9284,"Ġpenny":9285,"Ġsneaking":9286,"Ġlair":9287,"Ġrumbled":9288,"Ġtherefore":9289,"Ġexcuses":9290,"mine":9291,"erk":9292,"Ġyards":9293,"Ġflav":9294,"Ġtreasure":9295,"glass":9296,"Ġgiggling":9297,"Ġlouis":9298,"Ġflinch":9299,"jamie":9300,"Ġsail":9301,"Ġaddition":9302,"Ġsadie":9303,"ups":9304,"Ġarching":9305,"Ġhopeless":9306,"Ġunfamiliar":9307,"rus":9308,"imately":9309,"ulsion":9310,"Ġswiped":9311,"Ġimpatiently":9312,"ciously":9313,"Ġtodd":9314,"chair":9315,"Ġpunished":9316,"Ġpills":9317,"burn":9318,"Ġstartling":9319,"conner":9320,"bra":9321,"Ġned":9322,"quet":9323,"Ġmarian":9324,"Ġangels":9325,"Ġcomplained":9326,"Ġashton":9327,"big":9328,"Ġlids":9329,"Ġatop":9330,"Ġslaves":9331,"Ġcora":9332,"Ġdemonstr":9333,"Ġferal":9334,"Ġties":9335,"Ġsund":9336,"Ġcrawling":9337,"Ġdebt":9338,"Ġfailure":9339,"Ġapril":9340,"unken":9341,"Ġroxie":9342,"Ġplo":9343,"Ġconscience":9344,"Ġconfession":9345,"Ġdani":9346,"walking":9347,"cor":9348,"matt":9349,"Ġrim":9350,"Ġgrind":9351,"break":9352,"hopefully":9353,"Ġinex":9354,"Ġagents":9355,"dead":9356,"Ġuseful":9357,"Ġpavement":9358,"kill":9359,"Ġalcide":9360,"Ġdistress":9361,"front":9362,"magn":9363,"orous":9364,"immer":9365,"icide":9366,"Ġarmor":9367,"cold":9368,"Ġcollected":9369,"Ġcheekbones":9370,"Ġintelligent":9371,"Ġtire":9372,"Ġsales":9373,"Ġhoneymoon":9374,"mal":9375,"Ġax":9376,"omy":9377,"Ġatm":9378,"Ġsobbing":9379,"dem":9380,"Ġdign":9381,"Ġlinked":9382,"Ġouts":9383,"Ġyanking":9384,"Ġmesmer":9385,"Ġsout":9386,"Ġscan":9387,"Ġtended":9388,"Ġhousekeeper":9389,"frank":9390,"Ġwetness":9391,"Ġmarty":9392,"sophia":9393,"yan":9394,"Ġanth":9395,"Ġpoker":9396,"Ġjudging":9397,"Ġprayer":9398,"interest":9399,"Ġthud":9400,"idal":9401,"Ġclam":9402,"istent":9403,"Ġcocky":9404,"Ġpinning":9405,"bag":9406,"Ġmoaning":9407,"angle":9408,"Ġswam":9409,"Ġmichelle":9410,"Ġultimate":9411,"Ġiona":9412,"Ġvit":9413,"Ġdiscomfort":9414,"fiona":9415,"gne":9416,"piece":9417,"Ġbax":9418,"Ġunple":9419,"aneously":9420,"Ġdestruction":9421,"start":9422,"Ġdock":9423,"Ġarticle":9424,"rome":9425,"Ġplucked":9426,"Ġslut":9427,"Ġacademy":9428,"fine":9429,"ji":9430,"ignation":9431,"Ġwander":9432,"Ġdrowning":9433,"Ġsiblings":9434,"promise":9435,"Ġswelled":9436,"Ġstraps":9437,"Ġpaintings":9438,"Ġtile":9439,"Ġfidget":9440,"akin":9441,"Ġhunched":9442,"Ġuncont":9443,"Ġbuzzing":9444,"Ġelaborate":9445,"Ġyank":9446,"Ġdidnt":9447,"Ġsnuck":9448,"Ġmonitor":9449,"Ġcharges":9450,"Ġfuriously":9451,"untless":9452,"Ġappreciation":9453,"Ġconcerns":9454,"Ġcassandra":9455,"Ġwardrobe":9456,"sophie":9457,"Ġkam":9458,"Ġalayna":9459,"Ġvow":9460,"Ġseam":9461,"Ġsteve":9462,"Ġryker":9463,"Ġparticip":9464,"Ġcombined":9465,"ndered":9466,"occup":9467,"high":9468,"Ġstee":9469,"Ġstrings":9470,"rences":9471,"Ġsticky":9472,"elope":9473,"Ġspy":9474,"oping":9475,"whit":9476,"Ġservices":9477,"Ġcookie":9478,"Ġholes":9479,"Ġnonchal":9480,"Ġtanned":9481,"Ġnut":9482,"daisy":9483,"Ġhumiliation":9484,"Ġgarbage":9485,"Ġtoys":9486,"Ġnash":9487,"Ġsolo":9488,"Ġunmist":9489,"Ġedged":9490,"ological":9491,"Ġnotebook":9492,"Ġwithdraw":9493,"Ġbind":9494,"Ġcure":9495,"Ġshir":9496,"Ġsteven":9497,"Ġcoughed":9498,"prot":9499,"Ġconfessed":9500,"Ġreceive":9501,"Ġpiano":9502,"acity":9503,"Ġdise":9504,"Ġmona":9505,"Ġmessing":9506,"connor":9507,"Ġkennedy":9508,"Ġkent":9509,"abs":9510,"Ġseet":9511,"esty":9512,"Ġcontest":9513,"ancee":9514,"Ġcolumn":9515,"Ġsadi":9516,"Ġgentlemen":9517,"Ġflee":9518,"Ġlouisa":9519,"Ġambulance":9520,"Ġoven":9521,"Ġfrig":9522,"Ġsoda":9523,"Ġvince":9524,"Ġgrowls":9525,"Ġveil":9526,"Ġpenis":9527,"Ġnikolai":9528,"Ġquarters":9529,"want":9530,"Ġbodyguard":9531,"Ġminim":9532,"Ġawak":9533,"osphere":9534,"Ġbitterly":9535,"Ġgasps":9536,"Ġnibbled":9537,"Ġshaken":9538,"irsty":9539,"immedi":9540,"alf":9541,"Ġsolve":9542,"Ġexamined":9543,"cash":9544,"Ġbanged":9545,"Ġku":9546,"Ġsauce":9547,"Ġgrav":9548,"Ġcracking":9549,"julie":9550,"kiss":9551,"Ġbumped":9552,"Ġreun":9553,"Ġstrain":9554,"ivity":9555,"Ġinterrog":9556,"Ġindiv":9557,"Ġdelivery":9558,"Ġlola":9559,"Ġangled":9560,"Ġwelcoming":9561,"Ġsolemn":9562,"Ġfiery":9563,"Ġpiled":9564,"Ġscanning":9565,"Ġxavier":9566,"Ġdaimons":9567,"Ġbiceps":9568,"Ġunner":9569,"ryan":9570,"Ġcondo":9571,"Ġretreated":9572,"Ġcushion":9573,"Ġwarehouse":9574,"Ġlemon":9575,"Ġdelay":9576,"Ġnaive":9577,"Ġheavens":9578,"Ġcautious":9579,"vamp":9580,"Ġknives":9581,"Ġupside":9582,"Ġweres":9583,"Ġplot":9584,"true":9585,"Ġguts":9586,"Ġrenna":9587,"Ġchristopher":9588,"lou":9589,"Ġawkwardly":9590,"Ġconcentration":9591,"Ġdeme":9592,"Ġdauntless":9593,"Ġswords":9594,"Ġexasperated":9595,"Ġruthless":9596,"bbled":9597,"Ġbou":9598,"Ġpose":9599,"Ġsweatshirt":9600,"asked":9601,"Ġgaping":9602,"plete":9603,"Ġapologet":9604,"Ġtripped":9605,"Ġjenna":9606,"Ġsongs":9607,"Ġinterrupting":9608,"Ġtherapy":9609,"gwen":9610,"Ġmused":9611,"anah":9612,"Ġnov":9613,"tedly":9614,"Ġwinding":9615,"Ġpanted":9616,"Ġgriff":9617,"Ġpapa":9618,"Ġcompetition":9619,"Ġintrigued":9620,"ga":9621,"Ġconqu":9622,"Ġseal":9623,"shaped":9624,"Ġalongside":9625,"Ġexperiment":9626,"Ġshuddering":9627,"Ġarthur":9628,"Ġrights":9629,"oldo":9630,"diego":9631,"Ġskept":9632,"laine":9633,"Ġstubble":9634,"Ġshiftertown":9635,"Ġdepend":9636,"immediately":9637,"Ġwire":9638,"Ġheven":9639,"also":9640,"Ġknots":9641,"Ġupd":9642,"Ġtelep":9643,"Ġaccommod":9644,"Ġunbear":9645,"born":9646,"tra":9647,"Ġbanging":9648,"Ġhardness":9649,"Ġmeantime":9650,"Ġjoseph":9651,"Ġcement":9652,"Ġpausing":9653,"Ġfighter":9654,"Ġcruise":9655,"ijin":9656,"Ġpuzzle":9657,"Ġlaws":9658,"Ġexpressions":9659,"Ġassignment":9660,"john":9661,"Ġdestiny":9662,"Ġkneeling":9663,"Ġjokes":9664,"Ġcrumpled":9665,"isha":9666,"Ġfills":9667,"jay":9668,"nett":9669,"raged":9670,"Ġpang":9671,"Ġrhett":9672,"andora":9673,"Ġmanners":9674,"Ġelise":9675,"Ġsixty":9676,"Ġrises":9677,"Ġchatting":9678,"Ġsusan":9679,"Ġhilt":9680,"Ġbloss":9681,"Ġlabor":9682,"Ġaidan":9683,"fashion":9684,"Ġthursday":9685,"Ġstructure":9686,"Ġvibrated":9687,"Ġarrangements":9688,"Ġborder":9689,"mph":9690,"Ġshack":9691,"Ġshorter":9692,"Ġdrunken":9693,"Ġbooker":9694,"Ġrequested":9695,"Ġhauk":9696,"Ġphotographer":9697,"Ġrecl":9698,"Ġbrink":9699,"Ġmode":9700,"Ġarmed":9701,"Ġsnort":9702,"Ġtale":9703,"Ġtasha":9704,"Ġfigures":9705,"Ġthreats":9706,"Ġdollar":9707,"Ġactivities":9708,"finn":9709,"vincent":9710,"reed":9711,"asms":9712,"Ġaltogether":9713,"Ġmassage":9714,"Ġrumble":9715,"Ġreports":9716,"mart":9717,"tessa":9718,"Ġ6":9719,"Ġfishing":9720,"Ġnancy":9721,"Ġkatherine":9722,"Ġrows":9723,"Ġsearing":9724,"Ġinsurance":9725,"Ġremoving":9726,"ifted":9727,"Ġstrider":9728,"Ġconfess":9729,"Ġsamantha":9730,"Ġlevels":9731,"Ġtexas":9732,"Ġdepends":9733,"Ġrejection":9734,"him":9735,"Ġraises":9736,"liness":9737,"pse":9738,"Ġcouples":9739,"length":9740,"Ġurgency":9741,"sighing":9742,"Ġsobbed":9743,"Ġvest":9744,"neg":9745,"Ġreassure":9746,"bor":9747,"Ġbrenna":9748,"Ġcit":9749,"Ġpeer":9750,"holly":9751,"Ġrepeatedly":9752,"lene":9753,"Ġslapping":9754,"Ġpatiently":9755,"Ġsalon":9756,"ronin":9757,"Ġapplied":9758,"parent":9759,"via":9760,"reet":9761,"Ġtongues":9762,"Ġspeaks":9763,"evan":9764,"Ġresistance":9765,"Ġfacility":9766,"Ġadults":9767,"Ġstifled":9768,"lie":9769,"Ġsunny":9770,"Ġdesires":9771,"herent":9772,"anked":9773,"Ġsage":9774,"Ġouter":9775,"Ġblushing":9776,"Ġunderworld":9777,"cloth":9778,"uffed":9779,"Ġdenial":9780,"Ġconvent":9781,"Ġbutterfly":9782,"istol":9783,"icit":9784,"Ġnolan":9785,"sho":9786,"resa":9787,"Ġfrenzy":9788,"Ġduties":9789,"little":9790,"Ġwasting":9791,"Ġcheated":9792,"Ġhummed":9793,"Ġspecifically":9794,"warm":9795,"Ġagon":9796,"Ġleto":9797,"Ġchef":9798,"gery":9799,"Ġtroubled":9800,"Ġdepos":9801,"Ġmotiv":9802,"Ġshuffled":9803,"Ġplastered":9804,"hern":9805,"anky":9806,"Ġspecies":9807,"Ġchuckles":9808,"Ġadmiring":9809,"Ġbolted":9810,"Ġfiance":9811,"Ġrin":9812,"Ġtrau":9813,"Ġobeyed":9814,"trevor":9815,"Ġizzy":9816,"Ġdive":9817,"iselle":9818,"roft":9819,"Ġovernight":9820,"Ġpopping":9821,"Ġpend":9822,"Ġsunset":9823,"Ġveron":9824,"Ġportra":9825,"Ġunpleasant":9826,"tomorrow":9827,"ignoring":9828,"Ġlurched":9829,"iope":9830,"Ġvolume":9831,"Ġpadded":9832,"Ġlegend":9833,"Ġfrancisco":9834,"Ġskimmed":9835,"Ġbug":9836,"Ġdripped":9837,"Ġredhead":9838,"Ġsmoking":9839,"Ġregarding":9840,"Ġcheerful":9841,"Ġbrunette":9842,"nis":9843,"Ġsagged":9844,"icho":9845,"Ġminor":9846,"Ġthrows":9847,"Ġtenderly":9848,"Ġpowder":9849,"Ġsack":9850,"Ġdwell":9851,"Ġlahn":9852,"Ġpromising":9853,"Ġstrapped":9854,"Ġmateo":9855,"Ġshimmering":9856,"Ġadventure":9857,"Ġuncontroll":9858,"erius":9859,"Ġbewild":9860,"Ġlevet":9861,"Ġthoughtfully":9862,"Ġfaction":9863,"brand":9864,"Ġrazor":9865,"Ġgoo":9866,"Ġsuzanne":9867,"Ġseverance":9868,"Ġsupply":9869,"Ġfreely":9870,"lifting":9871,"Ġstain":9872,"Ġunit":9873,"Ġfellows":9874,"Ġconstruction":9875,"Ġcorrectly":9876,"Ġhollywood":9877,"magnus":9878,"lily":9879,"heat":9880,"Ġareas":9881,"Ġcursing":9882,"Ġportion":9883,"Ġcollarbone":9884,"Ġvowed":9885,"Ġrespected":9886,"Ġvivid":9887,"dor":9888,"iner":9889,"Ġlind":9890,"Ġrh":9891,"thomas":9892,"aughters":9893,"Ġthrobbed":9894,"Ġstroll":9895,"mond":9896,"Ġnipped":9897,"Ġthump":9898,"Ġreturns":9899,"Ġresponding":9900,"Ġinclude":9901,"Ġappealing":9902,"Ġencouraging":9903,"Ġaiden":9904,"honestly":9905,"Ġlecture":9906,"du":9907,"sen":9908,"Ġweary":9909,"Ġtalks":9910,"Ġpencil":9911,"Ġcongratulations":9912,"gown":9913,"might":9914,"nesday":9915,"Ġbehave":9916,"Ġpractical":9917,"Ġpicnic":9918,"lady":9919,"Ġbout":9920,"Ġsham":9921,"approp":9922,"Ġdrawers":9923,"Ġcasting":9924,"Ġtests":9925,"Ġrevol":9926,"Ġsteadily":9927,"gio":9928,"Ġjunk":9929,"Ġproven":9930,"Ġhorn":9931,"hole":9932,"Ġtracking":9933,"Ġdimples":9934,"Ġobsessed":9935,"Ġtissue":9936,"leave":9937,"Ġdirector":9938,"Ġliquor":9939,"Ġabsorbed":9940,"Ġfiancee":9941,"boo":9942,"Ġfoul":9943,"enn":9944,"stupid":9945,"Ġloft":9946,"Ġencl":9947,"load":9948,"Ġtowels":9949,"christian":9950,"Ġpearl":9951,"ador":9952,"Ġforearms":9953,"Ġabsurd":9954,"Ġbuckle":9955,"Ġfingertip":9956,"acheron":9957,"Ġstrangled":9958,"Ġcomplaining":9959,"acious":9960,"Ġunwilling":9961,"Ġgenerally":9962,"callie":9963,"Ġessent":9964,"Ġyog":9965,"icop":9966,"ithing":9967,"Ġrubi":9968,"Ġfountain":9969,"bu":9970,"Ġgrimly":9971,"Ġblinding":9972,"Ġfaintly":9973,"Ġscrubbed":9974,"whitney":9975,"dstrom":9976,"rend":9977,"Ġlana":9978,"Ġandy":9979,"alone":9980,"Ġweighed":9981,"Ġspur":9982,"Ġflashes":9983,"derek":9984,"poor":9985,"Ġvane":9986,"Ġspade":9987,"Ġropes":9988,"Ġglided":9989,"assing":9990,"Ġdecade":9991,"Ġsunk":9992,"Ġalexei":9993,"Ġuncomfortably":9994,"Ġtricks":9995,"Ġlandscape":9996,"zach":9997,"ouched":9998,"Ġpasses":9999,"Ġatmosphere":10000,"fashioned":10001,"Ġrape":10002,"Ġjumps":10003,"Ġglued":10004,"shan":10005,"Ġsteak":10006,"Ġstrides":10007,"Ġserge":10008,"Ġcorpor":10009,"Ġpurred":10010,"Ġbathing":10011,"Ġbullets":10012,"Ġdescription":10013,"chris":10014,"Ġhelicop":10015,"Ġopenly":10016,"Ġdamaged":10017,"idded":10018,"Ġeffects":10019,"Ġsomethin":10020,"ota":10021,"Ġkira":10022,"Ġagency":10023,"Ġdaimon":10024,"Ġbeds":10025,"Ġhomework":10026,"Ġsweating":10027,"Ġcontrolling":10028,"Ġretrieve":10029,"Ġast":10030,"Ġsmashed":10031,"icki":10032,"Ġresour":10033,"Ġsenator":10034,"Ġtune":10035,"Ġspa":10036,"ianna":10037,"Ġcourty":10038,"Ġparano":10039,"Ġapprove":10040,"resist":10041,"Ġgesturing":10042,"eleanor":10043,"orse":10044,"imming":10045,"Ġreview":10046,"amery":10047,"Ġpeyton":10048,"Ġsupernatural":10049,"domini":10050,"Ġuniversity":10051,"sun":10052,"vas":10053,"Ġrepr":10054,"inton":10055,"Ġgreyson":10056,"Ġverge":10057,"Ġsquirmed":10058,"Ġchannel":10059,"Ġthanksgiving":10060,"Ġgreedy":10061,"Ġjunior":10062,"mered":10063,"Ġsquad":10064,"Ġskirts":10065,"Ġvivienne":10066,"Ġaverage":10067,"Ġindividual":10068,"Ġoffices":10069,"Ġskylar":10070,"Ġmalcolm":10071,"gavin":10072,"Ġsteep":10073,"Ġsoaking":10074,"open":10075,"uding":10076,"Ġanguish":10077,"Ġlands":10078,"Ġfifth":10079,"Ġprinc":10080,"Ġfascination":10081,"Ġreserved":10082,"aver":10083,"Ġay":10084,"Ġaug":10085,"Ġwrigg":10086,"Ġheaving":10087,"Ġshine":10088,"Ġblat":10089,"syn":10090,"Ġcasino":10091,"Ġthankfully":10092,"Ġtiffany":10093,"Ġamulet":10094,"ictable":10095,"colo":10096,"Ġdestination":10097,"uated":10098,"Ġstan":10099,"shield":10100,"Ġdamon":10101,"Ġescal":10102,"Ġsurvival":10103,"Ġencountered":10104,"Ġlori":10105,"nadia":10106,"Ġshivers":10107,"Ġflatt":10108,"Ġgleamed":10109,"Ġwrenched":10110,"Ġmedicine":10111,"Ġvengeance":10112,"Ġanthony":10113,"zader":10114,"Ġomin":10115,"Ġbrood":10116,"Ġbrains":10117,"Ġwrithing":10118,"Ġstays":10119,"brina":10120,"Ġprompt":10121,"Ġmaxim":10122,"Ġproudly":10123,"maid":10124,"Ġstacy":10125,"ppers":10126,"Ġsup":10127,"Ġtravis":10128,"Ġunspoken":10129,"Ġspoiled":10130,"Ġtransl":10131,"Ġsurveyed":10132,"Ġwool":10133,"Ġbrushes":10134,"Ġpreoccup":10135,"Ġpickup":10136,"Ġzacharel":10137,"Ġsouthern":10138,"Ġloop":10139,"Ġscore":10140,"Ġcaution":10141,"Ġrubber":10142,"Ġtreating":10143,"Ġtickled":10144,"acting":10145,"Ġramp":10146,"sell":10147,"Ġmisunder":10148,"Ġstalking":10149,"Ġjolted":10150,"Ġcologne":10151,"rather":10152,"vant":10153,"star":10154,"Ġreed":10155,"Ġhandy":10156,"Ġcoy":10157,"Ġscri":10158,"graph":10159,"Ġfascinating":10160,"charlie":10161,"parents":10162,"mara":10163,"nathan":10164,"Ġmage":10165,"anity":10166,"Ġshal":10167,"Ġbeings":10168,"Ġhugs":10169,"Ġwarming":10170,"works":10171,"Ġvibrating":10172,"wolves":10173,"Ġgina":10174,"Ġmelo":10175,"Ġglint":10176,"Ġamery":10177,"Ġhesitant":10178,"Ġconvul":10179,"Ġtabitha":10180,"Ġsuspiciously":10181,"Ġdanika":10182,"Ġforbidden":10183,"Ġcoincidence":10184,"fif":10185,"ications":10186,"Ġnightgown":10187,"Ġnicely":10188,"Ġglee":10189,"Ġdarting":10190,"kins":10191,"pres":10192,"Ġinsec":10193,"Ġhelena":10194,"Ġ10":10195,"Ġfluid":10196,"Ġjacob":10197,"dressed":10198,"Ġgliding":10199,"Ġmencheres":10200,"Ġbedrooms":10201,"Ġgenius":10202,"Ġurging":10203,"Ġrecom":10204,"Ġbobby":10205,"Ġwalker":10206,"Ġthreaten":10207,"Ġattempts":10208,"Ġfuzzy":10209,"ode":10210,"try":10211,"Ġfest":10212,"Ġmeals":10213,"Ġlimits":10214,"Ġmicro":10215,"gir":10216,"ounding":10217,"Ġidentical":10218,"Ġrifle":10219,"adrian":10220,"Ġfarrell":10221,"Ġexploring":10222,"Ġfrowns":10223,"Ġsnarl":10224,"Ġdiamonds":10225,"zer":10226,"asions":10227,"Ġmuttering":10228,"Ġgraceful":10229,"Ġtunn":10230,"ez":10231,"mber":10232,"oub":10233,"Ġpir":10234,"idering":10235,"Ġbehalf":10236,"Ġexplains":10237,"boards":10238,"Ġburying":10239,"Ġkenny":10240,"Ġunmistakable":10241,"Ġneal":10242,"Ġparting":10243,"ensing":10244,"Ġcostume":10245,"Ġsabin":10246,"Ġsympathetic":10247,"Ġobed":10248,"Ġleon":10249,"Ġroot":10250,"Ġscand":10251,"Ġtwitching":10252,"Ġadmission":10253,"Ġindicating":10254,"Ġsoothed":10255,"bits":10256,"Ġtheran":10257,"around":10258,"leans":10259,"Ġsavanna":10260,"Ġspirits":10261,"Ġcustody":10262,"Ġbruise":10263,"Ġquivering":10264,"Ġexercise":10265,"Ġcourtyard":10266,"Ġpardon":10267,"ustomed":10268,"Ġcancer":10269,"Ġpresident":10270,"Ġpanel":10271,"Ġellison":10272,"Ġannouncement":10273,"Ġthane":10274,"Ġcooked":10275,"Ġchallenging":10276,"dear":10277,"sol":10278,"Ġhed":10279,"Ġphones":10280,"ounting":10281,"Ġobserved":10282,"Ġoverheard":10283,"Ġaltar":10284,"Ġaj":10285,"Ġdaughters":10286,"Ġjagged":10287,"Ġgreaves":10288,"Ġcampa":10289,"Ġoccasional":10290,"Ġetched":10291,"aved":10292,"Ġorleans":10293,"Ġhelpful":10294,"Ġjocelyn":10295,"Ġsurprises":10296,"truth":10297,"Ġstorage":10298,"Ġaccomplish":10299,"Ġprime":10300,"Ġpulsed":10301,"Ġgoddamned":10302,"Ġtaxi":10303,"Ġextraord":10304,"Ġanticipated":10305,"Ġjessica":10306,"sided":10307,"Ġmant":10308,"outside":10309,"Ġunison":10310,"earl":10311,"Ġsecured":10312,"forget":10313,"Ġadmin":10314,"Ġstrategy":10315,"Ġshaped":10316,"Ġflicking":10317,"ndering":10318,"doll":10319,"Ġcertainty":10320,"ikes":10321,"Ġfolder":10322,"Ġannoun":10323,"Ġnestled":10324,"alph":10325,"ros":10326,"renched":10327,"Ġgardens":10328,"Ġspeechless":10329,"nix":10330,"smo":10331,"Ġcade":10332,"Ġhadley":10333,"Ġswallowing":10334,"Ġcupc":10335,"Ġbillionaire":10336,"Ġwhistled":10337,"Ġmoisture":10338,"Ġyawned":10339,"according":10340,"Ġscot":10341,"Ġfoster":10342,"Ġdetect":10343,"Ġsummoned":10344,"Ġeyelashes":10345,"Ġimpulse":10346,"Ġsapp":10347,"quick":10348,"Ġglide":10349,"Ġowners":10350,"Ġplea":10351,"Ġsofter":10352,"Ġkaia":10353,"Ġmildly":10354,"wife":10355,"enc":10356,"Ġroke":10357,"Ġtheirs":10358,"Ġobst":10359,"carly":10360,"Ġinched":10361,"derer":10362,"Ġfeast":10363,"Ġdawned":10364,"Ġlogical":10365,"Ġthong":10366,"stretched":10367,"Ġsmother":10368,"Ġcalder":10369,"Ġbarre":10370,"Ġescorted":10371,"laugh":10372,"cest":10373,"tara":10374,"Ġwist":10375,"encer":10376,"andy":10377,"Ġhandling":10378,"apor":10379,"Ġquentin":10380,"Ġbecomes":10381,"Ġinstitute":10382,"Ġsplashed":10383,"Ġladder":10384,"Ġsnatch":10385,"aunt":10386,"tiger":10387,"orney":10388,"arming":10389,"style":10390,"definitely":10391,"Ġashlyn":10392,"rolling":10393,"Ġsarcastic":10394,"Ġscenario":10395,"Ġmah":10396,"Ġfumbled":10397,"Ġconj":10398,"Ġmaris":10399,"Ġelsewhere":10400,"Ġrubs":10401,"Ġdevice":10402,"rific":10403,"whoever":10404,"Ġmelissa":10405,"Ġindex":10406,"Ġbishop":10407,"Ġfans":10408,"Ġrejected":10409,"Ġjesse":10410,"avel":10411,"Ġbuckled":10412,"Ġpled":10413,"Ġcompleted":10414,"Ġfights":10415,"Ġuttered":10416,"Ġdefeated":10417,"Ġblurred":10418,"bertie":10419,"Ġsemi":10420,"Ġsorce":10421,"Ġsatisfying":10422,"Ġtexts":10423,"Ġbutterflies":10424,"Ġbrynne":10425,"Ġmonsters":10426,"Ġlass":10427,"Ġattorney":10428,"Ġgranite":10429,"rory":10430,"Ġwhipping":10431,"Ġbray":10432,"Ġwaters":10433,"Ġswat":10434,"Ġcasey":10435,"Ġdisturbed":10436,"Ġmultiple":10437,"Ġrussian":10438,"Ġsignificant":10439,"Ġaven":10440,"Ġfet":10441,"Ġthus":10442,"Ġkink":10443,"Ġrehe":10444,"Ġowns":10445,"Ġdrives":10446,"Ġcompar":10447,"Ġwednesday":10448,"Ġamazement":10449,"Ġweakly":10450,"Ġdeveloped":10451,"Ġtroy":10452,"Ġrepresent":10453,"oubtedly":10454,"Ġmitch":10455,"Ġquen":10456,"soft":10457,"Ġreporter":10458,"Ġsophist":10459,"Ġscarred":10460,"Ġtangle":10461,"iah":10462,"Ġfailing":10463,"Ġscrewing":10464,"Ġbitterness":10465,"Ġsparked":10466,"Ġaccomplished":10467,"Ġcomprehe":10468,"Ġdemeanor":10469,"Ġwives":10470,"Ġinapprop":10471,"Ġbabys":10472,"Ġbeautifully":10473,"Ġjuliana":10474,"kendall":10475,"Ġbusted":10476,"Ġstumble":10477,"Ġmutual":10478,"Ġdenver":10479,"Ġdangerously":10480,"sarah":10481,"Ġappetite":10482,"Ġexotic":10483,"wayne":10484,"ryder":10485,"Ġerik":10486,"marcus":10487,"Ġsatisfy":10488,"Ġsmoothing":10489,"Ġvenom":10490,"upt":10491,"Ġsipping":10492,"Ġabd":10493,"opard":10494,"Ġsavoring":10495,"Ġsparkle":10496,"turned":10497,"Ġmuseum":10498,"Ġaggressive":10499,"iall":10500,"Ġspider":10501,"Ġbennett":10502,"Ġlayers":10503,"Ġharry":10504,"Ġswaying":10505,"Ġqhuinn":10506,"rings":10507,"Ġmonit":10508,"Ġcalming":10509,"hension":10510,"iation":10511,"Ġaust":10512,"urious":10513,"Ġroam":10514,"Ġkeen":10515,"Ġmutters":10516,"unching":10517,"Ġscient":10518,"Ġsarcastically":10519,"Ġbeef":10520,"Ġscheduled":10521,"hank":10522,"press":10523,"ati":10524,"Ġpy":10525,"Ġyoungest":10526,"Ġflatly":10527,"Ġcourtesy":10528,"Ġexperiencing":10529,"Ġfortun":10530,"quarters":10531,"ifferent":10532,"agan":10533,"Ġfilthy":10534,"Ġflickering":10535,"Ġdizz":10536,"Ġblessing":10537,"Ġfiguring":10538,"Ġcolorful":10539,"Ġpresented":10540,"Ġtilting":10541,"Ġtingled":10542,"satisf":10543,"xon":10544,"hector":10545,"Ġtires":10546,"force":10547,"Ġdistracting":10548,"Ġfortress":10549,"keely":10550,"crow":10551,"Ġcul":10552,"Ġgag":10553,"apt":10554,"Ġscur":10555,"Ġadored":10556,"andrea":10557,"Ġwield":10558,"Ġgap":10559,"Ġblasted":10560,"Ġcrotch":10561,"richard":10562,"Ġbid":10563,"Ġbait":10564,"Ġvamps":10565,"Ġendured":10566,"Ġpositions":10567,"Ġgrasping":10568,"Ġribbon":10569,"gent":10570,"Ġdaphne":10571,"Ġcompound":10572,"Ġfollows":10573,"Ġentertainment":10574,"Ġtag":10575,"Ġjude":10576,"Ġcentral":10577,"Ġdiscreet":10578,"Ġsabine":10579,"Ġimprison":10580,"Ġdisconn":10581,"fig":10582,"Ġpuck":10583,"Ġasce":10584,"Ġbackside":10585,"igan":10586,"Ġmanic":10587,"Ġcheat":10588,"Ġamun":10589,"unging":10590,"Ġresigned":10591,"Ġsmold":10592,"Ġmayor":10593,"Ġadmitting":10594,"Ġescaping":10595,"Ġcocktail":10596,"Ġimpatience":10597,"Ġkyrian":10598,"Ġachieve":10599,"Ġscreec":10600,"Ġeducation":10601,"Ġcling":10602,"Ġpluck":10603,"Ġglam":10604,"Ġsilken":10605,"Ġmurderer":10606,"Ġmessenger":10607,"Ġsaddle":10608,"Ġtammy":10609,"Ġgriffin":10610,"Ġflattened":10611,"cross":10612,"uted":10613,"icia":10614,"Ġblessed":10615,"Ġcarrie":10616,"Ġbarrel":10617,"zzie":10618,"Ġdisease":10619,"Ġlovemaking":10620,"Ġearlo":10621,"Ġlaunch":10622,"Ġrecords":10623,"Ġcampaign":10624,"Ġsuited":10625,"Ġglove":10626,"Ġsandals":10627,"Ġinternal":10628,"Ġpoking":10629,"Ġcats":10630,"grabbing":10631,"Ġtripp":10632,"mbled":10633,"Ġcasc":10634,"Ġscarce":10635,"given":10636,"Ġtool":10637,"Ġplun":10638,"Ġdisd":10639,"udged":10640,"Ġbattered":10641,"sara":10642,"Ġace":10643,"Ġspi":10644,"soever":10645,"Ġpeak":10646,"Ġbreathtaking":10647,"anya":10648,"francesca":10649,"Ġmagazines":10650,"Ġintelligence":10651,"dream":10652,"Ġduff":10653,"Ġalike":10654,"Ġdred":10655,"Ġhairs":10656,"gold":10657,"Ġspeaker":10658,"Ġpunching":10659,"Ġtransform":10660,"Ġcyn":10661,"Ġvisibly":10662,"Ġpaled":10663,"Ġsucceeded":10664,"Ġrippled":10665,"Ġuncertainty":10666,"Ġimprove":10667,"Ġtut":10668,"Ġcidra":10669,"Ġoutstretched":10670,"Ġtools":10671,"psy":10672,"Ġsnaps":10673,"Ġhumanity":10674,"Ġwince":10675,"Ġoxy":10676,"Ġfare":10677,"Ġlizzie":10678,"Ġnoting":10679,"Ġabuse":10680,"Ġslur":10681,"Ġprem":10682,"ddy":10683,"Ġmarie":10684,"Ġforgiveness":10685,"Ġdenise":10686,"Ġbriefs":10687,"Ġolive":10688,"Ġseduction":10689,"Ġnecessarily":10690,"Ġjewell":10691,"Ġharshly":10692,"Ġpancakes":10693,"Ġcaine":10694,"athing":10695,"Ġhitched":10696,"brown":10697,"Ġclaudia":10698,"miranda":10699,"already":10700,"Ġcozy":10701,"Ġbelieves":10702,"Ġflopped":10703,"Ġplays":10704,"Ġcreative":10705,"Ġbleak":10706,"fri":10707,"onent":10708,"Ġwhatsoever":10709,"Ġsends":10710,"Ġacceptance":10711,"aulted":10712,"considering":10713,"necess":10714,"Ġhelicopter":10715,"Ġbian":10716,"Ġgrady":10717,"Ġskit":10718,"Ġmatthias":10719,"Ġbrighter":10720,"Ġoccasions":10721,"Ġcreeping":10722,"Ġnegative":10723,"Ġtunnels":10724,"Ġnonsense":10725,"otes":10726,"Ġwendy":10727,"Ġgolf":10728,"Ġconcept":10729,"Ġproceed":10730,"Ġimogen":10731,"Ġhesitantly":10732,"Ġgiggles":10733,"Ġfluttering":10734,"Ġunbuttoned":10735,"mbl":10736,"inate":10737,"Ġdanie":10738,"Ġreapp":10739,"Ġregain":10740,"Ġlucah":10741,"somewhere":10742,"Ġknob":10743,"Ġbubbles":10744,"Ġaccusation":10745,"Ġheap":10746,"Ġath":10747,"Ġflag":10748,"Ġzarek":10749,"Ġnarrowing":10750,"Ġtastes":10751,"Ġundead":10752,"Ġuncon":10753,"Ġsuggesting":10754,"certain":10755,"Ġbis":10756,"Ġdont":10757,"Ġchained":10758,"Ġstandard":10759,"Ġwindshield":10760,"Ġjuliet":10761,"Ġholt":10762,"Ġpredator":10763,"cting":10764,"lished":10765,"Ġ7":10766,"Ġmouthed":10767,"Ġlining":10768,"idents":10769,"Ġunin":10770,"Ġdeaf":10771,"Ġcoke":10772,"Ġsketch":10773,"forming":10774,"Ġbeats":10775,"Ġbells":10776,"Ġcollapse":10777,"Ġclaude":10778,"Ġmol":10779,"ahara":10780,"Ġcurly":10781,"Ġshoots":10782,"Ġgreg":10783,"Ġstrongly":10784,"georgie":10785,"bab":10786,"Ġsequ":10787,"Ġproving":10788,"Ġwalter":10789,"Ġmighty":10790,"Ġlegit":10791,"Ġlords":10792,"Ġsuperior":10793,"Ġappearing":10794,"Ġlinger":10795,"Ġpendant":10796,"Ġalle":10797,"Ġsoften":10798,"Ġsexually":10799,"complete":10800,"Ġmidst":10801,"fortunate":10802,"Ġacquaint":10803,"rated":10804,"Ġdipping":10805,"Ġitem":10806,"Ġsuicide":10807,"Ġrelatively":10808,"Ġeasing":10809,"arring":10810,"Ġundoubtedly":10811,"Ġsariana":10812,"Ġwhistle":10813,"Ġaugust":10814,"uable":10815,"Ġjasper":10816,"Ġsum":10817,"Ġgrit":10818,"Ġdeuce":10819,"ampoo":10820,"Ġaccustomed":10821,"Ġstuart":10822,"Ġconcert":10823,"women":10824,"Ġauction":10825,"Ġfen":10826,"Ġliber":10827,"Ġscree":10828,"Ġcomposure":10829,"Ġglossy":10830,"Ġmexico":10831,"heather":10832,"Ġallie":10833,"aston":10834,"Ġcoated":10835,"pleasure":10836,"Ġkitty":10837,"Ġelec":10838,"comp":10839,"Ġdeaths":10840,"Ġbrandy":10841,"Ġreckless":10842,"Ġsauntered":10843,"Ġdisdain":10844,"Ġeerie":10845,"ripp":10846,"Ġuncl":10847,"Ġzayne":10848,"glancing":10849,"Ġaspect":10850,"hur":10851,"Ġlec":10852,"stra":10853,"Ġbrist":10854,"athom":10855,"megan":10856,"Ġdisturb":10857,"iac":10858,"reille":10859,"Ġreen":10860,"elie":10861,"aleb":10862,"Ġindia":10863,"strong":10864,"Ġdestroying":10865,"Ġpilot":10866,"Ġtradition":10867,"Ġdominique":10868,"Ġbachelor":10869,"has":10870,"Ġjung":10871,"Ġbackup":10872,"Ġsult":10873,"Ġconfron":10874,"Ġstores":10875,"Ġmath":10876,"Ġlave":10877,"Ġwheels":10878,"check":10879,"Ġsplin":10880,"henry":10881,"zack":10882,"Ġrag":10883,"Ġcham":10884,"Ġvote":10885,"Ġscrut":10886,"Ġsparkled":10887,"Ġexamine":10888,"aggers":10889,"maggie":10890,"Ġgracie":10891,"gom":10892,"anes":10893,"Ġgay":10894,"Ġhardest":10895,"Ġjoint":10896,"Ġassigned":10897,"brush":10898,"Ġprivile":10899,"Ġfitted":10900,"Ġwidening":10901,"Ġvod":10902,"anks":10903,"alb":10904,"Ġchad":10905,"inde":10906,"owering":10907,"Ġgroaning":10908,"Ġcountless":10909,"Ġshops":10910,"ievous":10911,"Ġbluff":10912,"oused":10913,"Ġpayment":10914,"Ġsubd":10915,"Ġcooler":10916,"Ġsticks":10917,"veling":10918,"Ġshampoo":10919,"Ġmarco":10920,"Ġmuted":10921,"Ġpracticed":10922,"Ġagenda":10923,"Ġcheerle":10924,"Ġbundle":10925,"Ġplopped":10926,"sn":10927,"iches":10928,"iza":10929,"Ġcoldly":10930,"Ġlaylah":10931,"Ġtickets":10932,"Ġcommented":10933,"Ġaccompanied":10934,"Ġmounted":10935,"Ġcant":10936,"iddy":10937,"Ġstinging":10938,"Ġforces":10939,"Ġoutline":10940,"Ġleaf":10941,"Ġprint":10942,"Ġfires":10943,"Ġpatrick":10944,"indy":10945,"Ġsurgery":10946,"Ġundone":10947,"jamas":10948,"Ġvodka":10949,"Ġtobias":10950,"ishes":10951,"Ġgary":10952,"Ġvine":10953,"Ġuses":10954,"Ġcheyenne":10955,"Ġsteph":10956,"phil":10957,"lecting":10958,"Ġposture":10959,"Ġghosts":10960,"talon":10961,"bird":10962,"gone":10963,"enough":10964,"Ġpistol":10965,"Ġmanaging":10966,"Ġremorse":10967,"Ġradiated":10968,"Ġvirgil":10969,"Ġprimal":10970,"many":10971,"hatt":10972,"squ":10973,"sued":10974,"iel":10975,"Ġhandc":10976,"Ġgrows":10977,"Ġoperation":10978,"Ġchewing":10979,"Ġgp":10980,"adise":10981,"...":10982,"sole":10983,"Ġjogged":10984,"Ġcompare":10985,"Ġpermanently":10986,"Ġdisguise":10987,"meredith":10988,"Ġlaura":10989,"Ġintensified":10990,"Ġfeathers":10991,"Ġexasperation":10992,"hum":10993,"Ġbum":10994,"Ġunfortunate":10995,"Ġplump":10996,"Ġbushes":10997,"Ġfoundation":10998,"Ġaccusing":10999,"Ġleaders":11000,"Ġaristo":11001,"Ġplayers":11002,"Ġprofound":11003,"Ġapologized":11004,"Ġdunge":11005,"Ġgulp":11006,"Ġcushions":11007,"Ġtas":11008,"Ġsust":11009,"Ġdazz":11010,"Ġnotion":11011,"Ġchilled":11012,"Ġquivered":11013,"Ġhousehold":11014,"Ġsimult":11015,"Ġaddict":11016,"Ġhostess":11017,"Ġidentify":11018,"Ġunlikely":11019,"tight":11020,"Ġneared":11021,"Ġvoc":11022,"Ġwerewolves":11023,"Ġpartly":11024,"mostly":11025,"Ġreported":11026,"Ġfreshly":11027,"Ġorganization":11028,"Ġshh":11029,"aspar":11030,"Ġrepair":11031,"Ġsituations":11032,"Ġimmense":11033,"Ġlinen":11034,"ds":11035,"wren":11036,"Ġstreak":11037,"Ġpointedly":11038,"Ġpolitical":11039,"dropping":11040,"caleb":11041,"iar":11042,"Ġcad":11043,"Ġkh":11044,"Ġvale":11045,"olivia":11046,"Ġapo":11047,"Ġsimi":11048,"worthy":11049,"Ġtraditional":11050,"Ġtolerate":11051,"Ġker":11052,"Ġgrazed":11053,"Ġmenacing":11054,"Ġignor":11055,"Ġroads":11056,"Ġdebbie":11057,"Ġnavig":11058,"Ġentertaining":11059,"vey":11060,"Ġstacked":11061,"Ġancest":11062,"ctav":11063,"Ġsnagged":11064,"Ġcomplaint":11065,"Ġstiffly":11066,"Ġreceiving":11067,"Ġunfair":11068,"Ġbrianna":11069,"Ġatlant":11070,"Ġpurchased":11071,"rot":11072,"amelia":11073,"atedly":11074,"Ġparaly":11075,"Ġgrowling":11076,"ciating":11077,"Ġdeserted":11078,"Ġbastards":11079,"Ġofficers":11080,"Ġsomber":11081,"Ġphrase":11082,"Ġhormones":11083,"Ġcarolyn":11084,"Ġeman":11085,"Ġranon":11086,"Ġreceiver":11087,"Ġepis":11088,"Ġapron":11089,"Ġinfer":11090,"essen":11091,"Ġheady":11092,"Ġheadlights":11093,"Ġabsent":11094,"albret":11095,"Ġchemist":11096,"Ġstocking":11097,"Ġincap":11098,"Ġgrandparents":11099,"Ġadmiration":11100,"Ġquirked":11101,"dani":11102,"Ġbaff":11103,"usal":11104,"estyle":11105,"Ġguiding":11106,"Ġrearview":11107,"funny":11108,"minded":11109,"wra":11110,"Ġsierra":11111,"Ġkade":11112,"Ġacute":11113,"Ġconfusing":11114,"looked":11115,"relief":11116,"Ġphotographs":11117,"Ġconvenient":11118,"Ġhuddled":11119,"hat":11120,"het":11121,"Ġnich":11122,"tos":11123,"Ġleash":11124,"elliot":11125,"Ġtalented":11126,"Ġterrace":11127,"Ġharlow":11128,"Ġunease":11129,"Ġstraddling":11130,"Ġoxygen":11131,"Ġeh":11132,"Ġsavor":11133,"Ġcelebration":11134,"eleer":11135,"katie":11136,"Ġpupils":11137,"hudson":11138,"anse":11139,"Ġreese":11140,"Ġcrook":11141,"Ġhorny":11142,"Ġtaunting":11143,"isaac":11144,"Ġshields":11145,"Ġgraduated":11146,"tion":11147,"Ġfau":11148,"imag":11149,"Ġlilly":11150,"ission":11151,"ials":11152,"Ġfreck":11153,"amedes":11154,"Ġchristina":11155,"Ġconnections":11156,"Ġearlobe":11157,"Ġhack":11158,"Ġblazed":11159,"Ġunset":11160,"Ġapply":11161,"Ġtremor":11162,"Ġexpectations":11163,"Ġfaltered":11164,"Ġdrowned":11165,"mblance":11166,"Ġfred":11167,"Ġparadise":11168,"Ġsummon":11169,"Ġsneered":11170,"Ġfrankly":11171,"Ġencouraged":11172,"mack":11173,"Ġsheath":11174,"Ġfriction":11175,"Ġunread":11176,"Ġgoodnight":11177,"Ġcarn":11178,"Ġintact":11179,"onym":11180,"Ġstables":11181,"Ġshaved":11182,"Ġswelling":11183,"Ġworship":11184,"Ġswive":11185,"Ġdiscarded":11186,"julia":11187,"Ġzeus":11188,"Ġfulfill":11189,"Ġperspective":11190,"Ġpreoccupied":11191,"Ġknead":11192,"Ġchir":11193,"opening":11194,"Ġzip":11195,"brandon":11196,"imir":11197,"Ġstressed":11198,"Ġjut":11199,"Ġdoorstep":11200,"Ġworlds":11201,"Ġsquared":11202,"Ġconfl":11203,"iantly":11204,"jew":11205,"Ġtested":11206,"leaving":11207,"stru":11208,"Ġfrance":11209,"ewed":11210,"Ġlifestyle":11211,"Ġpurchase":11212,"annie":11213,"Ġpinch":11214,"Ġimmune":11215,"Ġpajamas":11216,"brian":11217,"tis":11218,"Ġfidd":11219,"Ġles":11220,"Ġpry":11221,"othea":11222,"Ġunnecess":11223,"Ġslowing":11224,"Ġevident":11225,"Ġstripping":11226,"oebe":11227,"Ġhammer":11228,"sinclair":11229,"corn":11230,"Ġbounce":11231,"Ġitaly":11232,"ipes":11233,"Ġcurving":11234,"Ġtalkin":11235,"Ġhott":11236,"Ġintending":11237,"Ġarriving":11238,"Ġrepeating":11239,"Ġlingerie":11240,"Ġvulnerability":11241,"Ġglistening":11242,"Ġscreeched":11243,"nin":11244,"Ġbould":11245,"Ġlacy":11246,"Ġangus":11247,"Ġbarry":11248,"tony":11249,"phy":11250,"Ġirresist":11251,"Ġsquirm":11252,"laughing":11253,"Ġinappropriate":11254,"dging":11255,"tale":11256,"Ġflet":11257,"Ġpunct":11258,"Ġrumm":11259,"dened":11260,"dante":11261,"happy":11262,"Ġsabrina":11263,"owning":11264,"ynn":11265,"naturally":11266,"Ġkaeleer":11267,"Ġdignity":11268,"Ġdict":11269,"Ġkaren":11270,"Ġforms":11271,"Ġexpanse":11272,"anca":11273,"Ġworkout":11274,"brook":11275,"Ġerase":11276,"Ġtentatively":11277,"Ġisol":11278,"Ġroots":11279,"Ġfloat":11280,"Ġcuffs":11281,"mallory":11282,"Ġaz":11283,"Ġrosie":11284,"Ġassess":11285,"Ġbreathlessly":11286,"Ġintensely":11287,"Ġfee":11288,"Ġalb":11289,"Ġalarmed":11290,"Ġblaze":11291,"Ġfling":11292,"Ġneedy":11293,"Ġcait":11294,"kyle":11295,"Ġdefined":11296,"dan":11297,"oid":11298,"rons":11299,"yep":11300,"Ġstumbling":11301,"Ġshattering":11302,"Ġfraction":11303,"Ġlever":11304,"umbed":11305,"gemma":11306,"Ġbathed":11307,"Ġscraping":11308,"Ġconcentrating":11309,"Ġclawed":11310,"Ġjett":11311,"lauren":11312,"Ġmush":11313,"utes":11314,"Ġmarsh":11315,"Ġinterests":11316,"Ġclutch":11317,"Ġcomforter":11318,"skyla":11319,"Ġdevastating":11320,"cases":11321,"kaldar":11322,"vations":11323,"Ġvows":11324,"umer":11325,"Ġeli":11326,"Ġsignature":11327,"Ġfixing":11328,"Ġweekends":11329,"steady":11330,"Ġcreep":11331,"Ġattended":11332,"Ġthreaded":11333,"brooke":11334,"daughter":11335,"skin":11336,"Ġwears":11337,"Ġbadass":11338,"Ġronan":11339,"Ġtraitor":11340,"Ġcomparison":11341,"garet":11342,"Ġcrest":11343,"Ġralph":11344,"Ġperse":11345,"Ġactress":11346,"Ġreflex":11347,"Ġsmelling":11348,"Ġobsession":11349,"Ġexclusive":11350,"Ġjungle":11351,"Ġriot":11352,"Ġbraz":11353,"Ġdenim":11354,"diana":11355,"Ġgust":11356,"tex":11357,"Ġprett":11358,"Ġsyd":11359,"Ġlimous":11360,"Ġchampion":11361,"Ġsantiago":11362,"Ġ8":11363,"reyes":11364,"Ġhaid":11365,"Ġraped":11366,"Ġcontacted":11367,"Ġretire":11368,"Ġconser":11369,"Ġbleed":11370,"Ġpeeking":11371,"Ġenviron":11372,"inch":11373,"Ġpeep":11374,"Ġgiddy":11375,"Ġkills":11376,"Ġintric":11377,"Ġresidence":11378,"Ġdoug":11379,"Ġschol":11380,"beside":11381,"Ġdisplayed":11382,"Ġrusty":11383,"Ġintimidating":11384,"lines":11385,"maker":11386,"Ġtart":11387,"Ġlys":11388,"Ġthorn":11389,"Ġchimed":11390,"Ġinsanity":11391,"Ġstepfather":11392,"Ġvisual":11393,"Ġsplayed":11394,"Ġvibrant":11395,"Ġdissip":11396,"slee":11397,"Ġhav":11398,"Ġpoised":11399,"cerity":11400,"Ġarrogance":11401,"Ġloosen":11402,"Ġtumbling":11403,"Ġbinding":11404,"Ġwhirl":11405,"Ġreeling":11406,"augh":11407,"Ġagitated":11408,"elcome":11409,"Ġroaring":11410,"Ġcanvas":11411,"Ġenvy":11412,"Ġlongest":11413,"shay":11414,"Ġearrings":11415,"Ġfila":11416,"panic":11417,"rella":11418,"rant":11419,"Ġpresents":11420,"Ġfastened":11421,"Ġfragr":11422,"Ġcove":11423,"Ġslither":11424,"Ġacid":11425,"Ġlavender":11426,"Ġchemistry":11427,"sally":11428,"trey":11429,"nders":11430,"Ġtoby":11431,"Ġrane":11432,"uster":11433,"unning":11434,"Ġconver":11435,"Ġscotch":11436,"Ġgrips":11437,"Ġruining":11438,"Ġceased":11439,"gods":11440,"Ġlatched":11441,"summer":11442,"ogue":11443,"Ġhilar":11444,"Ġovert":11445,"Ġwelled":11446,"ordon":11447,"Ġcustomer":11448,"Ġfluffy":11449,"det":11450,"tim":11451,"Ġtess":11452,"inent":11453,"Ġhushed":11454,"Ġstench":11455,"Ġkell":11456,"Ġrou":11457,"Ġjagr":11458,"Ġdidn":11459,"Ġoversized":11460,"oles":11461,"Ġnickname":11462,"Ġirritating":11463,"Ġcontempt":11464,"Ġstrawberry":11465,"Ġlorelei":11466,"Ġrabid":11467,"Ġpotatoes":11468,"Ġintoxicating":11469,"Ġchina":11470,"Ġsport":11471,"Ġglazed":11472,"Ġcalliope":11473,"Ġextent":11474,"Ġvisitors":11475,"nan":11476,"Ġoo":11477,"Ġheating":11478,"Ġcimil":11479,"Ġinspect":11480,"Ġreins":11481,"Ġrogan":11482,"Ġheadquarters":11483,"Ġclassic":11484,"Ġdimension":11485,"Ġreceptionist":11486,"sad":11487,"Ġdaggers":11488,"Ġinfect":11489,"Ġloan":11490,"Ġattic":11491,"class":11492,"Ġresumed":11493,"Ġcommerc":11494,"Ġfleeting":11495,"iara":11496,"Ġcoco":11497,"Ġscience":11498,"Ġpatting":11499,"Ġhunted":11500,"Ġrecognition":11501,"Ġnurses":11502,"breaking":11503,"niall":11504,"Ġlure":11505,"Ġplush":11506,"Ġpepper":11507,"Ġsnug":11508,"Ġinvent":11509,"Ġvein":11510,"Ġmerl":11511,"believe":11512,"jenny":11513,"Ġscenes":11514,"tab":11515,"isure":11516,"Ġtwinge":11517,"Ġwalt":11518,"Ġawakened":11519,"pen":11520,"hele":11521,"ancroft":11522,"Ġshadowed":11523,"Ġcircular":11524,"Ġeffective":11525,"Ġjaxon":11526,"Ġcombat":11527,"Ġcondoms":11528,"grandma":11529,"Ġaward":11530,"acking":11531,"Ġquickened":11532,"Ġpenelope":11533,"Ġassistance":11534,"Ġadopted":11535,"Ġshirleen":11536,"Ġdub":11537,"Ġgaw":11538,"Ġsquat":11539,"Ġviggo":11540,"Ġunreadable":11541,"jer":11542,"oked":11543,"hearing":11544,"abbed":11545,"Ġboston":11546,"Ġtube":11547,"lana":11548,"Ġduval":11549,"stepping":11550,"dollar":11551,"rise":11552,"Ġnational":11553,"Ġchap":11554,"Ġtelephone":11555,"Ġglittered":11556,"vivian":11557,"Ġeld":11558,"angeline":11559,"Ġfinest":11560,"Ġvoid":11561,"fell":11562,"Ġsect":11563,"Ġcunt":11564,"ulty":11565,"Ġpermit":11566,"Ġexamining":11567,"Ġcalend":11568,"aderin":11569,"jane":11570,"Ġdiver":11571,"Ġanderson":11572,"Ġmanor":11573,"Ġattacking":11574,"Ġstairwell":11575,"Ġdocument":11576,"Ġgeorgia":11577,"Ġenvironment":11578,"bare":11579,"Ġful":11580,"Ġcate":11581,"oma":11582,"icity":11583,"Ġbutch":11584,"Ġkneel":11585,"Ġchunk":11586,"Ġsomeplace":11587,"Ġcells":11588,"Ġruled":11589,"Ġincrease":11590,"woman":11591,"Ġlilith":11592,"Ġconspir":11593,"erin":11594,"Ġbrielle":11595,"Ġdeepest":11596,"exc":11597,"instantly":11598,"Ġgroceries":11599,"Ġstrateg":11600,"Ġelderly":11601,"Ġunbearable":11602,"pushing":11603,"Ġtink":11604,"chievous":11605,"Ġtruman":11606,"oses":11607,"amping":11608,"Ġhighest":11609,"Ġsqueaked":11610,"Ġearnest":11611,"Ġapologetic":11612,"Ġyoga":11613,"Ġhom":11614,"Ġyup":11615,"term":11616,"Ġench":11617,"spike":11618,"Ġaddressed":11619,"Ġbattles":11620,"Ġpetite":11621,"Ġapologies":11622,"Ġpops":11623,"Ġscratching":11624,"surreal":11625,"Ġlimousine":11626,"drew":11627,"Ġpeel":11628,"Ġjael":11629,"rup":11630,"Ġsentiment":11631,"Ġdefenses":11632,"Ġoptim":11633,"Ġsincerity":11634,"Ġinsistent":11635,"Ġhammering":11636,"Ġsanta":11637,"Ġrelentless":11638,"relyn":11639,"Ġleisure":11640,"Ġclerk":11641,"Ġprost":11642,"Ġthrob":11643,"Ġforgiven":11644,"Ġvaluable":11645,"Ġbursting":11646,"Ġlurking":11647,"Ġcubs":11648,"Ġmirrors":11649,"Ġpins":11650,"urg":11651,"Ġplum":11652,"guess":11653,"Ġverbal":11654,"Ġcracks":11655,"Ġmortimer":11656,"astyan":11657,"Ġfits":11658,"Ġkaldar":11659,"Ġblay":11660,"Ġtwirled":11661,"Ġtermin":11662,"Ġcommission":11663,"Ġdoubled":11664,"Ġtypes":11665,"Ġstraddled":11666,"knox":11667,"Ġsophisticated":11668,"Ġaub":11669,"inning":11670,"Ġwoo":11671,"Ġdus":11672,"Ġneil":11673,"Ġtraged":11674,"Ġfairies":11675,"Ġtowering":11676,"Ġmischievous":11677,"Ġsandy":11678,"Ġcreamy":11679,"Ġstreamed":11680,"Ġsimultaneously":11681,"poss":11682,"Ġteresa":11683,"Ġhealer":11684,"tabitha":11685,"size":11686,"Ġtwe":11687,"Ġtina":11688,"Ġyuri":11689,"george":11690,"pred":11691,"Ġaccord":11692,"worse":11693,"Ġundid":11694,"Ġunders":11695,"Ġresources":11696,"Ġsapphire":11697,"gression":11698,"kelly":11699,"Ġcurses":11700,"naked":11701,"Ġsweetest":11702,"Ġterreille":11703,"Ġstraighten":11704,"Ġfiled":11705,"Ġcommanding":11706,"carter":11707,"Ġretrieved":11708,"Ġgin":11709,"Ġrut":11710,"Ġoutcome":11711,"Ġtracked":11712,"Ġbryan":11713,"Ġadrien":11714,"Ġsergio":11715,"nykyrian":11716,"Ġsherry":11717,"Ġconflict":11718,"uished":11719,"Ġhaunt":11720,"Ġrect":11721,"sher":11722,"mob":11723,"aiden":11724,"Ġangelica":11725,"Ġsuspicions":11726,"peter":11727,"Ġchatter":11728,"lots":11729,"theless":11730,"Ġgroups":11731,"Ġregrets":11732,"Ġsprings":11733,"Ġironic":11734,"Ġuneas":11735,"Ġoriginally":11736,"Ġvirginity":11737,"Ġcradling":11738,"Ġspiked":11739,"Ġbure":11740,"Ġgail":11741,"owen":11742,"Ġrelig":11743,"Ġdouche":11744,"Ġburger":11745,"Ġirish":11746,"Ġbuddies":11747,"Ġconcluded":11748,"kers":11749,"rin":11750,"tierney":11751,"onos":11752,"Ġvital":11753,"ctavia":11754,"ya":11755,"Ġditch":11756,"Ġconrad":11757,"Ġloki":11758,"Ġseeped":11759,"Ġunited":11760,"Ġeighty":11761,"Ġboobs":11762,"Ġmassaging":11763,"Ġtransformed":11764,"Ġantique":11765,"Ġluxurious":11766,"Ġrental":11767,"Ġalternative":11768,"Ġinwardly":11769,"Ġpelvis":11770,"Ġlysander":11771,"prest":11772,"eddie":11773,"Ġoath":11774,"Ġproceeded":11775,"ggage":11776,"Ġharmless":11777,"Ġconstantijin":11778,"help":11779,"Ġseventy":11780,"Ġpuddle":11781,"Ġirresistible":11782,"imeter":11783,"show":11784,"Ġrisked":11785,"Ġdancers":11786,"Ġclubs":11787,"Ġbodice":11788,"Ġtransport":11789,"Ġale":11790,"Ġkaly":11791,"abel":11792,"Ġchis":11793,"Ġmates":11794,"Ġbottoms":11795,"Ġjimmy":11796,"Ġerrand":11797,"Ġcitiz":11798,"Ġportrait":11799,"Ġkalyna":11800,"Ġpandora":11801,"urb":11802,"Ġbracing":11803,"rawn":11804,"Ġfiring":11805,"ruct":11806,"azire":11807,"kennedy":11808,"Ġluca":11809,"paris":11810,"Ġtentative":11811,"park":11812,"Ġniece":11813,"Ġkoldo":11814,"Ġlos":11815,"Ġblah":11816,"Ġmonty":11817,"Ġluggage":11818,"Ġdevoted":11819,"Ġscrap":11820,"Ġconviction":11821,"Ġlabel":11822,"Ġproduced":11823,"Ġstim":11824,"Ġclinic":11825,"Ġdownright":11826,"Ġmouthful":11827,"Ġsuffoc":11828,"Ġscowling":11829,"madison":11830,"Ġpriority":11831,"Ġvomit":11832,"Ġcory":11833,"stage":11834,"Ġri":11835,"Ġchassie":11836,"empt":11837,"Ġshotgun":11838,"Ġrydstrom":11839,"salind":11840,"preston":11841,"Ġdiet":11842,"orient":11843,"Ġbitten":11844,"Ġcompelled":11845,"Ġgladly":11846,"Ġpete":11847,"Ġtendr":11848,"Ġscript":11849,"Ġcomprehend":11850,"cee":11851,"Ġoutright":11852,"Ġsmar":11853,"Ġcane":11854,"Ġski":11855,"Ġstriding":11856,"Ġbenefits":11857,"Ġcapital":11858,"Ġlimb":11859,"zzling":11860,"Ġacceptable":11861,"Ġdivorced":11862,"Ġinsulted":11863,"pretty":11864,"sienna":11865,"Ġastr":11866,"Ġvase":11867,"Ġtwent":11868,"Ġsteaming":11869,"Ġhorns":11870,"Ġunde":11871,"Ġaccounts":11872,"Ġspanish":11873,"Ġinherit":11874,"Ġdata":11875,"hattan":11876,"Ġbunk":11877,"Ġgh":11878,"Ġwhoo":11879,"Ġspart":11880,"Ġadvert":11881,"Ġinterfe":11882,"Ġkidn":11883,"Ġpurposely":11884,"Ġhyper":11885,"Ġexhib":11886,"Ġtattooed":11887,"rison":11888,"Ġbucked":11889,"Ġdur":11890,"Ġlav":11891,"rik":11892,"Ġbland":11893,"inkles":11894,"ruly":11895,"ruciating":11896,"Ġnewest":11897,"Ġrestroom":11898,"Ġbriefcase":11899,"Ġmainly":11900,"Ġrescued":11901,"Ġcontrad":11902,"Ġteddy":11903,"Ġmeasured":11904,"must":11905,"nina":11906,"Ġhust":11907,"Ġfbi":11908,"Ġbears":11909,"Ġfries":11910,"Ġlevi":11911,"Ġlooming":11912,"Ġflustered":11913,"Ġcalves":11914,"Ġindicate":11915,"Ġengulf":11916,"Ġchuckling":11917,"Ġaudible":11918,"Ġslippery":11919,"Ġunbelievable":11920,"gon":11921,"Ġbeaming":11922,"chool":11923,"Ġaback":11924,"Ġflour":11925,"Ġswig":11926,"Ġparagon":11927,"Ġadditional":11928,"Ġreverse":11929,"Ġbritish":11930,"Ġinnocently":11931,"finger":11932,"ja":11933,"Ġkor":11934,"amanda":11935,"ablo":11936,"Ġdelaney":11937,"Ġrounds":11938,"Ġridiculously":11939,"Ġremotely":11940,"dist":11941,"Ġdent":11942,"Ġunion":11943,"cedes":11944,"letting":11945,"Ġvibe":11946,"Ġconfrontation":11947,"ugged":11948,"Ġinquis":11949,"Ġbrass":11950,"Ġsuppressed":11951,"Ġadvance":11952,"Ġpetals":11953,"Ġagreeing":11954,"Ġboundaries":11955,"Ġrodeo":11956,"Ġborrowed":11957,"Ġassassin":11958,"Ġominous":11959,"hour":11960,"rice":11961,"itri":11962,"Ġstink":11963,"Ġbyron":11964,"Ġexpose":11965,"Ġcorpse":11966,"Ġannabelle":11967,"Ġexcitedly":11968,"Ġreactions":11969,"Ġwisdom":11970,"Ġunexpectedly":11971,"Ġantonio":11972,"Ġvicki":11973,"Ġmanhattan":11974,"Ġneedles":11975,"Ġtwists":11976,"cover":11977,"Ġsupper":11978,"Ġtrips":11979,"Ġlocate":11980,"Ġangeles":11981,"Ġmalik":11982,"Ġvilla":11983,"Ġknotted":11984,"Ġrevelation":11985,"story":11986,"ician":11987,"whenever":11988,"Ġheavier":11989,"Ġstreaked":11990,"Ġscrape":11991,"Ġorgasms":11992,"Ġflooding":11993,"Ġcommunication":11994,"calvin":11995,"Ġestablish":11996,"leo":11997,"Ġrumbling":11998,"Ġsue":11999,"ista":12000,"Ġexcruciating":12001,"ikh":12002,"Ġcezar":12003,"Ġtroubles":12004,"Ġpupp":12005,"Ġacceler":12006,"Ġeffectively":12007,"Ġhelplessly":12008,"Ġdisagree":12009,"ov":12010,"irable":12011,"Ġblaire":12012,"Ġpointless":12013,"Ġthronos":12014,"Ġwidow":12015,"Ġblindly":12016,"Ġfields":12017,"Ġreverber":12018,"Ġwinks":12019,"Ġabbess":12020,"roc":12021,"Ġloomed":12022,"Ġmocked":12023,"angled":12024,"aidan":12025,"Ġhallow":12026,"Ġtickling":12027,"Ġclaims":12028,"Ġaudrey":12029,"devyn":12030,"Ġexaggerated":12031,"Ġunzipped":12032,"Ġcalendar":12033,"dest":12034,"xes":12035,"Ġlus":12036,"Ġchilly":12037,"Ġsimpl":12038,"Ġcupboard":12039,"Ġexpectantly":12040,"Ġdetermine":12041,"Ġdimple":12042,"Ġradiating":12043,"Ġfatig":12044,"Ġbudge":12045,"pent":12046,"sleep":12047,"incl":12048,"idian":12049,"Ġkyl":12050,"Ġconsole":12051,"Ġscrib":12052,"Ġfireworks":12053,"blond":12054,"Ġclarity":12055,"running":12056,"regardless":12057,"found":12058,"fair":12059,"linn":12060,"Ġstem":12061,"Ġstyl":12062,"Ġuns":12063,"shif":12064,"Ġhideous":12065,"Ġmotionless":12066,"Ġkicks":12067,"Ġlatter":12068,"Ġjammed":12069,"Ġattending":12070,"tot":12071,"Ġnotch":12072,"Ġdoorkno":12073,"Ġcontribut":12074,"Ġlowers":12075,"Ġcontacts":12076,"Ġpaths":12077,"Ġvibrator":12078,"cu":12079,"coop":12080,"jac":12081,"Ġmelan":12082,"Ġrebell":12083,"Ġalana":12084,"Ġelimin":12085,"Ġkindly":12086,"doch":12087,"Ġledge":12088,"Ġblankly":12089,"Ġinvolunt":12090,"Ġshriek":12091,"Ġplunge":12092,"mc":12093,"waiting":12094,"Ġtide":12095,"Ġchanning":12096,"Ġpean":12097,"Ġcrimes":12098,"Ġdarkly":12099,"Ġacts":12100,"proof":12101,"bod":12102,"olutely":12103,"hundred":12104,"Ġchurning":12105,"aelyn":12106,"sleeved":12107,"Ġmcc":12108,"llie":12109,"Ġreference":12110,"Ġhighlight":12111,"Ġadvised":12112,"Ġworthless":12113,"Ġcroaked":12114,"Ġaimee":12115,"Ġgraduation":12116,"Ġpromptly":12117,"bons":12118,"Ġbush":12119,"Ġslower":12120,"iping":12121,"joy":12122,"Ġgabrielle":12123,"Ġflorida":12124,"za":12125,"terior":12126,"Ġgrill":12127,"Ġemptiness":12128,"Ġintimately":12129,"Ġcommunicate":12130,"Ġrashid":12131,"Ġextraordinary":12132,"gideon":12133,"matic":12134,"Ġthumped":12135,"Ġhayes":12136,"Ġclicking":12137,"quila":12138,"def":12139,"Ġtennis":12140,"Ġrecru":12141,"looks":12142,"Ġrented":12143,"Ġgypsy":12144,"minute":12145,"grees":12146,"Ġtantal":12147,"lymp":12148,"Ġshatter":12149,"igning":12150,"Ġsnaked":12151,"Ġcrosses":12152,"Ġcolorado":12153,"Ġanxiously":12154,"Ġinterfere":12155,"inges":12156,"lla":12157,"Ġgee":12158,"Ġzipped":12159,"Ġdisappoint":12160,"maria":12161,"Ġtaunted":12162,"Ġimpossibly":12163,"Ġreassurance":12164,"Ġresentment":12165,"Ġsty":12166,"Ġplunging":12167,"Ġquilt":12168,"Ġcramped":12169,"Ġstupidity":12170,"Ġbrightened":12171,"Ġimportantly":12172,"Ġcounty":12173,"Ġferoc":12174,"Ġbritt":12175,"Ġscheme":12176,"Ġbancroft":12177,"Ġiz":12178,"Ġcem":12179,"Ġnanny":12180,"anth":12181,"Ġnova":12182,"Ġdegrees":12183,"Ġcoup":12184,"ubbled":12185,"Ġangie":12186,"Ġmixing":12187,"Ġblinks":12188,"Ġdisapproval":12189,"Ġindependent":12190,"Ġreunion":12191,"odd":12192,"Ġhind":12193,"roe":12194,"Ġbla":12195,"Ġslashed":12196,"death":12197,"frowning":12198,"Ġastonishment":12199,"Ġcelestra":12200,"satisfied":12201,"Ġbureau":12202,"felt":12203,"inous":12204,"Ġroc":12205,"Ġscaring":12206,"nodding":12207,"Ġchicks":12208,"Ġstallion":12209,"Ġninety":12210,"Ġtragedy":12211,"oyed":12212,"Ġpairs":12213,"Ġumm":12214,"Ġasse":12215,"Ġtrails":12216,"Ġbrat":12217,"Ġpasta":12218,"Ġreson":12219,"Ġcrave":12220,"Ġadjusting":12221,"Ġtherapist":12222,"iques":12223,"Ġreenie":12224,"viper":12225,"Ġmound":12226,"Ġmoron":12227,"Ġaddison":12228,"Ġsucceed":12229,"Ġdeliberate":12230,"Ġdocuments":12231,"Ġushered":12232,"cord":12233,"wis":12234,"Ġnavel":12235,"Ġthief":12236,"Ġenvision":12237,"Ġawoke":12238,"Ġresur":12239,"Ġtemp":12240,"Ġyearning":12241,"Ġsavored":12242,"Ġteenagers":12243,"Ġmckell":12244,"jeff":12245,"Ġvolunteered":12246,"Ġnovak":12247,"Ġdoorknob":12248,"slo":12249,"tall":12250,"Ġheath":12251,"Ġoutward":12252,"Ġsmallest":12253,"Ġconsuming":12254,"Ġpurr":12255,"Ġloser":12256,"Ġsubmit":12257,"Ġsalty":12258,"Ġshadowhunters":12259,"Ġcradle":12260,"Ġmam":12261,"Ġdrugged":12262,"Ġrumor":12263,"Ġerect":12264,"Ġjohnny":12265,"kiara":12266,"Ġbouquet":12267,"completely":12268,"ere":12269,"ii":12270,"jasmine":12271,"Ġolymp":12272,"Ġthri":12273,"Ġbobbed":12274,"Ġamid":12275,"Ġrelative":12276,"Ġcounsel":12277,"Ġconnecting":12278,"Ġadvanced":12279,"Ġcrowds":12280,"Ġisabel":12281,"Ġdivine":12282,"Ġpsycho":12283,"Ġhooking":12284,"Ġdescend":12285,"aited":12286,"ffe":12287,"sasha":12288,"yers":12289,"Ġbail":12290,"Ġpiv":12291,"Ġkir":12292,"Ġsumi":12293,"Ġdraining":12294,"Ġmarking":12295,"Ġsickening":12296,"Ġnurs":12297,"Ġchiseled":12298,"dun":12299,"Ġbeers":12300,"Ġitch":12301,"Ġsqueezes":12302,"Ġdepressed":12303,"Ġamongst":12304,"Ġpatterns":12305,"putting":12306,"Ġflavor":12307,"Ġnursery":12308,"din":12309,"vo":12310,"Ġhush":12311,"Ġnude":12312,"Ġbrax":12313,"Ġstevie":12314,"Ġsplash":12315,"Ġtrickled":12316,"Ġfacade":12317,"Ġtamara":12318,"Ġhoarsely":12319,"human":12320,"lers":12321,"anter":12322,"Ġsock":12323,"Ġaltered":12324,"ansom":12325,"Ġattent":12326,"Ġangles":12327,"Ġevapor":12328,"Ġunden":12329,"Ġcondem":12330,"Ġcontainer":12331,"Ġaccurate":12332,"Ġdungeon":12333,"cour":12334,"iche":12335,"Ġtraces":12336,"Ġpeach":12337,"avi":12338,"Ġperformed":12339,"aneous":12340,"Ġstudies":12341,"Ġforcefully":12342,"Ġclassroom":12343,"Ġcandid":12344,"Ġgruffly":12345,"Ġenveloped":12346,"Ġparanoid":12347,"pitched":12348,"Ġecl":12349,"Ġcringe":12350,"Ġvisits":12351,"Ġtexting":12352,"Ġexhilar":12353,"Ġdispos":12354,"Ġpixy":12355,"gomery":12356,"Ġluscious":12357,"bound":12358,"ture":12359,"Ġmouse":12360,"Ġnaz":12361,"Ġcob":12362,"Ġslanted":12363,"Ġquinton":12364,"Ġapplic":12365,"Ġbandage":12366,"Ġsavanah":12367,"Ġorganized":12368,"Ġsternly":12369,"Ġabsorb":12370,"bryn":12371,"Ġinherited":12372,"listen":12373,"Ġvegetables":12374,"Ġfetch":12375,"state":12376,"beyond":12377,"Ġtequila":12378,"ensively":12379,"Ġearning":12380,"Ġtablet":12381,"Ġresignation":12382,"Ġdestined":12383,"Ġrisks":12384,"Ġbelongings":12385,"Ġmassaged":12386,"Ġelevators":12387,"Ġwrithed":12388,"Ġglitter":12389,"mus":12390,"sto":12391,"Ġasher":12392,"Ġwebs":12393,"oline":12394,"osity":12395,"Ġtalents":12396,"Ġinvaded":12397,"Ġexplored":12398,"Ġirr":12399,"Ġagrees":12400,"Ġblend":12401,"non":12402,"seen":12403,"Ġbled":12404,"Ġcasper":12405,"Ġrainier":12406,"Ġtourists":12407,"Ġvalentina":12408,"Ġdevastated":12409,"Ġtransferred":12410,"Ġbeams":12411,"Ġhypnot":12412,"best":12413,"uation":12414,"adow":12415,"Ġbye":12416,"oliver":12417,"Ġideal":12418,"paul":12419,"Ġgoat":12420,"Ġmothers":12421,"Ġcapacity":12422,"Ġhangs":12423,"Ġordering":12424,"Ġexhale":12425,"Ġlicks":12426,"Ġcompanies":12427,"Ġgettin":12428,"Ġenh":12429,"Ġsupposedly":12430,"Ġpopcorn":12431,"Ġsylvia":12432,"lust":12433,"wanted":12434,"Ġmich":12435,"Ġdrenched":12436,"Ġanonym":12437,"working":12438,"Ġinvestigator":12439,"Ġlanthe":12440,"ovan":12441,"vic":12442,"Ġthumping":12443,"ican":12444,"Ġjal":12445,"ortion":12446,"Ġevangeline":12447,"Ġbattling":12448,"Ġverlaine":12449,"Ġdanny":12450,"Ġgnaw":12451,"sloane":12452,"hau":12453,"xim":12454,"Ġshak":12455,"Ġslicing":12456,"Ġenticing":12457,"Ġincon":12458,"Ġsickness":12459,"scar":12460,"Ġrobbie":12461,"Ġinhale":12462,"Ġtailored":12463,"Ġlyric":12464,"Ġpolitics":12465,"Ġkayla":12466,"Ġnausea":12467,"uge":12468,"Ġsane":12469,"Ġfathom":12470,"enna":12471,"Ġgrated":12472,"coll":12473,"Ġhitch":12474,"Ġstraightening":12475,"Ġapologizing":12476,"ciless":12477,"Ġshrink":12478,"gate":12479,"jad":12480,"person":12481,"rat":12482,"Ġiced":12483,"Ġlashed":12484,"Ġpursue":12485,"Ġpatrons":12486,"Ġboxer":12487,"Ġdeliciously":12488,"Ġweeping":12489,"Ġchandler":12490,"Ġsmoldering":12491,"Ġkylie":12492,"nut":12493,"Ġcoord":12494,"Ġcancel":12495,"Ġsteered":12496,"brother":12497,"Ġspoil":12498,"Ġgrandchild":12499,"Ġindec":12500,"Ġpunishing":12501,"Ġmillions":12502,"Ġtechnology":12503,"Ġgalen":12504,"Ġscholar":12505,"fur":12506,"pierce":12507,"Ġwither":12508,"Ġsemes":12509,"Ġcoiled":12510,"grown":12511,"Ġvisitor":12512,"Ġcontemplated":12513,"Ġjillian":12514,"pad":12515,"weight":12516,"Ġboom":12517,"Ġsqueak":12518,"cond":12519,"rical":12520,"vol":12521,"regan":12522,"aska":12523,"enance":12524,"raising":12525,"deal":12526,"Ġswings":12527,"Ġhurrying":12528,"Ġmetis":12529,"Ġtzader":12530,"Ġlacked":12531,"Ġoutta":12532,"Ġtra":12533,"shane":12534,"Ġsimone":12535,"Ġbrody":12536,"Ġharpy":12537,"Ġsharpened":12538,"strange":12539,"ocused":12540,"Ġsinks":12541,"find":12542,"mouth":12543,"Ġfooled":12544,"Ġdot":12545,"orters":12546,"alia":12547,"roy":12548,"Ġunfast":12549,"Ġcraig":12550,"Ġirony":12551,"Ġbalanced":12552,"Ġtemporarily":12553,"Ġcert":12554,"Ġdna":12555,"Ġchart":12556,"Ġross":12557,"Ġstrongest":12558,"Ġsensible":12559,"Ġhusk":12560,"Ġcabinets":12561,"Ġsandwiches":12562,"Ġnicholas":12563,"drop":12564,"fury":12565,"xious":12566,"Ġboiling":12567,"Ġproviding":12568,"Ġrestaurants":12569,"Ġmirrored":12570,"sofia":12571,"gro":12572,"Ġfried":12573,"antern":12574,"udite":12575,"Ġsacred":12576,"Ġopera":12577,"Ġanchor":12578,"brandt":12579,"Ġtopp":12580,"Ġoverlooking":12581,"Ġbrim":12582,"Ġwavered":12583,"cede":12584,"syl":12585,"Ġerica":12586,"Ġpearls":12587,"aaron":12588,"belle":12589,"pit":12590,"Ġnike":12591,"Ġwhined":12592,"Ġelves":12593,"Ġcrazed":12594,"Ġmascara":12595,"Ġembraced":12596,"flo":12597,"hers":12598,"roke":12599,"Ġvag":12600,"ellis":12601,"oped":12602,"Ġcoin":12603,"Ġwax":12604,"Ġrealised":12605,"clare":12606,"Ġmonkey":12607,"Ġyells":12608,"Ġbilly":12609,"shirts":12610,"Ġresponsibilities":12611,"stefan":12612,"Ġfuel":12613,"Ġventure":12614,"Ġivory":12615,"bid":12616,"legged":12617,"estic":12618,"Ġplac":12619,"Ġrelatives":12620,"Ġsqueal":12621,"Ġreflect":12622,"Ġloneliness":12623,"Ġgradually":12624,"Ġdeparture":12625,"Ġreferred":12626,"Ġcritical":12627,"Ġfrequently":12628,"Ġhandcuff":12629,"mur":12630,"respect":12631,"Ġmyka":12632,"Ġmanagement":12633,"Ġthinkin":12634,"Ġcareless":12635,"Ġmuster":12636,"Ġforefinger":12637,"Ġballed":12638,"jules":12639,"Ġunfolded":12640,"Ġarik":12641,"Ġsiren":12642,"Ġrebu":12643,"Ġscarcely":12644,"pants":12645,"Ġdimly":12646,"Ġinfo":12647,"Ġpaddle":12648,"Ġencouragement":12649,"Ġaiming":12650,"Ġmesmerized":12651,"11":12652,"mill":12653,"Ġdough":12654,"itect":12655,"etery":12656,"allowing":12657,"Ġtrunks":12658,"Ġdeed":12659,"tech":12660,"izira":12661,"Ġclement":12662,"Ġrests":12663,"Ġsupported":12664,"Ġwarmly":12665,"Ġreverend":12666,"Ġ18":12667,"Ġwestern":12668,"Ġinvestigate":12669,"Ġhooded":12670,"Ġlazily":12671,"Ġrewarded":12672,"Ġholidays":12673,"vampires":12674,"feel":12675,"fang":12676,"asbeth":12677,"outs":12678,"Ġsusie":12679,"Ġheartache":12680,"Ġwarmer":12681,"Ġcraz":12682,"Ġcommands":12683,"Ġgeneration":12684,"Ġgirlfriends":12685,"Ġtingles":12686,"Ġbulge":12687,"Ġtommy":12688,"Ġcemetery":12689,"Ġtomat":12690,"irm":12691,"Ġvile":12692,"Ġgrudging":12693,"Ġplag":12694,"Ġminister":12695,"guilt":12696,"Ġbossy":12697,"Ġdespised":12698,"Ġstammered":12699,"mering":12700,"Ġ$":12701,"Ġtying":12702,"Ġticking":12703,"Ġspont":12704,"Ġunsteady":12705,"Ġcarries":12706,"Ġharness":12707,"Ġunlock":12708,"Ġdepended":12709,"gabriel":12710,"Ġgerard":12711,"eteria":12712,"Ġcornered":12713,"Ġfrigid":12714,"Ġsultry":12715,"laken":12716,"same":12717,"utter":12718,"Ġkadie":12719,"Ġseared":12720,"Ġprinted":12721,"izer":12722,"Ġskilled":12723,"Ġstandards":12724,"Ġtyped":12725,"Ġparisa":12726,"Ġtorturing":12727,"Ġwesley":12728,"Ġeternal":12729,"victor":12730,"Ġkidnapping":12731,"Ġagonizing":12732,"tly":12733,"icken":12734,"moil":12735,"Ġactive":12736,"Ġblackmail":12737,"Ġbarking":12738,"Ġpatron":12739,"ginger":12740,"Ġrecovery":12741,"Ġarts":12742,"Ġmerciless":12743,"screw":12744,"Ġtaunt":12745,"Ġsnickered":12746,"iber":12747,"Ġtane":12748,"Ġraces":12749,"Ġree":12750,"ellison":12751,"uliar":12752,"Ġdefl":12753,"pses":12754,"afraid":12755,"Ġchecks":12756,"Ġdifficulty":12757,"Ġdud":12758,"asive":12759,"arazz":12760,"Ġez":12761,"urous":12762,"amon":12763,"ulent":12764,"Ġbrides":12765,"Ġspeeding":12766,"Ġplanes":12767,"Ġerudite":12768,"Ġdeclaration":12769,"Ġcheerfully":12770,"Ġheights":12771,"Ġturmoil":12772,"ua":12773,"vane":12774,"Ġirene":12775,"aside":12776,"Ġchast":12777,"igail":12778,"Ġscents":12779,"Ġtreacher":12780,"frustr":12781,"Ġexploding":12782,"Ġlibrarian":12783,"hands":12784,"Ġrestrained":12785,"sweat":12786,"Ġshimmered":12787,"Ġintimidated":12788,"speaking":12789,"Ġcafeteria":12790,"Ġhalluc":12791,"Ġswallows":12792,"Ġsuspended":12793,"Ġweakened":12794,"helena":12795,"Ġadministr":12796,"encies":12797,"riers":12798,"Ġclave":12799,"Ġflown":12800,"Ġpursu":12801,"Ġwincing":12802,"Ġtugs":12803,"ttes":12804,"Ġhammered":12805,"burst":12806,"Ġvalet":12807,"Ġsheen":12808,"Ġrive":12809,"Ġdose":12810,"Ġhades":12811,"Ġtrim":12812,"Ġdarkest":12813,"doors":12814,"Ġparlor":12815,"Ġhallie":12816,"Ġcryst":12817,"Ġgracefully":12818,"Ġblinded":12819,"Ġtiptoes":12820,"quickly":12821,"archer":12822,"Ġvice":12823,"Ġmomma":12824,"Ġhearth":12825,"Ġdistaste":12826,"Ġunderstands":12827,"Ġstupidly":12828,"Ġresponds":12829,"Ġconditions":12830,"Ġconsideration":12831,"Ġhostage":12832,"Ġrehab":12833,"Ġdislo":12834,"Ġinsight":12835,"Ġseparating":12836,"Ġdevelopment":12837,"Ġcrisis":12838,"Ġpeculiar":12839,"Ġfelix":12840,"Ġchurned":12841,"Ġkinich":12842,"Ġcommercial":12843,"Ġdense":12844,"Ġdiving":12845,"Ġgus":12846,"seem":12847,"irc":12848,"Ġaggra":12849,"Ġscale":12850,"Ġstere":12851,"Ġfirsthand":12852,"Ġasses":12853,"Ġgrandson":12854,"Ġmortain":12855,"Ġnursing":12856,"Ġaffairs":12857,"Ġarchitect":12858,"Ġzeke":12859,"Ġilluminated":12860,"Ġmobile":12861,"roman":12862,"Ġbewildered":12863,"Ġhazy":12864,"Ġhaunting":12865,"Ġstacks":12866,"icious":12867,"told":12868,"ela":12869,"Ġdislike":12870,"Ġtightens":12871,"Ġcompart":12872,"meg":12873,"Ġrainbow":12874,"Ġlatch":12875,"Ġobjects":12876,"broken":12877,"Ġsemester":12878,"arazzi":12879,"bin":12880,"Ġcunning":12881,"Ġdarkening":12882,"Ġactor":12883,"Ġillness":12884,"leness":12885,"Ġfinnie":12886,"Ġnymph":12887,"Ġestablished":12888,"Ġaustin":12889,"gently":12890,"Ġog":12891,"Ġgoof":12892,"Ġspear":12893,"Ġcody":12894,"Ġexpense":12895,"Ġsnack":12896,"Ġbarefoot":12897,"Ġopponent":12898,"Ġfavors":12899,"Ġsettles":12900,"Ġcellar":12901,"damien":12902,"Ġobsidian":12903,"Ġbasketball":12904,"Ġwyoming":12905,"riggs":12906,"gthe":12907,"jy":12908,"Ġrac":12909,"Ġrides":12910,"Ġves":12911,"Ġwavy":12912,"ctic":12913,"Ġmornings":12914,"Ġpolicy":12915,"Ġproduce":12916,"camille":12917,"Ġhysterical":12918,"Ġbronze":12919,"came":12920,"mem":12921,"Ġboomed":12922,"Ġmeets":12923,"Ġclothed":12924,"Ġsighing":12925,"Ġdominant":12926,"Ġultimately":12927,"Ġprincip":12928,"Ġunnecessary":12929,"krist":12930,"Ġtah":12931,"Ġrhea":12932,"orsche":12933,"Ġlays":12934,"Ġaverted":12935,"Ġpraise":12936,"Ġture":12937,"Ġrival":12938,"close":12939,"Ġimpending":12940,"byes":12941,"Ġemptied":12942,"Ġfutile":12943,"Ġunwanted":12944,"Ġariz":12945,"Ġtormented":12946,"Ġbin":12947,"Ġevenly":12948,"Ġelin":12949,"Ġjerry":12950,"Ġmortals":12951,"Ġsmirks":12952,"Ġdismay":12953,"beauty":12954,"Ġdisconnected":12955,"aughn":12956,"tan":12957,"vik":12958,"Ġcarefree":12959,"Ġbands":12960,"parker":12961,"ximity":12962,"hr":12963,"Ġleveled":12964,"Ġlaurelyn":12965,"****":12966,"Ġzo":12967,"Ġbowls":12968,"Ġcommander":12969,"Ġsneer":12970,"Ġunfold":12971,"Ġvehicles":12972,"Ġkyrie":12973,"including":12974,"mble":12975,"mouthed":12976,"Ġtidy":12977,"Ġbened":12978,"Ġgaining":12979,"ethe":12980,"Ġrank":12981,"quiet":12982,"Ġseeping":12983,"Ġboil":12984,"rentice":12985,"Ġwraith":12986,"Ġnervousness":12987,"Ġhistor":12988,"Ġunderest":12989,"held":12990,"allic":12991,"Ġsailing":12992,"Ġtwinkling":12993,"Ġswirl":12994,"Ġretired":12995,"Ġcatal":12996,"Ġpanther":12997,"innie":12998,"innamon":12999,"Ġpopulation":13000,"Ġribbons":13001,"Ġflawless":13002,"Ġavenue":13003,"Ġepisode":13004,"Ġbaffled":13005,"home":13006,"Ġbrant":13007,"Ġsoftening":13008,"Ġobt":13009,"Ġincom":13010,"Ġguarding":13011,"Ġstatues":13012,"alexandra":13013,"Ġnibbling":13014,"Ġmanipulate":13015,"jessie":13016,"Ġhilarious":13017,"bot":13018,"belt":13019,"rine":13020,"along":13021,"Ġchor":13022,"Ġsple":13023,"instinct":13024,"Ġimportance":13025,"Ġlawyers":13026,"fellows":13027,"ograph":13028,"Ġmau":13029,"stri":13030,"stood":13031,"Ġneon":13032,"andj":13033,"akkar":13034,"Ġmercedes":13035,"Ġglares":13036,"Ġmachines":13037,"Ġvirginia":13038,"Ġrotten":13039,"Ġmingled":13040,"vlad":13041,"Ġrely":13042,"Ġdodge":13043,"oured":13044,"Ġunp":13045,"Ġsamson":13046,"Ġloosely":13047,"Ġepic":13048,"Ġentryway":13049,"nicole":13050,"Ġgordon":13051,"Ġblaine":13052,"Ġdecad":13053,"Ġtread":13054,"Ġamazingly":13055,"Ġdiscovery":13056,"Ġstabbing":13057,"Ġdramatically":13058,"Ġarizona":13059,"lim":13060,"mand":13061,"Ġak":13062,"Ġlamps":13063,"Ġandar":13064,"Ġcosts":13065,"Ġscoop":13066,"mented":13067,"Ġtales":13068,"Ġperpet":13069,"Ġevidently":13070,"Ġpicturing":13071,"Ġsweats":13072,"Ġrippling":13073,"etheless":13074,"Ġtes":13075,"Ġstryker":13076,"apan":13077,"shar":13078,"Ġdelicately":13079,"Ġprophe":13080,"Ġboarding":13081,"raphael":13082,"Ġgravity":13083,"wide":13084,"Ġbak":13085,"erved":13086,"Ġproximity":13087,"Ġeliza":13088,"Ġperipher":13089,"Ġsorted":13090,"Ġcharms":13091,"Ġburrow":13092,"audrey":13093,"Ġtelepath":13094,"Ġsupreme":13095,"Ġfletcher":13096,"Ġeclip":13097,"Ġlash":13098,"Ġleaping":13099,"Ġirises":13100,"fallon":13101,"Ġrattle":13102,"Ġcontemplating":13103,"Ġscandal":13104,"hallie":13105,"Ġaur":13106,"Ġpiper":13107,"Ġrumpled":13108,"Ġspied":13109,"afterward":13110,"Ġignition":13111,"Ġpaparazzi":13112,"Ġbooked":13113,"Ġwashington":13114,"writing":13115,"Ġdorothea":13116,"Ġconfronted":13117,"Ġster":13118,"Ġspencer":13119,"Ġdowned":13120,"Ġunra":13121,"ouses":13122,"Ġskidded":13123,"Ġmonroe":13124,"Ġexcused":13125,"Ġcontrary":13126,"Ġmodest":13127,"Ġphilos":13128,"Ġproposition":13129,"Ġtilts":13130,"sk":13131,"Ġlantern":13132,"Ġpesh":13133,"uttering":13134,"icism":13135,"Ġroshan":13136,"Ġflaring":13137,"Ġjericho":13138,"Ġidly":13139,"Ġclawing":13140,"Ġattendant":13141,"Ġastonished":13142,"Ġchandel":13143,"Ġsculpted":13144,"laci":13145,"Ġmated":13146,"Ġceline":13147,"Ġclu":13148,"Ġbrakes":13149,"Ġmargaret":13150,"Ġairpl":13151,"Ġmadly":13152,"Ġjerks":13153,"Ġclapping":13154,"Ġsaliv":13155,"Ġshadowhunter":13156,"Ġbabysit":13157,"hauk":13158,"fle":13159,"Ġnumer":13160,"Ġjapan":13161,"Ġmund":13162,"Ġradar":13163,"Ġlacking":13164,"Ġdepending":13165,"Ġsmarter":13166,"Ġhic":13167,"Ġhaven":13168,"Ġweighing":13169,"Ġshards":13170,"Ġeyrien":13171,"ulvar":13172,"Ġdebr":13173,"Ġslay":13174,"Ġdisorient":13175,"Ġresume":13176,"Ġcrappy":13177,"Ġpresentation":13178,"Ġjaxxon":13179,"Ġreassured":13180,"Ġshyly":13181,"Ġathlet":13182,"Ġsydney":13183,"Ġspartan":13184,"Ġezrina":13185,"Ġthu":13186,"Ġrex":13187,"Ġcopper":13188,"Ġcance":13189,"answ":13190,"Ġsilvery":13191,"Ġmedall":13192,"Ġdimin":13193,"Ġmeaningful":13194,"Ġreluctance":13195,"jeremy":13196,"Ġscares":13197,"Ġraspy":13198,"Ġsated":13199,"Ġdana":13200,"across":13201,"imated":13202,"Ġconceded":13203,"Ġarmchair":13204,"Ġsteer":13205,"Ġsexiest":13206,"Ġcomposed":13207,"Ġdifferences":13208,"Ġsixth":13209,"Ġengage":13210,"Ġtransition":13211,"Ġheavenly":13212,"Ġhumiliating":13213,"Ġbecky":13214,"sariana":13215,"Ġruffled":13216,"las":13217,"lied":13218,"Ġbever":13219,"Ġkaspar":13220,"Ġtrag":13221,"Ġunnatural":13222,"Ġmanif":13223,"Ġlookin":13224,"Ġwatered":13225,"Ġphoebe":13226,"Ġblackness":13227,"Ġignited":13228,"Ġmaia":13229,"eva":13230,"Ġrenewed":13231,"Ġhawk":13232,"Ġconfirmation":13233,"Ġlindsey":13234,"duncan":13235,"Ġwiz":13236,"Ġyield":13237,"Ġinse":13238,"section":13239,"Ġreid":13240,"Ġrol":13241,"Ġroamed":13242,"Ġpoke":13243,"spade":13244,"Ġcattle":13245,"Ġbulk":13246,"Ġcontentment":13247,"Ġdefinition":13248,"Ġkhak":13249,"Ġvessel":13250,"Ġsplend":13251,"Ġ>":13252,"Ġ~":13253,"Ġebon":13254,"Ġstilet":13255,"oooo":13256,"Ġamelie":13257,"Ġelite":13258,"Ġkeeper":13259,"Ġsupporting":13260,"Ġclears":13261,"Ġapproved":13262,"Ġpositively":13263,"Ġtrickle":13264,"Ġdisappearance":13265,"Ġdissolved":13266,"harley":13267,"wall":13268,"edgard":13269,"alana":13270,"Ġjayne":13271,"clad":13272,"cern":13273,"Ġgrandpa":13274,"Ġindign":13275,"iami":13276,"Ġdimmed":13277,"Ġunnerving":13278,"Ġduffel":13279,"Ġhalloween":13280,"nope":13281,"Ġpitched":13282,"Ġoutfits":13283,"quo":13284,"ulting":13285,"Ġdeer":13286,"ousy":13287,"Ġswipe":13288,"Ġmatches":13289,"Ġempire":13290,"Ġrecommend":13291,"Ġincapable":13292,"Ġirrational":13293,"jama":13294,"Ġtipping":13295,"Ġcinnamon":13296,"Ġpumps":13297,"Ġkier":13298,"quin":13299,"Ġhalls":13300,"cerise":13301,"Ġproposed":13302,"Ġbulging":13303,"Ġhottest":13304,"Ġpersephone":13305,"Ġtory":13306,"Ġnan":13307,"Ġgiselle":13308,"amic":13309,"Ġoverpower":13310,"Ġsmeared":13311,"Ġpond":13312,"Ġfey":13313,"Ġaddiction":13314,"Ġindifferent":13315,"Ġslams":13316,"Ġcoolly":13317,"Ġvalid":13318,"Ġpropose":13319,"blooded":13320,"Ġhumiliated":13321,"Ġdipl":13322,"Ġexecutive":13323,"jill":13324,"Ġdips":13325,"Ġpeeling":13326,"ussell":13327,"Ġrogue":13328,"Ġgoods":13329,"Ġswanny":13330,"Ġregion":13331,"ricted":13332,"Ġbooze":13333,"Ġtrenton":13334,"desper":13335,"Ġblindfold":13336,"Ġencourage":13337,"Ġmaintained":13338,"Ġrabbit":13339,"Ġmaneuver":13340,"Ġsevastyan":13341,"Ġbunched":13342,"Ġinfin":13343,"Ġreared":13344,"Ġrearr":13345,"Ġlef":13346,"Ġspaces":13347,"Ġhowled":13348,"shy":13349,"mitchell":13350,"Ġpatrol":13351,"Ġbursts":13352,"Ġselena":13353,"Ġelectron":13354,"Ġmandi":13355,"Ġemphasis":13356,"Ġwistful":13357,"nol":13358,"Ġroaming":13359,"Ġthanking":13360,"Ġattire":13361,"Ġinstance":13362,"Ġcoursing":13363,"Ġbeatrice":13364,"Ġundress":13365,"Ġnickamedes":13366,"Ġvanity":13367,"Ġkeyboard":13368,"Ġprinces":13369,"Ġinternational":13370,"Ġrattling":13371,"Ġsheepish":13372,"cain":13373,"ingly":13374,"Ġshaw":13375,"Ġhandker":13376,"Ġroy":13377,"forever":13378,"Ġnewt":13379,"Ġcompelling":13380,"derick":13381,"Ġtreas":13382,"Ġdraws":13383,"Ġvanilla":13384,"Ġprisoners":13385,"jonah":13386,"Ġyelped":13387,"Ġunbelievably":13388,"Ġchapel":13389,"Ġhandkerchief":13390,"Ġbubbled":13391,"Ġwept":13392,"Ġspared":13393,"Ġspins":13394,"atement":13395,"Ġbrook":13396,"Ġgrazing":13397,"Ġdaydream":13398,"Ġbattled":13399,"Ġstretches":13400,"ergus":13401,"smith":13402,"matthew":13403,"Ġluxen":13404,"gher":13405,"Ġraining":13406,"Ġcaller":13407,"Ġdais":13408,"valent":13409,"Ġprovoc":13410,"Ġmajority":13411,"Ġthreads":13412,"skye":13413,"Ġsmacking":13414,"Ġblatant":13415,"foll":13416,"Ġtin":13417,"inqu":13418,"inable":13419,"Ġmiami":13420,"Ġkassie":13421,"Ġjandj":13422,"ptic":13423,"Ġchem":13424,"Ġstarved":13425,"Ġtightness":13426,"Ġneckline":13427,"Ġwinds":13428,"Ġlifeless":13429,"Ġhighness":13430,"Ġjackass":13431,"Ġreporters":13432,"Ġcoughing":13433,"frey":13434,"west":13435,"erally":13436,"Ġcope":13437,"Ġine":13438,"Ġeup":13439,"kevin":13440,"Ġshayne":13441,"Ġplaid":13442,"Ġdarn":13443,"Ġdepri":13444,"Ġdefending":13445,"Ġeagerness":13446,"Ġsprinted":13447,"Ġrehears":13448,"sharp":13449,"Ġlisted":13450,"itating":13451,"stu":13452,"Ġkal":13453,"iceless":13454,"Ġsauc":13455,"Ġjoey":13456,"prints":13457,"lost":13458,"Ġparade":13459,"Ġcalf":13460,"Ġpowerless":13461,"Ġrecovering":13462,"Ġniccolo":13463,"Ġacquired":13464,"Ġsculpt":13465,"Ġmaze":13466,"sten":13467,"Ġuneven":13468,"Ġbecca":13469,"Ġwilled":13470,"Ġobno":13471,"Ġcollided":13472,"Ġdonovan":13473,"called":13474,"Ġsteely":13475,"zarek":13476,"Ġelf":13477,"Ġnev":13478,"Ġsobered":13479,"Ġprodded":13480,"Ġbetting":13481,"Ġmusical":13482,"godd":13483,"Ġchinese":13484,"Ġsights":13485,"Ġbookshe":13486,"Ġcelebrating":13487,"Ġvacant":13488,"Ġnegle":13489,"micah":13490,"itution":13491,"Ġgum":13492,"Ġnefri":13493,"istine":13494,"Ġhowl":13495,"Ġmindless":13496,"Ġerupt":13497,"Ġlargest":13498,"Ġdevotion":13499,"Ġwidely":13500,"Ġrays":13501,"Ġbubbling":13502,"words":13503,"Ġdistrict":13504,"Ġbaxter":13505,"daphne":13506,"Ġdaze":13507,"Ġprobing":13508,"Ġsuppress":13509,"Ġblurry":13510,"Ġwarden":13511,"Ġplatter":13512,"Ġcarolina":13513,"Ġstockings":13514,"Ġlefto":13515,"reve":13516,"Ġumb":13517,"ssed":13518,"Ġvain":13519,"Ġroast":13520,"Ġdiscip":13521,"Ġlegion":13522,"Ġfreshman":13523,"fucker":13524,"Ġwickedly":13525,"Ġuntouched":13526,"Ġaye":13527,"aeron":13528,"cet":13529,"dred":13530,"jael":13531,"Ġtumble":13532,"Ġpac":13533,"Ġeaves":13534,"Ġunpred":13535,"neal":13536,"Ġdrapes":13537,"berries":13538,"Ġentw":13539,"Ġintr":13540,"finished":13541,"Ġscrunched":13542,"Ġcruelt":13543,"holt":13544,"Ġpouted":13545,"Ġcorporate":13546,"wanting":13547,"ombie":13548,"theo":13549,"Ġholden":13550,"Ġdragons":13551,"Ġrocket":13552,"Ġsuitable":13553,"scout":13554,"Ġcreaked":13555,"Ġaccomp":13556,"Ġimplied":13557,"Ġfreckles":13558,"Ġstuttered":13559,"Ġcompromise":13560,"Ġimmob":13561,"azer":13562,"Ġmarvel":13563,"Ġunderstatement":13564,"Ġmetallic":13565,"ermilla":13566,"Ġflattered":13567,"Ġfrustrating":13568,"Ġseduced":13569,"Ġclouded":13570,"salvatore":13571,"Ġdangled":13572,"Ġscotland":13573,"Ġpeanut":13574,"Ġchills":13575,"Ġsul":13576,"ellie":13577,"Ġrobes":13578,"Ġbless":13579,"Ġkeith":13580,"Ġmurmuring":13581,"Ġdeni":13582,"Ġvalerius":13583,"Ġstifle":13584,"Ġcuddled":13585,"Ġrueful":13586,"louisa":13587,"ikhail":13588,"Ġaccompany":13589,"count":13590,"tasha":13591,"Ġmm":13592,"Ġdrying":13593,"isse":13594,"iders":13595,"Ġnoir":13596,"Ġwaterfall":13597,"Ġjaws":13598,"Ġtosses":13599,"Ġrisking":13600,"Ġspiral":13601,"Ġstrangle":13602,"Ġshuffling":13603,"Ġslippers":13604,"Ġdane":13605,"asher":13606,"Ġashes":13607,"unned":13608,"Ġtrotted":13609,"Ġconte":13610,"Ġbreathy":13611,"Ġmorp":13612,"Ġbarriers":13613,"Ġrugged":13614,"Ġchatted":13615,"Ġnicer":13616,"Ġstalker":13617,"tha":13618,"Ġsew":13619,"ucted":13620,"Ġrefusal":13621,"Ġhorrific":13622,"Ġangelo":13623,"Ġingred":13624,"Ġconcealed":13625,"Ġmimi":13626,"Ġcompartment":13627,"paper":13628,"Ġwrought":13629,"steven":13630,"tyler":13631,"Ġdecides":13632,"Ġdecipher":13633,"Ġcharging":13634,"Ġreduced":13635,"Ġbusinessman":13636,"Ġstuffing":13637,"ternat":13638,"Ġ11":13639,"juliana":13640,"Ġdelightful":13641,"Ġscrambling":13642,"drive":13643,"Ġtet":13644,"send":13645,"Ġhardwood":13646,"aryl":13647,"Ġquicker":13648,"Ġapartments":13649,"Ġattacks":13650,"Ġadmon":13651,"Ġresembled":13652,"Ġclarified":13653,"Ġsidel":13654,"Ġgaius":13655,"ost":13656,"onic":13657,"oris":13658,"staff":13659,"Ġupcoming":13660,"Ġalarming":13661,"actly":13662,"Ġada":13663,"Ġregained":13664,"Ġceo":13665,"Ġundressed":13666,"Ġwitnesses":13667,"Ġpreviously":13668,"Ġripe":13669,"Ġprojects":13670,"Ġretreating":13671,"Ġromeo":13672,"Ġripple":13673,"beautiful":13674,"dallas":13675,"mil":13676,"rust":13677,"Ġdotted":13678,"Ġdavis":13679,"Ġlodged":13680,"Ġserene":13681,"Ġterse":13682,"Ġdisappears":13683,"denise":13684,"catcher":13685,"Ġmedallion":13686,"done":13687,"fy":13688,"adian":13689,"Ġquad":13690,"Ġtons":13691,"Ġconflic":13692,"Ġhorribly":13693,"Ġeffic":13694,"Ġpetty":13695,"evidently":13696,"Ġinfant":13697,"Ġfacial":13698,"Ġclarissa":13699,"Ġdesigns":13700,"Ġgingerly":13701,"Ġskeptical":13702,"eat":13703,"Ġtroll":13704,"Ġnotor":13705,"Ġminded":13706,"Ġshovel":13707,"Ġcollaps":13708,"Ġsunrise":13709,"Ġtavern":13710,"lucas":13711,"Ġflexing":13712,"celain":13713,"Ġconceal":13714,"Ġselected":13715,"Ġnumerous":13716,"bble":13717,"eur":13718,"eenth":13719,"levet":13720,"Ġkiara":13721,"Ġbrina":13722,"Ġglen":13723,"Ġsalv":13724,"Ġstripper":13725,"Ġdebate":13726,"burg":13727,"Ġinvolvement":13728,"Ġpaws":13729,"Ġcruelty":13730,"dia":13731,"obe":13732,"inum":13733,"Ġnailed":13734,"Ġlaney":13735,"Ġhabits":13736,"ilia":13737,"ulted":13738,"Ġcomin":13739,"osis":13740,"ichi":13741,"Ġmomentum":13742,"aila":13743,"Ġhungrily":13744,"marguerite":13745,"uctions":13746,"Ġbowling":13747,"Ġsucker":13748,"Ġwheeled":13749,"Ġposted":13750,"Ġheightened":13751,"Ġregularly":13752,"Ġpajama":13753,"Ġbonus":13754,"Ġinsulting":13755,"Ġunleashed":13756,"sis":13757,"Ġstitches":13758,"Ġwhirling":13759,"Ġenraged":13760,"Ġarguments":13761,"Ġprimitive":13762,"lisa":13763,"saw":13764,"vable":13765,"vative":13766,"Ġbidding":13767,"Ġfib":13768,"Ġstored":13769,"quite":13770,"Ġpreternat":13771,"Ġconsume":13772,"frame":13773,"cassandra":13774,"Ġshrill":13775,"dee":13776,"jecting":13777,"numb":13778,"Ġluther":13779,"Ġley":13780,"forcing":13781,"grate":13782,"Ġcheekbone":13783,"exactly":13784,"twice":13785,"Ġpracticing":13786,"Ġbellowed":13787,"Ġdiscovering":13788,"Ġcontracts":13789,"Ġunbuck":13790,"Ġindulge":13791,"Ġtwenties":13792,"hou":13793,"Ġcauses":13794,"Ġtrance":13795,"Ġcanop":13796,"achlan":13797,"Ġcontented":13798,"Ġsigning":13799,"Ġconsult":13800,"cerned":13801,"Ġdeter":13802,"Ġaddicted":13803,"Ġspreads":13804,"Ġblinds":13805,"maddie":13806,"Ġafterwards":13807,"Ġstrictly":13808,"straight":13809,"philim":13810,"Ġferocity":13811,"uits":13812,"Ġdyn":13813,"ombs":13814,"amel":13815,"Ġchores":13816,"Ġblaming":13817,"Ġflies":13818,"Ġreacting":13819,"Ġinterven":13820,"Ġmedication":13821,"Ġpurposefully":13822,"Ġpenetrated":13823,"Ġartifacts":13824,"Ġaccommodate":13825,"table":13826,"Ġfazire":13827,"stained":13828,"Ġsheree":13829,"Ġrosy":13830,"Ġskimming":13831,"Ġefficient":13832,"Ġopposed":13833,"Ġexperiences":13834,"Ġopportun":13835,"Ġmaneuvered":13836,"Ġdelect":13837,"sounds":13838,"Ġclark":13839,"Ġplanting":13840,"igible":13841,"Ġsayin":13842,"Ġseraph":13843,"Ġdetached":13844,"Ġcereal":13845,"Ġembro":13846,"strider":13847,"Ġporcelain":13848,"Ġemployer":13849,"Ġdevilish":13850,"needed":13851,"books":13852,"caden":13853,"ugh":13854,"Ġecon":13855,"Ġstunt":13856,"urable":13857,"uncle":13858,"Ġsporting":13859,"Ġbrav":13860,"Ġpriceless":13861,"Ġteet":13862,"molly":13863,"ubby":13864,"Ġpalp":13865,"Ġcircus":13866,"Ġrobin":13867,"Ġjuices":13868,"jean":13869,"Ġteachers":13870,"Ġalterants":13871,"Ġtransformation":13872,"dling":13873,"pid":13874,"heard":13875,"Ġll":13876,"Ġpipe":13877,"Ġporsche":13878,"uty":13879,"Ġdodged":13880,"toe":13881,"Ġuncom":13882,"Ġprolong":13883,"awson":13884,"coat":13885,"Ġbusinesses":13886,"Ġpinching":13887,"Ġgestures":13888,"Ġsirens":13889,"Ġsincerely":13890,"mpt":13891,"yon":13892,"zo":13893,"Ġtous":13894,"Ġrejo":13895,"oret":13896,"arettes":13897,"Ġmature":13898,"Ġseatbelt":13899,"dominic":13900,"Ġturkey":13901,"Ġcrouch":13902,"Ġexplosive":13903,"Ġbrooding":13904,"baby":13905,"near":13906,"yah":13907,"ndan":13908,"Ġollie":13909,"Ġclad":13910,"Ġorph":13911,"spec":13912,"Ġbreh":13913,"ceptive":13914,"Ġtrek":13915,"Ġexcess":13916,"Ġnonetheless":13917,"Ġinhaling":13918,"Ġscratches":13919,"Ġtourist":13920,"Ġdevoured":13921,"Ġcoaxed":13922,"Ġdazzling":13923,"Ġintricate":13924,"Ġleisurely":13925,"inations":13926,"Ġbriggs":13927,"Ġhavin":13928,"Ġknit":13929,"Ġvinnie":13930,"Ġtheme":13931,"Ġcloseness":13932,"lets":13933,"Ġfreeing":13934,"Ġsenseless":13935,"eye":13936,"Ġmorgana":13937,"Ġpissing":13938,"Ġoc":13939,"Ġjem":13940,"Ġrelish":13941,"ertained":13942,"bob":13943,"Ġsmoky":13944,"Ġpolish":13945,"Ġthicker":13946,"Ġdenny":13947,"Ġcomfortably":13948,"offic":13949,"Ġvibration":13950,"Ġindustry":13951,"negation":13952,"cidra":13953,"inis":13954,"omp":13955,"Ġsoak":13956,"Ġentit":13957,"Ġdrip":13958,"Ġbadge":13959,"Ġhotels":13960,"Ġbaggage":13961,"lexie":13962,"suzanne":13963,"Ġvicinity":13964,
[...]
